{
  "version": "1.0",
  "truncation": null,
  "padding": null,
  "added_tokens": [],
  "normalizer": null,
  "pre_tokenizer": {
    "type": "BertPreTokenizer"
  },
  "post_processor": {
    "type": "BertProcessing",
    "sep": [
      "[SEP]",
      1
    ],
    "cls": [
      "[CLS]",
      2
    ]
  },
  "decoder": {
    "type": "WordPiece",
    "prefix": "##",
    "cleanup": true
  },
  "model": {
    "type": "WordPiece",
    "unk_token": "[UNK]",
    "continuing_subword_prefix": "##",
    "max_input_chars_per_word": 4,
    "vocab": {
      "0": 0,
      "1": 1,
      "2": 2,
      "3": 3,
      "4": 4,
      "5": 5,
      "6": 6,
      "7": 7,
      "8": 8,
      "9": 9,
      "a": 10,
      "b": 11,
      "c": 12,
      "d": 13,
      "e": 14,
      "f": 15,
      "##0": 16,
      "##4": 17,
      "##7": 18,
      "##e": 19,
      "##6": 20,
      "##b": 21,
      "##a": 22,
      "##8": 23,
      "##f": 24,
      "##5": 25,
      "##3": 26,
      "##2": 27,
      "##c": 28,
      "##9": 29,
      "##1": 30,
      "##d": 31,
      "##00": 32,
      "000": 33,
      "0000": 34,
      "##01": 35,
      "01": 36,
      "##ff": 37,
      "##02": 38,
      "##80": 39,
      "##04": 40,
      "##22": 41,
      "##08": 42,
      "##06": 43,
      "##03": 44,
      "##21": 45,
      "##a9": 46,
      "##41": 47,
      "##91": 48,
      "##05": 49,
      "##76": 50,
      "##fe": 51,
      "##0c": 52,
      "##0a": 53,
      "##0e": 54,
      "##31": 55,
      "##ac": 56,
      "##73": 57,
      "##f5": 58,
      "##4c": 59,
      "##0b": 60,
      "##88": 61,
      "##0d": 62,
      "##07": 63,
      "##47": 64,
      "##a1": 65,
      "02": 66,
      "##48": 67,
      "##0f": 68,
      "##09": 69,
      "##61": 70,
      "##83": 71,
      "##e1": 72,
      "21": 73,
      "##71": 74,
      "##dc": 75,
      "##51": 76,
      "##81": 77,
      "##d1": 78,
      "##f1": 79,
      "##b1": 80,
      "##36": 81,
      "##4e": 82,
      "##46": 83,
      "##2e": 84,
      "0a": 85,
      "##45": 86,
      "##f6": 87,
      "##db": 88,
      "##4a": 89,
      "##96": 90,
      "##75": 91,
      "##26": 92,
      "##25": 93,
      "##43": 94,
      "##23": 95,
      "##c1": 96,
      "##4b": 97,
      "##d6": 98,
      "##49": 99,
      "##86": 100,
      "##d3": 101,
      "##29": 102,
      "##de": 103,
      "##b6": 104,
      "##2c": 105,
      "##d5": 106,
      "##fa": 107,
      "##f3": 108,
      "fff": 109,
      "##8c": 110,
      "##d9": 111,
      "##fc": 112,
      "##85": 113,
      "##7e": 114,
      "##8e": 115,
      "##b5": 116,
      "##7c": 117,
      "##ae": 118,
      "##f9": 119,
      "ffff": 120,
      "##89": 121,
      "##bc": 122,
      "##be": 123,
      "##a6": 124,
      "##a5": 125,
      "##79": 126,
      "03": 127,
      "##a3": 128,
      "##b3": 129,
      "05": 130,
      "41": 131,
      "##b9": 132,
      "0001": 133,
      "##f0": 134,
      "##87": 135,
      "##27": 136,
      "##d7": 137,
      "fe": 138,
      "##f7": 139,
      "##2a": 140,
      "76": 141,
      "##c6": 142,
      "##da": 143,
      "##c5": 144,
      "022": 145,
      "##fb": 146,
      "##95": 147,
      "##ce": 148,
      "##3e": 149,
      "##42": 150,
      "##9e": 151,
      "##4d": 152,
      "##8a": 153,
      "##8b": 154,
      "##35": 155,
      "45": 156,
      "31": 157,
      "##fd": 158,
      "##2b": 159,
      "15": 160,
      "f5": 161,
      "0101": 162,
      "0e": 163,
      "##2d": 164,
      "2e": 165,
      "##44": 166,
      "19": 167,
      "##20": 168,
      "##66": 169,
      "##bb": 170,
      "##cc": 171,
      "61": 172,
      "##77": 173,
      "##8d": 174,
      "##33": 175,
      "080": 176,
      "25": 177,
      "##99": 178,
      "65": 179,
      "##4f": 180,
      "16": 181,
      "##7a": 182,
      "11": 183,
      "6e": 184,
      "##ba": 185,
      "4e": 186,
      "##40": 187,
      "##dd": 188,
      "71": 189,
      "080a": 190,
      "51": 191,
      "##c3": 192,
      "801": 193,
      "18": 194,
      "e1": 195,
      "001": 196,
      "0108": 197,
      "1e": 198,
      "f1": 199,
      "##c9": 200,
      "##28": 201,
      "81": 202,
      "d1": 203,
      "3e": 204,
      "##65": 205,
      "c1": 206,
      "##6e": 207,
      "ae": 208,
      "75": 209,
      "a1": 210,
      "ee": 211,
      "0220": 212,
      "b1": 213,
      "##aa": 214,
      "ce": 215,
      "91": 216,
      "##7b": 217,
      "0100": 218,
      "##f8": 219,
      "35": 220,
      "9e": 221,
      "##93": 222,
      "55": 223,
      "de": 224,
      "e5": 225,
      "ac": 226,
      "##70": 227,
      "be": 228,
      "5e": 229,
      "##f2": 230,
      "7e": 231,
      "c5": 232,
      "b5": 233,
      "85": 234,
      "95": 235,
      "36": 236,
      "a5": 237,
      "d5": 238,
      "8e": 239,
      "4c": 240,
      "06": 241,
      "f6": 242,
      "##ab": 243,
      "##39": 244,
      "##7d": 245,
      "29": 246,
      "##3c": 247,
      "96": 248,
      "66": 249,
      "##82": 250,
      "46": 251,
      "##f4": 252,
      "09": 253,
      "86": 254,
      "0c": 255,
      "ff": 256,
      "e6": 257,
      "26": 258,
      "b6": 259,
      "56": 260,
      "d6": 261,
      "88": 262,
      "6a": 263,
      "2c": 264,
      "a6": 265,
      "c6": 266,
      "##72": 267,
      "c3": 268,
      "63": 269,
      "6b": 270,
      "44": 271,
      "53": 272,
      "006": 273,
      "##ad": 274,
      "1c": 275,
      "12": 276,
      "##78": 277,
      "304": 278,
      "49": 279,
      "a9": 280,
      "39": 281,
      "d3": 282,
      "##bd": 283,
      "f04": 284,
      "79": 285,
      "5c": 286,
      "13": 287,
      "43": 288,
      "93": 289,
      "23": 290,
      "1a": 291,
      "69": 292,
      "d9": 293,
      "59": 294,
      "e9": 295,
      "e3": 296,
      "##74": 297,
      "6c": 298,
      "f9": 299,
      "99": 300,
      "a3": 301,
      "89": 302,
      "##001": 303,
      "73": 304,
      "33": 305,
      "3c": 306,
      "c9": 307,
      "b9": 308,
      "f3": 309,
      "bc": 310,
      "2a": 311,
      "b3": 312,
      "8c": 313,
      "ec": 314,
      "dc": 315,
      "cc": 316,
      "83": 317,
      "##a8": 318,
      "fc": 319,
      "9c": 320,
      "7c": 321,
      "22": 322,
      "##2f": 323,
      "3a": 324,
      "##24": 325,
      "04": 326,
      "17": 327,
      "0b": 328,
      "4a": 329,
      "##d0": 330,
      "14": 331,
      "a91": 332,
      "1b": 333,
      "db": 334,
      "fd": 335,
      "fa": 336,
      "08": 337,
      "##b4": 338,
      "##000": 339,
      "7b": 340,
      "07": 341,
      "##8f": 342,
      "87": 343,
      "##84": 344,
      "0d": 345,
      "##7f": 346,
      "4b": 347,
      "a914": 348,
      "3d": 349,
      "8010": 350,
      "5a": 351,
      "6d": 352,
      "a8": 353,
      "9a": 354,
      "fb": 355,
      "5b": 356,
      "7a": 357,
      "c7": 358,
      "3b": 359,
      "ba": 360,
      "eb": 361,
      "8a": 362,
      "8b": 363,
      "##b0": 364,
      "9b": 365,
      "da": 366,
      "bb": 367,
      "##a0": 368,
      "2b": 369,
      "ca": 370,
      "cb": 371,
      "aa": 372,
      "ab": 373,
      "27": 374,
      "ea": 375,
      "f040": 376,
      "4d": 377,
      "0121": 378,
      "e2": 379,
      "1d": 380,
      "37": 381,
      "##df": 382,
      "##b8": 383,
      "77": 384,
      "##a2": 385,
      "57": 386,
      "32": 387,
      "##d2": 388,
      "2d": 389,
      "47": 390,
      "a7": 391,
      "f7": 392,
      "d7": 393,
      "62": 394,
      "67": 395,
      "cd": 396,
      "ed": 397,
      "b7": 398,
      "72": 399,
      "8018": 400,
      "##af": 401,
      "ad": 402,
      "8d": 403,
      "5d": 404,
      "97": 405,
      "52": 406,
      "##d4": 407,
      "002": 408,
      "bd": 409,
      "e7": 410,
      "##b2": 411,
      "dd": 412,
      "##a4": 413,
      "68": 414,
      "9d": 415,
      "d2": 416,
      "b4": 417,
      "##d8": 418,
      "a2": 419,
      "##a7": 420,
      "7d": 421,
      "82": 422,
      "0f": 423,
      "##b7": 424,
      "##bf": 425,
      "42": 426,
      "df": 427,
      "f2": 428,
      "0019": 429,
      "76a9": 430,
      "1976": 431,
      "1f": 432,
      "##730": 433,
      "88ac": 434,
      "92": 435,
      "b2": 436,
      "c2": 437,
      "bf": 438,
      "48": 439,
      "4f": 440,
      "74": 441,
      "af": 442,
      "6f": 443,
      "38": 444,
      "64": 445,
      "28": 446,
      "cf": 447,
      "78": 448,
      "##32": 449,
      "2f": 450,
      "b8": 451,
      "5f": 452,
      "c8": 453,
      "9f": 454,
      "1801": 455,
      "58": 456,
      "7f": 457,
      "98": 458,
      "ef": 459,
      "##c0": 460,
      "8f": 461,
      "3f": 462,
      "##830": 463,
      "34": 464,
      "4402": 465,
      "3044": 466,
      "4730": 467,
      "e8": 468,
      "2102": 469,
      "f8": 470,
      "01f5": 471,
      "d8": 472,
      "2103": 473,
      "##c8": 474,
      "54": 475,
      "a4": 476,
      "d4": 477,
      "f4": 478,
      "94": 479,
      "24": 480,
      "##215": 481,
      "c4": 482,
      "##cf": 483,
      "##c2": 484,
      "##c7": 485,
      "##30": 486,
      "e4": 487,
      "##c4": 488,
      "##cd": 489,
      "84": 490,
      "##ca": 491,
      "##cb": 492,
      "2100": 493,
      "0200": 494,
      "##3b": 495,
      "011": 496,
      "##3d": 497,
      "##50": 498,
      "4502": 499,
      "0221": 500,
      "1541": 501,
      "##3a": 502,
      "4830": 503,
      "##38": 504,
      "3045": 505,
      "##34": 506,
      "180": 507,
      "##37": 508,
      "##90": 509,
      "004": 510,
      "##9a": 511,
      "##9b": 512,
      "501": 513,
      "##98": 514,
      "##e2": 515,
      "##9d": 516,
      "100": 517,
      "00b": 518,
      "##3f": 519,
      "##92": 520,
      "##94": 521,
      "##9f": 522,
      "00f": 523,
      "##9c": 524,
      "##97": 525,
      "##62": 526,
      "##e0": 527,
      "##53": 528,
      "##55": 529,
      "##59": 530,
      "##63": 531,
      "##67": 532,
      "##52": 533,
      "##6d": 534,
      "##ee": 535,
      "##e3": 536,
      "##5a": 537,
      "2001": 538,
      "##5f": 539,
      "##5c": 540,
      "##54": 541,
      "202": 542,
      "##e6": 543,
      "##070": 544,
      "##69": 545,
      "1215": 546,
      "##58": 547,
      "00d": 548,
      "##56": 549,
      "##60": 550,
      "##eb": 551,
      "201": 552,
      "##57": 553,
      "204": 554,
      "0002": 555,
      "##e4": 556,
      "##5e": 557,
      "##e5": 558,
      "##e9": 559,
      "##6a": 560,
      "1001": 561,
      "00": 562,
      "##dc3": 563,
      "##e8": 564,
      "##6f": 565,
      "##ed": 566,
      "##ea": 567,
      "##5b": 568,
      "##5d": 569,
      "##ef": 570,
      "906": 571,
      "00c": 572,
      "##64": 573,
      "##68": 574,
      "206": 575,
      "##6c": 576,
      "0a9": 577,
      "00e": 578,
      "00a": 579,
      "##e7": 580,
      "##6b": 581,
      "203": 582,
      "##ec": 583,
      "205": 584,
      "##002": 585,
      "006a": 586,
      "6a47": 587,
      "696": 588,
      "008": 589,
      "003": 590,
      "##0f0": 591,
      "200": 592,
      "006b": 593,
      "10c": 594,
      "1241": 595,
      "ff02": 596,
      "6b48": 597,
      "##312": 598,
      "021": 599,
      "c0c": 600,
      "009": 601,
      "207": 602,
      "323": 603,
      "0017": 604,
      "0014": 605,
      "f03": 606,
      "ac00": 607,
      "0a1": 608,
      "5dc3": 609,
      "0105": 610,
      "0500": 611,
      "181": 612,
      "2900": 613,
      "##220": 614,
      "223": 615,
      "1600": 616,
      "##803": 617,
      "866": 618,
      "##0fe": 619,
      "303": 620,
      "0068": 621,
      "636": 622,
      "746": 623,
      "005": 624,
      "d000": 625,
      "031": 626,
      "##221": 627,
      "106": 628,
      "3629": 629,
      "##080": 630,
      "0ac": 631,
      "101": 632,
      "70b": 633,
      "70e": 634,
      "70d": 635,
      "70c": 636,
      "##718": 637,
      "226": 638,
      "4c6": 639,
      "141": 640,
      "709": 641,
      "17a9": 642,
      "726": 643,
      "104": 644,
      "##022": 645,
      "010a": 646,
      "feff": 647,
      "708": 648,
      "b01": 649,
      "6f6": 650,
      "70a": 651,
      "222": 652,
      "##952": 653,
      "3db": 654,
      "bb6": 655,
      "091": 656,
      "0300": 657,
      "401": 658,
      "3b6": 659,
      "171": 660,
      "706": 661,
      "5010": 662,
      "007": 663,
      "##0ff": 664,
      "014c": 665,
      "404": 666,
      "ff1": 667,
      "14c": 668,
      "4fa": 669,
      "40e": 670,
      "c0c0": 671,
      "##470": 672,
      "1a1": 673,
      "696e": 674,
      "411": 675,
      "036": 676,
      "5018": 677,
      "491": 678,
      "676": 679,
      "405": 680,
      "406": 681,
      "736": 682,
      "##2d0": 683,
      "504": 684,
      "##f70": 685,
      "c0b": 686,
      "##dd0": 687,
      "##c18": 688,
      "0400": 689,
      "102": 690,
      "##8c0": 691,
      "409": 692,
      "403": 693,
      "0016": 694,
      "a08": 695,
      "0ff": 696,
      "##874": 697,
      "##612": 698,
      "146": 699,
      "40b": 700,
      "##b18": 701,
      "ff3": 702,
      "14e": 703,
      "##618": 704,
      "10e": 705,
      "747": 706,
      "70f": 707,
      "40c": 708,
      "ffe": 709,
      "c76": 710,
      "0a90": 711,
      "402": 712,
      "##512": 713,
      "400": 714,
      "145": 715,
      "##d12": 716,
      "##bc0": 717,
      "40d": 718,
      "0370": 719,
      "149": 720,
      "14b": 721,
      "fe1": 722,
      "##f12": 723,
      "##f72": 724,
      "f043": 725,
      "081": 726,
      "126": 727,
      "##c12": 728,
      "##893": 729,
      "143": 730,
      "##418": 731,
      "408": 732,
      "0025": 733,
      "0020": 734,
      "40a": 735,
      "1802": 736,
      "##12": 737,
      "0e1": 738,
      "##412": 739,
      "##518": 740,
      "c3e": 741,
      "##f5d": 742,
      "##888": 743,
      "4312": 744,
      "6d6": 745,
      "227": 746,
      "##f18": 747,
      "##b12": 748,
      "##712": 749,
      "f600": 750,
      "e86": 751,
      "223a": 752,
      "148": 753,
      "dff": 754,
      "##8ee": 755,
      "00fd": 756,
      "f3e": 757,
      "1805": 758,
      "0170": 759,
      "##75d": 760,
      "d01": 761,
      "7186": 762,
      "10b": 763,
      "3a1": 764,
      "2e1": 765,
      "##d32": 766,
      "4a1": 767,
      "00ff": 768,
      "##756": 769,
      "147": 770,
      "##d50": 771,
      "ff5": 772,
      "##51a": 773,
      "##212": 774,
      "04c": 775,
      "14a": 776,
      "0005": 777,
      "f5b4": 778,
      "##610": 779,
      "##d18": 780,
      "646": 781,
      "04b": 782,
      "186": 783,
      "bce": 784,
      "4c5": 785,
      "901": 786,
      "a01": 787,
      "b4f6": 788,
      "ac6": 789,
      "##42f": 790,
      "ffc": 791,
      "df5": 792,
      "##c10": 793,
      "391": 794,
      "##318": 795,
      "##d1a": 796,
      "ff6": 797,
      "5ff": 798,
      "##210": 799,
      "0118": 800,
      "##ddf": 801,
      "##812": 802,
      "##887": 803,
      "##310": 804,
      "185": 805,
      "##d74": 806,
      "0247": 807,
      "##3c0": 808,
      "10a": 809,
      "##c1a": 810,
      "##870": 811,
      "10d": 812,
      "343": 813,
      "4e1": 814,
      "407": 815,
      "##510": 816,
      "##83d": 817,
      "b08": 818,
      "##b10": 819,
      "ac5": 820,
      "##47b": 821,
      "2803": 822,
      "##218": 823,
      "6c6": 824,
      "##990": 825,
      "049": 826,
      "##316": 827,
      "1e1": 828,
      "108": 829,
      "##810": 830,
      "##003": 831,
      "105": 832,
      "##d10": 833,
      "##42d": 834,
      "3e1": 835,
      "04e": 836,
      "0125": 837,
      "##61a": 838,
      "##8c3": 839,
      "##77d": 840,
      "5fe": 841,
      "333": 842,
      "c91": 843,
      "4ce": 844,
      "fa1": 845,
      "##b1a": 846,
      "##b50": 847,
      "##c90": 848,
      "125": 849,
      "##2ec": 850,
      "##750": 851,
      "191": 852,
      "##b5d": 853,
      "##a34": 854,
      "32c": 855,
      "626": 856,
      "20b": 857,
      "##4d2": 858,
      "6000": 859,
      "2a1": 860,
      "##22e": 861,
      "##35d": 862,
      "373": 863,
      "208": 864,
      "d29": 865,
      "##61c": 866,
      "002a": 867,
      "2520": 868,
      "##836": 869,
      "302": 870,
      "ca1": 871,
      "ace": 872,
      "c06": 873,
      "##272": 874,
      "1a6": 875,
      "4a5": 876,
      "##410": 877,
      "##752": 878,
      "5221": 879,
      "db6": 880,
      "##d70": 881,
      "109": 882,
      "##4d4": 883,
      "f0e": 884,
      "##004": 885,
      "1a5": 886,
      "##8a2": 887,
      "##8e8": 888,
      "ff9": 889,
      "1a9": 890,
      "##8e0": 891,
      "##950": 892,
      "20e": 893,
      "##710": 894,
      "80c": 895,
      "##839": 896,
      "085": 897,
      "701": 898,
      "##818": 899,
      "##1a": 900,
      "666": 901,
      "050a": 902,
      "##f1a": 903,
      "##c1c": 904,
      "c01": 905,
      "1ac": 906,
      "##832": 907,
      "##890": 908,
      "40f": 909,
      "##75f": 910,
      "##c1b": 911,
      "##31a": 912,
      "0570": 913,
      "f01": 914,
      "##516": 915,
      "##f74": 916,
      "##d92": 917,
      "5a1": 918,
      "048": 919,
      "012a": 920,
      "7ff": 921,
      "0de": 922,
      "##c1e": 923,
      "##18": 924,
      "##770": 925,
      "##8c7": 926,
      "##440": 927,
      "309": 928,
      "e01": 929,
      "##83a": 930,
      "8e1": 931,
      "20a": 932,
      "##8cc": 933,
      "ee1": 934,
      "0f6": 935,
      "##d38": 936,
      "80e": 937,
      "4ac": 938,
      "##8ca": 939,
      "##dc8": 940,
      "##8a0": 941,
      "##c11": 942,
      "##616": 943,
      "##21a": 944,
      "20c": 945,
      "20d": 946,
      "##897": 947,
      "80d": 948,
      "##444": 949,
      "045": 950,
      "##ccc": 951,
      "aa1": 952,
      "1ae": 953,
      "##804": 954,
      "##428": 955,
      "##076": 956,
      "##833": 957,
      "306": 958,
      "##27b": 959,
      "##fdf": 960,
      "50e": 961,
      "7d6": 962,
      "7a9": 963,
      "##c30": 964,
      "0aa8": 965,
      "9e1": 966,
      "5e1": 967,
      "6e1": 968,
      "##8a8": 969,
      "6a1": 970,
      "##837": 971,
      "##f10": 972,
      "103": 973,
      "##b16": 974,
      "##614": 975,
      "5c5": 976,
      "##9ec": 977,
      "808": 978,
      "##c32": 979,
      "##a39": 980,
      "##95c": 981,
      "##10": 982,
      "##420": 983,
      "686": 984,
      "##8df": 985,
      "##424": 986,
      "f03e": 987,
      "ae1": 988,
      "705": 989,
      "##889": 990,
      "04a": 991,
      "##21e": 992,
      "d03": 993,
      "##43d": 994,
      "ce1": 995,
      "301": 996,
      "0022": 997,
      "##fcd": 998,
      "4a6": 999,
      "##2a0": 1000,
      "d04": 1001,
      "##f50": 1002,
      "##805": 1003,
      "##dd4": 1004,
      "##89a": 1005,
      "##cc0": 1006,
      "7600": 1007,
      "##808": 1008,
      "066": 1009,
      "##4df": 1010,
      "##f82": 1011,
      "ea1": 1012,
      "##c16": 1013,
      "##ab8": 1014,
      "0c5": 1015,
      "625": 1016,
      "##8c8": 1017,
      "##877": 1018,
      "##784": 1019,
      "##95a": 1020,
      "9a1": 1021,
      "##091": 1022,
      "809": 1023,
      "d91": 1024,
      "604": 1025,
      "5a6": 1026,
      "e91": 1027,
      "##8bd": 1028,
      "ba1": 1029,
      "f0d": 1030,
      "225": 1031,
      "086": 1032,
      "685": 1033,
      "5fa": 1034,
      "##88d": 1035,
      "##073": 1036,
      "##872": 1037,
      "##41a": 1038,
      "2208": 1039,
      "c0d": 1040,
      "c0e": 1041,
      "##809": 1042,
      "##c3d": 1043,
      "891": 1044,
      "##8e2": 1045,
      "046": 1046,
      "b4c": 1047,
      "be1": 1048,
      "725": 1049,
      "12c": 1050,
      "de1": 1051,
      "f05": 1052,
      "##619": 1053,
      "##b90": 1054,
      "##8b0": 1055,
      "##ccf": 1056,
      "##b17": 1057,
      "##75c": 1058,
      "485": 1059,
      "##71a": 1060,
      "##214": 1061,
      "526": 1062,
      "##350": 1063,
      "fac": 1064,
      "7a1": 1065,
      "##c1d": 1066,
      "##88f": 1067,
      "3a5": 1068,
      "##074": 1069,
      "##222": 1070,
      "d3e": 1071,
      "##80e": 1072,
      "4ff": 1073,
      "209": 1074,
      "ba5": 1075,
      "##c13": 1076,
      "##b34": 1077,
      "ffa": 1078,
      "##d7f": 1079,
      "591": 1080,
      "##0f5": 1081,
      "##b13": 1082,
      "##7b0": 1083,
      "c08": 1084,
      "##8b8": 1085,
      "##89e": 1086,
      "c09": 1087,
      "f91": 1088,
      "##2b0": 1089,
      "##4f8": 1090,
      "##956": 1091,
      "##72f": 1092,
      "##216": 1093,
      "##da0": 1094,
      "##7ee": 1095,
      "##b1e": 1096,
      "##835": 1097,
      "##650": 1098,
      "##8ad": 1099,
      "##8e3": 1100,
      "##b5c": 1101,
      "##930": 1102,
      "fa9": 1103,
      "##d53": 1104,
      "##270": 1105,
      "##d16": 1106,
      "791": 1107,
      "##61e": 1108,
      "##fb0": 1109,
      "902": 1110,
      "4a9": 1111,
      "7ac": 1112,
      "##514": 1113,
      "##932": 1114,
      "##8b2": 1115,
      "##f77": 1116,
      "##61b": 1117,
      "##513": 1118,
      "326": 1119,
      "##bc7": 1120,
      "##c1f": 1121,
      "##81a": 1122,
      "##d1b": 1123,
      "80b": 1124,
      "601": 1125,
      "c03": 1126,
      "##da8": 1127,
      "##2af": 1128,
      "##d1e": 1129,
      "7e1": 1130,
      "##f24": 1131,
      "##7c0": 1132,
      "##9e2": 1133,
      "291": 1134,
      "605": 1135,
      "##8a4": 1136,
      "576": 1137,
      "##838": 1138,
      "##88b": 1139,
      "##bce": 1140,
      "##c14": 1141,
      "##886": 1142,
      "0800": 1143,
      "##d13": 1144,
      "##51e": 1145,
      "##8bb": 1146,
      "##d14": 1147,
      "##b32": 1148,
      "##4d8": 1149,
      "60b": 1150,
      "##c3a": 1151,
      "503": 1152,
      "##31e": 1153,
      "##9ee": 1154,
      "##834": 1155,
      "4ae": 1156,
      "##7a8": 1157,
      "##8dd": 1158,
      "##bb0": 1159,
      "##88e": 1160,
      "##7df": 1161,
      "166": 1162,
      "##213": 1163,
      "##b14": 1164,
      "4fe": 1165,
      "d05": 1166,
      "##a33": 1167,
      "425": 1168,
      "##b1b": 1169,
      "9ff": 1170,
      "##2e2": 1171,
      "##892": 1172,
      "f06": 1173,
      "703": 1174,
      "efe": 1175,
      "##d11": 1176,
      "##8ec": 1177,
      "2db": 1178,
      "##8ba": 1179,
      "##c3c": 1180,
      "1ff": 1181,
      "##615": 1182,
      "c0a": 1183,
      "##9ef": 1184,
      "##ccd": 1185,
      "e0d": 1186,
      "##517": 1187,
      "##d5c": 1188,
      "##d1c": 1189,
      "##511": 1190,
      "d0b": 1191,
      "##f7f": 1192,
      "##957": 1193,
      "##d97": 1194,
      "##fd0": 1195,
      "##b1c": 1196,
      "##89f": 1197,
      "##b11": 1198,
      "##4dd": 1199,
      "##88c": 1200,
      "##51b": 1201,
      "##4d0": 1202,
      "##44f": 1203,
      "##87f": 1204,
      "##4f4": 1205,
      "##954": 1206,
      "##c3f": 1207,
      "##d78": 1208,
      "##c38": 1209,
      "##51c": 1210,
      "##da2": 1211,
      "##71b": 1212,
      "##8ab": 1213,
      "##80d": 1214,
      "##898": 1215,
      "##8cd": 1216,
      "606": 1217,
      "##b5b": 1218,
      "da1": 1219,
      "##8d0": 1220,
      "325": 1221,
      "##7ab": 1222,
      "##bee": 1223,
      "##93c": 1224,
      "##b53": 1225,
      "##d3d": 1226,
      "##895": 1227,
      "##d7a": 1228,
      "e05": 1229,
      "6b6": 1230,
      "f0b": 1231,
      "0ce": 1232,
      "00bf": 1233,
      "7ae": 1234,
      "##793": 1235,
      "##2d2": 1236,
      "##274": 1237,
      "##c15": 1238,
      "##c17": 1239,
      "##519": 1240,
      "##ba8": 1241,
      "##883": 1242,
      "##a32": 1243,
      "##f3d": 1244,
      "##774": 1245,
      "##8d2": 1246,
      "691": 1247,
      "##c3b": 1248,
      "445": 1249,
      "##736": 1250,
      "2ac": 1251,
      "##dc0": 1252,
      "##c39": 1253,
      "486": 1254,
      "991": 1255,
      "##713": 1256,
      "a84b": 1257,
      "##b52": 1258,
      "436": 1259,
      "904": 1260,
      "e04": 1261,
      "##882": 1262,
      "cff": 1263,
      "376": 1264,
      "66e": 1265,
      "##8e9": 1266,
      "129": 1267,
      "##dcd": 1268,
      "876": 1269,
      "##cc8": 1270,
      "803": 1271,
      "cd6": 1272,
      "##8ce": 1273,
      "6a6": 1274,
      "d96": 1275,
      "##b3d": 1276,
      "24c": 1277,
      "704": 1278,
      "##c9c": 1279,
      "d06": 1280,
      "##9ea": 1281,
      "##515": 1282,
      "d45": 1283,
      "##21c": 1284,
      "8a1": 1285,
      "##73d": 1286,
      "##953": 1287,
      "54c": 1288,
      "2ff": 1289,
      "##8d8": 1290,
      "804": 1291,
      "##d54": 1292,
      "##772": 1293,
      "908": 1294,
      "##d7d": 1295,
      "##2b2": 1296,
      "01fe": 1297,
      "5c6": 1298,
      "##472": 1299,
      "06e": 1300,
      "e0c": 1301,
      "c02": 1302,
      "2a6": 1303,
      "##d90": 1304,
      "##b58": 1305,
      "##f90": 1306,
      "d08": 1307,
      "e03": 1308,
      "506": 1309,
      "##ab0": 1310,
      "##fb7": 1311,
      "3a22": 1312,
      "##83b": 1313,
      "##8a7": 1314,
      "##00e": 1315,
      "##885": 1316,
      "##42b": 1317,
      "3c5": 1318,
      "eac": 1319,
      "7c5": 1320,
      "dc5": 1321,
      "##fd2": 1322,
      "##7e2": 1323,
      "##dc1": 1324,
      "##8c4": 1325,
      "##611": 1326,
      "##8c5": 1327,
      "7a6": 1328,
      "bff": 1329,
      "##d72": 1330,
      "##95f": 1331,
      "##8b7": 1332,
      "##b3e": 1333,
      "d0e": 1334,
      "776": 1335,
      "##7b8": 1336,
      "905": 1337,
      "##958": 1338,
      "##7cc": 1339,
      "##8bf": 1340,
      "a03": 1341,
      "##d9e": 1342,
      "##fdd": 1343,
      "b76": 1344,
      "60d": 1345,
      "##219": 1346,
      "##b56": 1347,
      "##ba0": 1348,
      "##753": 1349,
      "f08": 1350,
      "123": 1351,
      "0062": 1352,
      "##00c": 1353,
      "1fe": 1354,
      "##fb8": 1355,
      "##dd2": 1356,
      "##f1c": 1357,
      "##8ef": 1358,
      "##8e5": 1359,
      "c85": 1360,
      "a0e": 1361,
      "##7c6": 1362,
      "##790": 1363,
      "afe": 1364,
      "##c94": 1365,
      "8ff": 1366,
      "##f2f": 1367,
      "##c98": 1368,
      "e25": 1369,
      "##c37": 1370,
      "##87a": 1371,
      "##7a7": 1372,
      "cce": 1373,
      "##be5": 1374,
      "##79a": 1375,
      "##777": 1376,
      "##83f": 1377,
      "##75e": 1378,
      "b0b": 1379,
      "305": 1380,
      "##9ed": 1381,
      "##89b": 1382,
      "##f34": 1383,
      "b91": 1384,
      "9fe": 1385,
      "##8e6": 1386,
      "##aa2": 1387,
      "##8af": 1388,
      "b0d": 1389,
      "5ac": 1390,
      "##4f2": 1391,
      "##c9d": 1392,
      "##b39": 1393,
      "c05": 1394,
      "##bea": 1395,
      "##b3a": 1396,
      "##cc9": 1397,
      "##8d4": 1398,
      "b05": 1399,
      "##cc2": 1400,
      "603": 1401,
      "fed0": 1402,
      "##d30": 1403,
      "##8c2": 1404,
      "##fba": 1405,
      "##cc7": 1406,
      "##211": 1407,
      "##d15": 1408,
      "eff": 1409,
      "##7ed": 1410,
      "a06": 1411,
      "##2a2": 1412,
      "##51d": 1413,
      "##8ed": 1414,
      "0fe": 1415,
      "3ff": 1416,
      "##9e8": 1417,
      "##c9f": 1418,
      "##75a": 1419,
      "##d33": 1420,
      "##41d": 1421,
      "0c6": 1422,
      "##b30": 1423,
      "##51f": 1424,
      "##b5a": 1425,
      "##9eb": 1426,
      "##a37": 1427,
      "1c5": 1428,
      "446": 1429,
      "##fd8": 1430,
      "##613": 1431,
      "##878": 1432,
      "9a9": 1433,
      "##f16": 1434,
      "##2e0": 1435,
      "##ab2": 1436,
      "80a": 1437,
      "##b3b": 1438,
      "##2a8": 1439,
      "##8b4": 1440,
      "##fbf": 1441,
      "30b": 1442,
      "5a9": 1443,
      "##95b": 1444,
      "##7d0": 1445,
      "##d19": 1446,
      "##7a2": 1447,
      "623": 1448,
      "536": 1449,
      "a05": 1450,
      "##715": 1451,
      "##bec": 1452,
      "##cc3": 1453,
      "da9": 1454,
      "805": 1455,
      "ba9": 1456,
      "##b9a": 1457,
      "##f7b": 1458,
      "##c19": 1459,
      "2a5": 1460,
      "5de": 1461,
      "6ff": 1462,
      "##aa8": 1463,
      "505": 1464,
      "##352": 1465,
      "##ad2": 1466,
      "##dc9": 1467,
      "d0d": 1468,
      "fae": 1469,
      "##c34": 1470,
      "##8ea": 1471,
      "fa6": 1472,
      "##87d": 1473,
      "##31c": 1474,
      "##881": 1475,
      "c04": 1476,
      "f0c": 1477,
      "##d39": 1478,
      "##d9c": 1479,
      "##b9c": 1480,
      "##8e4": 1481,
      "##8aa": 1482,
      "##7e9": 1483,
      "##be2": 1484,
      "9ac": 1485,
      "##a3b": 1486,
      "##ba2": 1487,
      "3a6": 1488,
      "b04": 1489,
      "##899": 1490,
      "##f7a": 1491,
      "##d52": 1492,
      "##617": 1493,
      "##8c9": 1494,
      "##d95": 1495,
      "##9e7": 1496,
      "##653": 1497,
      "##88a": 1498,
      "##87b": 1499,
      "##b3c": 1500,
      "643": 1501,
      "##83e": 1502,
      "##390": 1503,
      "10f": 1504,
      "##a3e": 1505,
      "545": 1506,
      "##c9b": 1507,
      "##b94": 1508,
      "##b9e": 1509,
      "702": 1510,
      "6c5": 1511,
      "##754": 1512,
      "1d6": 1513,
      "##95e": 1514,
      "##b9f": 1515,
      "609": 1516,
      "##d5b": 1517,
      "##b5e": 1518,
      "5b6": 1519,
      "196": 1520,
      "##8cb": 1521,
      "a0b": 1522,
      "2a9": 1523,
      "##dd8": 1524,
      "e23": 1525,
      "##7b7": 1526,
      "##7a0": 1527,
      "1b6": 1528,
      "e09": 1529,
      "##f7d": 1530,
      "##8c6": 1531,
      "ab6": 1532,
      "##c93": 1533,
      "##31b": 1534,
      "##724": 1535,
      "cfe": 1536,
      "##8eb": 1537,
      "##21b": 1538,
      "4000": 1539,
      "##beb": 1540,
      "##f30": 1541,
      "##884": 1542,
      "##41b": 1543,
      "##fbb": 1544,
      "a2c": 1545,
      "##0a9": 1546,
      "903": 1547,
      "60c": 1548,
      "##f3b": 1549,
      "##27d": 1550,
      "aa9": 1551,
      "##d9b": 1552,
      "##d3a": 1553,
      "##bab": 1554,
      "##bb7": 1555,
      "##c92": 1556,
      "##758": 1557,
      "##d3b": 1558,
      "53ae": 1559,
      "366": 1560,
      "2fe": 1561,
      "##9e0": 1562,
      "aeff": 1563,
      "##9e3": 1564,
      "##bad": 1565,
      "4f6": 1566,
      "##d58": 1567,
      "##cca": 1568,
      "e02": 1569,
      "396": 1570,
      "276": 1571,
      "e0e": 1572,
      "##2e4": 1573,
      "##7cb": 1574,
      "##dc7": 1575,
      "##072": 1576,
      "a0a": 1577,
      "##7e5": 1578,
      "##ccb": 1579,
      "##83c": 1580,
      "##416": 1581,
      "##bb2": 1582,
      "##baf": 1583,
      "##9e6": 1584,
      "##7c7": 1585,
      "##1b": 1586,
      "##414": 1587,
      "62c": 1588,
      "b85": 1589,
      "##fc0": 1590,
      "##2ea": 1591,
      "##79e": 1592,
      "b48": 1593,
      "##7e6": 1594,
      "##80c": 1595,
      "##bc8": 1596,
      "b0e": 1597,
      "##794": 1598,
      "##7c8": 1599,
      "##f1e": 1600,
      "##cc4": 1601,
      "2f6": 1602,
      "549": 1603,
      "##aaf": 1604,
      "##fce": 1605,
      "e26": 1606,
      "##f1d": 1607,
      "##93d": 1608,
      "##755": 1609,
      "a04": 1610,
      "##b15": 1611,
      "845": 1612,
      "##711": 1613,
      "645": 1614,
      "##955": 1615,
      "##b1f": 1616,
      "##005": 1617,
      "##8cf": 1618,
      "##f32": 1619,
      "##ba4": 1620,
      "336": 1621,
      "525": 1622,
      "##938": 1623,
      "50c": 1624,
      "##816": 1625,
      "##bbd": 1626,
      "##61d": 1627,
      "##dce": 1628,
      "##716": 1629,
      "b03": 1630,
      "##dc2": 1631,
      "##d3e": 1632,
      "##7ef": 1633,
      "9a5": 1634,
      "##35c": 1635,
      "fa5": 1636,
      "1c6": 1637,
      "##79f": 1638,
      "9063": 1639,
      "##b1d": 1640,
      "##f8f": 1641,
      "##d9d": 1642,
      "3a9": 1643,
      "##41e": 1644,
      "##89c": 1645,
      "b46": 1646,
      "50b": 1647,
      "##7cd": 1648,
      "63e": 1649,
      "##d1d": 1650,
      "##89d": 1651,
      "dfe": 1652,
      "e0b": 1653,
      "176": 1654,
      "##21f": 1655,
      "5ae": 1656,
      "##a38": 1657,
      "##f93": 1658,
      "##61f": 1659,
      "b0c": 1660,
      "60e": 1661,
      "##dcc": 1662,
      "##732": 1663,
      "##d17": 1664,
      "##77a": 1665,
      "0147": 1666,
      "90c": 1667,
      "6e76": 1668,
      "##f78": 1669,
      "##d55": 1670,
      "edb": 1671,
      "##9e5": 1672,
      "##b59": 1673,
      "##bcd": 1674,
      "##9e9": 1675,
      "##b54": 1676,
      "##73e": 1677,
      "2c5": 1678,
      "##d1f": 1679,
      "976": 1680,
      "5ce": 1681,
      "##bbb": 1682,
      "##80b": 1683,
      "##ddd": 1684,
      "fdff": 1685,
      "909": 1686,
      "a02": 1687,
      "##939": 1688,
      "##7d8": 1689,
      "##759": 1690,
      "90e": 1691,
      "386": 1692,
      "##c9a": 1693,
      "1060": 1694,
      "##b19": 1695,
      "802": 1696,
      "##284": 1697,
      "076": 1698,
      "##27a": 1699,
      "##80f": 1700,
      "345": 1701,
      "##d35": 1702,
      "##bbf": 1703,
      "##7e4": 1704,
      "##894": 1705,
      "##d9a": 1706,
      "a0d": 1707,
      "745": 1708,
      "##d9f": 1709,
      "##b5f": 1710,
      "##d57": 1711,
      "##b33": 1712,
      "##f11": 1713,
      "##008": 1714,
      "##bc2": 1715,
      "##a30": 1716,
      "##bcf": 1717,
      "##a35": 1718,
      "##39c": 1719,
      "##2e3": 1720,
      "d0c": 1721,
      "##ad0": 1722,
      "##dcb": 1723,
      "##d3f": 1724,
      "##fbd": 1725,
      "b02": 1726,
      "d4c": 1727,
      "608": 1728,
      "6952": 1729,
      "245": 1730,
      "836": 1731,
      "ea9": 1732,
      "##8e7": 1733,
      "94c": 1734,
      "##f84": 1735,
      "8a9": 1736,
      "##bcb": 1737,
      "2c22": 1738,
      "##798": 1739,
      "##78f": 1740,
      "##b57": 1741,
      "f85": 1742,
      "786": 1743,
      "6fe": 1744,
      "##be4": 1745,
      "##228": 1746,
      "##c97": 1747,
      "##7e3": 1748,
      "22c": 1749,
      "##7d4": 1750,
      "##7e0": 1751,
      "##959": 1752,
      "c96": 1753,
      "##d77": 1754,
      "346": 1755,
      "##2ad": 1756,
      "##d94": 1757,
      "e76": 1758,
      "##77f": 1759,
      "f02": 1760,
      "246": 1761,
      "476": 1762,
      "##7ad": 1763,
      "d09": 1764,
      "##d5d": 1765,
      "f09": 1766,
      "##65c": 1767,
      "##a3d": 1768,
      "4b6": 1769,
      "bf6": 1770,
      "##3cd": 1771,
      "##b55": 1772,
      "236": 1773,
      "##2bb": 1774,
      "7a5": 1775,
      "##b98": 1776,
      "502": 1777,
      "aa5": 1778,
      "b0a": 1779,
      "##411": 1780,
      "##dcf": 1781,
      "##217": 1782,
      "##bb8": 1783,
      "##7bf": 1784,
      "##fd4": 1785,
      "cf6": 1786,
      "##d3c": 1787,
      "##2ee": 1788,
      "##b93": 1789,
      "af6": 1790,
      "##d5a": 1791,
      "##353": 1792,
      "##ba7": 1793,
      "3dbc": 1794,
      "8fe": 1795,
      "##f14": 1796,
      "##d5f": 1797,
      "##bef": 1798,
      "13e": 1799,
      "6a5": 1800,
      "##d5e": 1801,
      "##7d2": 1802,
      "3ac": 1803,
      "a0c": 1804,
      "ca9": 1805,
      "385": 1806,
      "fd6": 1807,
      "##d93": 1808,
      "##b9b": 1809,
      "##807": 1810,
      "##314": 1811,
      "945": 1812,
      "##739": 1813,
      "##311": 1814,
      "985": 1815,
      "429": 1816,
      "136": 1817,
      "##be6": 1818,
      "##82f": 1819,
      "b09": 1820,
      "285": 1821,
      "##81c": 1822,
      "##394": 1823,
      "90b": 1824,
      "6de": 1825,
      "##792": 1826,
      "e2c": 1827,
      "##757": 1828,
      "##b37": 1829,
      "cc6": 1830,
      "60a": 1831,
      "e08": 1832,
      "30c": 1833,
      "ea5": 1834,
      "##d34": 1835,
      "##fcf": 1836,
      "##bb4": 1837,
      "54e": 1838,
      "##f5c": 1839,
      "##fc7": 1840,
      "##bca": 1841,
      "aff": 1842,
      "##fb2": 1843,
      "e06": 1844,
      "b86": 1845,
      "6ac": 1846,
      "##bba": 1847,
      "2251": 1848,
      "##999": 1849,
      "##be3": 1850,
      "##2ed": 1851,
      "a3e": 1852,
      "508": 1853,
      "e6e": 1854,
      "3ce": 1855,
      "##7e7": 1856,
      "##7eb": 1857,
      "296": 1858,
      "0700": 1859,
      "##aad": 1860,
      "90d": 1861,
      "##d98": 1862,
      "##abf": 1863,
      "44b": 1864,
      "30e": 1865,
      "##413": 1866,
      "##dca": 1867,
      "##aa0": 1868,
      "3c6": 1869,
      "##f19": 1870,
      "ca5": 1871,
      "##7ec": 1872,
      "d76": 1873,
      "096": 1874,
      "b6e": 1875,
      "##3c7": 1876,
      "d25": 1877,
      "##2e6": 1878,
      "##d59": 1879,
      "0b6": 1880,
      "fc5": 1881,
      "##3c8": 1882,
      "##bdf": 1883,
      "##bc4": 1884,
      "##7c9": 1885,
      "50d": 1886,
      "##d56": 1887,
      "##778": 1888,
      "546": 1889,
      "##bc5": 1890,
      "##1e": 1891,
      "##9e4": 1892,
      "24e": 1893,
      "##bc9": 1894,
      "##795": 1895,
      "bfe": 1896,
      "8de": 1897,
      "##415": 1898,
      "##2dd": 1899,
      "e85": 1900,
      "##f3a": 1901,
      "##3cf": 1902,
      "##da4": 1903,
      "##7c5": 1904,
      "c86": 1905,
      "94e": 1906,
      "da5": 1907,
      "##4a8": 1908,
      "##1c": 1909,
      "ece": 1910,
      "##fb4": 1911,
      "##4a2": 1912,
      "##31f": 1913,
      "5a5": 1914,
      "##7aa": 1915,
      "dac": 1916,
      "64b": 1917,
      "##f9c": 1918,
      "0402": 1919,
      "52c": 1920,
      "##77b": 1921,
      "bae": 1922,
      "##41c": 1923,
      "##b38": 1924,
      "##dc5": 1925,
      "30d": 1926,
      "a76": 1927,
      "##f9e": 1928,
      "##28f": 1929,
      "##fc3": 1930,
      "##419": 1931,
      "da6": 1932,
      "d0a": 1933,
      "8c6": 1934,
      "##b95": 1935,
      "b06": 1936,
      "##417": 1937,
      "##359": 1938,
      "5db": 1939,
      "a46": 1940,
      "34c": 1941,
      "##93b": 1942,
      "##bc6": 1943,
      "##7bd": 1944,
      "##be7": 1945,
      "825": 1946,
      "806": 1947,
      "796": 1948,
      "##992": 1949,
      "##d7b": 1950,
      "248": 1951,
      "602": 1952,
      "##dc6": 1953,
      "##2d4": 1954,
      "##2e7": 1955,
      "5f6": 1956,
      "f46": 1957,
      "2d6": 1958,
      "##11": 1959,
      "dc6": 1960,
      "##7a4": 1961,
      "##aa4": 1962,
      "20f": 1963,
      "64c": 1964,
      "##357": 1965,
      "596": 1966,
      "f26": 1967,
      "##2ba": 1968,
      "##797": 1969,
      "##be0": 1970,
      "##b35": 1971,
      "##35a": 1972,
      "5120": 1973,
      "##f1f": 1974,
      "0070": 1975,
      "bc5": 1976,
      "ade": 1977,
      "05d0": 1978,
      "##d37": 1979,
      "##358": 1980,
      "##2b4": 1981,
      "##81b": 1982,
      "##f17": 1983,
      "##be8": 1984,
      "fde": 1985,
      "##734": 1986,
      "##16": 1987,
      "466": 1988,
      "##f9a": 1989,
      "##7cf": 1990,
      "585": 1991,
      "f76": 1992,
      "##75b": 1993,
      "##79b": 1994,
      "##79d": 1995,
      "966": 1996,
      "6a9": 1997,
      "d85": 1998,
      "885": 1999,
      "##71e": 2000,
      "##dc4": 2001,
      "ff01": 2002,
      "e45": 2003,
      "##7e8": 2004,
      "##ab7": 2005,
      "##1d": 2006,
      "##a3f": 2007,
      "a25": 2008,
      "0218": 2009,
      "3fe": 2010,
      "##be9": 2011,
      "cc5": 2012,
      "##daf": 2013,
      "##81e": 2014,
      "##7ea": 2015,
      "1000": 2016,
      "aac": 2017,
      "##7b4": 2018,
      "##7b2": 2019,
      "##b3f": 2020,
      "##2bd": 2021,
      "##2ab": 2022,
      "##f1b": 2023,
      "1de": 2024,
      "23e": 2025,
      "f0a": 2026,
      "##b92": 2027,
      "##bc3": 2028,
      "##7ca": 2029,
      "##2b7": 2030,
      "f6e": 2031,
      "dd6": 2032,
      "##35f": 2033,
      "##f37": 2034,
      "##33d": 2035,
      "##a3a": 2036,
      "##f94": 2037,
      "##f38": 2038,
      "90a": 2039,
      "##f3f": 2040,
      "##4a4": 2041,
      "##41f": 2042,
      "43e": 2043,
      "426": 2044,
      "8db": 2045,
      "##71c": 2046,
      "##714": 2047,
      "##b97": 2048,
      "50a": 2049,
      "##79c": 2050,
      "d02": 2051,
      "##f13": 2052,
      "c4c": 2053,
      "2de": 2054,
      "##2ef": 2055,
      "##817": 2056,
      "cac": 2057,
      "##80a": 2058,
      "##282": 2059,
      "##99f": 2060,
      "a26": 2061,
      "f4c": 2062,
      "##2b8": 2063,
      "785": 2064,
      "46e": 2065,
      "f96": 2066,
      "00fe": 2067,
      "8ac": 2068,
      "##313": 2069,
      "##224": 2070,
      "##7c2": 2071,
      "##3ca": 2072,
      "##aa7": 2073,
      "1ce": 2074,
      "##2df": 2075,
      "##bed": 2076,
      "##f35": 2077,
      "##f92": 2078,
      "74c": 2079,
      "##bd0": 2080,
      "a86": 2081,
      "##da7": 2082,
      "##93a": 2083,
      "##3cb": 2084,
      "##aaa": 2085,
      "e4c": 2086,
      "##d99": 2087,
      "72c": 2088,
      "##7ce": 2089,
      "0db": 2090,
      "dce": 2091,
      "a49": 2092,
      "##baa": 2093,
      "##bcc": 2094,
      "##73f": 2095,
      "b25": 2096,
      "##3c4": 2097,
      "8ae": 2098,
      "7fe": 2099,
      "##937": 2100,
      "4db": 2101,
      "eae": 2102,
      "266": 2103,
      "##abd": 2104,
      "cdb": 2105,
      "9c5": 2106,
      "##27f": 2107,
      "##737": 2108,
      "##73a": 2109,
      "53e": 2110,
      "7b6": 2111,
      "9b6": 2112,
      "##2e5": 2113,
      "##b99": 2114,
      "##934": 2115,
      "##21d": 2116,
      "9c6": 2117,
      "8f6": 2118,
      "e3e": 2119,
      "##39b": 2120,
      "##317": 2121,
      "fdb": 2122,
      "##814": 2123,
      "308": 2124,
      "f4b": 2125,
      "##95d": 2126,
      "44c": 2127,
      "##22d": 2128,
      "f25": 2129,
      "##824": 2130,
      "26e": 2131,
      "##35b": 2132,
      "222c": 2133,
      "10ce": 2134,
      "e66": 2135,
      "##7c4": 2136,
      "##71d": 2137,
      "7de": 2138,
      "8d6": 2139,
      "##356": 2140,
      "96e": 2141,
      "fce": 2142,
      "##994": 2143,
      "##2bf": 2144,
      "8ce": 2145,
      "##f3c": 2146,
      "##333": 2147,
      "c4e": 2148,
      "f4e": 2149,
      "a85": 2150,
      "##3c2": 2151,
      "9d6": 2152,
      "##7c3": 2153,
      "##735": 2154,
      "##007": 2155,
      "56e": 2156,
      "##2d8": 2157,
      "7db": 2158,
      "##f9b": 2159,
      "##b9d": 2160,
      "##f3e": 2161,
      "df6": 2162,
      "##39d": 2163,
      "##330": 2164,
      "ea6": 2165,
      "##2e8": 2166,
      "##99a": 2167,
      "e0a": 2168,
      "648": 2169,
      "##315": 2170,
      "0a31": 2171,
      "1f6": 2172,
      "##738": 2173,
      "84c": 2174,
      "a09": 2175,
      "3d6": 2176,
      "f86": 2177,
      "##00a": 2178,
      "##815": 2179,
      "ddb": 2180,
      "##47a": 2181,
      "##f39": 2182,
      "##4ae": 2183,
      "0048": 2184,
      "##993": 2185,
      "7ce": 2186,
      "1f00": 2187,
      "e29": 2188,
      "c45": 2189,
      "##2a4": 2190,
      "ca6": 2191,
      "a4e": 2192,
      "043": 2193,
      "##73c": 2194,
      "##31d": 2195,
      "##813": 2196,
      "##dad": 2197,
      "##806": 2198,
      "##2e9": 2199,
      "##f15": 2200,
      "cde": 2201,
      "##73b": 2202,
      "c66": 2203,
      "2ce": 2204,
      "ed6": 2205,
      "##2a7": 2206,
      "729": 2207,
      "##daa": 2208,
      "##2aa": 2209,
      "a4c": 2210,
      "3ae": 2211,
      "509": 2212,
      "d2c": 2213,
      "##799": 2214,
      "aa6": 2215,
      "a6e": 2216,
      "b36": 2217,
      "##fcc": 2218,
      "548": 2219,
      "##f53": 2220,
      "##354": 2221,
      "b45": 2222,
      "##733": 2223,
      "##f52": 2224,
      "0204": 2225,
      "##bd8": 2226,
      "649": 2227,
      "a45": 2228,
      "##f33": 2229,
      "7c6": 2230,
      "bac": 2231,
      "##65a": 2232,
      "925": 2233,
      "##bd2": 2234,
      "##7af": 2235,
      "##f57": 2236,
      "b010": 2237,
      "##14": 2238,
      "##009": 2239,
      "##071": 2240,
      "a4b": 2241,
      "54b": 2242,
      "83e": 2243,
      "2b6": 2244,
      "##39a": 2245,
      "629": 2246,
      "##717": 2247,
      "dae": 2248,
      "##811": 2249,
      "##332": 2250,
      "84e": 2251,
      "9ce": 2252,
      "2ae": 2253,
      "##35e": 2254,
      "f66": 2255,
      "##81f": 2256,
      "9f6": 2257,
      "##93f": 2258,
      "##dab": 2259,
      "cae": 2260,
      "d86": 2261,
      "##398": 2262,
      "d23": 2263,
      "##fc9": 2264,
      "6db": 2265,
      "##a3c": 2266,
      "##22c": 2267,
      "##319": 2268,
      "##f51": 2269,
      "##ab4": 2270,
      "##998": 2271,
      "##f98": 2272,
      "2c6": 2273,
      "a96": 2274,
      "8a5": 2275,
      "723": 2276,
      "##997": 2277,
      "e4e": 2278,
      "f2c": 2279,
      "##f9d": 2280,
      "a36": 2281,
      "586": 2282,
      "##19": 2283,
      "b2c": 2284,
      "ba6": 2285,
      "fc6": 2286,
      "##81d": 2287,
      "3f6": 2288,
      "d6e": 2289,
      "dde": 2290,
      "##229": 2291,
      "##33b": 2292,
      "9a6": 2293,
      "4d6": 2294,
      "##71f": 2295,
      "496": 2296,
      "826": 2297,
      "##22f": 2298,
      "36e": 2299,
      "8c5": 2300,
      "b26": 2301,
      "##477": 2302,
      "c46": 2303,
      "a23": 2304,
      "##397": 2305,
      "ec5": 2306,
      "d4b": 2307,
      "##355": 2308,
      "529": 2309,
      "74b": 2310,
      "adb": 2311,
      "##719": 2312,
      "e96": 2313,
      "ede": 2314,
      "##2eb": 2315,
      "92c": 2316,
      "e46": 2317,
      "bdb": 2318,
      "0d6": 2319,
      "##99d": 2320,
      "24b": 2321,
      "##aab": 2322,
      "##4a3": 2323,
      "d26": 2324,
      "c25": 2325,
      "##f54": 2326,
      "9de": 2327,
      "##075": 2328,
      "##478": 2329,
      "f45": 2330,
      "##277": 2331,
      "##392": 2332,
      "##f97": 2333,
      "##223": 2334,
      "bd6": 2335,
      "ad6": 2336,
      "##fc6": 2337,
      "bc6": 2338,
      "##fcb": 2339,
      "##654": 2340,
      "##652": 2341,
      "fb6": 2342,
      "286": 2343,
      "93e": 2344,
      "82c": 2345,
      "523": 2346,
      "c4b": 2347,
      "ef6": 2348,
      "eb6": 2349,
      "##65d": 2350,
      "5d6": 2351,
      "##47c": 2352,
      "##adf": 2353,
      "73e": 2354,
      "949": 2355,
      "c26": 2356,
      "7f6": 2357,
      "f36": 2358,
      "##819": 2359,
      "##99b": 2360,
      "bde": 2361,
      "##33a": 2362,
      "d4e": 2363,
      "33e": 2364,
      "e4b": 2365,
      "f48": 2366,
      "##227": 2367,
      "e36": 2368,
      "3de": 2369,
      "##bd4": 2370,
      "##ad4": 2371,
      "##f95": 2372,
      "##4a7": 2373,
      "74e": 2374,
      "1803": 2375,
      "##4ab": 2376,
      "f23": 2377,
      "##ad8": 2378,
      "749": 2379,
      "##334": 2380,
      "b3e": 2381,
      "8a6": 2382,
      "846": 2383,
      "4de": 2384,
      "##4a6": 2385,
      "##fc8": 2386,
      "926": 2387,
      "34b": 2388,
      "##fc2": 2389,
      "9ae": 2390,
      "##17": 2391,
      "a29": 2392,
      "86e": 2393,
      "##f5a": 2394,
      "c36": 2395,
      "1db": 2396,
      "b4e": 2397,
      "566": 2398,
      "d46": 2399,
      "84b": 2400,
      "44e": 2401,
      "##fc5": 2402,
      "##278": 2403,
      "42c": 2404,
      "30a": 2405,
      "936": 2406,
      "##f9f": 2407,
      "886": 2408,
      "543": 2409,
      "##13": 2410,
      "##fca": 2411,
      "d36": 2412,
      "##65b": 2413,
      "##39f": 2414,
      "##fc4": 2415,
      "##99c": 2416,
      "c2c": 2417,
      "##f5e": 2418,
      "b4b": 2419,
      "##33f": 2420,
      "##f5f": 2421,
      "946": 2422,
      "64e": 2423,
      "9db": 2424,
      "3232": 2425,
      "##22b": 2426,
      "##4a5": 2427,
      "##657": 2428,
      "6ae": 2429,
      "##226": 2430,
      "##475": 2431,
      "34e": 2432,
      "##655": 2433,
      "##47f": 2434,
      "aae": 2435,
      "423": 2436,
      "ec6": 2437,
      "8b6": 2438,
      "c6e": 2439,
      "##077": 2440,
      "923": 2441,
      "##078": 2442,
      "d66": 2443,
      "cb6": 2444,
      "##65f": 2445,
      "349": 2446,
      "##474": 2447,
      "b96": 2448,
      "##47e": 2449,
      "##65e": 2450,
      "b66": 2451,
      "##15": 2452,
      "##479": 2453,
      "##337": 2454,
      "329": 2455,
      "996": 2456,
      "a66": 2457,
      "c0f": 2458,
      "6ce": 2459,
      "896": 2460,
      "##47d": 2461,
      "0600": 2462,
      "##225": 2463,
      "##471": 2464,
      "##006": 2465,
      "986": 2466,
      "##07b": 2467,
      "748": 2468,
      "743": 2469,
      "##4af": 2470,
      "229": 2471,
      "##22a": 2472,
      "b29": 2473,
      "##f58": 2474,
      "c48": 2475,
      "##338": 2476,
      "##079": 2477,
      "94b": 2478,
      "448": 2479,
      "##658": 2480,
      "848": 2481,
      "##07a": 2482,
      "##1f": 2483,
      "b23": 2484,
      "0248": 2485,
      "##339": 2486,
      "##f59": 2487,
      "##4ad": 2488,
      "c29": 2489,
      "c23": 2490,
      "##659": 2491,
      "##4a0": 2492,
      "d48": 2493,
      "afa": 2494,
      "##00f": 2495,
      "##f55": 2496,
      "##656": 2497,
      "0148": 2498,
      "##f56": 2499,
      "##f99": 2500,
      "e49": 2501,
      "d43": 2502,
      "249": 2503,
      "a84a": 2504,
      "f43": 2505,
      "929": 2506,
      "##07d": 2507,
      "348": 2508,
      "0208": 2509,
      "4c69": 2510,
      "849": 2511,
      "829": 2512,
      "80f": 2513,
      "449": 2514,
      "9fa": 2515,
      "948": 2516,
      "a48": 2517,
      "##f5b": 2518,
      "f29": 2519,
      "e48": 2520,
      "efa": 2521,
      "##00d": 2522,
      "##07f": 2523,
      "4002": 2524,
      "##33c": 2525,
      "2fa": 2526,
      "##00b": 2527,
      "5000": 2528,
      "##07e": 2529,
      "243": 2530,
      "9062": 2531,
      "823": 2532,
      "b49": 2533,
      "##4aa": 2534,
      "d49": 2535,
      "443": 2536,
      "##07c": 2537,
      "f49": 2538,
      "ce96": 2539,
      "60f": 2540,
      "a43": 2541,
      "30f": 2542,
      "8601": 2543,
      "d0f0": 2544,
      "b43": 2545,
      "0103": 2546,
      "c49": 2547,
      "6fa": 2548,
      "9001": 2549,
      "c43": 2550,
      "843": 2551,
      "1fa": 2552,
      "8fa": 2553,
      "0abb": 2554,
      "3030": 2555,
      "bfa": 2556,
      "0004": 2557,
      "943": 2558,
      "e43": 2559,
      "cfa": 2560,
      "1008": 2561,
      "dfa": 2562,
      "e0f": 2563,
      "0fa": 2564,
      "f0f": 2565,
      "3fa": 2566,
      "0047": 2567,
      "7fa": 2568,
      "1009": 2569,
      "50f": 2570,
      "b000": 2571,
      "6a01": 2572,
      "0303": 2573,
      "454a": 2574,
      "0a15": 2575,
      "1716": 2576,
      "d0f": 2577,
      "9064": 2578,
      "0a00": 2579,
      "a0f": 2580,
      "1002": 2581,
      "3220": 2582,
      "90f": 2583,
      "491f": 2584,
      "b0f": 2585,
      "0b00": 2586,
      "f549": 2587,
      "##a84": 2588,
      "05b4": 2589,
      "2000": 2590,
      "1b00": 2591,
      "7575": 2592,
      "62d0": 2593,
      "b404": 2594,
      "##a8f": 2595,
      "0018": 2596,
      "00a0": 2597,
      "00b8": 2598,
      "9301": 2599,
      "fe20": 2600,
      "f031": 2601,
      "0dd0": 2602,
      "0a4f": 2603,
      "2a02": 2604,
      "fbc0": 2605,
      "2e32": 2606,
      "a086": 2607,
      "5041": 2608,
      "0ac7": 2609,
      "ff03": 2610,
      "011a": 2611,
      "0c00": 2612,
      "0801": 2613,
      "7800": 2614,
      "8700": 2615,
      "0112": 2616,
      "f046": 2617,
      "0d00": 2618,
      "0919": 2619,
      "0900": 2620,
      "b6db": 2621,
      "0302": 2622,
      "2e31": 2623,
      "1880": 2624,
      "0318": 2625,
      "7422": 2626,
      "c0b6": 2627,
      "2cb0": 2628,
      "a002": 2629,
      "0132": 2630,
      "01a0": 2631,
      "1804": 2632,
      "1040": 2633,
      "0af1": 2634,
      "10c8": 2635,
      "7022": 2636,
      "6e74": 2637,
      "0032": 2638,
      "636b": 2639,
      "1818": 2640,
      "1c00": 2641,
      "a84c": 2642,
      "3022": 2643,
      "0144": 2644,
      "2215": 2645,
      "2022": 2646,
      "1a40": 2647,
      "02ff": 2648,
      "7478": 2649,
      "20fe": 2650,
      "fd00": 2651,
      "0a02": 2652,
      "0003": 2653,
      "bf88": 2654,
      "2801": 2655,
      "7b00": 2656,
      "01fd": 2657,
      "2500": 2658,
      "3b63": 2659,
      "c893": 2660,
      "00c0": 2661,
      "024c": 2662,
      "2200": 2663,
      "1800": 2664,
      "6574": 2665,
      "f3e8": 2666,
      "e3e1": 2667,
      "05e2": 2668,
      "1300": 2669,
      "0f00": 2670,
      "7465": 2671,
      "e1f3": 2672,
      "1101": 2673,
      "4104": 2674,
      "08f0": 2675,
      "0270": 2676,
      "0202": 2677,
      "f525": 2678,
      "0470": 2679,
      "d300": 2680,
      "df75": 2681,
      "319b": 2682,
      "0008": 2683,
      "e200": 2684,
      "1826": 2685,
      "bb66": 2686,
      "0141": 2687,
      "f001": 2688,
      "3199": 2689,
      "4fa8": 2690,
      "3130": 2691,
      "0e00": 2692,
      "4faa": 2693,
      "2202": 2694,
      "a001": 2695,
      "1400": 2696,
      "022a": 2697,
      "8070": 2698,
      "6401": 2699,
      "0010": 2700,
      "0a8c": 2701,
      "347b": 2702,
      "0150": 2703,
      "a220": 2704,
      "6f72": 2705,
      "012e": 2706,
      "3230": 2707,
      "020a": 2708,
      "2f70": 2709,
      "0180": 2710,
      "1100": 2711,
      "01f0": 2712,
      "fdfd": 2713,
      "ff3c": 2714,
      "9400": 2715,
      "1004": 2716,
      "6b00": 2717,
      "0045": 2718,
      "0a0f": 2719,
      "0114": 2720,
      "6d69": 2721,
      "0162": 2722,
      "0a3d": 2723,
      "004e": 2724,
      "100f": 2725,
      "0a3b": 2726,
      "1e00": 2727,
      "0063": 2728,
      "312e": 2729,
      "3128": 2730,
      "ec03": 2731,
      "4400": 2732,
      "c070": 2733,
      "e000": 2734,
      "f049": 2735,
      "2544": 2736,
      "8668": 2737,
      "05e0": 2738,
      "10e7": 2739,
      "18c0": 2740,
      "02cf": 2741,
      "034c": 2742,
      "1825": 2743,
      "4070": 2744,
      "2e20": 2745,
      "226d": 2746,
      "7400": 2747,
      "8011": 2748,
      "7264": 2749,
      "fd0a": 2750,
      "e756": 2751,
      "4cf0": 2752,
      "2a01": 2753,
      "7b22": 2754,
      "10ff": 2755,
      "0a4d": 2756,
      "3a20": 2757,
      "4500": 2758,
      "036f": 2759,
      "004c": 2760,
      "0104": 2761,
      "2a0e": 2762,
      "1401": 2763,
      "0ffa": 2764,
      "4fa9": 2765,
      "a849": 2766,
      "1200": 2767,
      "6174": 2768,
      "319a": 2769,
      "c100": 2770,
      "3800": 2771,
      "e869": 2772,
      "2274": 2773,
      "1501": 2774,
      "dff7": 2775,
      "09f0": 2776,
      "2a34": 2777,
      "2605": 2778,
      "000c": 2779,
      "0340": 2780,
      "6303": 2781,
      "7365": 2782,
      "0023": 2783,
      "87d1": 2784,
      "1901": 2785,
      "000f": 2786,
      "616e": 2787,
      "6578": 2788,
      "0090": 2789,
      "00fc": 2790,
      "6e20": 2791,
      "6c61": 2792,
      "0ad3": 2793,
      "aa00": 2794,
      "fe00": 2795,
      "7ddf": 2796,
      "6172": 2797,
      "0011": 2798,
      "a3c0": 2799,
      "7263": 2800,
      "3b62": 2801,
      "b2ec": 2802,
      "008a": 2803,
      "6f6e": 2804,
      "ff19": 2805,
      "7874": 2806,
      "6821": 2807,
      "7469": 2808,
      "0af0": 2809,
      "0145": 2810,
      "53f9": 2811,
      "1018": 2812,
      "204c": 2813,
      "001d": 2814,
      "3d05": 2815,
      "4990": 2816,
      "00f0": 2817,
      "bb65": 2818,
      "742f": 2819,
      "0080": 2820,
      "0a87": 2821,
      "201e": 2822,
      "00d2": 2823,
      "88db": 2824,
      "05d3": 2825,
      "e567": 2826,
      "1025": 2827,
      "3e01": 2828,
      "636f": 2829,
      "0404": 2830,
      "1806": 2831,
      "6963": 2832,
      "4201": 2833,
      "6b22": 2834,
      "9e20": 2835,
      "6572": 2836,
      "1c01": 2837,
      "f77d": 2838,
      "6169": 2839,
      "001c": 2840,
      "8a00": 2841,
      "616d": 2842,
      "fc00": 2843,
      "706c": 2844,
      "1a00": 2845,
      "5718": 2846,
      "2261": 2847,
      "4d48": 2848,
      "db04": 2849,
      "4a01": 2850,
      "2262": 2851,
      "ac80": 2852,
      "1d01": 2853,
      "0140": 2854,
      "0d01": 2855,
      "2270": 2856,
      "e1f6": 2857,
      "d900": 2858,
      "6100": 2859,
      "8702": 2860,
      "e900": 2861,
      "200c": 2862,
      "f631": 2863,
      "0122": 2864,
      "0102": 2865,
      "6220": 2866,
      "008b": 2867,
      "b081": 2868,
      "227d": 2869,
      "3120": 2870,
      "3d00": 2871,
      "6765": 2872,
      "2231": 2873,
      "4900": 2874,
      "0201": 2875,
      "2e01": 2876,
      "4e01": 2877,
      "c70e": 2878,
      "1500": 2879,
      "0bf0": 2880,
      "226f": 2881,
      "6f70": 2882,
      "02f0": 2883,
      "f13e": 2884,
      "4601": 2885,
      "f13c": 2886,
      "024e": 2887,
      "20f0": 2888,
      "6d74": 2889,
      "db00": 2890,
      "5e01": 2891,
      "c70a": 2892,
      "3d03": 2893,
      "1a15": 2894,
      "014e": 2895,
      "0501": 2896,
      "1003": 2897,
      "c70c": 2898,
      "b159": 2899,
      "db69": 2900,
      "342e": 2901,
      "0a6d": 2902,
      "3d01": 2903,
      "0a42": 2904,
      "2700": 2905,
      "d6f0": 2906,
      "3112": 2907,
      "a100": 2908,
      "866c": 2909,
      "0f83": 2910,
      "2d32": 2911,
      "4316": 2912,
      "767e": 2913,
      "5201": 2914,
      "40e1": 2915,
      "e300": 2916,
      "0a0d": 2917,
      "0a55": 2918,
      "e1eb": 2919,
      "3132": 2920,
      "6700": 2921,
      "4012": 2922,
      "05e9": 2923,
      "00ed": 2924,
      "0304": 2925,
      "00fb": 2926,
      "0a08": 2927,
      "7273": 2928,
      "1700": 2929,
      "0cf0": 2930,
      "2a21": 2931,
      "0adf": 2932,
      "ff09": 2933,
      "ae01": 2934,
      "044c": 2935,
      "632d": 2936,
      "6272": 2937,
      "3231": 2938,
      "e944": 2939,
      "08ee": 2940,
      "7d68": 2941,
      "3a01": 2942,
      "202e": 2943,
      "204e": 2944,
      "6801": 2945,
      "0802": 2946,
      "6c65": 2947,
      "382e": 2948,
      "0301": 2949,
      "0320": 2950,
      "550a": 2951,
      "eeff": 2952,
      "00a8": 2953,
      "2800": 2954,
      "1d00": 2955,
      "b201": 2956,
      "3094": 2957,
      "1900": 2958,
      "2c18": 2959,
      "6dfc": 2960,
      "0250": 2961,
      "4ed0": 2962,
      "0237": 2963,
      "1848": 2964,
      "e100": 2965,
      "0718": 2966,
      "3234": 2967,
      "0a2e": 2968,
      "52ae": 2969,
      "2301": 2970,
      "011c": 2971,
      "f555": 2972,
      "4c00": 2973,
      "cd01": 2974,
      "d700": 2975,
      "054c": 2976,
      "6800": 2977,
      "00d7": 2978,
      "1807": 2979,
      "db81": 2980,
      "675f": 2981,
      "f5af": 2982,
      "2004": 2983,
      "da00": 2984,
      "2070": 2985,
      "0518": 2986,
      "3138": 2987,
      "2012": 2988,
      "0df0": 2989,
      "ac62": 2990,
      "7261": 2991,
      "05ba": 2992,
      "2020": 2993,
      "4752": 2994,
      "5c07": 2995,
      "0f6a": 2996,
      "cf01": 2997,
      "d2f0": 2998,
      "901a": 2999,
      "3201": 3000,
      "6df8": 3001,
      "10f0": 3002,
      "3200": 3003,
      "2002": 3004,
      "010c": 3005,
      "034e": 3006,
      "2e34": 3007,
      "4101": 3008,
      "df01": 3009,
      "c911": 3010,
      "1840": 3011,
      "0307": 3012,
      "0adb": 3013,
      "0ef0": 3014,
      "6861": 3015,
      "b500": 3016,
      "011d": 3017,
      "0401": 3018,
      "8c48": 3019,
      "c19d": 3020,
      "e600": 3021,
      "6368": 3022,
      "2322": 3023,
      "3b61": 3024,
      "09ae": 3025,
      "2300": 3026,
      "7466": 3027,
      "3431": 3028,
      "116a": 3029,
      "d100": 3030,
      "08dc": 3031,
      "315a": 3032,
      "1874": 3033,
      "6f6d": 3034,
      "6003": 3035,
      "00d8": 3036,
      "440d": 3037,
      "8301": 3038,
      "7000": 3039,
      "4fa7": 3040,
      "96c1": 3041,
      "00b5": 3042,
      "b001": 3043,
      "0a53": 3044,
      "aed6": 3045,
      "6dfa": 3046,
      "ed00": 3047,
      "f301": 3048,
      "01b8": 3049,
      "d0fe": 3050,
      "0a6f": 3051,
      "00e2": 3052,
      "2101": 3053,
      "d6c1": 3054,
      "a012": 3055,
      "9061": 3056,
      "2400": 3057,
      "3d22": 3058,
      "2d00": 3059,
      "3238": 3060,
      "a301": 3061,
      "0901": 3062,
      "7574": 3063,
      "dc01": 3064,
      "00fa": 3065,
      "00d9": 3066,
      "0065": 3067,
      "81ee": 3068,
      "0049": 3069,
      "2064": 3070,
      "b300": 3071,
      "182c": 3072,
      "00e3": 3073,
      "9844": 3074,
      "55aa": 3075,
      "2003": 3076,
      "58c0": 3077,
      "0110": 3078,
      "3d75": 3079,
      "0d31": 3080,
      "3810": 3081,
      "743d": 3082,
      "dd01": 3083,
      "2c00": 3084,
      "00e0": 3085,
      "fdfe": 3086,
      "2d38": 3087,
      "4096": 3088,
      "3601": 3089,
      "00e1": 3090,
      "2016": 3091,
      "a90d": 3092,
      "2afe": 3093,
      "3b60": 3094,
      "6d00": 3095,
      "5620": 3096,
      "0035": 3097,
      "d001": 3098,
      "6e3b": 3099,
      "3100": 3100,
      "a901": 3101,
      "2600": 3102,
      "5a01": 3103,
      "bb64": 3104,
      "d400": 3105,
      "2a2e": 3106,
      "1b01": 3107,
      "0280": 3108,
      "6e00": 3109,
      "ce01": 3110,
      "6461": 3111,
      "662d": 3112,
      "0215": 3113,
      "0116": 3114,
      "372c": 3115,
      "00da": 3116,
      "14f0": 3117,
      "79c8": 3118,
      "09d3": 3119,
      "7461": 3120,
      "0064": 3121,
      "2078": 3122,
      "50e9": 3123,
      "f401": 3124,
      "02fe": 3125,
      "fa20": 3126,
      "4057": 3127,
      "927b": 3128,
      "3000": 3129,
      "204a": 3130,
      "5601": 3131,
      "d327": 3132,
      "5fa4": 3133,
      "ae05": 3134,
      "0ad2": 3135,
      "322e": 3136,
      "064c": 3137,
      "ca00": 3138,
      "084c": 3139,
      "af8a": 3140,
      "4100": 3141,
      "0a5f": 3142,
      "2079": 3143,
      "d301": 3144,
      "ac02": 3145,
      "f9be": 3146,
      "d200": 3147,
      "25f0": 3148,
      "daff": 3149,
      "1601": 3150,
      "0091": 3151,
      "0418": 3152,
      "fd01": 3153,
      "6561": 3154,
      "006d": 3155,
      "1c05": 3156,
      "e2fe": 3157,
      "0083": 3158,
      "5618": 3159,
      "2048": 3160,
      "180b": 3161,
      "0601": 3162,
      "6e73": 3163,
      "0ff0": 3164,
      "e86c": 3165,
      "b4d9": 3166,
      "5d01": 3167,
      "fa74": 3168,
      "6522": 3169,
      "00df": 3170,
      "df8e": 3171,
      "1b05": 3172,
      "6300": 3173,
      "c3e2": 3174,
      "00d0": 3175,
      "3912": 3176,
      "044e": 3177,
      "f57c": 3178,
      "05d2": 3179,
      "530b": 3180,
      "0d25": 3181,
      "5ff1": 3182,
      "7970": 3183,
      "c501": 3184,
      "2052": 3185,
      "0169": 3186,
      "4680": 3187,
      "a422": 3188,
      "ff22": 3189,
      "2a41": 3190,
      "08d9": 3191,
      "2031": 3192,
      "00cf": 3193,
      "6573": 3194,
      "ac40": 3195,
      "9d02": 3196,
      "2010": 3197,
      "5d00": 3198,
      "c074": 3199,
      "2061": 3200,
      "ae00": 3201,
      "c002": 3202,
      "04d4": 3203,
      "207d": 3204,
      "0021": 3205,
      "fe40": 3206,
      "002e": 3207,
      "2802": 3208,
      "2032": 3209,
      "beb4": 3210,
      "6374": 3211,
      "2041": 3212,
      "0012": 3213,
      "0a0b": 3214,
      "2f00": 3215,
      "e2f0": 3216,
      "2008": 3217,
      "0212": 3218,
      "0aa4": 3219,
      "4e00": 3220,
      "2a00": 3221,
      "00f9": 3222,
      "2030": 3223,
      "f180": 3224,
      "7c42": 3225,
      "0839": 3226,
      "f13a": 3227,
      "2018": 3228,
      "5e00": 3229,
      "de00": 3230,
      "11f0": 3231,
      "200a": 3232,
      "4d43": 3233,
      "e0ff": 3234,
      "6e67": 3235,
      "7718": 3236,
      "ffe6": 3237,
      "2072": 3238,
      "202f": 3239,
      "440b": 3240,
      "00cd": 3241,
      "200e": 3242,
      "32cd": 3243,
      "6c49": 3244,
      "2068": 3245,
      "1140": 3246,
      "4001": 3247,
      "3600": 3248,
      "3198": 3249,
      "4121": 3250,
      "de05": 3251,
      "ff72": 3252,
      "8d50": 3253,
      "5800": 3254,
      "d01e": 3255,
      "1701": 3256,
      "8a47": 3257,
      "bafa": 3258,
      "a208": 3259,
      "00ae": 3260,
      "f201": 3261,
      "054a": 3262,
      "76ff": 3263,
      "3032": 3264,
      "3b00": 3265,
      "f700": 3266,
      "70f0": 3267,
      "201a": 3268,
      "4904": 3269,
      "2e00": 3270,
      "bf00": 3271,
      "0a4c": 3272,
      "2051": 3273,
      "205d": 3274,
      "d3e9": 3275,
      "f101": 3276,
      "d101": 3277,
      "2042": 3278,
      "43de": 3279,
      "3400": 3280,
      "db01": 3281,
      "d405": 3282,
      "105f": 3283,
      "003a": 3284,
      "00ce": 3285,
      "0576": 3286,
      "e400": 3287,
      "2063": 3288,
      "d4d2": 3289,
      "866f": 3290,
      "0a0e": 3291,
      "00ad": 3292,
      "a601": 3293,
      "2069": 3294,
      "009d": 3295,
      "1026": 3296,
      "2005": 3297,
      "207e": 3298,
      "7065": 3299,
      "8b48": 3300,
      "2028": 3301,
      "2006": 3302,
      "2050": 3303,
      "842d": 3304,
      "00ee": 3305,
      "4540": 3306,
      "f5fe": 3307,
      "0a32": 3308,
      "40f0": 3309,
      "00db": 3310,
      "0a07": 3311,
      "0612": 3312,
      "7265": 3313,
      "d1f0": 3314,
      "2074": 3315,
      "6201": 3316,
      "3131": 3317,
      "00c2": 3318,
      "a0f0": 3319,
      "f527": 3320,
      "e101": 3321,
      "2034": 3322,
      "8000": 3323,
      "fe1e": 3324,
      "e2a3": 3325,
      "cfcd": 3326,
      "18ff": 3327,
      "1402": 3328,
      "b800": 3329,
      "7a9a": 3330,
      "2071": 3331,
      "7668": 3332,
      "12f0": 3333,
      "03f0": 3334,
      "0009": 3335,
      "0088": 3336,
      "8187": 3337,
      "032c": 3338,
      "fea0": 3339,
      "9100": 3340,
      "d800": 3341,
      "5400": 3342,
      "620d": 3343,
      "e6ff": 3344,
      "00b1": 3345,
      "9800": 3346,
      "bb00": 3347,
      "6e01": 3348,
      "094c": 3349,
      "b4cf": 3350,
      "180f": 3351,
      "ca1b": 3352,
      "5100": 3353,
      "e001": 3354,
      "f0e8": 3355,
      "203a": 3356,
      "206e": 3357,
      "b8e8": 3358,
      "5200": 3359,
      "01e2": 3360,
      "b080": 3361,
      "00b0": 3362,
      "4a61": 3363,
      "00c8": 3364,
      "01c0": 3365,
      "8701": 3366,
      "8d00": 3367,
      "2038": 3368,
      "96a7": 3369,
      "0d92": 3370,
      "21c0": 3371,
      "867a": 3372,
      "1301": 3373,
      "1043": 3374,
      "2021": 3375,
      "5f40": 3376,
      "2062": 3377,
      "88e0": 3378,
      "d4a1": 3379,
      "683d": 3380,
      "2a61": 3381,
      "9021": 3382,
      "3a00": 3383,
      "0c01": 3384,
      "ec01": 3385,
      "f52c": 3386,
      "205c": 3387,
      "2019": 3388,
      "9a39": 3389,
      "ff00": 3390,
      "d501": 3391,
      "2210": 3392,
      "a376": 3393,
      "cdd4": 3394,
      "c901": 3395,
      "c76b": 3396,
      "2401": 3397,
      "928d": 3398,
      "2066": 3399,
      "e0fe": 3400,
      "c069": 3401,
      "e93c": 3402,
      "2054": 3403,
      "8784": 3404,
      "7479": 3405,
      "7464": 3406,
      "7080": 3407,
      "39d4": 3408,
      "055f": 3409,
      "2b00": 3410,
      "2014": 3411,
      "d3f0": 3412,
      "2077": 3413,
      "68ca": 3414,
      "4298": 3415,
      "4080": 3416,
      "201c": 3417,
      "2043": 3418,
      "7269": 3419,
      "a781": 3420,
      "21c1": 3421,
      "200b": 3422,
      "2049": 3423,
      "02b8": 3424,
      "2065": 3425,
      "0804": 3426,
      "204d": 3427,
      "b301": 3428,
      "e8c3": 3429,
      "2d20": 3430,
      "1b86": 3431,
      "200f": 3432,
      "2040": 3433,
      "1c2a": 3434,
      "203e": 3435,
      "dab8": 3436,
      "3233": 3437,
      "2015": 3438,
      "00e9": 3439,
      "00a6": 3440,
      "1af0": 3441,
      "c800": 3442,
      "8c00": 3443,
      "2c03": 3444,
      "a1a9": 3445,
      "7069": 3446,
      "0117": 3447,
      "6365": 3448,
      "074c": 3449,
      "7f00": 3450,
      "2046": 3451,
      "b401": 3452,
      "43c5": 3453,
      "e301": 3454,
      "302e": 3455,
      "2562": 3456,
      "0809": 3457,
      "0de2": 3458,
      "2035": 3459,
      "00ca": 3460,
      "3900": 3461,
      "1718": 3462,
      "202d": 3463,
      "00d3": 3464,
      "206c": 3465,
      "7ff5": 3466,
      "2011": 3467,
      "1201": 3468,
      "eb43": 3469,
      "a201": 3470,
      "206a": 3471,
      "6a00": 3472,
      "3cb4": 3473,
      "fe88": 3474,
      "0350": 3475,
      "4600": 3476,
      "2013": 3477,
      "ae04": 3478,
      "2007": 3479,
      "3139": 3480,
      "2009": 3481,
      "00be": 3482,
      "201b": 3483,
      "e0f0": 3484,
      "205a": 3485,
      "d3fe": 3486,
      "6761": 3487,
      "13f0": 3488,
      "0040": 3489,
      "05d1": 3490,
      "0085": 3491,
      "cd00": 3492,
      "4102": 3493,
      "203d": 3494,
      "0087": 3495,
      "2025": 3496,
      "d7f0": 3497,
      "01f4": 3498,
      "18f0": 3499,
      "207f": 3500,
      "6f75": 3501,
      "1005": 3502,
      "12fe": 3503,
      "1a01": 3504,
      "2d7f": 3505,
      "0e01": 3506,
      "7300": 3507,
      "9401": 3508,
      "206d": 3509,
      "2017": 3510,
      "0031": 3511,
      "2039": 3512,
      "204f": 3513,
      "2047": 3514,
      "2023": 3515,
      "6163": 3516,
      "2036": 3517,
      "206f": 3518,
      "203c": 3519,
      "205e": 3520,
      "61da": 3521,
      "03b8": 3522,
      "f900": 3523,
      "3300": 3524,
      "2055": 3525,
      "0abc": 3526,
      "bd01": 3527,
      "3e00": 3528,
      "2024": 3529,
      "b101": 3530,
      "2076": 3531,
      "2060": 3532,
      "0490": 3533,
      "c76a": 3534,
      "2220": 3535,
      "c769": 3536,
      "0152": 3537,
      "a101": 3538,
      "206b": 3539,
      "00c3": 3540,
      "2067": 3541,
      "2056": 3542,
      "02a0": 3543,
      "bf80": 3544,
      "00dd": 3545,
      "0904": 3546,
      "7472": 3547,
      "2037": 3548,
      "054e": 3549,
      "203b": 3550,
      "202c": 3551,
      "a401": 3552,
      "004a": 3553,
      "2057": 3554,
      "000a": 3555,
      "0a20": 3556,
      "11dc": 3557,
      "2053": 3558,
      "4800": 3559,
      "f535": 3560,
      "2026": 3561,
      "4d00": 3562,
      "0069": 3563,
      "2058": 3564,
      "207a": 3565,
      "0210": 3566,
      "205b": 3567,
      "b501": 3568,
      "200d": 3569,
      "a000": 3570,
      "f582": 3571,
      "2a81": 3572,
      "2075": 3573,
      "3500": 3574,
      "2073": 3575,
      "0216": 3576,
      "4a00": 3577,
      "201f": 3578,
      "ba5d": 3579,
      "0f18": 3580,
      "202a": 3581,
      "a300": 3582,
      "0a01": 3583,
      "2901": 3584,
      "00de": 3585,
      "fc01": 3586,
      "2044": 3587,
      "00ac": 3588,
      "d601": 3589,
      "2027": 3590,
      "014a": 3591,
      "7370": 3592,
      "205f": 3593,
      "d29e": 3594,
      "000d": 3595,
      "202b": 3596,
      "5970": 3597,
      "00d5": 3598,
      "207b": 3599,
      "5a00": 3600,
      "a380": 3601,
      "4200": 3602,
      "e401": 3603,
      "000e": 3604,
      "00e8": 3605,
      "652e": 3606,
      "dc00": 3607,
      "2033": 3608,
      "00a9": 3609,
      "00d1": 3610,
      "0d12": 3611,
      "3a12": 3612,
      "c001": 3613,
      "000b": 3614,
      "1c29": 3615,
      "fe01": 3616,
      "6170": 3617,
      "cf00": 3618,
      "8245": 3619,
      "ea00": 3620,
      "ec00": 3621,
      "1810": 3622,
      "2059": 3623,
      "2029": 3624,
      "7286": 3625,
      "00ea": 3626,
      "db82": 3627,
      "4f00": 3628,
      "201d": 3629,
      "002c": 3630,
      "5fa3": 3631,
      "f139": 3632,
      "8800": 3633,
      "8300": 3634,
      "3137": 3635,
      "c300": 3636,
      "0887": 3637,
      "8d01": 3638,
      "008d": 3639,
      "8713": 3640,
      "64fd": 3641,
      "d202": 3642,
      "0a58": 3643,
      "6665": 3644,
      "0130": 3645,
      "0922": 3646,
      "4c80": 3647,
      "3c00": 3648,
      "00b4": 3649,
      "207c": 3650,
      "203f": 3651,
      "0e12": 3652,
      "372e": 3653,
      "d701": 3654,
      "0119": 3655,
      "2045": 3656,
      "2501": 3657,
      "6c00": 3658,
      "204b": 3659,
      "df00": 3660,
      "6441": 3661,
      "08c3": 3662,
      "ddc8": 3663,
      "d5f0": 3664,
      "1b2a": 3665,
      "e801": 3666,
      "1f12": 3667,
      "6500": 3668,
      "1080": 3669,
      "009e": 3670,
      "3f00": 3671,
      "0701": 3672,
      "00dc": 3673,
      "2601": 3674,
      "f901": 3675,
      "c201": 3676,
      "2e2b": 3677,
      "cc01": 3678,
      "9501": 3679,
      "7559": 3680,
      "8980": 3681,
      "3610": 3682,
      "0077": 3683,
      "ac01": 3684,
      "2729": 3685,
      "00e6": 3686,
      "436f": 3687,
      "2c2c": 3688,
      "2e2a": 3689,
      "e501": 3690,
      "0380": 3691,
      "7088": 3692,
      "7e01": 3693,
      "c302": 3694,
      "16f0": 3695,
      "00f3": 3696,
      "00cc": 3697,
      "e201": 3698,
      "c000": 3699,
      "4300": 3700,
      "5f00": 3701,
      "1e01": 3702,
      "00e5": 3703,
      "03fe": 3704,
      "e701": 3705,
      "c401": 3706,
      "d401": 3707,
      "ad01": 3708,
      "9c00": 3709,
      "00f6": 3710,
      "0403": 3711,
      "0b4c": 3712,
      "3133": 3713,
      "0034": 3714,
      "5500": 3715,
      "ac5b": 3716,
      "8400": 3717,
      "14f8": 3718,
      "9e00": 3719,
      "f200": 3720,
      "8001": 3721,
      "4418": 3722,
      "02fa": 3723,
      "0089": 3724,
      "0086": 3725,
      "6901": 3726,
      "00f8": 3727,
      "0a57": 3728,
      "0084": 3729,
      "bc00": 3730,
      "4c01": 3731,
      "0f80": 3732,
      "0075": 3733,
      "f601": 3734,
      "00d6": 3735,
      "001a": 3736,
      "1f01": 3737,
      "00f4": 3738,
      "7200": 3739,
      "00c1": 3740,
      "bd00": 3741,
      "3035": 3742,
      "b701": 3743,
      "00f7": 3744,
      "fa31": 3745,
      "1271": 3746,
      "00d4": 3747,
      "00c5": 3748,
      "7002": 3749,
      "a905": 3750,
      "04f0": 3751,
      "c801": 3752,
      "fef0": 3753,
      "1c02": 3754,
      "fa00": 3755,
      "9101": 3756,
      "7061": 3757,
      "211a": 3758,
      "7708": 3759,
      "f408": 3760,
      "bbce": 3761,
      "0a12": 3762,
      "0a7c": 3763,
      "00f2": 3764,
      "00a3": 3765,
      "6d61": 3766,
      "87f4": 3767,
      "00c4": 3768,
      "6200": 3769,
      "0670": 3770,
      "4700": 3771,
      "3700": 3772,
      "7098": 3773,
      "6900": 3774,
      "4501": 3775,
      "00a5": 3776,
      "3936": 3777,
      "c601": 3778,
      "00b2": 3779,
      "0f01": 3780,
      "ee01": 3781,
      "0a83": 3782,
      "656c": 3783,
      "0618": 3784,
      "0348": 3785,
      "7500": 3786,
      "8401": 3787,
      "00a4": 3788,
      "fb01": 3789,
      "0098": 3790,
      "9201": 3791,
      "6600": 3792,
      "9801": 3793,
      "7473": 3794,
      "a200": 3795,
      "9901": 3796,
      "5b80": 3797,
      "9e02": 3798,
      "c200": 3799,
      "00ec": 3800,
      "0e4c": 3801,
      "66fd": 3802,
      "332e": 3803,
      "144c": 3804,
      "357b": 3805,
      "d901": 3806,
      "af00": 3807,
      "9601": 3808,
      "ca01": 3809,
      "f000": 3810,
      "0a79": 3811,
      "a600": 3812,
      "00a2": 3813,
      "00bb": 3814,
      "8501": 3815,
      "9701": 3816,
      "a900": 3817,
      "0240": 3818,
      "de01": 3819,
      "2f01": 3820,
      "0a82": 3821,
      "ed04": 3822,
      "00aa": 3823,
      "02c0": 3824,
      "9000": 3825,
      "4801": 3826,
      "1412": 3827,
      "b801": 3828,
      "013a": 3829,
      "7700": 3830,
      "181b": 3831,
      "6908": 3832,
      "5900": 3833,
      "9700": 3834,
      "2120": 3835,
      "d002": 3836,
      "d201": 3837,
      "fb00": 3838,
      "00f5": 3839,
      "8600": 3840,
      "9e80": 3841,
      "746f": 3842,
      "e800": 3843,
      "fa01": 3844,
      "bc01": 3845,
      "0a9d": 3846,
      "b200": 3847,
      "0afe": 3848,
      "001e": 3849,
      "fe80": 3850,
      "00c9": 3851,
      "2a13": 3852,
      "009a": 3853,
      "0082": 3854,
      "d801": 3855,
      "b601": 3856,
      "0c4c": 3857,
      "066c": 3858,
      "5b00": 3859,
      "00b6": 3860,
      "00b9": 3861,
      "0165": 3862,
      "8101": 3863,
      "7201": 3864,
      "0235": 3865,
      "009c": 3866,
      "00e7": 3867,
      "be01": 3868,
      "8b01": 3869,
      "00c7": 3870,
      "0a56": 3871,
      "00bc": 3872,
      "00a1": 3873,
      "3480": 3874,
      "00bd": 3875,
      "d600": 3876,
      "0120": 3877,
      "1809": 3878,
      "022e": 3879,
      "f701": 3880,
      "ba01": 3881,
      "101b": 3882,
      "6f00": 3883,
      "0a93": 3884,
      "0b01": 3885,
      "9900": 3886,
      "1270": 3887,
      "003c": 3888,
      "1405": 3889,
      "00f1": 3890,
      "ea01": 3891,
      "c680": 3892,
      "4b00": 3893,
      "a501": 3894,
      "0205": 3895,
      "ba80": 3896,
      "0422": 3897,
      "3240": 3898,
      "00e4": 3899,
      "5600": 3900,
      "021f": 3901,
      "7322": 3902,
      "c900": 3903,
      "8201": 3904,
      "008c": 3905,
      "0a14": 3906,
      "2080": 3907,
      "a800": 3908,
      "2201": 3909,
      "e901": 3910,
      "d500": 3911,
      "00eb": 3912,
      "009f": 3913,
      "af20": 3914,
      "8900": 3915,
      "0305": 3916,
      "15f0": 3917,
      "f5cc": 3918,
      "2222": 3919,
      "2804": 3920,
      "1b18": 3921,
      "5b01": 3922,
      "5c00": 3923,
      "2920": 3924,
      "0143": 3925,
      "f400": 3926,
      "7680": 3927,
      "7900": 3928,
      "8002": 3929,
      "6601": 3930,
      "3101": 3931,
      "0094": 3932,
      "1048": 3933,
      "1844": 3934,
      "8100": 3935,
      "0a1a": 3936,
      "00c6": 3937,
      "1404": 3938,
      "0006": 3939,
      "c780": 3940,
      "af01": 3941,
      "5300": 3942,
      "406c": 3943,
      "5001": 3944,
      "3d02": 3945,
      "0050": 3946,
      "8200": 3947,
      "5401": 3948,
      "0129": 3949,
      "4e70": 3950,
      "0acd": 3951,
      "9b01": 3952,
      "8a01": 3953,
      "00b3": 3954,
      "1012": 3955,
      "00ab": 3956,
      "9b00": 3957,
      "9e01": 3958,
      "0111": 3959,
      "f501": 3960,
      "0512": 3961,
      "00b7": 3962,
      "00ba": 3963,
      "0f82": 3964,
      "1712": 3965,
      "1010": 3966,
      "9300": 3967,
      "0a89": 3968,
      "003e": 3969,
      "0480": 3970,
      "4b01": 3971,
      "1480": 3972,
      "7e00": 3973,
      "0b18": 3974,
      "400c": 3975,
      "0a5c": 3976,
      "866a": 3977,
      "1563": 3978,
      "2e40": 3979,
      "5802": 3980,
      "d00c": 3981,
      "8500": 3982,
      "00af": 3983,
      "0092": 3984,
      "0704": 3985,
      "6e65": 3986,
      "5501": 3987,
      "8f01": 3988,
      "064e": 3989,
      "0081": 3990,
      "4f01": 3991,
      "a801": 3992,
      "6400": 3993,
      "7213": 3994,
      "3801": 3995,
      "a500": 3996,
      "c600": 3997,
      "fe60": 3998,
      "7366": 3999,
      "8202": 4000,
      "3301": 4001,
      "aa01": 4002,
      "0322": 4003,
      "0007": 4004,
      "3d80": 4005,
      "cced": 4006,
      "5472": 4007,
      "f801": 4008,
      "9c01": 4009,
      "9200": 4010,
      "0096": 4011,
      "6d01": 4012,
      "7d01": 4013,
      "3980": 4014,
      "0405": 4015,
      "ab01": 4016,
      "0a70": 4017,
      "be02": 4018,
      "9a00": 4019,
      "5700": 4020,
      "35e3": 4021,
      "5301": 4022,
      "083a": 4023,
      "270a": 4024,
      "8b00": 4025,
      "726f": 4026,
      "ef00": 4027,
      "8901": 4028,
      "5c01": 4029,
      "a70e": 4030,
      "8c01": 4031,
      "b600": 4032,
      "5f01": 4033,
      "6101": 4034,
      "8e00": 4035,
      "0a74": 4036,
      "2aa1": 4037,
      "04b8": 4038,
      "e680": 4039,
      "a701": 4040,
      "402a": 4041,
      "8e01": 4042,
      "3134": 4043,
      "081f": 4044,
      "5101": 4045,
      "ee00": 4046,
      "9500": 4047,
      "1f18": 4048,
      "4302": 4049,
      "ef01": 4050,
      "0099": 4051,
      "0a1f": 4052,
      "9600": 4053,
      "da01": 4054,
      "00cb": 4055,
      "2da0": 4056,
      "c101": 4057,
      "961c": 4058,
      "e712": 4059,
      "c701": 4060,
      "2701": 4061,
      "bb01": 4062,
      "00a7": 4063,
      "b900": 4064,
      "9a01": 4065,
      "01c8": 4066,
      "f956": 4067,
      "0a2d": 4068,
      "0093": 4069,
      "ed01": 4070,
      "aa80": 4071,
      "8f00": 4072,
      "f480": 4073,
      "7501": 4074,
      "a202": 4075,
      "04a9": 4076,
      "7090": 4077,
      "f543": 4078,
      "0d4c": 4079,
      "0060": 4080,
      "b902": 4081,
      "48a2": 4082,
      "8801": 4083,
      "016e": 4084,
      "3f01": 4085,
      "4401": 4086,
      "2550": 4087,
      "a700": 4088,
      "9f00": 4089,
      "676f": 4090,
      "0770": 4091,
      "c301": 4092,
      "fa80": 4093,
      "6563": 4094,
      "e601": 4095,
      "ba00": 4096,
      "0033": 4097,
      "023b": 4098,
      "005a": 4099,
      "b901": 4100,
      "6f63": 4101,
      "eb01": 4102,
      "005e": 4103,
      "6301": 4104,
      "3333": 4105,
      "0030": 4106,
      "016f": 4107,
      "6f01": 4108,
      "9d01": 4109,
      "9f01": 4110,
      "6501": 4111,
      "427d": 4112,
      "3401": 4113,
      "cc00": 4114,
      "7401": 4115,
      "7100": 4116,
      "6001": 4117,
      "008f": 4118,
      "a400": 4119,
      "7e02": 4120,
      "7412": 4121,
      "00ef": 4122,
      "bcee": 4123,
      "7a00": 4124,
      "3c01": 4125,
      "2680": 4126,
      "001f": 4127,
      "c4fa": 4128,
      "e500": 4129,
      "1418": 4130,
      "aca0": 4131,
      "25a0": 4132,
      "8c45": 4133,
      "6102": 4134,
      "3001": 4135,
      "01e0": 4136,
      "0a95": 4137,
      "656e": 4138,
      "0097": 4139,
      "6202": 4140,
      "4701": 4141,
      "6c01": 4142,
      "6f6f": 4143,
      "b400": 4144,
      "c400": 4145,
      "ca80": 4146,
      "4d01": 4147,
      "70fe": 4148,
      "0adc": 4149,
      "4042": 4150,
      "70e0": 4151,
      "0054": 4152,
      "8004": 4153,
      "bf01": 4154,
      "1425": 4155,
      "c700": 4156,
      "1403": 4157,
      "0ab2": 4158,
      "f800": 4159,
      "676c": 4160,
      "7301": 4161,
      "7363": 4162,
      "b700": 4163,
      "6f67": 4164,
      "0095": 4165,
      "7701": 4166,
      "7601": 4167,
      "3901": 4168,
      "2c01": 4169,
      "1860": 4170,
      "f100": 4171,
      "6701": 4172,
      "008e": 4173,
      "560a": 4174,
      "9b80": 4175,
      "2e67": 4176,
      "2d01": 4177,
      "6680": 4178,
      "bd02": 4179,
      "4702": 4180,
      "0308": 4181,
      "1264": 4182,
      "4301": 4183,
      "0a18": 4184,
      "7801": 4185,
      "3501": 4186,
      "d302": 4187,
      "10cd": 4188,
      "3080": 4189,
      "f300": 4190,
      "9680": 4191,
      "0f31": 4192,
      "0015": 4193,
      "1808": 4194,
      "0a47": 4195,
      "40fe": 4196,
      "0232": 4197,
      "cb01": 4198,
      "0109": 4199,
      "0a92": 4200,
      "ab00": 4201,
      "f0d7": 4202,
      "7001": 4203,
      "a614": 4204,
      "0066": 4205,
      "570a": 4206,
      "3a5b": 4207,
      "bce3": 4208,
      "7901": 4209,
      "7a01": 4210,
      "c500": 4211,
      "5901": 4212,
      "736f": 4213,
      "0a3c": 4214,
      "7c00": 4215,
      "7072": 4216,
      "7b01": 4217,
      "101a": 4218,
      "4b80": 4219,
      "4180": 4220,
      "9580": 4221,
      "3738": 4222,
      "0a0c": 4223,
      "ce00": 4224,
      "70b0": 4225,
      "0044": 4226,
      "01d0": 4227,
      "427e": 4228,
      "5701": 4229,
      "ae80": 4230,
      "ff80": 4231,
      "5780": 4232,
      "7f01": 4233,
      "9d00": 4234,
      "7551": 4235,
      "6e80": 4236,
      "7c01": 4237,
      "9880": 4238,
      "cb00": 4239,
      "3b01": 4240,
      "1877": 4241,
      "06e5": 4242,
      "2b01": 4243,
      "eb00": 4244,
      "1a1e": 4245,
      "3530": 4246,
      "f008": 4247,
      "6508": 4248,
      "009b": 4249,
      "104c": 4250,
      "5f80": 4251,
      "9c80": 4252,
      "7b02": 4253,
      "dd00": 4254,
      "17f0": 4255,
      "520b": 4256,
      "6465": 4257,
      "404c": 4258,
      "251a": 4259,
      "3701": 4260,
      "5801": 4261,
      "7b80": 4262,
      "04ff": 4263,
      "08fe": 4264,
      "f500": 4265,
      "d452": 4266,
      "70d0": 4267,
      "126f": 4268,
      "8780": 4269,
      "4c41": 4270,
      "6973": 4271,
      "010d": 4272,
      "2e63": 4273,
      "70a8": 4274,
      "7101": 4275,
      "019b": 4276,
      "0ada": 4277,
      "70e8": 4278,
      "b100": 4279,
      "1a80": 4280,
      "ad00": 4281,
      "47b5": 4282,
      "70f8": 4283,
      "21f0": 4284,
      "0024": 4285,
      "f780": 4286,
      "7d00": 4287,
      "0115": 4288,
      "0028": 4289,
      "70a0": 4290,
      "6f74": 4291,
      "0aba": 4292,
      "0aac": 4293,
      "df54": 4294,
      "6372": 4295,
      "d04e": 4296,
      "fffd": 4297,
      "0add": 4298,
      "9380": 4299,
      "025a": 4300,
      "e700": 4301,
      "0041": 4302,
      "70c8": 4303,
      "5280": 4304,
      "db80": 4305,
      "40ff": 4306,
      "5cff": 4307,
      "c102": 4308,
      "87a7": 4309,
      "2780": 4310,
      "0a04": 4311,
      "e202": 4312,
      "eb17": 4313,
      "352e": 4314,
      "93a1": 4315,
      "3dbd": 4316,
      "be00": 4317,
      "df53": 4318,
      "3f80": 4319,
      "fee2": 4320,
      "6280": 4321,
      "6b01": 4322,
      "4f80": 4323,
      "740a": 4324,
      "732e": 4325,
      "2e10": 4326,
      "4902": 4327,
      "0c02": 4328,
      "6f34": 4329,
      "017a": 4330,
      "002d": 4331,
      "013e": 4332,
      "f593": 4333,
      "e280": 4334,
      "ee80": 4335,
      "2f12": 4336,
      "0de0": 4337,
      "0226": 4338,
      "6f6c": 4339,
      "4d02": 4340,
      "005c": 4341,
      "6967": 4342,
      "8302": 4343,
      "8aff": 4344,
      "70c0": 4345,
      "4403": 4346,
      "0042": 4347,
      "19f0": 4348,
      "ff04": 4349,
      "18a0": 4350,
      "d502": 4351,
      "7a20": 4352,
      "3e80": 4353,
      "1b02": 4354,
      "70d8": 4355,
      "0385": 4356,
      "140c": 4357,
      "2708": 4358,
      "f580": 4359,
      "cc80": 4360,
      "1027": 4361,
      "ace0": 4362,
      "8280": 4363,
      "4901": 4364,
      "004d": 4365,
      "0a77": 4366,
      "3837": 4367,
      "6c76": 4368,
      "7f80": 4369,
      "0408": 4370,
      "03ff": 4371,
      "0039": 4372,
      "414c": 4373,
      "074e": 4374,
      "9602": 4375,
      "180e": 4376,
      "7202": 4377,
      "ce20": 4378,
      "68ff": 4379,
      "18c7": 4380,
      "df56": 4381,
      "ba70": 4382,
      "8d80": 4383,
      "0a11": 4384,
      "3339": 4385,
      "3380": 4386,
      "02ce": 4387,
      "4088": 4388,
      "4d44": 4389,
      "0274": 4390,
      "1408": 4391,
      "c3d6": 4392,
      "fe02": 4393,
      "6261": 4394,
      "6164": 4395,
      "7508": 4396,
      "2e02": 4397,
      "890e": 4398,
      "7302": 4399,
      "6808": 4400,
      "706f": 4401,
      "0a84": 4402,
      "c502": 4403,
      "1824": 4404,
      "4c48": 4405,
      "2e80": 4406,
      "d2fe": 4407,
      "96ce": 4408,
      "7c80": 4409,
      "392e": 4410,
      "3563": 4411,
      "1312": 4412,
      "1813": 4413,
      "c402": 4414,
      "006c": 4415,
      "f880": 4416,
      "5fe6": 4417,
      "cc02": 4418,
      "09e2": 4419,
      "0918": 4420,
      "ca02": 4421,
      "0bbe": 4422,
      "70fb": 4423,
      "3136": 4424,
      "084e": 4425,
      "6c2e": 4426,
      "05b8": 4427,
      "6aa3": 4428,
      "4004": 4429,
      "7373": 4430,
      "8f80": 4431,
      "3236": 4432,
      "e502": 4433,
      "8680": 4434,
      "5102": 4435,
      "70ff": 4436,
      "709c": 4437,
      "0e31": 4438,
      "1710": 4439,
      "d380": 4440,
      "7074": 4441,
      "0a0a": 4442,
      "5680": 4443,
      "80d1": 4444,
      "2232": 4445,
      "70b8": 4446,
      "1a4c": 4447,
      "0450": 4448,
      "5ff7": 4449,
      "b3cc": 4450,
      "62a0": 4451,
      "0037": 4452,
      "0329": 4453,
      "1410": 4454,
      "b102": 4455,
      "01fa": 4456,
      "0245": 4457,
      "0ab0": 4458,
      "70d2": 4459,
      "a980": 4460,
      "bb80": 4461,
      "1322": 4462,
      "0076": 4463,
      "140e": 4464,
      "c202": 4465,
      "c602": 4466,
      "031e": 4467,
      "0c04": 4468,
      "1c25": 4469,
      "14e4": 4470,
      "003b": 4471,
      "059c": 4472,
      "ea80": 4473,
      "6c9e": 4474,
      "180a": 4475,
      "14d6": 4476,
      "44a9": 4477,
      "d280": 4478,
      "2541": 4479,
      "6e61": 4480,
      "03b6": 4481,
      "25c2": 4482,
      "03a3": 4483,
      "442c": 4484,
      "7c52": 4485,
      "3580": 4486,
      "02e2": 4487,
      "0a54": 4488,
      "3135": 4489,
      "2df0": 4490,
      "0036": 4491,
      "14ce": 4492,
      "3a80": 4493,
      "0a96": 4494,
      "0344": 4495,
      "0053": 4496,
      "ac03": 4497,
      "7780": 4498,
      "0073": 4499,
      "003d": 4500,
      "1b25": 4501,
      "709f": 4502,
      "bd80": 4503,
      "c743": 4504,
      "0504": 4505,
      "4173": 4506,
      "41a6": 4507,
      "1c80": 4508,
      "0052": 4509,
      "db88": 4510,
      "31f0": 4511,
      "df55": 4512,
      "2c20": 4513,
      "440c": 4514,
      "0312": 4515,
      "8502": 4516,
      "1440": 4517,
      "6880": 4518,
      "2e0a": 4519,
      "4ad2": 4520,
      "d180": 4521,
      "fa02": 4522,
      "1473": 4523,
      "6708": 4524,
      "2244": 4525,
      "80c7": 4526,
      "70fa": 4527,
      "0166": 4528,
      "0a4e": 4529,
      "01b0": 4530,
      "0026": 4531,
      "708e": 4532,
      "fee0": 4533,
      "9080": 4534,
      "7e80": 4535,
      "866b": 4536,
      "0f4c": 4537,
      "0296": 4538,
      "14c5": 4539,
      "7274": 4540,
      "0074": 4541,
      "02ee": 4542,
      "1273": 4543,
      "0038": 4544,
      "9502": 4545,
      "14df": 4546,
      "7050": 4547,
      "12a9": 4548,
      "22f0": 4549,
      "4140": 4550,
      "1495": 4551,
      "124c": 4552,
      "6480": 4553,
      "d9f0": 4554,
      "8662": 4555,
      "7802": 4556,
      "c2d7": 4557,
      "0ad4": 4558,
      "001b": 4559,
      "d72f": 4560,
      "4003": 4561,
      "146a": 4562,
      "d402": 4563,
      "6579": 4564,
      "1817": 4565,
      "bb02": 4566,
      "0ae4": 4567,
      "6d2f": 4568,
      "05c8": 4569,
      "0067": 4570,
      "b680": 4571,
      "0c18": 4572,
      "0013": 4573,
      "927a": 4574,
      "0a35": 4575,
      "1409": 4576,
      "51ff": 4577,
      "05e6": 4578,
      "0027": 4579,
      "9cbb": 4580,
      "3330": 4581,
      "a780": 4582,
      "ac20": 4583,
      "4044": 4584,
      "a602": 4585,
      "70f5": 4586,
      "7809": 4587,
      "1ef0": 4588,
      "04d3": 4589,
      "1475": 4590,
      "80e1": 4591,
      "04a8": 4592,
      "6cdb": 4593,
      "180c": 4594,
      "9180": 4595,
      "9202": 4596,
      "01ee": 4597,
      "0a23": 4598,
      "48cc": 4599,
      "1261": 4600,
      "300a": 4601,
      "2ac1": 4602,
      "da71": 4603,
      "4090": 4604,
      "8661": 4605,
      "1c12": 4606,
      "4c02": 4607,
      "6464": 4608,
      "082e": 4609,
      "d8f0": 4610,
      "0058": 4611,
      "32cc": 4612,
      "8402": 4613,
      "1470": 4614,
      "141b": 4615,
      "4e80": 4616,
      "0a86": 4617,
      "0222": 4618,
      "005d": 4619,
      "0206": 4620,
      "140f": 4621,
      "0a24": 4622,
      "0046": 4623,
      "fb2e": 4624,
      "6865": 4625,
      "828a": 4626,
      "0870": 4627,
      "70db": 4628,
      "007e": 4629,
      "df8d": 4630,
      "006e": 4631,
      "1019": 4632,
      "0a1c": 4633,
      "05f0": 4634,
      "08de": 4635,
      "0061": 4636,
      "f803": 4637,
      "6767": 4638,
      "0072": 4639,
      "6970": 4640,
      "7840": 4641,
      "d29d": 4642,
      "f0f0": 4643,
      "106a": 4644,
      "1406": 4645,
      "77e6": 4646,
      "e402": 4647,
      "4a02": 4648,
      "d102": 4649,
      "05de": 4650,
      "01d9": 4651,
      "02f3": 4652,
      "140b": 4653,
      "007a": 4654,
      "2522": 4655,
      "02f7": 4656,
      "c3dc": 4657,
      "1864": 4658,
      "d60e": 4659,
      "1218": 4660,
      "08ff": 4661,
      "70b4": 4662,
      "406b": 4663,
      "70ce": 4664,
      "0262": 4665,
      "6f68": 4666,
      "8667": 4667,
      "114c": 4668,
      "002f": 4669,
      "0310": 4670,
      "2242": 4671,
      "e180": 4672,
      "70de": 4673,
      "2302": 4674,
      "1318": 4675,
      "d010": 4676,
      "4e20": 4677,
      "e5f0": 4678,
      "3612": 4679,
      "5004": 4680,
      "6b12": 4681,
      "b002": 4682,
      "0051": 4683,
      "0efe": 4684,
      "1cf0": 4685,
      "9102": 4686,
      "70aa": 4687,
      "024d": 4688,
      "020c": 4689,
      "a412": 4690,
      "0a85": 4691,
      "0f12": 4692,
      "1618": 4693,
      "1812": 4694,
      "6619": 4695,
      "0604": 4696,
      "ab80": 4697,
      "4041": 4698,
      "01c7": 4699,
      "70e2": 4700,
      "1422": 4701,
      "1c45": 4702,
      "14d3": 4703,
      "d812": 4704,
      "027b": 4705,
      "2170": 4706,
      "e6f0": 4707,
      "70be": 4708,
      "70e4": 4709,
      "43b3": 4710,
      "eb0f": 4711,
      "70f9": 4712,
      "1602": 4713,
      "007b": 4714,
      "01fc": 4715,
      "1bf0": 4716,
      "4f02": 4717,
      "0897": 4718,
      "40d0": 4719,
      "f151": 4720,
      "1816": 4721,
      "002b": 4722,
      "4612": 4723,
      "01d3": 4724,
      "032e": 4725,
      "006f": 4726,
      "40f8": 4727,
      "3502": 4728,
      "8f1d": 4729,
      "4110": 4730,
      "0325": 4731,
      "03d0": 4732,
      "8c20": 4733,
      "d969": 4734,
      "70af": 4735,
      "1407": 4736,
      "362e": 4737,
      "1006": 4738,
      "0650": 4739,
      "32af": 4740,
      "021a": 4741,
      "9a02": 4742,
      "3c2f": 4743,
      "d1fe": 4744,
      "db74": 4745,
      "f280": 4746,
      "0078": 4747,
      "70bb": 4748,
      "a9f9": 4749,
      "0a48": 4750,
      "6620": 4751,
      "41fe": 4752,
      "70bd": 4753,
      "bcf3": 4754,
      "8664": 4755,
      "f0fe": 4756,
      "0808": 4757,
      "0214": 4758,
      "2e54": 4759,
      "0a4a": 4760,
      "0029": 4761,
      "0a5d": 4762,
      "1088": 4763,
      "1902": 4764,
      "5202": 4765,
      "05d4": 4766,
      "e980": 4767,
      "d702": 4768,
      "cf02": 4769,
      "565c": 4770,
      "8102": 4771,
      "7402": 4772,
      "0812": 4773,
      "01ac": 4774,
      "7443": 4775,
      "0448": 4776,
      "d031": 4777,
      "3402": 4778,
      "1522": 4779,
      "031d": 4780,
      "a28c": 4781,
      "7a02": 4782,
      "02fb": 4783,
      "61b6": 4784,
      "0c4e": 4785,
      "c768": 4786,
      "7253": 4787,
      "a180": 4788,
      "7902": 4789,
      "7602": 4790,
      "25b2": 4791,
      "8a80": 4792,
      "7408": 4793,
      "70ef": 4794,
      "01a8": 4795,
      "0e70": 4796,
      "02f4": 4797,
      "7562": 4798,
      "8b80": 4799,
      "70c1": 4800,
      "185c": 4801,
      "2e30": 4802,
      "f080": 4803,
      "70e5": 4804,
      "360a": 4805,
      "1426": 4806,
      "181f": 4807,
      "5d26": 4808,
      "024a": 4809,
      "2ae1": 4810,
      "70b1": 4811,
      "004f": 4812,
      "0902": 4813,
      "02a8": 4814,
      "fff5": 4815,
      "0e02": 4816,
      "0b48": 4817,
      "3432": 4818,
      "a424": 4819,
      "04fe": 4820,
      "8087": 4821,
      "70e7": 4822,
      "70ee": 4823,
      "0e80": 4824,
      "e532": 4825,
      "6964": 4826,
      "7092": 4827,
      "d29c": 4828,
      "4f66": 4829,
      "0a37": 4830,
      "c802": 4831,
      "4ef0": 4832,
      "70da": 4833,
      "d602": 4834,
      "82f0": 4835,
      "1b66": 4836,
      "1980": 4837,
      "70b9": 4838,
      "ee02": 4839,
      "70a6": 4840,
      "330a": 4841,
      "bd7e": 4842,
      "1262": 4843,
      "482d": 4844,
      "0fff": 4845,
      "41f0": 4846,
      "0324": 4847,
      "fed3": 4848,
      "8665": 4849,
      "ef5d": 4850,
      "410c": 4851,
      "1811": 4852,
      "3433": 4853,
      "6802": 4854,
      "14e3": 4855,
      "6b89": 4856,
      "70b3": 4857,
      "4a80": 4858,
      "ed80": 4859,
      "031a": 4860,
      "3902": 4861,
      "0079": 4862,
      "c3b4": 4863,
      "70df": 4864,
      "e512": 4865,
      "4602": 4866,
      "030a": 4867,
      "7091": 4868,
      "5cfe": 4869,
      "4112": 4870,
      "0880": 4871,
      "32e1": 4872,
      "a880": 4873,
      "9802": 4874,
      "634f": 4875,
      "0a71": 4876,
      "3322": 4877,
      "03fa": 4878,
      "072c": 4879,
      "6567": 4880,
      "7082": 4881,
      "e39c": 4882,
      "0a7a": 4883,
      "c902": 4884,
      "06f0": 4885,
      "030d": 4886,
      "a070": 4887,
      "7099": 4888,
      "3158": 4889,
      "3237": 4890,
      "708c": 4891,
      "eefa": 4892,
      "7102": 4893,
      "70f4": 4894,
      "0a27": 4895,
      "3780": 4896,
      "8012": 4897,
      "1866": 4898,
      "e399": 4899,
      "9a89": 4900,
      "70ba": 4901,
      "faf0": 4902,
      "70f1": 4903,
      "db70": 4904,
      "6a02": 4905,
      "1288": 4906,
      "1493": 4907,
      "fe10": 4908,
      "70d7": 4909,
      "0ae7": 4910,
      "7086": 4911,
      "005f": 4912,
      "858c": 4913,
      "70c7": 4914,
      "708d": 4915,
      "a902": 4916,
      "40b8": 4917,
      "5265": 4918,
      "4163": 4919,
      "1889": 4920,
      "40c0": 4921,
      "e580": 4922,
      "3332": 4923,
      "31fe": 4924,
      "3338": 4925,
      "70a1": 4926,
      "2a68": 4927,
      "29f0": 4928,
      "70c6": 4929,
      "70e6": 4930,
      "0254": 4931,
      "46c0": 4932,
      "40a8": 4933,
      "1814": 4934,
      "004b": 4935,
      "6173": 4936,
      "7502": 4937,
      "02f6": 4938,
      "8b02": 4939,
      "094e": 4940,
      "03e2": 4941,
      "7083": 4942,
      "3e02": 4943,
      "5c18": 4944,
      "70bf": 4945,
      "de02": 4946,
      "dc02": 4947,
      "b380": 4948,
      "6df4": 4949,
      "70b6": 4950,
      "1416": 4951,
      "df80": 4952,
      "fd78": 4953,
      "f170": 4954,
      "e6de": 4955,
      "70e3": 4956,
      "1180": 4957,
      "70b2": 4958,
      "c3d0": 4959,
      "70c2": 4960,
      "7087": 4961,
      "7084": 4962,
      "143a": 4963,
      "40b0": 4964,
      "e102": 4965,
      "18cc": 4966,
      "8902": 4967,
      "70ec": 4968,
      "ae02": 4969,
      "020d": 4970,
      "fe50": 4971,
      "9c02": 4972,
      "7a6d": 4973,
      "1274": 4974,
      "ad0d": 4975,
      "141a": 4976,
      "70cf": 4977,
      "1489": 4978,
      "9302": 4979,
      "7572": 4980,
      "14cf": 4981,
      "2f80": 4982,
      "9002": 4983,
      "3c02": 4984,
      "70b5": 4985,
      "c618": 4986,
      "4465": 4987,
      "b502": 4988,
      "0136": 4989,
      "70c3": 4990,
      "32d0": 4991,
      "2521": 4992,
      "140d": 4993,
      "536d": 4994,
      "70e9": 4995,
      "0602": 4996,
      "dd80": 4997,
      "3280": 4998,
      "8e21": 4999,
      "6002": 5000,
      "70a7": 5001,
      "4fc3": 5002,
      "8147": 5003,
      "e070": 5004,
      "7081": 5005,
      "0056": 5006,
      "7d80": 5007,
      "ad02": 5008,
      "9780": 5009,
      "1512": 5010,
      "6f80": 5011,
      "0a68": 5012,
      "14bc": 5013,
      "8602": 5014,
      "14cc": 5015,
      "f070": 5016,
      "403a": 5017,
      "4e02": 5018,
      "9f02": 5019,
      "709a": 5020,
      "ac60": 5021,
      "9402": 5022,
      "7089": 5023,
      "1d02": 5024,
      "10cc": 5025,
      "40a0": 5026,
      "e002": 5027,
      "320a": 5028,
      "1102": 5029,
      "3737": 5030,
      "540a": 5031,
      "3202": 5032,
      "fff2": 5033,
      "70dc": 5034,
      "bcff": 5035,
      "7097": 5036,
      "0a5b": 5037,
      "2c07": 5038,
      "70d9": 5039,
      "b802": 5040,
      "0138": 5041,
      "0043": 5042,
      "6470": 5043,
      "7a33": 5044,
      "70bc": 5045,
      "cdfe": 5046,
      "70ca": 5047,
      "709e": 5048,
      "40c8": 5049,
      "870e": 5050,
      "70d1": 5051,
      "0246": 5052,
      "7096": 5053,
      "fffe": 5054,
      "70f7": 5055,
      "bceb": 5056,
      "6b65": 5057,
      "70d5": 5058,
      "164c": 5059,
      "035c": 5060,
      "1df0": 5061,
      "7180": 5062,
      "40e0": 5063,
      "1488": 5064,
      "3a02": 5065,
      "710a": 5066,
      "7222": 5067,
      "97f8": 5068,
      "cf80": 5069,
      "1445": 5070,
      "1263": 5071,
      "f621": 5072,
      "100c": 5073,
      "70a2": 5074,
      "ce59": 5075,
      "0407": 5076,
      "01f8": 5077,
      "8e80": 5078,
      "2d02": 5079,
      "d29f": 5080,
      "8e06": 5081,
      "70cc": 5082,
      "1a02": 5083,
      "9a0c": 5084,
      "0146": 5085,
      "70fd": 5086,
      "c240": 5087,
      "fbc7": 5088,
      "a802": 5089,
      "7094": 5090,
      "5980": 5091,
      "70cd": 5092,
      "f04c": 5093,
      "664c": 5094,
      "6552": 5095,
      "8802": 5096,
      "70c9": 5097,
      "0057": 5098,
      "8787": 5099,
      "6e02": 5100,
      "c731": 5101,
      "0225": 5102,
      "e982": 5103,
      "556e": 5104,
      "2086": 5105,
      "ee63": 5106,
      "1854": 5107,
      "3913": 5108,
      "3a0a": 5109,
      "df02": 5110,
      "fd80": 5111,
      "410b": 5112,
      "1888": 5113,
      "1e02": 5114,
      "1870": 5115,
      "70b7": 5116,
      "3c22": 5117,
      "7160": 5118,
      "2108": 5119,
      "8310": 5120,
      "181d": 5121,
      "da80": 5122,
      "c3e8": 5123,
      "0288": 5124,
      "0b04": 5125,
      "6502": 5126,
      "ff07": 5127,
      "02f8": 5128,
      "7b18": 5129,
      "ff87": 5130,
      "0b80": 5131,
      "190c": 5132,
      "0071": 5133,
      "a08d": 5134,
      "ce4a": 5135,
      "1c40": 5136,
      "14a4": 5137,
      "08fa": 5138,
      "021c": 5139,
      "18ac": 5140,
      "1502": 5141,
      "04b5": 5142,
      "656a": 5143,
      "ad75": 5144,
      "7470": 5145,
      "4d7a": 5146,
      "01ff": 5147,
      "c3bd": 5148,
      "003f": 5149,
      "7070": 5150,
      "0128": 5151,
      "70e1": 5152,
      "05fe": 5153,
      "1f04": 5154,
      "610a": 5155,
      "d902": 5156,
      "9f80": 5157,
      "1dda": 5158,
      "027a": 5159,
      "70ad": 5160,
      "3302": 5161,
      "14fe": 5162,
      "25e6": 5163,
      "2c44": 5164,
      "0311": 5165,
      "0c80": 5166,
      "6874": 5167,
      "427c": 5168,
      "ff12": 5169,
      "1265": 5170,
      "6f0a": 5171,
      "3190": 5172,
      "3e14": 5173,
      "04c0": 5174,
      "40e8": 5175,
      "708a": 5176,
      "226e": 5177,
      "7095": 5178,
      "6608": 5179,
      "70fc": 5180,
      "78ec": 5181,
      "f5ba": 5182,
      "e1c7": 5183,
      "e21e": 5184,
      "70a3": 5185,
      "144a": 5186,
      "162c": 5187,
      "70cb": 5188,
      "0550": 5189,
      "1f02": 5190,
      "c702": 5191,
      "189a": 5192,
      "9988": 5193,
      "1d12": 5194,
      "709d": 5195,
      "3070": 5196,
      "4d12": 5197,
      "0a91": 5198,
      "1414": 5199,
      "5da6": 5200,
      "70a4": 5201,
      "70d3": 5202,
      "70f3": 5203,
      "3702": 5204,
      "18e0": 5205,
      "09fe": 5206,
      "9902": 5207,
      "40b9": 5208,
      "a402": 5209,
      "6fcd": 5210,
      "41f4": 5211,
      "1ff0": 5212,
      "007c": 5213,
      "08d8": 5214,
      "a2f0": 5215,
      "feb0": 5216,
      "026e": 5217,
      "25a3": 5218,
      "489e": 5219,
      "5969": 5220,
      "70c4": 5221,
      "2502": 5222,
      "340a": 5223,
      "3939": 5224,
      "223e": 5225,
      "95a2": 5226,
      "10b9": 5227,
      "70a5": 5228,
      "7f02": 5229,
      "4280": 5230,
      "5002": 5231,
      "4d80": 5232,
      "86a4": 5233,
      "f702": 5234,
      "2e39": 5235,
      "db02": 5236,
      "6c69": 5237,
      "3802": 5238,
      "0803": 5239,
      "b2f0": 5240,
      "df4f": 5241,
      "32f0": 5242,
      "70d6": 5243,
      "2d76": 5244,
      "4089": 5245,
      "03c0": 5246,
      "70c5": 5247,
      "1066": 5248,
      "2380": 5249,
      "0a8d": 5250,
      "0a38": 5251,
      "020e": 5252,
      "0224": 5253,
      "0a80": 5254,
      "708b": 5255,
      "c380": 5256,
      "6070": 5257,
      "0af4": 5258,
      "023a": 5259,
      "ac10": 5260,
      "ded1": 5261,
      "031f": 5262,
      "6927": 5263,
      "1dd0": 5264,
      "646c": 5265,
      "ea02": 5266,
      "6363": 5267,
      "f502": 5268,
      "0d04": 5269,
      "1d80": 5270,
      "9214": 5271,
      "9a80": 5272,
      "70dd": 5273,
      "5502": 5274,
      "7b20": 5275,
      "7380": 5276,
      "14ff": 5277,
      "2263": 5278,
      "acc0": 5279,
      "01ef": 5280,
      "70f2": 5281,
      "b202": 5282,
      "d802": 5283,
      "c3ea": 5284,
      "a680": 5285,
      "3b02": 5286,
      "5c03": 5287,
      "646f": 5288,
      "14c8": 5289,
      "051a": 5290,
      "2280": 5291,
      "3034": 5292,
      "0241": 5293,
      "406a": 5294,
      "01f3": 5295,
      "6a20": 5296,
      "0203": 5297,
      "b517": 5298,
      "e123": 5299,
      "70d4": 5300,
      "d2a0": 5301,
      "007f": 5302,
      "b6fd": 5303,
      "14dd": 5304,
      "df57": 5305,
      "4b18": 5306,
      "70a9": 5307,
      "18e2": 5308,
      "f07d": 5309,
      "f372": 5310,
      "9480": 5311,
      "70ed": 5312,
      "708f": 5313,
      "6602": 5314,
      "7ba1": 5315,
      "70f6": 5316,
      "8c46": 5317,
      "32fb": 5318,
      "c0cf": 5319,
      "a42c": 5320,
      "015a": 5321,
      "10fe": 5322,
      "ce02": 5323,
      "b46d": 5324,
      "0aab": 5325,
      "3680": 5326,
      "70ae": 5327,
      "f1cd": 5328,
      "d1ad": 5329,
      "5f02": 5330,
      "0a50": 5331,
      "18bd": 5332,
      "1202": 5333,
      "5080": 5334,
      "9718": 5335,
      "1b80": 5336,
      "4098": 5337,
      "c880": 5338,
      "de80": 5339,
      "2c78": 5340,
      "0a51": 5341,
      "0260": 5342,
      "fff0": 5343,
      "134c": 5344,
      "5880": 5345,
      "b702": 5346,
      "1302": 5347,
      "0107": 5348,
      "0986": 5349,
      "2d74": 5350,
      "f932": 5351,
      "10c7": 5352,
      "4c0c": 5353,
      "5140": 5354,
      "8e02": 5355,
      "402e": 5356,
      "0276": 5357,
      "7093": 5358,
      "0712": 5359,
      "250b": 5360,
      "14f2": 5361,
      "8666": 5362,
      "1013": 5363,
      "70ac": 5364,
      "6380": 5365,
      "4145": 5366,
      "0810": 5367,
      "7194": 5368,
      "c793": 5369,
      "ba02": 5370,
      "0c44": 5371,
      "b59f": 5372,
      "0502": 5373,
      "96af": 5374,
      "0277": 5375,
      "3002": 5376,
      "0134": 5377,
      "b402": 5378,
      "864e": 5379,
      "6402": 5380,
      "146f": 5381,
      "4380": 5382,
      "1f80": 5383,
      "0cff": 5384,
      "434f": 5385,
      "68df": 5386,
      "fa40": 5387,
      "ed02": 5388,
      "4444": 5389,
      "709b": 5390,
      "7f77": 5391,
      "a67b": 5392,
      "025e": 5393,
      "70ea": 5394,
      "45ff": 5395,
      "4cc9": 5396,
      "7702": 5397,
      "5fe7": 5398,
      "70ab": 5399,
      "d13c": 5400,
      "0d80": 5401,
      "1381": 5402,
      "4117": 5403,
      "a102": 5404,
      "c393": 5405,
      "9c7f": 5406,
      "4d08": 5407,
      "1e80": 5408,
      "3531": 5409,
      "1bff": 5410,
      "1417": 5411,
      "4780": 5412,
      "feb2": 5413,
      "7085": 5414,
      "0ae2": 5415,
      "5702": 5416,
      "3b34": 5417,
      "6cb4": 5418,
      "02f5": 5419,
      "02e0": 5420,
      "6e3e": 5421,
      "0afa": 5422,
      "3235": 5423,
      "1450": 5424,
      "25f3": 5425,
      "3880": 5426,
      "a502": 5427,
      "149c": 5428,
      "0aa6": 5429,
      "8c02": 5430,
      "1411": 5431,
      "5a02": 5432,
      "0314": 5433,
      "1038": 5434,
      "2880": 5435,
      "e8f0": 5436,
      "70eb": 5437,
      "e780": 5438,
      "e405": 5439,
      "9388": 5440,
      "142e": 5441,
      "5e02": 5442,
      "626b": 5443,
      "2402": 5444,
      "112e": 5445,
      "6302": 5446,
      "0a99": 5447,
      "0236": 5448,
      "e602": 5449,
      "696f": 5450,
      "414f": 5451,
      "ffe8": 5452,
      "fb02": 5453,
      "8580": 5454,
      "fea3": 5455,
      "a3f0": 5456,
      "8d02": 5457,
      "4a72": 5458,
      "742d": 5459,
      "21e3": 5460,
      "ffa9": 5461,
      "67fd": 5462,
      "6f73": 5463,
      "0b4e": 5464,
      "f3ee": 5465,
      "2ef0": 5466,
      "005b": 5467,
      "ec9c": 5468,
      "1222": 5469,
      "af66": 5470,
      "c0f0": 5471,
      "ac30": 5472,
      "3602": 5473,
      "0a43": 5474,
      "ea10": 5475,
      "9b02": 5476,
      "03ee": 5477,
      "0ace": 5478,
      "ab3d": 5479,
      "0326": 5480,
      "7c02": 5481,
      "4a20": 5482,
      "23f0": 5483,
      "031c": 5484,
      "af80": 5485,
      "bc02": 5486,
      "8663": 5487,
      "0c08": 5488,
      "d480": 5489,
      "030c": 5490,
      "154c": 5491,
      "208d": 5492,
      "4188": 5493,
      "ac88": 5494,
      "3210": 5495,
      "3434": 5496,
      "1820": 5497,
      "4018": 5498,
      "0a16": 5499,
      "5302": 5500,
      "142c": 5501,
      "0059": 5502,
      "4802": 5503,
      "1413": 5504,
      "8097": 5505,
      "1448": 5506,
      "0319": 5507,
      "0e04": 5508,
      "413a": 5509,
      "37f0": 5510,
      "6780": 5511,
      "0e4e": 5512,
      "7280": 5513,
      "7580": 5514,
      "5580": 5515,
      "2b02": 5516,
      "a302": 5517,
      "184c": 5518,
      "02f9": 5519,
      "427f": 5520,
      "58ee": 5521,
      "420f": 5522,
      "403d": 5523,
      "8704": 5524,
      "ef80": 5525,
      "0488": 5526,
      "400b": 5527,
      "ff06": 5528,
      "4712": 5529,
      "25b0": 5530,
      "cb02": 5531,
      "3312": 5532,
      "701e": 5533,
      "14fa": 5534,
      "e802": 5535,
      "d01a": 5536,
      "143b": 5537,
      "8a02": 5538,
      "af02": 5539,
      "5380": 5540,
      "400d": 5541,
      "3e0a": 5542,
      "f902": 5543,
      "0acc": 5544,
      "2e18": 5545,
      "023e": 5546,
      "021d": 5547,
      "0ad9": 5548,
      "a196": 5549,
      "9702": 5550,
      "fd02": 5551,
      "0c12": 5552,
      "3e3c": 5553,
      "b181": 5554,
      "0a88": 5555,
      "1adb": 5556,
      "0548": 5557,
      "0a46": 5558,
      "6e72": 5559,
      "0c03": 5560,
      "3832": 5561,
      "e902": 5562,
      "aa02": 5563,
      "bc80": 5564,
      "598d": 5565,
      "dd02": 5566,
      "7075": 5567,
      "4c43": 5568,
      "6c02": 5569,
      "edff": 5570,
      "da02": 5571,
      "141e": 5572,
      "180d": 5573,
      "c0f4": 5574,
      "1469": 5575,
      "b018": 5576,
      "025c": 5577,
      "036e": 5578,
      "6b88": 5579,
      "41ec": 5580,
      "1208": 5581,
      "1429": 5582,
      "14ee": 5583,
      "0a2f": 5584,
      "40d8": 5585,
      "a6d6": 5586,
      "b9f0": 5587,
      "1428": 5588,
      "0a22": 5589,
      "2e04": 5590,
      "c7b5": 5591,
      "4a5c": 5592,
      "f64d": 5593,
      "2a80": 5594,
      "147e": 5595,
      "99af": 5596,
      "4cad": 5597,
      "a480": 5598,
      "f4a4": 5599,
      "8380": 5600,
      "31e6": 5601,
      "1007": 5602,
      "4016": 5603,
      "0ab8": 5604,
      "6472": 5605,
      "e702": 5606,
      "d75d": 5607,
      "6cc2": 5608,
      "12d2": 5609,
      "0290": 5610,
      "0c73": 5611,
      "0c28": 5612,
      "1702": 5613,
      "f3fe": 5614,
      "d780": 5615,
      "4113": 5616,
      "1070": 5617,
      "0f02": 5618,
      "0c07": 5619,
      "410e": 5620,
      "bf02": 5621,
      "0818": 5622,
      "05d9": 5623,
      "3910": 5624,
      "ffb5": 5625,
      "1108": 5626,
      "4980": 5627,
      "6d02": 5628,
      "6deb": 5629,
      "0292": 5630,
      "f859": 5631,
      "8913": 5632,
      "015e": 5633,
      "8c7a": 5634,
      "14e2": 5635,
      "1a20": 5636,
      "c7f6": 5637,
      "d974": 5638,
      "b602": 5639,
      "0a8f": 5640,
      "e8f1": 5641,
      "141d": 5642,
      "4005": 5643,
      "4c1a": 5644,
      "6835": 5645,
      "3102": 5646,
      "262c": 5647,
      "14a2": 5648,
      "6b02": 5649,
      "12ae": 5650,
      "5d07": 5651,
      "f680": 5652,
      "3e20": 5653,
      "0252": 5654,
      "06b8": 5655,
      "02b4": 5656,
      "653d": 5657,
      "bb63": 5658,
      "2d31": 5659,
      "4e18": 5660,
      "252b": 5661,
      "08b8": 5662,
      "82ae": 5663,
      "9688": 5664,
      "2e37": 5665,
      "0a9e": 5666,
      "9307": 5667,
      "18c1": 5668,
      "414e": 5669,
      "3025": 5670,
      "0223": 5671,
      "427b": 5672,
      "3a31": 5673,
      "2ef7": 5674,
      "1a88": 5675,
      "0321": 5676,
      "9003": 5677,
      "ab02": 5678,
      "02ed": 5679,
      "0323": 5680,
      "401e": 5681,
      "33d1": 5682,
      "4196": 5683,
      "1380": 5684,
      "5c02": 5685,
      "007d": 5686,
      "2088": 5687,
      "0a65": 5688,
      "6876": 5689,
      "eb02": 5690,
      "0750": 5691,
      "3f02": 5692,
      "793d": 5693,
      "1244": 5694,
      "07f0": 5695,
      "18e3": 5696,
      "3122": 5697,
      "c3cf": 5698,
      "0780": 5699,
      "d071": 5700,
      "715d": 5701,
      "7480": 5702,
      "0731": 5703,
      "8287": 5704,
      "32d3": 5705,
      "fe12": 5706,
      "012d": 5707,
      "8ca9": 5708,
      "b504": 5709,
      "2902": 5710,
      "f002": 5711,
      "6a65": 5712,
      "c980": 5713,
      "1443": 5714,
      "05d6": 5715,
      "2203": 5716,
      "144e": 5717,
      "0d02": 5718,
      "783d": 5719,
      "f980": 5720,
      "6a2e": 5721,
      "7aef": 5722,
      "c68e": 5723,
      "ff32": 5724,
      "6d65": 5725,
      "1b81": 5726,
      "0680": 5727,
      "18a8": 5728,
      "f602": 5729,
      "2e71": 5730,
      "6666": 5731,
      "1ec4": 5732,
      "0f04": 5733,
      "1496": 5734,
      "e302": 5735,
      "08e9": 5736,
      "79fe": 5737,
      "4202": 5738,
      "e352": 5739,
      "8d95": 5740,
      "fec0": 5741,
      "b302": 5742,
      "0123": 5743,
      "0279": 5744,
      "0848": 5745,
      "73fe": 5746,
      "14db": 5747,
      "0a97": 5748,
      "6d20": 5749,
      "0e4a": 5750,
      "4c22": 5751,
      "7368": 5752,
      "a702": 5753,
      "0365": 5754,
      "e833": 5755,
      "9cff": 5756,
      "0a6a": 5757,
      "593e": 5758,
      "0af3": 5759,
      "032a": 5760,
      "7b23": 5761,
      "5d32": 5762,
      "ad97": 5763,
      "1823": 5764,
      "04ee": 5765,
      "cd02": 5766,
      "0970": 5767,
      "c0a3": 5768,
      "0266": 5769,
      "3335": 5770,
      "cb80": 5771,
      "0a62": 5772,
      "8880": 5773,
      "4b02": 5774,
      "e918": 5775,
      "d739": 5776,
      "0aea": 5777,
      "0e46": 5778,
      "aa50": 5779,
      "20b1": 5780,
      "3537": 5781,
      "08da": 5782,
      "0980": 5783,
      "1268": 5784,
      "14c1": 5785,
      "7558": 5786,
      "fc02": 5787,
      "ff5e": 5788,
      "2386": 5789,
      "3336": 5790,
      "fe55": 5791,
      "1680": 5792,
      "d810": 5793,
      "14a3": 5794,
      "72e1": 5795,
      "b5e3": 5796,
      "f302": 5797,
      "02d0": 5798,
      "401a": 5799,
      "0055": 5800,
      "1890": 5801,
      "0d4a": 5802,
      "4c89": 5803,
      "14c0": 5804,
      "3e3a": 5805,
      "41bb": 5806,
      "0e08": 5807,
      "7ac6": 5808,
      "6974": 5809,
      "616c": 5810,
      "0cdf": 5811,
      "ef02": 5812,
      "0412": 5813,
      "ce80": 5814,
      "084a": 5815,
      "0aef": 5816,
      "cd18": 5817,
      "10cb": 5818,
      "acf0": 5819,
      "0b02": 5820,
      "01f2": 5821,
      "183f": 5822,
      "3883": 5823,
      "a280": 5824,
      "6b80": 5825,
      "7c0a": 5826,
      "9faf": 5827,
      "1423": 5828,
      "0106": 5829,
      "eb80": 5830,
      "02c8": 5831,
      "6203": 5832,
      "ee20": 5833,
      "4a17": 5834,
      "f588": 5835,
      "a46b": 5836,
      "4940": 5837,
      "4a15": 5838,
      "07b8": 5839,
      "5402": 5840,
      "880d": 5841,
      "04e2": 5842,
      "2602": 5843,
      "4cdf": 5844,
      "3938": 5845,
      "756e": 5846,
      "0a39": 5847,
      "97c6": 5848,
      "840e": 5849,
      "1780": 5850,
      "1439": 5851,
      "e829": 5852,
      "410d": 5853,
      "174c": 5854,
      "5fe8": 5855,
      "2980": 5856,
      "eb8c": 5857,
      "40c2": 5858,
      "8f02": 5859,
      "1a12": 5860,
      "4cae": 5861,
      "7861": 5862,
      "0362": 5863,
      "1419": 5864,
      "b280": 5865,
      "0258": 5866,
      "b880": 5867,
      "41c0": 5868,
      "be80": 5869,
      "1640": 5870,
      "500e": 5871,
      "0249": 5872,
      "0271": 5873,
      "04df": 5874,
      "3004": 5875,
      "24f0": 5876,
      "d980": 5877,
      "140a": 5878,
      "092e": 5879,
      "4c90": 5880,
      "4549": 5881,
      "4ff0": 5882,
      "ec02": 5883,
      "0238": 5884,
      "41eb": 5885,
      "0a75": 5886,
      "022c": 5887,
      "1015": 5888,
      "0702": 5889,
      "41e8": 5890,
      "5c50": 5891,
      "2e17": 5892,
      "400e": 5893,
      "02d9": 5894,
      "9081": 5895,
      "02cc": 5896,
      "02b0": 5897,
      "1d50": 5898,
      "7d02": 5899,
      "9aba": 5900,
      "ff0f": 5901,
      "1a4f": 5902,
      "b480": 5903,
      "5602": 5904,
      "3437": 5905,
      "4e90": 5906,
      "cccc": 5907,
      "c8fe": 5908,
      "0afb": 5909,
      "4155": 5910,
      "18fe": 5911,
      "1482": 5912,
      "0a2a": 5913,
      "4c08": 5914,
      "0bfe": 5915,
      "5e1c": 5916,
      "02ef": 5917,
      "f202": 5918,
      "e112": 5919,
      "3021": 5920,
      "4fe5": 5921,
      "a203": 5922,
      "8616": 5923,
      "2e35": 5924,
      "fa9c": 5925,
      "2805": 5926,
      "a240": 5927,
      "b00e": 5928,
      "1477": 5929,
      "a423": 5930,
      "1415": 5931,
      "fa10": 5932,
      "85f0": 5933,
      "640a": 5934,
      "0ead": 5935,
      "5c88": 5936,
      "0217": 5937,
      "dff6": 5938,
      "58f5": 5939,
      "6e22": 5940,
      "2f02": 5941,
      "4c40": 5942,
      "4d70": 5943,
      "143d": 5944,
      "5902": 5945,
      "b980": 5946,
      "fe62": 5947,
      "f102": 5948,
      "405d": 5949,
      "4119": 5950,
      "ffee": 5951,
      "3535": 5952,
      "7b0d": 5953,
      "1886": 5954,
      "02a5": 5955,
      "7369": 5956,
      "6252": 5957,
      "4f44": 5958,
      "3174": 5959,
      "ba06": 5960,
      "fee6": 5961,
      "0e88": 5962,
      "0e0b": 5963,
      "80f0": 5964,
      "1468": 5965,
      "2412": 5966,
      "8180": 5967,
      "0a1e": 5968,
      "7d2c": 5969,
      "7980": 5970,
      "0388": 5971,
      "038e": 5972,
      "1171": 5973,
      "1a04": 5974,
      "1a18": 5975,
      "6d10": 5976,
      "14f1": 5977,
      "12a6": 5978,
      "4c12": 5979,
      "f1c6": 5980,
      "0a41": 5981,
      "445c": 5982,
      "3772": 5983,
      "0a8a": 5984,
      "310a": 5985,
      "7243": 5986,
      "4020": 5987,
      "181a": 5988,
      "2c02": 5989,
      "9903": 5990,
      "5b02": 5991,
      "801a": 5992,
      "5e50": 5993,
      "80c2": 5994,
      "0309": 5995,
      "14de": 5996,
      "4a3e": 5997,
      "0156": 5998,
      "2c0a": 5999,
      "3180": 6000,
      "6798": 6001,
      "fe70": 6002,
      "517b": 6003,
      "b489": 6004,
      "ff05": 6005,
      "4580": 6006,
      "a407": 6007,
      "7555": 6008,
      "9c90": 6009,
      "417b": 6010,
      "164f": 6011,
      "02ea": 6012,
      "f402": 6013,
      "040c": 6014,
      "0124": 6015,
      "5910": 6016,
      "028a": 6017,
      "0330": 6018,
      "ac0e": 6019,
      "131b": 6020,
      "3839": 6021,
      "4118": 6022,
      "072e": 6023,
      "10bd": 6024,
      "3eac": 6025,
      "0131": 6026,
      "01e8": 6027,
      "6831": 6028,
      "0e05": 6029,
      "0a28": 6030,
      "e003": 6031,
      "b0b0": 6032,
      "0648": 6033,
      "3935": 6034,
      "019e": 6035,
      "6f02": 6036,
      "ac0d": 6037,
      "4065": 6038,
      "f13f": 6039,
      "0299": 6040,
      "b528": 6041,
      "4010": 6042,
      "a080": 6043,
      "14be": 6044,
      "b180": 6045,
      "fe41": 6046,
      "18d7": 6047,
      "149f": 6048,
      "1819": 6049,
      "a3fe": 6050,
      "b6ff": 6051,
      "2cb4": 6052,
      "4007": 6053,
      "0219": 6054,
      "4195": 6055,
      "4154": 6056,
      "abe1": 6057,
      "25b3": 6058,
      "6702": 6059,
      "9090": 6060,
      "43db": 6061,
      "4176": 6062,
      "03a8": 6063,
      "778e": 6064,
      "6265": 6065,
      "8077": 6066,
      "f505": 6067,
      "41f5": 6068,
      "14b2": 6069,
      "0ad0": 6070,
      "ad80": 6071,
      "3334": 6072,
      "f893": 6073,
      "5ae8": 6074,
      "1b1a": 6075,
      "0d0a": 6076,
      "9d1a": 6077,
      "b09c": 6078,
      "1a6d": 6079,
      "cc11": 6080,
      "0213": 6081,
      "0209": 6082,
      "1103": 6083,
      "1912": 6084,
      "16cf": 6085,
      "310c": 6086,
      "e01e": 6087,
      "ff1e": 6088,
      "b2fe": 6089,
      "18ab": 6090,
      "4880": 6091,
      "14ba": 6092,
      "75fe": 6093,
      "68de": 6094,
      "be53": 6095,
      "0477": 6096,
      "0b5b": 6097,
      "2783": 6098,
      "fea2": 6099,
      "0d70": 6100,
      "1494": 6101,
      "3af0": 6102,
      "4170": 6103,
      "0443": 6104,
      "3718": 6105,
      "6a80": 6106,
      "2e11": 6107,
      "f802": 6108,
      "4106": 6109,
      "3b80": 6110,
      "6a04": 6111,
      "c072": 6112,
      "1150": 6113,
      "6580": 6114,
      "db67": 6115,
      "6240": 6116,
      "14a8": 6117,
      "6902": 6118,
      "1303": 6119,
      "1474": 6120,
      "e31a": 6121,
      "b009": 6122,
      "1304": 6123,
      "549f": 6124,
      "1462": 6125,
      "5dbf": 6126,
      "6270": 6127,
      "4158": 6128,
      "2516": 6129,
      "bbdc": 6130,
      "4034": 6131,
      "8e10": 6132,
      "4122": 6133,
      "7d18": 6134,
      "02cd": 6135,
      "0a03": 6136,
      "0126": 6137,
      "1492": 6138,
      "fef5": 6139,
      "7808": 6140,
      "01d8": 6141,
      "18b6": 6142,
      "4ad3": 6143,
      "0a78": 6144,
      "f380": 6145,
      "0b50": 6146,
      "404e": 6147,
      "7a18": 6148,
      "f519": 6149,
      "da88": 6150,
      "306b": 6151,
      "e880": 6152,
      "5d02": 6153,
      "6423": 6154,
      "0253": 6155,
      "5dec": 6156,
      "0d4e": 6157,
      "400a": 6158,
      "0e1a": 6159,
      "ac50": 6160,
      "d089": 6161,
      "3a40": 6162,
      "1212": 6163,
      "0d18": 6164,
      "182a": 6165,
      "4103": 6166,
      "6e36": 6167,
      "4009": 6168,
      "029d": 6169,
      "142d": 6170,
      "3505": 6171,
      "a005": 6172,
      "0580": 6173,
      "c0c3": 6174,
      "b33e": 6175,
      "1479": 6176,
      "c3ca": 6177,
      "8a23": 6178,
      "4123": 6179,
      "146c": 6180,
      "4040": 6181,
      "80ca": 6182,
      "f906": 6183,
      "8712": 6184,
      "f5f0": 6185,
      "4c2a": 6186,
      "5c5c": 6187,
      "0505": 6188,
      "41e2": 6189,
      "5321": 6190,
      "3a48": 6191,
      "16c4": 6192,
      "d680": 6193,
      "a3e6": 6194,
      "4c30": 6195,
      "8080": 6196,
      "14d5": 6197,
      "c180": 6198,
      "0ac4": 6199,
      "1280": 6200,
      "cbf7": 6201,
      "a3f1": 6202,
      "0372": 6203,
      "418c": 6204,
      "d69a": 6205,
      "1497": 6206,
      "a9c2": 6207,
      "ac70": 6208,
      "d61a": 6209,
      "1203": 6210,
      "c012": 6211,
      "d080": 6212,
      "6362": 6213,
      "ebdc": 6214,
      "08a6": 6215,
      "0a98": 6216,
      "404a": 6217,
      "c3e1": 6218,
      "10c6": 6219,
      "871b": 6220,
      "db2e": 6221,
      "baf4": 6222,
      "4116": 6223,
      "2f74": 6224,
      "3239": 6225,
      "404b": 6226,
      "e874": 6227,
      "0546": 6228,
      "1476": 6229,
      "06fe": 6230,
      "033e": 6231,
      "0a1d": 6232,
      "b0f0": 6233,
      "7552": 6234,
      "63be": 6235,
      "c08e": 6236,
      "5954": 6237,
      "0c5a": 6238,
      "4c9d": 6239,
      "324a": 6240,
      "0562": 6241,
      "4252": 6242,
      "4bff": 6243,
      "f73e": 6244,
      "3632": 6245,
      "9ef0": 6246,
      "145d": 6247,
      "0e43": 6248,
      "2418": 6249,
      "e239": 6250,
      "2551": 6251,
      "4008": 6252,
      "2702": 6253,
      "145c": 6254,
      "4c5a": 6255,
      "0410": 6256,
      "0a3a": 6257,
      "406f": 6258,
      "504e": 6259,
      "60bb": 6260,
      "bcfe": 6261,
      "21fe": 6262,
      "01d1": 6263,
      "16e5": 6264,
      "1d20": 6265,
      "0230": 6266,
      "c280": 6267,
      "035d": 6268,
      "0a5e": 6269,
      "0805": 6270,
      "3e1b": 6271,
      "1466": 6272,
      "8888": 6273,
      "149a": 6274,
      "1851": 6275,
      "14e8": 6276,
      "cd80": 6277,
      "f0b0": 6278,
      "084f": 6279,
      "1432": 6280,
      "f554": 6281,
      "8112": 6282,
      "0446": 6283,
      "0f42": 6284,
      "c3cd": 6285,
      "b3fe": 6286,
      "014d": 6287,
      "32ce": 6288,
      "3c74": 6289,
      "fee4": 6290,
      "146e": 6291,
      "4182": 6292,
      "0ac5": 6293,
      "54ae": 6294,
      "1435": 6295,
      "c580": 6296,
      "4805": 6297,
      "e310": 6298,
      "0228": 6299,
      "f566": 6300,
      "1508": 6301,
      "bf12": 6302,
      "ff5d": 6303,
      "2d62": 6304,
      "035e": 6305,
      "60fa": 6306,
      "05e1": 6307,
      "ab68": 6308,
      "ad12": 6309,
      "0708": 6310,
      "6308": 6311,
      "5a80": 6312,
      "0912": 6313,
      "b013": 6314,
      "fe52": 6315,
      "8d06": 6316,
      "2846": 6317,
      "1bb7": 6318,
      "0e61": 6319,
      "0211": 6320,
      "104a": 6321,
      "66a8": 6322,
      "143c": 6323,
      "1827": 6324,
      "4064": 6325,
      "1467": 6326,
      "6d22": 6327,
      "14b5": 6328,
      "021e": 6329,
      "b10e": 6330,
      "036d": 6331,
      "41d2": 6332,
      "ff10": 6333,
      "08c8": 6334,
      "3834": 6335,
      "c09a": 6336,
      "1453": 6337,
      "41ff": 6338,
      "4e6f": 6339,
      "3838": 6340,
      "c58d": 6341,
      "18b0": 6342,
      "0366": 6343,
      "1430": 6344,
      "0c4a": 6345,
      "1472": 6346,
      "1629": 6347,
      "2e60": 6348,
      "0469": 6349,
      "1204": 6350,
      "6a0c": 6351,
      "01c5": 6352,
      "f079": 6353,
      "8212": 6354,
      "626f": 6355,
      "1431": 6356,
      "2226": 6357,
      "022d": 6358,
      "033a": 6359,
      "ff18": 6360,
      "0f5d": 6361,
      "3736": 6362,
      "14f4": 6363,
      "1e12": 6364,
      "0c48": 6365,
      "e380": 6366,
      "9e40": 6367,
      "82b3": 6368,
      "40fc": 6369,
      "f193": 6370,
      "3043": 6371,
      "1256": 6372,
      "581c": 6373,
      "145b": 6374,
      "c3df": 6375,
      "89ee": 6376,
      "ff0d": 6377,
      "fe90": 6378,
      "412a": 6379,
      "7468": 6380,
      "2264": 6381,
      "411f": 6382,
      "14d0": 6383,
      "5933": 6384,
      "1831": 6385,
      "4172": 6386,
      "3e38": 6387,
      "d89a": 6388,
      "6897": 6389,
      "ac98": 6390,
      "1458": 6391,
      "246c": 6392,
      "3ca0": 6393,
      "4149": 6394,
      "010e": 6395,
      "026d": 6396,
      "16da": 6397,
      "14dc": 6398,
      "9173": 6399,
      "7018": 6400,
      "ecdb": 6401,
      "67ab": 6402,
      "28f0": 6403,
      "ac1b": 6404,
      "4d40": 6405,
      "1438": 6406,
      "2e38": 6407,
      "1d4a": 6408,
      "02e8": 6409,
      "ccbc": 6410,
      "4ea2": 6411,
      "2706": 6412,
      "5555": 6413,
      "08c0": 6414,
      "4028": 6415,
      "01d2": 6416,
      "0e50": 6417,
      "14a1": 6418,
      "afa5": 6419,
      "14ef": 6420,
      "1011": 6421,
      "860e": 6422,
      "25a8": 6423,
      "1830": 6424,
      "1c04": 6425,
      "3539": 6426,
      "5260": 6427,
      "438d": 6428,
      "0c09": 6429,
      "0a69": 6430,
      "d4fe": 6431,
      "035a": 6432,
      "1022": 6433,
      "d60d": 6434,
      "fe81": 6435,
      "1434": 6436,
      "651a": 6437,
      "01fb": 6438,
      "05e3": 6439,
      "b780": 6440,
      "4fc0": 6441,
      "1014": 6442,
      "96b0": 6443,
      "02ec": 6444,
      "1cfe": 6445,
      "a603": 6446,
      "cbdb": 6447,
      "390e": 6448,
      "1454": 6449,
      "14ca": 6450,
      "0aff": 6451,
      "c76c": 6452,
      "1478": 6453,
      "04a3": 6454,
      "79fa": 6455,
      "1089": 6456,
      "ef07": 6457,
      "166a": 6458,
      "2260": 6459,
      "40cf": 6460,
      "e812": 6461,
      "4630": 6462,
      "c857": 6463,
      "4050": 6464,
      "d012": 6465,
      "04d0": 6466,
      "26f0": 6467,
      "2580": 6468,
      "1518": 6469,
      "d318": 6470,
      "f288": 6471,
      "14c7": 6472,
      "094a": 6473,
      "9373": 6474,
      "4077": 6475,
      "73a9": 6476,
      "40b4": 6477,
      "080e": 6478,
      "13f2": 6479,
      "d30c": 6480,
      "0748": 6481,
      "e24e": 6482,
      "4105": 6483,
      "48d1": 6484,
      "c8c0": 6485,
      "d1f2": 6486,
      "4087": 6487,
      "e38a": 6488,
      "1420": 6489,
      "653a": 6490,
      "024b": 6491,
      "1437": 6492,
      "65be": 6493,
      "0361": 6494,
      "5131": 6495,
      "7f87": 6496,
      "3435": 6497,
      "021b": 6498,
      "82b0": 6499,
      "5aae": 6500,
      "18d3": 6501,
      "0a19": 6502,
      "04c8": 6503,
      "407b": 6504,
      "481e": 6505,
      "c080": 6506,
      "4e10": 6507,
      "403b": 6508,
      "419e": 6509,
      "c0b9": 6510,
      "6088": 6511,
      "3932": 6512,
      "14f6": 6513,
      "1451": 6514,
      "9280": 6515,
      "037a": 6516,
      "1487": 6517,
      "595c": 6518,
      "0cdd": 6519,
      "40db": 6520,
      "743a": 6521,
      "4198": 6522,
      "01be": 6523,
      "09d1": 6524,
      "0188": 6525,
      "96fe": 6526,
      "146d": 6527,
      "0e30": 6528,
      "14b8": 6529,
      "6004": 6530,
      "14bb": 6531,
      "f312": 6532,
      "3533": 6533,
      "02d8": 6534,
      "01d6": 6535,
      "419a": 6536,
      "4c3e": 6537,
      "1449": 6538,
      "416c": 6539,
      "1465": 6540,
      "5243": 6541,
      "3d0f": 6542,
      "901e": 6543,
      "f6b2": 6544,
      "141c": 6545,
      "4cc6": 6546,
      "4cfe": 6547,
      "501d": 6548,
      "8450": 6549,
      "1d9c": 6550,
      "0282": 6551,
      "ff0e": 6552,
      "0ade": 6553,
      "4131": 6554,
      "2fdf": 6555,
      "0c20": 6556,
      "d30e": 6557,
      "4037": 6558,
      "0376": 6559,
      "023c": 6560,
      "14b0": 6561,
      "085e": 6562,
      "100b": 6563,
      "58c7": 6564,
      "434c": 6565,
      "c224": 6566,
      "0b52": 6567,
      "12ff": 6568,
      "3010": 6569,
      "02f1": 6570,
      "1455": 6571,
      "8a93": 6572,
      "a41d": 6573,
      "fb80": 6574,
      "cfe2": 6575,
      "f188": 6576,
      "9d80": 6577,
      "034a": 6578,
      "407a": 6579,
      "2480": 6580,
      "1457": 6581,
      "ca12": 6582,
      "049a": 6583,
      "0298": 6584,
      "14c9": 6585,
      "01e6": 6586,
      "4114": 6587,
      "0605": 6588,
      "7308": 6589,
      "68a6": 6590,
      "8c80": 6591,
      "898f": 6592,
      "3031": 6593,
      "c3b1": 6594,
      "b00c": 6595,
      "450d": 6596,
      "ff88": 6597,
      "41ba": 6598,
      "6f22": 6599,
      "03bc": 6600,
      "1484": 6601,
      "55b5": 6602,
      "148d": 6603,
      "3430": 6604,
      "7aec": 6605,
      "12ca": 6606,
      "4150": 6607,
      "30f0": 6608,
      "020b": 6609,
      "182b": 6610,
      "07ae": 6611,
      "1436": 6612,
      "c8f0": 6613,
      "1a1a": 6614,
      "4c18": 6615,
      "e13a": 6616,
      "5928": 6617,
      "214b": 6618,
      "71da": 6619,
      "3d0a": 6620,
      "6d70": 6621,
      "9a29": 6622,
      "4a04": 6623,
      "3260": 6624,
      "c157": 6625,
      "0cd0": 6626,
      "144f": 6627,
      "4c21": 6628,
      "3630": 6629,
      "1490": 6630,
      "ff3b": 6631,
      "5949": 6632,
      "1c3a": 6633,
      "4151": 6634,
      "c3c5": 6635,
      "0ac1": 6636,
      "1552": 6637,
      "0172": 6638,
      "c099": 6639,
      "cb12": 6640,
      "afe0": 6641,
      "16b9": 6642,
      "dc03": 6643,
      "fe1a": 6644,
      "ff3e": 6645,
      "0485": 6646,
      "843d": 6647,
      "14e5": 6648,
      "20f2": 6649,
      "82af": 6650,
      "0ccf": 6651,
      "1205": 6652,
      "1441": 6653,
      "4616": 6654,
      "08f4": 6655,
      "0ae8": 6656,
      "91ed": 6657,
      "4f4f": 6658,
      "ac90": 6659,
      "02fc": 6660,
      "c480": 6661,
      "a0fe": 6662,
      "194c": 6663,
      "148e": 6664,
      "ff60": 6665,
      "1570": 6666,
      "4048": 6667,
      "93ff": 6668,
      "03c9": 6669,
      "149b": 6670,
      "0c1c": 6671,
      "40af": 6672,
      "624f": 6673,
      "0850": 6674,
      "86fe": 6675,
      "8b05": 6676,
      "b481": 6677,
      "3a30": 6678,
      "0c11": 6679,
      "0578": 6680,
      "5b16": 6681,
      "1421": 6682,
      "3410": 6683,
      "0ff9": 6684,
      "ff08": 6685,
      "4032": 6686,
      "2b80": 6687,
      "5be5": 6688,
      "1837": 6689,
      "dffe": 6690,
      "1444": 6691,
      "14ab": 6692,
      "40cd": 6693,
      "0b2e": 6694,
      "149d": 6695,
      "048d": 6696,
      "4c85": 6697,
      "aa8c": 6698,
      "8c90": 6699,
      "fff6": 6700,
      "182e": 6701,
      "10c9": 6702,
      "410f": 6703,
      "062d": 6704,
      "c888": 6705,
      "686f": 6706,
      "e204": 6707,
      "58c1": 6708,
      "7258": 6709,
      "ff4f": 6710,
      "10c1": 6711,
      "2c3f": 6712,
      "6817": 6713,
      "0610": 6714,
      "7a80": 6715,
      "1d4c": 6716,
      "a8b3": 6717,
      "3631": 6718,
      "1219": 6719,
      "626c": 6720,
      "f6a2": 6721,
      "d880": 6722,
      "5c0b": 6723,
      "0ee2": 6724,
      "acd0": 6725,
      "1e18": 6726,
      "c409": 6727,
      "08e2": 6728,
      "14ae": 6729,
      "4023": 6730,
      "ddff": 6731,
      "145e": 6732,
      "40e2": 6733,
      "030e": 6734,
      "7e4a": 6735,
      "0cdc": 6736,
      "e20c": 6737,
      "4115": 6738,
      "fcba": 6739,
      "2e36": 6740,
      "0dfa": 6741,
      "ffcc": 6742,
      "1424": 6743,
      "2a5e": 6744,
      "ff0b": 6745,
      "6d80": 6746,
      "e54f": 6747,
      "033d": 6748,
      "14d8": 6749,
      "94d6": 6750,
      "1c03": 6751,
      "41c1": 6752,
      "0c0e": 6753,
      "4019": 6754,
      "c3e6": 6755,
      "976a": 6756,
      "c3bc": 6757,
      "b288": 6758,
      "27f0": 6759,
      "4c0b": 6760,
      "4215": 6761,
      "52ff": 6762,
      "40e5": 6763,
      "e3fe": 6764,
      "091e": 6765,
      "02c2": 6766,
      "55c6": 6767,
      "4060": 6768,
      "0ce2": 6769,
      "02d7": 6770,
      "4128": 6771,
      "070a": 6772,
      "6520": 6773,
      "4190": 6774,
      "2e33": 6775,
      "8b13": 6776,
      "3532": 6777,
      "401b": 6778,
      "4e88": 6779,
      "acb0": 6780,
      "0816": 6781,
      "1688": 6782,
      "60f0": 6783,
      "3310": 6784,
      "411e": 6785,
      "02ba": 6786,
      "f13b": 6787,
      "05e4": 6788,
      "4ea0": 6789,
      "ff73": 6790,
      "e671": 6791,
      "16ae": 6792,
      "409c": 6793,
      "03d4": 6794,
      "d31e": 6795,
      "07fe": 6796,
      "02f2": 6797,
      "03c8": 6798,
      "68ba": 6799,
      "f5e3": 6800,
      "41df": 6801,
      "1024": 6802,
      "ac08": 6803,
      "102a": 6804,
      "f203": 6805,
      "02fd": 6806,
      "1c1c": 6807,
      "6cff": 6808,
      "f925": 6809,
      "3ef0": 6810,
      "013c": 6811,
      "081e": 6812,
      "080c": 6813,
      "4191": 6814,
      "2e8d": 6815,
      "4e76": 6816,
      "0dd3": 6817,
      "03a0": 6818,
      "6b62": 6819,
      "e67e": 6820,
      "6bb0": 6821,
      "14a0": 6822,
      "5121": 6823,
      "4038": 6824,
      "22fe": 6825,
      "7880": 6826,
      "23b8": 6827,
      "2f03": 6828,
      "029f": 6829,
      "34d4": 6830,
      "bcf6": 6831,
      "4025": 6832,
      "61ce": 6833,
      "0268": 6834,
      "40b1": 6835,
      "99b0": 6836,
      "96be": 6837,
      "4b9c": 6838,
      "037e": 6839,
      "0a76": 6840,
      "cf0e": 6841,
      "a6f0": 6842,
      "746e": 6843,
      "64ff": 6844,
      "b08c": 6845,
      "8851": 6846,
      "1498": 6847,
      "142a": 6848,
      "6244": 6849,
      "0c2e": 6850,
      "ed71": 6851,
      "4c1b": 6852,
      "897a": 6853,
      "0acf": 6854,
      "f9ed": 6855,
      "0306": 6856,
      "4143": 6857,
      "ece6": 6858,
      "78ee": 6859,
      "e088": 6860,
      "ce4d": 6861,
      "6334": 6862,
      "9f36": 6863,
      "40b7": 6864,
      "df1a": 6865,
      "01f6": 6866,
      "d6b0": 6867,
      "18d0": 6868,
      "e10e": 6869,
      "eea8": 6870,
      "4152": 6871,
      "908c": 6872,
      "fef3": 6873,
      "10a3": 6874,
      "b872": 6875,
      "4a03": 6876,
      "4045": 6877,
      "7554": 6878,
      "40ae": 6879,
      "0e2e": 6880,
      "a8f1": 6881,
      "149e": 6882,
      "20eb": 6883,
      "ba12": 6884,
      "4171": 6885,
      "418b": 6886,
      "026f": 6887,
      "3710": 6888,
      "4109": 6889,
      "41b9": 6890,
      "d06a": 6891,
      "411a": 6892,
      "b0fe": 6893,
      "a49b": 6894,
      "792c": 6895,
      "640b": 6896,
      "a428": 6897,
      "0b70": 6898,
      "3c5e": 6899,
      "4021": 6900,
      "aef4": 6901,
      "3c80": 6902,
      "1ebb": 6903,
      "4015": 6904,
      "086c": 6905,
      "9493": 6906,
      "8df5": 6907,
      "1ae3": 6908,
      "e303": 6909,
      "debc": 6910,
      "33f0": 6911,
      "c084": 6912,
      "e6ca": 6913,
      "deff": 6914,
      "4cd0": 6915,
      "10ac": 6916,
      "407c": 6917,
      "4b0c": 6918,
      "147a": 6919,
      "6fce": 6920,
      "144b": 6921,
      "2c5c": 6922,
      "6007": 6923,
      "0c52": 6924,
      "2d33": 6925,
      "0234": 6926,
      "dc80": 6927,
      "d740": 6928,
      "0a21": 6929,
      "5180": 6930,
      "7e55": 6931,
      "a003": 6932,
      "2d80": 6933,
      "0345": 6934,
      "ff0c": 6935,
      "7204": 6936,
      "0abe": 6937,
      "4181": 6938,
      "43ff": 6939,
      "c0fe": 6940,
      "400f": 6941,
      "0278": 6942,
      "fed2": 6943,
      "0e48": 6944,
      "52ed": 6945,
      "7003": 6946,
      "76a3": 6947,
      "ffba": 6948,
      "02d3": 6949,
      "f512": 6950,
      "40bf": 6951,
      "c47b": 6952,
      "0315": 6953,
      "14ed": 6954,
      "4c4a": 6955,
      "8726": 6956,
      "f4d4": 6957,
      "82b1": 6958,
      "1483": 6959,
      "0b12": 6960,
      "4b4c": 6961,
      "ac12": 6962,
      "b088": 6963,
      "3731": 6964,
      "0261": 6965,
      "ad47": 6966,
      "4ad0": 6967,
      "9303": 6968,
      "02ca": 6969,
      "0c05": 6970,
      "1e4c": 6971,
      "2747": 6972,
      "7333": 6973,
      "5d2c": 6974,
      "8017": 6975,
      "d150": 6976,
      "14fb": 6977,
      "3f04": 6978,
      "5c2c": 6979,
      "5433": 6980,
      "cd1a": 6981,
      "7553": 6982,
      "7516": 6983,
      "e0d5": 6984,
      "4a12": 6985,
      "142f": 6986,
      "9af9": 6987,
      "145f": 6988,
      "4e50": 6989,
      "4078": 6990,
      "1460": 6991,
      "5070": 6992,
      "41a0": 6993,
      "b070": 6994,
      "3110": 6995,
      "4053": 6996,
      "16a2": 6997,
      "685d": 6998,
      "35a2": 6999,
      "f01c": 7000,
      "7e81": 7001,
      "081a": 7002,
      "f560": 7003,
      "f418": 7004,
      "143f": 7005,
      "c3c9": 7006,
      "1b32": 7007,
      "4a60": 7008,
      "03eb": 7009,
      "e3f0": 7010,
      "e052": 7011,
      "0ffe": 7012,
      "4af0": 7013,
      "4137": 7014,
      "ed91": 7015,
      "9a13": 7016,
      "091a": 7017,
      "0a52": 7018,
      "0e06": 7019,
      "c4e6": 7020,
      "5688": 7021,
      "a3f8": 7022,
      "7016": 7023,
      "d6fe": 7024,
      "6a87": 7025,
      "141f": 7026,
      "4ae0": 7027,
      "f5d8": 7028,
      "1442": 7029,
      "7a70": 7030,
      "1433": 7031,
      "14da": 7032,
      "c3c6": 7033,
      "10fa": 7034,
      "62d3": 7035,
      "4095": 7036,
      "0154": 7037,
      "f7a1": 7038,
      "14e9": 7039,
      "14cd": 7040,
      "14ac": 7041,
      "012c": 7042,
      "efb3": 7043,
      "4108": 7044,
      "4c33": 7045,
      "6510": 7046,
      "58b1": 7047,
      "0242": 7048,
      "0251": 7049,
      "fe0e": 7050,
      "1a17": 7051,
      "2ed0": 7052,
      "40f3": 7053,
      "3a1e": 7054,
      "415a": 7055,
      "4189": 7056,
      "14c2": 7057,
      "62f0": 7058,
      "0ca6": 7059,
      "4c13": 7060,
      "fc12": 7061,
      "4c0e": 7062,
      "33a7": 7063,
      "4031": 7064,
      "1bfe": 7065,
      "6cc3": 7066,
      "6e44": 7067,
      "f530": 7068,
      "45fe": 7069,
      "7120": 7070,
      "224c": 7071,
      "e34b": 7072,
      "4130": 7073,
      "c3a9": 7074,
      "acb8": 7075,
      "3930": 7076,
      "14ad": 7077,
      "3b18": 7078,
      "4cff": 7079,
      "43f0": 7080,
      "14b3": 7081,
      "81a7": 7082,
      "0cfe": 7083,
      "e0db": 7084,
      "41dc": 7085,
      "9a12": 7086,
      "1cbd": 7087,
      "5e80": 7088,
      "0a59": 7089,
      "77ee": 7090,
      "7e76": 7091,
      "0a9c": 7092,
      "0386": 7093,
      "10c5": 7094,
      "eebf": 7095,
      "c3ad": 7096,
      "a3c3": 7097,
      "1118": 7098,
      "121a": 7099,
      "bb11": 7100,
      "a7f9": 7101,
      "9070": 7102,
      "4ee1": 7103,
      "8f50": 7104,
      "2db2": 7105,
      "448a": 7106,
      "ff1a": 7107,
      "b2b2": 7108,
      "abf5": 7109,
      "41c9": 7110,
      "dc2a": 7111,
      "11ea": 7112,
      "100e": 7113,
      "237c": 7114,
      "3933": 7115,
      "43b0": 7116,
      "fafa": 7117,
      "181e": 7118,
      "a0e2": 7119,
      "2c0b": 7120,
      "0756": 7121,
      "3836": 7122,
      "13d3": 7123,
      "6543": 7124,
      "f2bd": 7125,
      "4445": 7126,
      "b80c": 7127,
      "362c": 7128,
      "af73": 7129,
      "1f50": 7130,
      "4412": 7131,
      "41d1": 7132,
      "0e16": 7133,
      "ff5b": 7134,
      "cc4c": 7135,
      "4187": 7136,
      "eca8": 7137,
      "b20e": 7138,
      "dc8f": 7139,
      "144d": 7140,
      "b80b": 7141,
      "3d70": 7142,
      "4178": 7143,
      "401c": 7144,
      "5c80": 7145,
      "78c8": 7146,
      "e803": 7147,
      "43f6": 7148,
      "af19": 7149,
      "8930": 7150,
      "5104": 7151,
      "c9d2": 7152,
      "0908": 7153,
      "6304": 7154,
      "ac74": 7155,
      "f3f0": 7156,
      "0231": 7157,
      "4791": 7158,
      "7c57": 7159,
      "1875": 7160,
      "7a82": 7161,
      "14fd": 7162,
      "10df": 7163,
      "c3c4": 7164,
      "f283": 7165,
      "94eb": 7166,
      "6c54": 7167,
      "0c1a": 7168,
      "4043": 7169,
      "4c66": 7170,
      "02a3": 7171,
      "a7cb": 7172,
      "6564": 7173,
      "c64c": 7174,
      "c0c4": 7175,
      "a9f2": 7176,
      "6f88": 7177,
      "a3fc": 7178,
      "dbf6": 7179,
      "02a2": 7180,
      "40a1": 7181,
      "d6b8": 7182,
      "0e10": 7183,
      "0ae5": 7184,
      "4014": 7185,
      "6fd0": 7186,
      "1331": 7187,
      "3835": 7188,
      "f709": 7189,
      "0ac6": 7190,
      "6612": 7191,
      "6fd2": 7192,
      "c3ab": 7193,
      "0f24": 7194,
      "6888": 7195,
      "b51a": 7196,
      "8de0": 7197,
      "7cff": 7198,
      "406d": 7199,
      "02bc": 7200,
      "6040": 7201,
      "0e42": 7202,
      "7e30": 7203,
      "4d41": 7204,
      "3636": 7205,
      "1272": 7206,
      "f2b0": 7207,
      "025b": 7208,
      "b6cc": 7209,
      "f407": 7210,
      "51e3": 7211,
      "403f": 7212,
      "4414": 7213,
      "cd20": 7214,
      "705c": 7215,
      "dd11": 7216,
      "14eb": 7217,
      "3037": 7218,
      "5b64": 7219,
      "7445": 7220,
      "5a67": 7221,
      "4c03": 7222,
      "dcef": 7223,
      "4183": 7224,
      "14e7": 7225,
      "ca53": 7226,
      "ce1c": 7227,
      "4126": 7228,
      "414b": 7229,
      "9b21": 7230,
      "41f8": 7231,
      "817d": 7232,
      "0346": 7233,
      "0263": 7234,
      "1a13": 7235,
      "1485": 7236,
      "0888": 7237,
      "625a": 7238,
      "b3f0": 7239,
      "0369": 7240,
      "c3af": 7241,
      "3f4b": 7242,
      "384c": 7243,
      "4a69": 7244,
      "2504": 7245,
      "e828": 7246,
      "3830": 7247,
      "41c3": 7248,
      "405c": 7249,
      "d0e0": 7250,
      "0272": 7251,
      "6080": 7252,
      "0142": 7253,
      "0822": 7254,
      "3b2d": 7255,
      "e01b": 7256,
      "1966": 7257,
      "46a9": 7258,
      "1711": 7259,
      "2577": 7260,
      "0338": 7261,
      "3d06": 7262,
      "41b0": 7263,
      "f5e1": 7264,
      "5ed0": 7265,
      "409a": 7266,
      "3572": 7267,
      "d3ff": 7268,
      "ff2c": 7269,
      "40a2": 7270,
      "142b": 7271,
      "4011": 7272,
      "faff": 7273,
      "2c88": 7274,
      "070c": 7275,
      "4470": 7276,
      "18dc": 7277,
      "417d": 7278,
      "591d": 7279,
      "748c": 7280,
      "d288": 7281,
      "4b7c": 7282,
      "40d1": 7283,
      "3653": 7284,
      "403c": 7285,
      "d0b1": 7286,
      "0374": 7287,
      "c0ae": 7288,
      "41c6": 7289,
      "0420": 7290,
      "02c6": 7291,
      "40e7": 7292,
      "6b21": 7293,
      "ae10": 7294,
      "145a": 7295,
      "02a4": 7296,
      "02ac": 7297,
      "c088": 7298,
      "41a2": 7299,
      "9672": 7300,
      "304f": 7301,
      "3496": 7302,
      "4c2e": 7303,
      "03bb": 7304,
      "ce37": 7305,
      "04fa": 7306,
      "10b8": 7307,
      "dc0e": 7308,
      "029c": 7309,
      "c3b7": 7310,
      "41aa": 7311,
      "3039": 7312,
      "0b3a": 7313,
      "4688": 7314,
      "b18d": 7315,
      "b65b": 7316,
      "cca0": 7317,
      "f958": 7318,
      "01c9": 7319,
      "415f": 7320,
      "0b1a": 7321,
      "146b": 7322,
      "04dd": 7323,
      "9f88": 7324,
      "0ac8": 7325,
      "e56b": 7326,
      "a083": 7327,
      "0a10": 7328,
      "5504": 7329,
      "f912": 7330,
      "80fe": 7331,
      "ff0a": 7332,
      "0510": 7333,
      "0e34": 7334,
      "0c10": 7335,
      "405e": 7336,
      "69af": 7337,
      "7c29": 7338,
      "9512": 7339,
      "0332": 7340,
      "6180": 7341,
      "1456": 7342,
      "6605": 7343,
      "7af7": 7344,
      "4e14": 7345,
      "89e8": 7346,
      "a032": 7347,
      "ff2e": 7348,
      "45ed": 7349,
      "e4fe": 7350,
      "0207": 7351,
      "4017": 7352,
      "0316": 7353,
      "cc08": 7354,
      "6980": 7355,
      "22f4": 7356,
      "ecd0": 7357,
      "30f9": 7358,
      "05a5": 7359,
      "414a": 7360,
      "1c4c": 7361,
      "32a0": 7362,
      "361c": 7363,
      "0a2c": 7364,
      "0e3d": 7365,
      "4161": 7366,
      "41e0": 7367,
      "d070": 7368,
      "10b1": 7369,
      "40be": 7370,
      "40df": 7371,
      "c20e": 7372,
      "4079": 7373,
      "8b10": 7374,
      "ce91": 7375,
      "0cce": 7376,
      "02e6": 7377,
      "4c6e": 7378,
      "f075": 7379,
      "4407": 7380,
      "f003": 7381,
      "f232": 7382,
      "5463": 7383,
      "0f2c": 7384,
      "0e18": 7385,
      "ecc5": 7386,
      "2dba": 7387,
      "ac21": 7388,
      "0c0c": 7389,
      "10ca": 7390,
      "8f93": 7391,
      "1afe": 7392,
      "3538": 7393,
      "3633": 7394,
      "ab13": 7395,
      "4022": 7396,
      "10c0": 7397,
      "03bd": 7398,
      "4006": 7399,
      "a812": 7400,
      "6394": 7401,
      "b599": 7402,
      "401d": 7403,
      "fe26": 7404,
      "0e40": 7405,
      "afd1": 7406,
      "1b4c": 7407,
      "0cdb": 7408,
      "100a": 7409,
      "4c88": 7410,
      "16d0": 7411,
      "0cd1": 7412,
      "129e": 7413,
      "0190": 7414,
      "9a81": 7415,
      "d325": 7416,
      "1d79": 7417,
      "6c18": 7418,
      "5d80": 7419,
      "4ca3": 7420,
      "7922": 7421,
      "3033": 7422,
      "4074": 7423,
      "4027": 7424,
      "2f18": 7425,
      "a832": 7426,
      "415c": 7427,
      "1491": 7428,
      "4a88": 7429,
      "ffb0": 7430,
      "4c4c": 7431,
      "4cf3": 7432,
      "2b18": 7433,
      "7b90": 7434,
      "1427": 7435,
      "bbf3": 7436,
      "02eb": 7437,
      "d1f5": 7438,
      "1704": 7439,
      "0a8b": 7440,
      "0e0c": 7441,
      "d0e5": 7442,
      "3066": 7443,
      "2cf0": 7444,
      "5c25": 7445,
      "7735": 7446,
      "4c62": 7447,
      "170a": 7448,
      "8003": 7449,
      "9c12": 7450,
      "4eb0": 7451,
      "14af": 7452,
      "b004": 7453,
      "4081": 7454,
      "01bc": 7455,
      "4107": 7456,
      "4ae2": 7457,
      "defe": 7458,
      "8ced": 7459,
      "89ea": 7460,
      "b20a": 7461,
      "f6ae": 7462,
      "b580": 7463,
      "cf6e": 7464,
      "c3de": 7465,
      "4082": 7466,
      "01f9": 7467,
      "ff53": 7468,
      "54fe": 7469,
      "c3d7": 7470,
      "148c": 7471,
      "416d": 7472,
      "41be": 7473,
      "4c79": 7474,
      "0b5c": 7475,
      "4df7": 7476,
      "d091": 7477,
      "1a03": 7478,
      "417a": 7479,
      "14e6": 7480,
      "b5fe": 7481,
      "f935": 7482,
      "4058": 7483,
      "41a5": 7484,
      "2818": 7485,
      "7bd0": 7486,
      "2bf0": 7487,
      "0890": 7488,
      "418f": 7489,
      "4c54": 7490,
      "ffdf": 7491,
      "edd1": 7492,
      "1446": 7493,
      "0e0e": 7494,
      "02d4": 7495,
      "1452": 7496,
      "711b": 7497,
      "0395": 7498,
      "088e": 7499,
      "6361": 7500,
      "0a44": 7501,
      "3064": 7502,
      "403e": 7503,
      "4a18": 7504,
      "4035": 7505,
      "3a7b": 7506,
      "0aa7": 7507,
      "f6cb": 7508,
      "f5f6": 7509,
      "6d41": 7510,
      "14f3": 7511,
      "e488": 7512,
      "730a": 7513,
      "5488": 7514,
      "f42c": 7515,
      "4179": 7516,
      "3212": 7517,
      "9736": 7518,
      "2180": 7519,
      "756d": 7520,
      "6018": 7521,
      "4030": 7522,
      "9394": 7523,
      "14c6": 7524,
      "0487": 7525,
      "c3b8": 7526,
      "402d": 7527,
      "f4d8": 7528,
      "02d6": 7529,
      "02df": 7530,
      "62be": 7531,
      "c512": 7532,
      "11af": 7533,
      "cf1a": 7534,
      "7e6b": 7535,
      "040a": 7536,
      "02a1": 7537,
      "3ce2": 7538,
      "ac7e": 7539,
      "c063": 7540,
      "6818": 7541,
      "803a": 7542,
      "41d0": 7543,
      "14fc": 7544,
      "2ea6": 7545,
      "a580": 7546,
      "41d3": 7547,
      "f40e": 7548,
      "63dc": 7549,
      "ba91": 7550,
      "41ed": 7551,
      "6c6f": 7552,
      "e027": 7553,
      "e5c5": 7554,
      "c3ce": 7555,
      "25c0": 7556,
      "41c4": 7557,
      "412f": 7558,
      "819b": 7559,
      "8c3d": 7560,
      "dafe": 7561,
      "4a86": 7562,
      "9bb9": 7563,
      "0ad5": 7564,
      "148f": 7565,
      "14bf": 7566,
      "41da": 7567,
      "4e22": 7568,
      "0948": 7569,
      "fea1": 7570,
      "863c": 7571,
      "14e0": 7572,
      "6dfb": 7573,
      "1d04": 7574,
      "02c9": 7575,
      "ffac": 7576,
      "019c": 7577,
      "0289": 7578,
      "1604": 7579,
      "4085": 7580,
      "b88c": 7581,
      "40d2": 7582,
      "027f": 7583,
      "f04f": 7584,
      "84a8": 7585,
      "030f": 7586,
      "fec1": 7587,
      "efe3": 7588,
      "d0b0": 7589,
      "14d2": 7590,
      "ef76": 7591,
      "409b": 7592,
      "14cb": 7593,
      "af24": 7594,
      "c3c3": 7595,
      "7ca8": 7596,
      "4c4d": 7597,
      "5a1c": 7598,
      "2156": 7599,
      "d912": 7600,
      "0cc0": 7601,
      "350d": 7602,
      "1f4c": 7603,
      "1067": 7604,
      "40f2": 7605,
      "2312": 7606,
      "a5f3": 7607,
      "68fd": 7608,
      "f465": 7609,
      "4303": 7610,
      "a488": 7611,
      "0d1c": 7612,
      "d4f0": 7613,
      "514e": 7614,
      "6e63": 7615,
      "bd10": 7616,
      "0a05": 7617,
      "388d": 7618,
      "410a": 7619,
      "404f": 7620,
      "e559": 7621,
      "0a66": 7622,
      "e188": 7623,
      "66e6": 7624,
      "4c0d": 7625,
      "6df9": 7626,
      "3272": 7627,
      "a2fe": 7628,
      "7dff": 7629,
      "cd61": 7630,
      "1499": 7631,
      "458f": 7632,
      "c5cd": 7633,
      "a010": 7634,
      "9e14": 7635,
      "f20e": 7636,
      "c3d9": 7637,
      "fade": 7638,
      "f7bb": 7639,
      "5219": 7640,
      "3dff": 7641,
      "3a32": 7642,
      "c3d4": 7643,
      "6236": 7644,
      "4330": 7645,
      "0334": 7646,
      "2af0": 7647,
      "457a": 7648,
      "ae86": 7649,
      "acd6": 7650,
      "6b34": 7651,
      "fefe": 7652,
      "4162": 7653,
      "02da": 7654,
      "ab5f": 7655,
      "3211": 7656,
      "b982": 7657,
      "e603": 7658,
      "bb0d": 7659,
      "de2e": 7660,
      "760c": 7661,
      "40ce": 7662,
      "6aaf": 7663,
      "04d8": 7664,
      "407f": 7665,
      "5f90": 7666,
      "561a": 7667,
      "b5ed": 7668,
      "d2ff": 7669,
      "4052": 7670,
      "4c26": 7671,
      "fe82": 7672,
      "dd23": 7673,
      "4132": 7674,
      "2a4c": 7675,
      "0227": 7676,
      "14c4": 7677,
      "120e": 7678,
      "da64": 7679,
      "fe87": 7680,
      "4147": 7681,
      "fe11": 7682,
      "148a": 7683,
      "2c70": 7684,
      "c3bb": 7685,
      "46f0": 7686,
      "4a58": 7687,
      "ffc8": 7688,
      "122e": 7689,
      "7e60": 7690,
      "182f": 7691,
      "264b": 7692,
      "1a4e": 7693,
      "f67f": 7694,
      "0244": 7695,
      "4111": 7696,
      "df94": 7697,
      "c3b0": 7698,
      "417e": 7699,
      "48a4": 7700,
      "6a18": 7701,
      "40a5": 7702,
      "414d": 7703,
      "2a9e": 7704,
      "05f5": 7705,
      "015c": 7706,
      "4063": 7707,
      "09fa": 7708,
      "f8ff": 7709,
      "fa7c": 7710,
      "c809": 7711,
      "5ff4": 7712,
      "09e0": 7713,
      "c3db": 7714,
      "ff15": 7715,
      "402c": 7716,
      "fe71": 7717,
      "14ec": 7718,
      "d874": 7719,
      "0608": 7720,
      "8092": 7721,
      "bce8": 7722,
      "2256": 7723,
      "0a6e": 7724,
      "0b2c": 7725,
      "2212": 7726,
      "93f2": 7727,
      "e004": 7728,
      "02b3": 7729,
      "254e": 7730,
      "8794": 7731,
      "2db0": 7732,
      "ff27": 7733,
      "032d": 7734,
      "4a09": 7735,
      "4775": 7736,
      "c1d3": 7737,
      "4029": 7738,
      "3a1b": 7739,
      "55f0": 7740,
      "a346": 7741,
      "1104": 7742,
      "fb9f": 7743,
      "4059": 7744,
      "ac18": 7745,
      "3934": 7746,
      "0275": 7747,
      "9cdc": 7748,
      "f779": 7749,
      "4051": 7750,
      "41e5": 7751,
      "18c8": 7752,
      "4054": 7753,
      "3534": 7754,
      "0efa": 7755,
      "8dc8": 7756,
      "0522": 7757,
      "5bea": 7758,
      "1459": 7759,
      "025f": 7760,
      "adbe": 7761,
      "3036": 7762,
      "0328": 7763,
      "41ca": 7764,
      "14a5": 7765,
      "a067": 7766,
      "54c0": 7767,
      "029e": 7768,
      "cd4f": 7769,
      "409e": 7770,
      "46fe": 7771,
      "41ae": 7772,
      "930a": 7773,
      "f999": 7774,
      "94c5": 7775,
      "326b": 7776,
      "c422": 7777,
      "039d": 7778,
      "4091": 7779,
      "f4b3": 7780,
      "4218": 7781,
      "042e": 7782,
      "effe": 7783,
      "ff16": 7784,
      "40ee": 7785,
      "4204": 7786,
      "dbfe": 7787,
      "39f0": 7788,
      "04be": 7789,
      "e38f": 7790,
      "3436": 7791,
      "0ad6": 7792,
      "3d0c": 7793,
      "700f": 7794,
      "04e0": 7795,
      "416e": 7796,
      "29cc": 7797,
      "41fc": 7798,
      "a7a6": 7799,
      "e443": 7800,
      "3aa9": 7801,
      "d310": 7802,
      "7044": 7803,
      "40fd": 7804,
      "04a6": 7805,
      "1016": 7806,
      "df5d": 7807,
      "e67d": 7808,
      "22e2": 7809,
      "1580": 7810,
      "e599": 7811,
      "c3a8": 7812,
      "e480": 7813,
      "18c4": 7814,
      "544e": 7815,
      "022f": 7816,
      "0a4b": 7817,
      "11fe": 7818,
      "8d79": 7819,
      "bbb2": 7820,
      "d3e3": 7821,
      "5c58": 7822,
      "41d5": 7823,
      "4046": 7824,
      "3739": 7825,
      "5787": 7826,
      "9fee": 7827,
      "0185": 7828,
      "72af": 7829,
      "d284": 7830,
      "ffe5": 7831,
      "b28c": 7832,
      "fe30": 7833,
      "4935": 7834,
      "04b1": 7835,
      "f572": 7836,
      "6d0a": 7837,
      "0a94": 7838,
      "2895": 7839,
      "035f": 7840,
      "14c3": 7841,
      "01bb": 7842,
      "1e54": 7843,
      "cc23": 7844,
      "3a27": 7845,
      "413e": 7846,
      "147d": 7847,
      "0597": 7848,
      "ffe7": 7849,
      "115b": 7850,
      "4c31": 7851,
      "af09": 7852,
      "3a1a": 7853,
      "e9ba": 7854,
      "b9c0": 7855,
      "4ea3": 7856,
      "10f3": 7857,
      "2ee0": 7858,
      "2447": 7859,
      "b1c4": 7860,
      "0358": 7861,
      "4036": 7862,
      "4185": 7863,
      "4c05": 7864,
      "c3b3": 7865,
      "c812": 7866,
      "1461": 7867,
      "610f": 7868,
      "08ad": 7869,
      "89ec": 7870,
      "1a0a": 7871,
      "4192": 7872,
      "bc0e": 7873,
      "40bb": 7874,
      "1020": 7875,
      "e11b": 7876,
      "fc80": 7877,
      "ff3f": 7878,
      "4099": 7879,
      "836c": 7880,
      "4c0f": 7881,
      "a8f0": 7882,
      "15fe": 7883,
      "fed5": 7884,
      "023d": 7885,
      "3931": 7886,
      "181c": 7887,
      "763a": 7888,
      "10a0": 7889,
      "4c24": 7890,
      "fa50": 7891,
      "8a1a": 7892,
      "41b6": 7893,
      "1486": 7894,
      "c3ac": 7895,
      "4167": 7896,
      "ecaf": 7897,
      "4186": 7898,
      "2c3c": 7899,
      "9e95": 7900,
      "ff97": 7901,
      "682f": 7902,
      "4f12": 7903,
      "14a7": 7904,
      "07f4": 7905,
      "3a13": 7906,
      "dc1f": 7907,
      "f489": 7908,
      "89f3": 7909,
      "c3da": 7910,
      "ff33": 7911,
      "57db": 7912,
      "14b9": 7913,
      "b82a": 7914,
      "10bc": 7915,
      "de55": 7916,
      "40dd": 7917,
      "413c": 7918,
      "416a": 7919,
      "1a1b": 7920,
      "6fcf": 7921,
      "4898": 7922,
      "0c9e": 7923,
      "0269": 7924,
      "1bb6": 7925,
      "3a35": 7926,
      "027c": 7927,
      "14b1": 7928,
      "fafe": 7929,
      "a312": 7930,
      "8b18": 7931,
      "e59a": 7932,
      "c3c7": 7933,
      "4165": 7934,
      "02e1": 7935,
      "fed1": 7936,
      "decb": 7937,
      "120c": 7938,
      "1254": 7939,
      "1aff": 7940,
      "41e6": 7941,
      "bd4d": 7942,
      "a887": 7943,
      "3e7f": 7944,
      "c3ba": 7945,
      "408f": 7946,
      "02be": 7947,
      "e012": 7948,
      "411b": 7949,
      "3afe": 7950,
      "018b": 7951,
      "0ac0": 7952,
      "7b2f": 7953,
      "91df": 7954,
      "9310": 7955,
      "53b3": 7956,
      "feb3": 7957,
      "402b": 7958,
      "4168": 7959,
      "0d8a": 7960,
      "4c28": 7961,
      "34f0": 7962,
      "4257": 7963,
      "ff8f": 7964,
      "0f08": 7965,
      "4138": 7966,
      "4b50": 7967,
      "7b71": 7968,
      "02d5": 7969,
      "3106": 7970,
      "40ef": 7971,
      "3438": 7972,
      "ff2b": 7973,
      "1a08": 7974,
      "0910": 7975,
      "1471": 7976,
      "4a10": 7977,
      "e6fe": 7978,
      "6310": 7979,
      "1255": 7980,
      "b0d6": 7981,
      "80b4": 7982,
      "1248": 7983,
      "4148": 7984,
      "a088": 7985,
      "a1e1": 7986,
      "3038": 7987,
      "50f0": 7988,
      "8088": 7989,
      "40ab": 7990,
      "42ff": 7991,
      "407d": 7992,
      "8bec": 7993,
      "7214": 7994,
      "ff24": 7995,
      "8ff0": 7996,
      "0198": 7997,
      "4c50": 7998,
      "02ae": 7999,
      "0256": 8000,
      "ecba": 8001,
      "411c": 8002,
      "82fe": 8003,
      "4e1a": 8004,
      "811a": 8005,
      "ee88": 8006,
      "75ca": 8007,
      "ed47": 8008,
      "c112": 8009,
      "9fff": 8010,
      "303a": 8011,
      "0560": 8012,
      "29c1": 8013,
      "ddfe": 8014,
      "0b10": 8015,
      "8cbd": 8016,
      "1447": 8017,
      "7292": 8018,
      "0a9a": 8019,
      "3304": 8020,
      "0c31": 8021,
      "440e": 8022,
      "ff59": 8023,
      "41ee": 8024,
      "1861": 8025,
      "c4f0": 8026,
      "0313": 8027,
      "a9cd": 8028,
      "3833": 8029,
      "40c7": 8030,
      "062c": 8031,
      "2304": 8032,
      "027e": 8033,
      "10c3": 8034,
      "c3e4": 8035,
      "302c": 8036,
      "6110": 8037,
      "d470": 8038,
      "5218": 8039,
      "034b": 8040,
      "ee08": 8041,
      "14b7": 8042,
      "0257": 8043,
      "412d": 8044,
      "d40e": 8045,
      "1708": 8046,
      "f347": 8047,
      "14e1": 8048,
      "3c8a": 8049,
      "14f5": 8050,
      "0841": 8051,
      "40c1": 8052,
      "80f2": 8053,
      "6ea7": 8054,
      "2da4": 8055,
      "61c1": 8056,
      "09a0": 8057,
      "c3c0": 8058,
      "0d45": 8059,
      "4024": 8060,
      "f012": 8061,
      "e8cd": 8062,
      "7cde": 8063,
      "2f4c": 8064,
      "330d": 8065,
      "e11d": 8066,
      "cc0c": 8067,
      "4c10": 8068,
      "cf12": 8069,
      "0182": 8070,
      "5205": 8071,
      "40ed": 8072,
      "0273": 8073,
      "8089": 8074,
      "a4fe": 8075,
      "4c3d": 8076,
      "0ccd": 8077,
      "9aff": 8078,
      "14aa": 8079,
      "8945": 8080,
      "eaf0": 8081,
      "b748": 8082,
      "fd88": 8083,
      "09b8": 8084,
      "0882": 8085,
      "5031": 8086,
      "10ee": 8087,
      "12fa": 8088,
      "d821": 8089,
      "41cb": 8090,
      "ff3d": 8091,
      "1a58": 8092,
      "a209": 8093,
      "a018": 8094,
      "3ced": 8095,
      "adc3": 8096,
      "cdf4": 8097,
      "ffd0": 8098,
      "c3c1": 8099,
      "a7fe": 8100,
      "2e12": 8101,
      "9896": 8102,
      "6c80": 8103,
      "161a": 8104,
      "9565": 8105,
      "4c0a": 8106,
      "40fb": 8107,
      "1f1a": 8108,
      "23ef": 8109,
      "13fa": 8110,
      "7d97": 8111,
      "4ce9": 8112,
      "e60e": 8113,
      "627b": 8114,
      "41b3": 8115,
      "ff91": 8116,
      "b6dd": 8117,
      "14f9": 8118,
      "61f0": 8119,
      "24ce": 8120,
      "05f2": 8121,
      "03fb": 8122,
      "4141": 8123,
      "4049": 8124,
      "41ce": 8125,
      "51d0": 8126,
      "4cca": 8127,
      "14a6": 8128,
      "c750": 8129,
      "ed53": 8130,
      "81ff": 8131,
      "2c30": 8132,
      "25a2": 8133,
      "148b": 8134,
      "a503": 8135,
      "f688": 8136,
      "35c2": 8137,
      "7d9a": 8138,
      "8512": 8139,
      "ff9c": 8140,
      "b5fa": 8141,
      "5b7b": 8142,
      "40aa": 8143,
      "0950": 8144,
      "c03a": 8145,
      "3337": 8146,
      "fe53": 8147,
      "d7cc": 8148,
      "b818": 8149,
      "6b3b": 8150,
      "750a": 8151,
      "14b4": 8152,
      "b13b": 8153,
      "409d": 8154,
      "be0c": 8155,
      "40cb": 8156,
      "41cc": 8157,
      "4047": 8158,
      "ff50": 8159,
      "d850": 8160,
      "0e5c": 8161,
      "c3bf": 8162,
      "3c95": 8163,
      "4690": 8164,
      "4068": 8165,
      "29ef": 8166,
      "5b94": 8167,
      "d212": 8168,
      "e897": 8169,
      "11e2": 8170,
      "f21f": 8171,
      "2992": 8172,
      "4033": 8173,
      "dc12": 8174,
      "9604": 8175,
      "bae6": 8176,
      "20a1": 8177,
      "8af1": 8178,
      "0489": 8179,
      "dfc7": 8180,
      "10e0": 8181,
      "4062": 8182,
      "40f5": 8183,
      "183b": 8184,
      "40b6": 8185,
      "b29c": 8186,
      "e5d0": 8187,
      "14d4": 8188,
      "20c8": 8189,
      "412e": 8190,
      "ef98": 8191,
      "79ff": 8192,
      "8803": 8193,
      "4055": 8194,
      "0c70": 8195,
      "1788": 8196,
      "fe36": 8197,
      "f581": 8198,
      "6469": 8199,
      "4ac5": 8200,
      "1612": 8201,
      "016d": 8202,
      "14a9": 8203,
      "4ca9": 8204,
      "41a8": 8205,
      "0a26": 8206,
      "41c2": 8207,
      "4153": 8208,
      "0281": 8209,
      "1a4a": 8210,
      "bdb1": 8211,
      "8870": 8212,
      "418d": 8213,
      "46f2": 8214,
      "fe92": 8215,
      "850e": 8216,
      "1145": 8217,
      "40e4": 8218,
      "96c8": 8219,
      "66cc": 8220,
      "4cb6": 8221,
      "06fc": 8222,
      "0a6b": 8223,
      "2245": 8224,
      "408a": 8225,
      "3cc1": 8226,
      "405b": 8227,
      "02ad": 8228,
      "3439": 8229,
      "107b": 8230,
      "9abf": 8231,
      "41a7": 8232,
      "4d24": 8233,
      "ff7f": 8234,
      "c347": 8235,
      "b6ed": 8236,
      "b812": 8237,
      "fe96": 8238,
      "4157": 8239,
      "4c3c": 8240,
      "4621": 8241,
      "7910": 8242,
      "7e10": 8243,
      "e2ca": 8244,
      "3732": 8245,
      "82b2": 8246,
      "14f7": 8247,
      "80a3": 8248,
      "c3b5": 8249,
      "330e": 8250,
      "02d1": 8251,
      "72f0": 8252,
      "4133": 8253,
      "c3e5": 8254,
      "fede": 8255,
      "4026": 8256,
      "5a40": 8257,
      "40d4": 8258,
      "085f": 8259,
      "ff40": 8260,
      "d3f1": 8261,
      "cc6a": 8262,
      "60be": 8263,
      "7c18": 8264,
      "ffd6": 8265,
      "41a4": 8266,
      "e080": 8267,
      "405f": 8268,
      "028d": 8269,
      "4c68": 8270,
      "c3be": 8271,
      "4c55": 8272,
      "1750": 8273,
      "9d4a": 8274,
      "4eba": 8275,
      "1822": 8276,
      "0336": 8277,
      "b6fe": 8278,
      "ff6f": 8279,
      "1b45": 8280,
      "fdcb": 8281,
      "919a": 8282,
      "dd21": 8283,
      "4066": 8284,
      "edbd": 8285,
      "0e28": 8286,
      "184b": 8287,
      "413b": 8288,
      "40ad": 8289,
      "109f": 8290,
      "1588": 8291,
      "4184": 8292,
      "407e": 8293,
      "1b29": 8294,
      "c3c2": 8295,
      "126a": 8296,
      "1464": 8297,
      "01a2": 8298,
      "402f": 8299,
      "3cb6": 8300,
      "4d71": 8301,
      "0287": 8302,
      "6d79": 8303,
      "ff4b": 8304,
      "1c10": 8305,
      "03b0": 8306,
      "191e": 8307,
      "41e4": 8308,
      "6112": 8309,
      "0389": 8310,
      "138d": 8311,
      "7695": 8312,
      "6222": 8313,
      "9357": 8314,
      "147f": 8315,
      "92fe": 8316,
      "ff13": 8317,
      "a272": 8318,
      "1e75": 8319,
      "3508": 8320,
      "6a69": 8321,
      "1030": 8322,
      "2ee2": 8323,
      "18b2": 8324,
      "408e": 8325,
      "541d": 8326,
      "d612": 8327,
      "2e70": 8328,
      "0ec8": 8329,
      "9312": 8330,
      "095e": 8331,
      "df12": 8332,
      "03a2": 8333,
      "143e": 8334,
      "4013": 8335,
      "ff31": 8336,
      "4159": 8337,
      "419b": 8338,
      "4988": 8339,
      "ef12": 8340,
      "0286": 8341,
      "23f7": 8342,
      "104e": 8343,
      "d967": 8344,
      "40b5": 8345,
      "41af": 8346,
      "f54d": 8347,
      "416b": 8348,
      "a303": 8349,
      "2f04": 8350,
      "f212": 8351,
      "3634": 8352,
      "14ea": 8353,
      "1bfa": 8354,
      "41fd": 8355,
      "fb7b": 8356,
      "1930": 8357,
      "4c09": 8358,
      "4120": 8359,
      "ce0a": 8360,
      "db05": 8361,
      "7118": 8362,
      "0df3": 8363,
      "ab0d": 8364,
      "4160": 8365,
      "41de": 8366,
      "1c32": 8367,
      "6c73": 8368,
      "01ba": 8369,
      "7768": 8370,
      "01d7": 8371,
      "247c": 8372,
      "c77a": 8373,
      "ae03": 8374,
      "9e84": 8375,
      "404d": 8376,
      "3cd7": 8377,
      "3204": 8378,
      "02dc": 8379,
      "af88": 8380,
      "0d1a": 8381,
      "acad": 8382,
      "d410": 8383,
      "4061": 8384,
      "0a7b": 8385,
      "4488": 8386,
      "401f": 8387,
      "ff21": 8388,
      "4097": 8389,
      "acff": 8390,
      "10ab": 8391,
      "4f5d": 8392,
      "010b": 8393,
      "3639": 8394,
      "029a": 8395,
      "0f50": 8396,
      "18b8": 8397,
      "dd9b": 8398,
      "02e4": 8399,
      "147b": 8400,
      "0e62": 8401,
      "40ca": 8402,
      "110e": 8403,
      "4039": 8404,
      "d580": 8405,
      "8312": 8406,
      "700a": 8407,
      "25ab": 8408,
      "48d9": 8409,
      "40d5": 8410,
      "f112": 8411,
      "e503": 8412,
      "36b2": 8413,
      "c3e7": 8414,
      "52db": 8415,
      "0707": 8416,
      "6fd1": 8417,
      "408d": 8418,
      "540b": 8419,
      "0ef5": 8420,
      "ff5f": 8421,
      "ffa4": 8422,
      "4a40": 8423,
      "40ac": 8424,
      "1064": 8425,
      "4687": 8426,
      "03fd": 8427,
      "6286": 8428,
      "4f4e": 8429,
      "4e98": 8430,
      "a710": 8431,
      "41c7": 8432,
      "c3aa": 8433,
      "41a9": 8434,
      "b312": 8435,
      "090a": 8436,
      "685c": 8437,
      "de12": 8438,
      "d179": 8439,
      "f2fe": 8440,
      "44ae": 8441,
      "14d9": 8442,
      "c011": 8443,
      "1166": 8444,
      "0481": 8445,
      "11f9": 8446,
      "95e5": 8447,
      "7360": 8448,
      "af1f": 8449,
      "0337": 8450,
      "ea88": 8451,
      "6048": 8452,
      "01a4": 8453,
      "fe03": 8454,
      "89cb": 8455,
      "ff6b": 8456,
      "40d7": 8457,
      "4a13": 8458,
      "d833": 8459,
      "74ff": 8460,
      "0176": 8461,
      "390f": 8462,
      "1a0e": 8463,
      "40ba": 8464,
      "f330": 8465,
      "d11a": 8466,
      "d118": 8467,
      "4eb2": 8468,
      "ffd3": 8469,
      "01c2": 8470,
      "0295": 8471,
      "79f0": 8472,
      "bcdf": 8473,
      "715c": 8474,
      "7cc5": 8475,
      "5fe9": 8476,
      "536e": 8477,
      "a403": 8478,
      "2508": 8479,
      "9412": 8480,
      "4ed2": 8481,
      "40b2": 8482,
      "8768": 8483,
      "0333": 8484,
      "1112": 8485,
      "0710": 8486,
      "10af": 8487,
      "3831": 8488,
      "f72f": 8489,
      "014f": 8490,
      "406e": 8491,
      "1b04": 8492,
      "405a": 8493,
      "0e1e": 8494,
      "8368": 8495,
      "1c18": 8496,
      "e14f": 8497,
      "fe73": 8498,
      "1af4": 8499,
      "c204": 8500,
      "6923": 8501,
      "1228": 8502,
      "3df0": 8503,
      "8818": 8504,
      "0283": 8505,
      "072b": 8506,
      "4084": 8507,
      "5036": 8508,
      "4135": 8509,
      "920e": 8510,
      "9698": 8511,
      "35a0": 8512,
      "8096": 8513,
      "f531": 8514,
      "4c70": 8515,
      "4ac0": 8516,
      "b6f0": 8517,
      "0e78": 8518,
      "ff75": 8519,
      "4c4b": 8520,
      "c581": 8521,
      "f1fe": 8522,
      "1463": 8523,
      "4a37": 8524,
      "f4f6": 8525,
      "7ccf": 8526,
      "0c41": 8527,
      "02aa": 8528,
      "a6e8": 8529,
      "4318": 8530,
      "30fb": 8531,
      "ff79": 8532,
      "68fe": 8533,
      "5c4a": 8534,
      "a32e": 8535,
      "7d43": 8536,
      "c004": 8537,
      "ce56": 8538,
      "0b4a": 8539,
      "1850": 8540,
      "6092": 8541,
      "8480": 8542,
      "408b": 8543,
      "1e10": 8544,
      "d004": 8545,
      "f40c": 8546,
      "6403": 8547,
      "04b7": 8548,
      "0c75": 8549,
      "570c": 8550,
      "5536": 8551,
      "cb8f": 8552,
      "4c6d": 8553,
      "a712": 8554,
      "0e21": 8555,
      "c3e3": 8556,
      "ffc1": 8557,
      "418e": 8558,
      "7110": 8559,
      "0cbe": 8560,
      "ff58": 8561,
      "25b4": 8562,
      "40ea": 8563,
      "ac04": 8564,
      "14d7": 8565,
      "27be": 8566,
      "c436": 8567,
      "417c": 8568,
      "9e0e": 8569,
      "0b08": 8570,
      "697e": 8571,
      "94ed": 8572,
      "fe18": 8573,
      "db43": 8574,
      "40c5": 8575,
      "02b1": 8576,
      "4e53": 8577,
      "d6ab": 8578,
      "1608": 8579,
      "7710": 8580,
      "114e": 8581,
      "012f": 8582,
      "40d9": 8583,
      "082b": 8584,
      "160a": 8585,
      "e321": 8586,
      "c586": 8587,
      "ff17": 8588,
      "0b88": 8589,
      "d34e": 8590,
      "161b": 8591,
      "696d": 8592,
      "07ef": 8593,
      "6215": 8594,
      "d47d": 8595,
      "4071": 8596,
      "f3fa": 8597,
      "0267": 8598,
      "0f1e": 8599,
      "02c4": 8600,
      "25c7": 8601,
      "fec4": 8602,
      "4086": 8603,
      "40f9": 8604,
      "4c23": 8605,
      "1a2c": 8606,
      "40f6": 8607,
      "b971": 8608,
      "41f3": 8609,
      "5c7a": 8610,
      "0971": 8611,
      "b8fe": 8612,
      "f5d3": 8613,
      "47be": 8614,
      "6560": 8615,
      "ffc2": 8616,
      "4075": 8617,
      "d712": 8618,
      "b308": 8619,
      "408c": 8620,
      "57f7": 8621,
      "1220": 8622,
      "4372": 8623,
      "fec8": 8624,
      "160e": 8625,
      "4c1e": 8626,
      "7f41": 8627,
      "2d0b": 8628,
      "e688": 8629,
      "9858": 8630,
      "14d1": 8631,
      "f0ee": 8632,
      "9d6d": 8633,
      "20ff": 8634,
      "af9c": 8635,
      "4c5c": 8636,
      "c3d5": 8637,
      "2eab": 8638,
      "c765": 8639,
      "0898": 8640,
      "ed8c": 8641,
      "02a6": 8642,
      "0259": 8643,
      "5206": 8644,
      "41ab": 8645,
      "4193": 8646,
      "4c82": 8647,
      "4142": 8648,
      "ed12": 8649,
      "117c": 8650,
      "6422": 8651,
      "02e7": 8652,
      "41fa": 8653,
      "3409": 8654,
      "147c": 8655,
      "4072": 8656,
      "e00c": 8657,
      "cefe": 8658,
      "6e88": 8659,
      "ce12": 8660,
      "0353": 8661,
      "9318": 8662,
      "028c": 8663,
      "9aca": 8664,
      "e431": 8665,
      "cd12": 8666,
      "101f": 8667,
      "a107": 8668,
      "f812": 8669,
      "f8fe": 8670,
      "c312": 8671,
      "7908": 8672,
      "c8d1": 8673,
      "fa1b": 8674,
      "ac87": 8675,
      "16fe": 8676,
      "038a": 8677,
      "5a65": 8678,
      "ffc6": 8679,
      "606c": 8680,
      "1829": 8681,
      "4c6b": 8682,
      "7725": 8683,
      "a0ae": 8684,
      "11e9": 8685,
      "01a1": 8686,
      "2ed3": 8687,
      "4139": 8688,
      "41d7": 8689,
      "990e": 8690,
      "2455": 8691,
      "3730": 8692,
      "415b": 8693,
      "8f83": 8694,
      "dc54": 8695,
      "fe3d": 8696,
      "4c72": 8697,
      "81d4": 8698,
      "7e85": 8699,
      "7f1c": 8700,
      "c018": 8701,
      "bad0": 8702,
      "0aed": 8703,
      "64be": 8704,
      "a6ac": 8705,
      "5fc9": 8706,
      "4156": 8707,
      "ffef": 8708,
      "1090": 8709,
      "cdce": 8710,
      "4f50": 8711,
      "032f": 8712,
      "432d": 8713,
      "4305": 8714,
      "9fb7": 8715,
      "7665": 8716,
      "c3cb": 8717,
      "e2d3": 8718,
      "1887": 8719,
      "a112": 8720,
      "1250": 8721,
      "b88b": 8722,
      "8084": 8723,
      "571b": 8724,
      "80da": 8725,
      "5118": 8726,
      "a1f0": 8727,
      "6e03": 8728,
      "4094": 8729,
      "0393": 8730,
      "14bd": 8731,
      "10ae": 8732,
      "f612": 8733,
      "a6fe": 8734,
      "6167": 8735,
      "c5fe": 8736,
      "72dd": 8737,
      "b106": 8738,
      "c067": 8739,
      "1e4a": 8740,
      "0ec0": 8741,
      "03ea": 8742,
      "9f12": 8743,
      "41cd": 8744,
      "3d31": 8745,
      "3bf0": 8746,
      "220a": 8747,
      "0b1b": 8748,
      "125a": 8749,
      "ff20": 8750,
      "0e60": 8751,
      "02e9": 8752,
      "ef96": 8753,
      "4c51": 8754,
      "ffd1": 8755,
      "c2f0": 8756,
      "e25c": 8757,
      "ff6e": 8758,
      "3734": 8759,
      "c3f0": 8760,
      "2978": 8761,
      "a278": 8762,
      "41f7": 8763,
      "a912": 8764,
      "3bff": 8765,
      "acd5": 8766,
      "f303": 8767,
      "83f0": 8768,
      "82ff": 8769,
      "dfbf": 8770,
      "5005": 8771,
      "fe83": 8772,
      "089f": 8773,
      "4164": 8774,
      "41ea": 8775,
      "1308": 8776,
      "1918": 8777,
      "7493": 8778,
      "e8e8": 8779,
      "264e": 8780,
      "6988": 8781,
      "16a8": 8782,
      "296a": 8783,
      "f058": 8784,
      "412b": 8785,
      "2c80": 8786,
      "77fe": 8787,
      "0aca": 8788,
      "40d6": 8789,
      "2e24": 8790,
      "c3cc": 8791,
      "8288": 8792,
      "42f0": 8793,
      "0e22": 8794,
      "04b0": 8795,
      "0d50": 8796,
      "80bf": 8797,
      "413d": 8798,
      "1a46": 8799,
      "40fa": 8800,
      "3c1e": 8801,
      "4146": 8802,
      "3a18": 8803,
      "5110": 8804,
      "3536": 8805,
      "40f1": 8806,
      "0243": 8807,
      "2c13": 8808,
      "ff76": 8809,
      "040b": 8810,
      "66f0": 8811,
      "0508": 8812,
      "b836": 8813,
      "9c21": 8814,
      "40c3": 8815,
      "9712": 8816,
      "40c9": 8817,
      "779a": 8818,
      "4174": 8819,
      "e870": 8820,
      "439d": 8821,
      "40da": 8822,
      "a1fe": 8823,
      "4610": 8824,
      "214c": 8825,
      "fffb": 8826,
      "05da": 8827,
      "31dd": 8828,
      "c81a": 8829,
      "1a26": 8830,
      "101d": 8831,
      "971a": 8832,
      "0229": 8833,
      "6fcc": 8834,
      "4ca1": 8835,
      "c712": 8836,
      "6650": 8837,
      "4c61": 8838,
      "48a0": 8839,
      "900a": 8840,
      "ff1f": 8841,
      "6812": 8842,
      "03f2": 8843,
      "236a": 8844,
      "2c41": 8845,
      "6946": 8846,
      "9fe0": 8847,
      "ffd8": 8848,
      "a2b5": 8849,
      "235b": 8850,
      "0cb7": 8851,
      "ffd5": 8852,
      "0d03": 8853,
      "0dfe": 8854,
      "9320": 8855,
      "b3a7": 8856,
      "0d2d": 8857,
      "0331": 8858,
      "411d": 8859,
      "6250": 8860,
      "daf0": 8861,
      "0e4d": 8862,
      "c1fe": 8863,
      "2204": 8864,
      "4c52": 8865,
      "40cc": 8866,
      "060d": 8867,
      "0eee": 8868,
      "3ccc": 8869,
      "0255": 8870,
      "01e5": 8871,
      "f5df": 8872,
      "40e3": 8873,
      "6661": 8874,
      "f988": 8875,
      "3888": 8876,
      "0293": 8877,
      "05e8": 8878,
      "0840": 8879,
      "c02e": 8880,
      "0e14": 8881,
      "40dc": 8882,
      "0265": 8883,
      "10c4": 8884,
      "1a06": 8885,
      "ff83": 8886,
      "0ac3": 8887,
      "93d3": 8888,
      "0466": 8889,
      "6d88": 8890,
      "41b1": 8891,
      "12ea": 8892,
      "2c08": 8893,
      "ac99": 8894,
      "f95c": 8895,
      "0a06": 8896,
      "9812": 8897,
      "d950": 8898,
      "1a22": 8899,
      "0414": 8900,
      "9650": 8901,
      "3261": 8902,
      "577e": 8903,
      "3638": 8904,
      "0744": 8905,
      "5fa1": 8906,
      "10f5": 8907,
      "fff3": 8908,
      "085a": 8909,
      "f957": 8910,
      "234c": 8911,
      "e7f0": 8912,
      "02b2": 8913,
      "40a6": 8914,
      "10bb": 8915,
      "0f88": 8916,
      "13ee": 8917,
      "58be": 8918,
      "4069": 8919,
      "1e26": 8920,
      "4ccb": 8921,
      "f507": 8922,
      "7afb": 8923,
      "6207": 8924,
      "02d2": 8925,
      "4ec0": 8926,
      "4175": 8927,
      "bed6": 8928,
      "c61c": 8929,
      "025d": 8930,
      "8106": 8931,
      "7c4c": 8932,
      "ff48": 8933,
      "688c": 8934,
      "f5f8": 8935,
      "40a4": 8936,
      "fea6": 8937,
      "0194": 8938,
      "40eb": 8939,
      "ff23": 8940,
      "ea42": 8941,
      "549a": 8942,
      "0ad7": 8943,
      "855f": 8944,
      "0360": 8945,
      "afaa": 8946,
      "4197": 8947,
      "3363": 8948,
      "41dd": 8949,
      "6630": 8950,
      "9276": 8951,
      "604c": 8952,
      "415d": 8953,
      "109a": 8954,
      "185f": 8955,
      "43b6": 8956,
      "ffe0": 8957,
      "e640": 8958,
      "0e0a": 8959,
      "b888": 8960,
      "5139": 8961,
      "58ff": 8962,
      "41d6": 8963,
      "40a3": 8964,
      "9d12": 8965,
      "027d": 8966,
      "c3d8": 8967,
      "40f4": 8968,
      "aa1a": 8969,
      "2618": 8970,
      "530a": 8971,
      "5848": 8972,
      "0856": 8973,
      "6788": 8974,
      "40a9": 8975,
      "193b": 8976,
      "40bd": 8977,
      "1e08": 8978,
      "4e47": 8979,
      "630a": 8980,
      "ff9d": 8981,
      "5203": 8982,
      "c2fe": 8983,
      "ffb3": 8984,
      "04a0": 8985,
      "3e10": 8986,
      "415e": 8987,
      "2dff": 8988,
      "79b9": 8989,
      "f018": 8990,
      "05c0": 8991,
      "bb18": 8992,
      "fb12": 8993,
      "a818": 8994,
      "b136": 8995,
      "c75d": 8996,
      "8a12": 8997,
      "030b": 8998,
      "4c64": 8999,
      "1230": 9000,
      "9a93": 9001,
      "af1a": 9002,
      "d04a": 9003,
      "02a9": 9004,
      "ac36": 9005,
      "6a08": 9006,
      "4873": 9007,
      "ff2f": 9008,
      "48f2": 9009,
      "091c": 9010,
      "0fdd": 9011,
      "c148": 9012,
      "5788": 9013,
      "c00f": 9014,
      "cf5d": 9015,
      "da12": 9016,
      "02dd": 9017,
      "14b6": 9018,
      "049d": 9019,
      "c2b8": 9020,
      "f51c": 9021,
      "4a6e": 9022,
      "67c7": 9023,
      "fbfe": 9024,
      "dc40": 9025,
      "8724": 9026,
      "76f0": 9027,
      "0d48": 9028,
      "8994": 9029,
      "41cf": 9030,
      "5d1a": 9031,
      "8d12": 9032,
      "aef6": 9033,
      "013d": 9034,
      "8812": 9035,
      "2318": 9036,
      "6595": 9037,
      "a588": 9038,
      "160c": 9039,
      "4cd2": 9040,
      "409f": 9041,
      "024f": 9042,
      "6231": 9043,
      "40e9": 9044,
      "0ae3": 9045,
      "ac96": 9046,
      "cdd9": 9047,
      "af0e": 9048,
      "3d18": 9049,
      "4cea": 9050,
      "e212": 9051,
      "ea05": 9052,
      "b5ff": 9053,
      "0c88": 9054,
      "3735": 9055,
      "fec2": 9056,
      "7888": 9057,
      "5388": 9058,
      "1910": 9059,
      "f610": 9060,
      "6e69": 9061,
      "3331": 9062,
      "1069": 9063,
      "25af": 9064,
      "6d6d": 9065,
      "40a7": 9066,
      "fa0e": 9067,
      "01d4": 9068,
      "020f": 9069,
      "82b4": 9070,
      "102e": 9071,
      "d051": 9072,
      "2483": 9073,
      "4c5b": 9074,
      "085c": 9075,
      "1210": 9076,
      "3118": 9077,
      "f9fe": 9078,
      "feb5": 9079,
      "c4f9": 9080,
      "1481": 9081,
      "2c10": 9082,
      "9a4a": 9083,
      "db12": 9084,
      "fe0d": 9085,
      "7a08": 9086,
      "ffcd": 9087,
      "981d": 9088,
      "d90b": 9089,
      "d830": 9090,
      "4124": 9091,
      "ca87": 9092,
      "56f0": 9093,
      "4c59": 9094,
      "1054": 9095,
      "8e12": 9096,
      "4083": 9097,
      "0ca9": 9098,
      "8c2c": 9099,
      "12ac": 9100,
      "c3e9": 9101,
      "a612": 9102,
      "01e4": 9103,
      "4888": 9104,
      "1c08": 9105,
      "416f": 9106,
      "124e": 9107,
      "2273": 9108,
      "bdb5": 9109,
      "975d": 9110,
      "c588": 9111,
      "a4f6": 9112,
      "b112": 9113,
      "7f5d": 9114,
      "0c0b": 9115,
      "02c5": 9116,
      "41bf": 9117,
      "40b3": 9118,
      "c3dd": 9119,
      "a922": 9120,
      "753f": 9121,
      "db03": 9122,
      "1b10": 9123,
      "2930": 9124,
      "0afd": 9125,
      "3ea8": 9126,
      "c94b": 9127,
      "dc09": 9128,
      "3822": 9129,
      "0d1e": 9130,
      "0ad1": 9131,
      "9675": 9132,
      "3c7b": 9133,
      "04c6": 9134,
      "d005": 9135,
      "b550": 9136,
      "970e": 9137,
      "eb12": 9138,
      "5aa5": 9139,
      "3510": 9140,
      "72e6": 9141,
      "ffc5": 9142,
      "a1f1": 9143,
      "ce53": 9144,
      "8ece": 9145,
      "2786": 9146,
      "0e1c": 9147,
      "5c44": 9148,
      "f27d": 9149,
      "5c70": 9150,
      "4c3a": 9151,
      "05df": 9152,
      "d50e": 9153,
      "96ff": 9154,
      "131a": 9155,
      "ade5": 9156,
      "d21e": 9157,
      "6189": 9158,
      "ff7b": 9159,
      "db87": 9160,
      "10c2": 9161,
      "4177": 9162,
      "0ce0": 9163,
      "53ff": 9164,
      "10e2": 9165,
      "8703": 9166,
      "9b76": 9167,
      "c488": 9168,
      "41e1": 9169,
      "81ab": 9170,
      "0ecb": 9171,
      "0e2b": 9172,
      "3254": 9173,
      "dd12": 9174,
      "fee3": 9175,
      "40c4": 9176,
      "8e17": 9177,
      "41b2": 9178,
      "7190": 9179,
      "1a5c": 9180,
      "6822": 9181,
      "ffeb": 9182,
      "8912": 9183,
      "7930": 9184,
      "04c2": 9185,
      "6a3b": 9186,
      "6e6f": 9187,
      "151e": 9188,
      "4a45": 9189,
      "880e": 9190,
      "0233": 9191,
      "031b": 9192,
      "0a72": 9193,
      "1a70": 9194,
      "ffe2": 9195,
      "7539": 9196,
      "f03b": 9197,
      "6e18": 9198,
      "59b7": 9199,
      "bf7c": 9200,
      "03d1": 9201,
      "d0d1": 9202,
      "ec80": 9203,
      "c536": 9204,
      "b82e": 9205,
      "54ff": 9206,
      "fd6f": 9207,
      "f32e": 9208,
      "312c": 9209,
      "a888": 9210,
      "f00e": 9211,
      "02e3": 9212,
      "b0db": 9213,
      "9d0e": 9214,
      "0ab5": 9215,
      "0e67": 9216,
      "02b7": 9217,
      "2c4f": 9218,
      "9351": 9219,
      "c3e0": 9220,
      "8612": 9221,
      "03c2": 9222,
      "559e": 9223,
      "06c8": 9224,
      "b012": 9225,
      "41f6": 9226,
      "6157": 9227,
      "c3b9": 9228,
      "ff28": 9229,
      "41d8": 9230,
      "ff8d": 9231,
      "5a68": 9232,
      "b9ef": 9233,
      "6ab2": 9234,
      "037f": 9235,
      "e288": 9236,
      "4073": 9237,
      "650a": 9238,
      "629c": 9239,
      "59ff": 9240,
      "e251": 9241,
      "fe16": 9242,
      "412c": 9243,
      "419c": 9244,
      "02bd": 9245,
      "fe76": 9246,
      "7988": 9247,
      "20f1": 9248,
      "1729": 9249,
      "8f7e": 9250,
      "418a": 9251,
      "1240": 9252,
      "1e88": 9253,
      "3594": 9254,
      "7318": 9255,
      "4144": 9256,
      "4134": 9257,
      "476b": 9258,
      "c8ad": 9259,
      "7b12": 9260,
      "75ee": 9261,
      "8660": 9262,
      "ff9b": 9263,
      "324c": 9264,
      "413f": 9265,
      "4c87": 9266,
      "6836": 9267,
      "7d21": 9268,
      "4093": 9269,
      "41c5": 9270,
      "0297": 9271,
      "0a17": 9272,
      "463e": 9273,
      "ca06": 9274,
      "9612": 9275,
      "10ba": 9276,
      "c01a": 9277,
      "0d2e": 9278,
      "ae38": 9279,
      "18f9": 9280,
      "d29b": 9281,
      "41b8": 9282,
      "4c38": 9283,
      "d00e": 9284,
      "0565": 9285,
      "78b2": 9286,
      "4056": 9287,
      "0941": 9288,
      "6e64": 9289,
      "8f30": 9290,
      "2c89": 9291,
      "f267": 9292,
      "6805": 9293,
      "ff67": 9294,
      "56db": 9295,
      "bc12": 9296,
      "41fb": 9297,
      "abb3": 9298,
      "7657": 9299,
      "4812": 9300,
      "8418": 9301,
      "4136": 9302,
      "3635": 9303,
      "ae12": 9304,
      "4c53": 9305,
      "c3ae": 9306,
      "cd65": 9307,
      "f176": 9308,
      "0e71": 9309,
      "25f1": 9310,
      "b40e": 9311,
      "5aa3": 9312,
      "80c3": 9313,
      "f03c": 9314,
      "0c6a": 9315,
      "02b5": 9316,
      "1843": 9317,
      "eca4": 9318,
      "3841": 9319,
      "bd18": 9320,
      "20bb": 9321,
      "c0da": 9322,
      "4cda": 9323,
      "40c6": 9324,
      "647a": 9325,
      "bce9": 9326,
      "1a56": 9327,
      "1017": 9328,
      "ac22": 9329,
      "0354": 9330,
      "fea5": 9331,
      "9010": 9332,
      "2b32": 9333,
      "4125": 9334,
      "038f": 9335,
      "40f7": 9336,
      "750e": 9337,
      "4e71": 9338,
      "d112": 9339,
      "484e": 9340,
      "e3e0": 9341,
      "f5ff": 9342,
      "6122": 9343,
      "3206": 9344,
      "bcf0": 9345,
      "8486": 9346,
      "6bff": 9347,
      "e8ff": 9348,
      "1881": 9349,
      "a98e": 9350,
      "9a7a": 9351,
      "f412": 9352,
      "c604": 9353,
      "be12": 9354,
      "1821": 9355,
      "6f64": 9356,
      "4a3d": 9357,
      "0b0c": 9358,
      "f336": 9359,
      "ee12": 9360,
      "05fa": 9361,
      "173a": 9362,
      "bbd2": 9363,
      "15ff": 9364,
      "d05e": 9365,
      "f305": 9366,
      "fa12": 9367,
      "ff61": 9368,
      "01cd": 9369,
      "f509": 9370,
      "acfe": 9371,
      "ffc7": 9372,
      "bbb5": 9373,
      "7f0c": 9374,
      "ac1e": 9375,
      "6f5d": 9376,
      "fe61": 9377,
      "04f2": 9378,
      "efff": 9379,
      "151f": 9380,
      "7f18": 9381,
      "ff9e": 9382,
      "fe09": 9383,
      "4ec3": 9384,
      "0dcd": 9385,
      "a774": 9386,
      "35f0": 9387,
      "5988": 9388,
      "eeac": 9389,
      "dac4": 9390,
      "91a2": 9391,
      "2640": 9392,
      "9dff": 9393,
      "8618": 9394,
      "cc10": 9395,
      "4ad9": 9396,
      "fb4a": 9397,
      "9b12": 9398,
      "1859": 9399,
      "0352": 9400,
      "6a14": 9401,
      "0705": 9402,
      "034d": 9403,
      "25b5": 9404,
      "ea12": 9405,
      "10ad": 9406,
      "d4ff": 9407,
      "6a66": 9408,
      "0349": 9409,
      "e01a": 9410,
      "5021": 9411,
      "24f3": 9412,
      "d043": 9413,
      "041a": 9414,
      "061e": 9415,
      "c684": 9416,
      "e203": 9417,
      "2fff": 9418,
      "2512": 9419,
      "cc12": 9420,
      "6439": 9421,
      "17d3": 9422,
      "63fd": 9423,
      "2e4c": 9424,
      "9f09": 9425,
      "b305": 9426,
      "5f11": 9427,
      "0382": 9428,
      "3b59": 9429,
      "0a81": 9430,
      "9e12": 9431,
      "7078": 9432,
      "03cd": 9433,
      "3305": 9434,
      "540e": 9435,
      "7304": 9436,
      "aaa2": 9437,
      "0355": 9438,
      "f3ff": 9439,
      "2252": 9440,
      "1f5d": 9441,
      "e508": 9442,
      "2aff": 9443,
      "ba88": 9444,
      "8196": 9445,
      "9d0d": 9446,
      "0291": 9447,
      "b5f0": 9448,
      "e912": 9449,
      "fbff": 9450,
      "9b50": 9451,
      "088f": 9452,
      "ffbd": 9453,
      "026c": 9454,
      "d1e1": 9455,
      "542a": 9456,
      "03d8": 9457,
      "4c7c": 9458,
      "91f0": 9459,
      "e3a1": 9460,
      "36f0": 9461,
      "ffa8": 9462,
      "d90d": 9463,
      "2e72": 9464,
      "41f1": 9465,
      "18bc": 9466,
      "8b08": 9467,
      "3cab": 9468,
      "5403": 9469,
      "51c0": 9470,
      "05ee": 9471,
      "4a49": 9472,
      "04b9": 9473,
      "41c8": 9474,
      "4c5f": 9475,
      "1a98": 9476,
      "05ad": 9477,
      "0e87": 9478,
      "1d10": 9479,
      "4c35": 9480,
      "2489": 9481,
      "1083": 9482,
      "4c77": 9483,
      "419f": 9484,
      "49fe": 9485,
      "9c88": 9486,
      "02c1": 9487,
      "5b07": 9488,
      "ef18": 9489,
      "66e7": 9490,
      "992a": 9491,
      "e653": 9492,
      "f550": 9493,
      "dbb5": 9494,
      "0f4e": 9495,
      "db8f": 9496,
      "7420": 9497,
      "e299": 9498,
      "2657": 9499,
      "82e4": 9500,
      "03dc": 9501,
      "9e88": 9502,
      "03f8": 9503,
      "ff93": 9504,
      "0a45": 9505,
      "aca8": 9506,
      "e23a": 9507,
      "07e2": 9508,
      "cf18": 9509,
      "ffbb": 9510,
      "41e3": 9511,
      "1d13": 9512,
      "ff36": 9513,
      "1a19": 9514,
      "0af8": 9515,
      "4076": 9516,
      "02ab": 9517,
      "440a": 9518,
      "ff41": 9519,
      "b188": 9520,
      "1a5e": 9521,
      "ffea": 9522,
      "ce1a": 9523,
      "04db": 9524,
      "ab67": 9525,
      "8750": 9526,
      "3e88": 9527,
      "96d2": 9528,
      "5424": 9529,
      "18e4": 9530,
      "08fb": 9531,
      "4814": 9532,
      "d58e": 9533,
      "01de": 9534,
      "94a3": 9535,
      "f6b7": 9536,
      "6263": 9537,
      "0ea0": 9538,
      "c3b6": 9539,
      "2d8b": 9540,
      "4169": 9541,
      "2f47": 9542,
      "41b5": 9543,
      "e513": 9544,
      "c912": 9545,
      "3c50": 9546,
      "ae0e": 9547,
      "4c6c": 9548,
      "3b9a": 9549,
      "be96": 9550,
      "e359": 9551,
      "885c": 9552,
      "ff86": 9553,
      "0c3e": 9554,
      "07fa": 9555,
      "d0ae": 9556,
      "312d": 9557,
      "1b9b": 9558,
      "b412": 9559,
      "08dd": 9560,
      "cbac": 9561,
      "60d8": 9562,
      "d886": 9563,
      "02c3": 9564,
      "1a65": 9565,
      "ac78": 9566,
      "44f0": 9567,
      "fec3": 9568,
      "d6ff": 9569,
      "40ec": 9570,
      "d35d": 9571,
      "4cc5": 9572,
      "9110": 9573,
      "fef9": 9574,
      "f514": 9575,
      "a817": 9576,
      "1e46": 9577,
      "2c4c": 9578,
      "4bfe": 9579,
      "1068": 9580,
      "59ea": 9581,
      "37ab": 9582,
      "c00b": 9583,
      "fbbd": 9584,
      "f6db": 9585,
      "7009": 9586,
      "5af0": 9587,
      "1216": 9588,
      "80e8": 9589,
      "029b": 9590,
      "034f": 9591,
      "ce88": 9592,
      "5588": 9593,
      "0de6": 9594,
      "6bd6": 9595,
      "010f": 9596,
      "9fb6": 9597,
      "feb4": 9598,
      "41a3": 9599,
      "b7b7": 9600,
      "cd22": 9601,
      "b14f": 9602,
      "1b0e": 9603,
      "0815": 9604,
      "e75d": 9605,
      "20af": 9606,
      "def0": 9607,
      "3e4a": 9608,
      "ff54": 9609,
      "3191": 9610,
      "55ab": 9611,
      "7320": 9612,
      "2788": 9613,
      "6f2b": 9614,
      "ffad": 9615,
      "3a88": 9616,
      "a31a": 9617,
      "8321": 9618,
      "e412": 9619,
      "fe21": 9620,
      "a5d9": 9621,
      "fef2": 9622,
      "4cdc": 9623,
      "ec1b": 9624,
      "a01a": 9625,
      "1050": 9626,
      "0773": 9627,
      "2a4a": 9628,
      "5308": 9629,
      "4c06": 9630,
      "8715": 9631,
      "41e9": 9632,
      "274c": 9633,
      "2216": 9634,
      "02b6": 9635,
      "8988": 9636,
      "1e59": 9637,
      "07b3": 9638,
      "ab12": 9639,
      "4588": 9640,
      "96b2": 9641,
      "2c7b": 9642,
      "25a6": 9643,
      "e21a": 9644,
      "9f30": 9645,
      "08b5": 9646,
      "c876": 9647,
      "6e40": 9648,
      "7212": 9649,
      "6566": 9650,
      "41d4": 9651,
      "3604": 9652,
      "b05e": 9653,
      "41ac": 9654,
      "7ab3": 9655,
      "2ff0": 9656,
      "5614": 9657,
      "41b4": 9658,
      "722c": 9659,
      "d30d": 9660,
      "ad14": 9661,
      "1852": 9662,
      "0716": 9663,
      "6336": 9664,
      "fe22": 9665,
      "3116": 9666,
      "d9fe": 9667,
      "fad6": 9668,
      "4e7d": 9669,
      "6c93": 9670,
      "bb14": 9671,
      "c3c8": 9672,
      "41f2": 9673,
      "fba3": 9674,
      "25f2": 9675,
      "4480": 9676,
      "e87f": 9677,
      "b2d0": 9678,
      "fea4": 9679,
      "c3d3": 9680,
      "9bb6": 9681,
      "01f7": 9682,
      "7ab1": 9683,
      "5305": 9684,
      "a4f0": 9685,
      "d7ee": 9686,
      "2784": 9687,
      "08f2": 9688,
      "039a": 9689,
      "08db": 9690,
      "f5db": 9691,
      "513a": 9692,
      "98ff": 9693,
      "f81a": 9694,
      "8436": 9695,
      "ff56": 9696,
      "4e12": 9697,
      "51c5": 9698,
      "a8a5": 9699,
      "57a1": 9700,
      "0e8d": 9701,
      "4cb3": 9702,
      "ffda": 9703,
      "aa13": 9704,
      "f4fe": 9705,
      "4a22": 9706,
      "0d22": 9707,
      "02c7": 9708,
      "db41": 9709,
      "022b": 9710,
      "8f4b": 9711,
      "bc11": 9712,
      "9c79": 9713,
      "5480": 9714,
      "1e28": 9715,
      "6810": 9716,
      "a1d2": 9717,
      "bc1c": 9718,
      "7688": 9719,
      "cd53": 9720,
      "4ced": 9721,
      "e80d": 9722,
      "0173": 9723,
      "46f8": 9724,
      "ace8": 9725,
      "0160": 9726,
      "8412": 9727,
      "bf18": 9728,
      "d312": 9729,
      "5256": 9730,
      "7788": 9731,
      "4e72": 9732,
      "e051": 9733,
      "41ad": 9734,
      "1550": 9735,
      "132e": 9736,
      "9abc": 9737,
      "10d4": 9738,
      "80d5": 9739,
      "03ae": 9740,
      "8571": 9741,
      "a718": 9742,
      "033c": 9743,
      "2093": 9744,
      "1847": 9745,
      "4caa": 9746,
      "4c17": 9747,
      "ae13": 9748,
      "7995": 9749,
      "ffc9": 9750,
      "3c16": 9751,
      "a805": 9752,
      "2377": 9753,
      "1754": 9754,
      "ccfe": 9755,
      "0ee6": 9756,
      "80a8": 9757,
      "0ab3": 9758,
      "c4fe": 9759,
      "135d": 9760,
      "25fe": 9761,
      "3588": 9762,
      "03be": 9763,
      "41d9": 9764,
      "5503": 9765,
      "5286": 9766,
      "0f74": 9767,
      "5312": 9768,
      "3188": 9769,
      "ff1c": 9770,
      "1aba": 9771,
      "1a0d": 9772,
      "02b9": 9773,
      "6275": 9774,
      "9980": 9775,
      "0bdd": 9776,
      "5c12": 9777,
      "0434": 9778,
      "01ad": 9779,
      "1c49": 9780,
      "1723": 9781,
      "ff37": 9782,
      "07b0": 9783,
      "0379": 9784,
      "ffb2": 9785,
      "8d1f": 9786,
      "6f62": 9787,
      "46c2": 9788,
      "3f05": 9789,
      "67fa": 9790,
      "485c": 9791,
      "cd88": 9792,
      "5e88": 9793,
      "6012": 9794,
      "6205": 9795,
      "0347": 9796,
      "8b56": 9797,
      "05a1": 9798,
      "b85a": 9799,
      "0294": 9800,
      "24a2": 9801,
      "0ae0": 9802,
      "fff7": 9803,
      "b30c": 9804,
      "3733": 9805,
      "feb6": 9806,
      "cc6e": 9807,
      "4f17": 9808,
      "fffa": 9809,
      "7794": 9810,
      "0928": 9811,
      "dc1d": 9812,
      "77ff": 9813,
      "4c19": 9814,
      "fe4d": 9815,
      "3073": 9816,
      "68c2": 9817,
      "8b2e": 9818,
      "32e2": 9819,
      "4c7f": 9820,
      "2519": 9821,
      "41bc": 9822,
      "6408": 9823,
      "fe93": 9824,
      "85ff": 9825,
      "a212": 9826,
      "2529": 9827,
      "8c12": 9828,
      "1a45": 9829,
      "2a1a": 9830,
      "0e64": 9831,
      "8d32": 9832,
      "fd13": 9833,
      "a181": 9834,
      "b10c": 9835,
      "2f08": 9836,
      "b912": 9837,
      "03ac": 9838,
      "bb88": 9839,
      "1e29": 9840,
      "7220": 9841,
      "03c5": 9842,
      "dcad": 9843,
      "f95a": 9844,
      "0c72": 9845,
      "bf5d": 9846,
      "6fd3": 9847,
      "191a": 9848,
      "026a": 9849,
      "0284": 9850,
      "4199": 9851,
      "a925": 9852,
      "ff68": 9853,
      "7822": 9854,
      "564e": 9855,
      "fe65": 9856,
      "c288": 9857,
      "c710": 9858,
      "2904": 9859,
      "12e2": 9860,
      "1a60": 9861,
      "e00e": 9862,
      "49bb": 9863,
      "702c": 9864,
      "0399": 9865,
      "1a6a": 9866,
      "7ccd": 9867,
      "cd36": 9868,
      "4127": 9869,
      "a288": 9870,
      "1276": 9871,
      "0a5a": 9872,
      "9304": 9873,
      "b8ff": 9874,
      "3218": 9875,
      "f086": 9876,
      "0c50": 9877,
      "0455": 9878,
      "77b0": 9879,
      "1c06": 9880,
      "4fb1": 9881,
      "4cbb": 9882,
      "129a": 9883,
      "d737": 9884,
      "fabe": 9885,
      "ffca": 9886,
      "f8ec": 9887,
      "6f38": 9888,
      "1e04": 9889,
      "d6d0": 9890,
      "04eb": 9891,
      "910e": 9892,
      "ff4d": 9893,
      "3d92": 9894,
      "a5fe": 9895,
      "0155": 9896,
      "03da": 9897,
      "9e68": 9898,
      "184a": 9899,
      "03fc": 9900,
      "2a05": 9901,
      "d021": 9902,
      "f35d": 9903,
      "11f6": 9904,
      "8c62": 9905,
      "4194": 9906,
      "3637": 9907,
      "1d88": 9908,
      "071c": 9909,
      "bcd9": 9910,
      "127a": 9911,
      "1842": 9912,
      "5a05": 9913,
      "e2ff": 9914,
      "02e5": 9915,
      "c3fe": 9916,
      "bcf5": 9917,
      "9112": 9918,
      "fa1a": 9919,
      "4793": 9920,
      "8103": 9921,
      "f4a7": 9922,
      "0eb8": 9923,
      "d960": 9924,
      "92db": 9925,
      "4ccd": 9926,
      "ff2d": 9927,
      "3688": 9928,
      "0264": 9929,
      "4f18": 9930,
      "5220": 9931,
      "ff77": 9932,
      "ff69": 9933,
      "3f18": 9934,
      "4c56": 9935,
      "ed57": 9936,
      "d11e": 9937,
      "fa0d": 9938,
      "d188": 9939,
      "0e90": 9940,
      "125c": 9941,
      "3f51": 9942,
      "e836": 9943,
      "4c04": 9944,
      "0b56": 9945,
      "f712": 9946,
      "6eff": 9947,
      "bc4e": 9948,
      "ff66": 9949,
      "52c5": 9950,
      "1041": 9951,
      "13fe": 9952,
      "cb23": 9953,
      "18c6": 9954,
      "93fe": 9955,
      "fe2e": 9956,
      "dc9e": 9957,
      "4f88": 9958,
      "5a10": 9959,
      "03c7": 9960,
      "5d50": 9961,
      "e872": 9962,
      "ff52": 9963,
      "0f1a": 9964,
      "a5f0": 9965,
      "3c88": 9966,
      "e09b": 9967,
      "3478": 9968,
      "2988": 9969,
      "2a90": 9970,
      "1a21": 9971,
      "a4e2": 9972,
      "4b88": 9973,
      "4a53": 9974,
      "4092": 9975,
      "765f": 9976,
      "8b0e": 9977,
      "0158": 9978,
      "43a5": 9979,
      "ff78": 9980,
      "a8fe": 9981,
      "3a10": 9982,
      "ed1a": 9983,
      "55ff": 9984,
      "d7fe": 9985,
      "0c16": 9986,
      "4cb8": 9987,
      "0ab1": 9988,
      "0aee": 9989,
      "0590": 9990,
      "feaa": 9991,
      "0a7e": 9992,
      "a150": 9993,
      "4cd8": 9994,
      "0bfa": 9995,
      "c412": 9996,
      "0285": 9997,
      "ffbe": 9998,
      "3e1a": 9999,
      "41bd": 10000,
      "4cb9": 10001,
      "48df": 10002,
      "04cd": 10003,
      "7619": 10004,
      "6632": 10005,
      "564f": 10006,
      "0dd2": 10007,
      "c988": 10008,
      "0498": 10009,
      "728e": 10010,
      "cd60": 10011,
      "2b31": 10012,
      "4e21": 10013,
      "39d9": 10014,
      "f087": 10015,
      "ec94": 10016,
      "7077": 10017,
      "4641": 10018,
      "1266": 10019,
      "1094": 10020,
      "40e6": 10021,
      "b712": 10022,
      "9a88": 10023,
      "01ea": 10024,
      "b988": 10025,
      "94ab": 10026,
      "0239": 10027,
      "9d4b": 10028,
      "244c": 10029,
      "012b": 10030,
      "93b1": 10031,
      "20fa": 10032,
      "49ff": 10033,
      "0378": 10034,
      "ba20": 10035,
      "090e": 10036,
      "4a5b": 10037,
      "4a1b": 10038,
      "03a9": 10039,
      "4c07": 10040,
      "ff1d": 10041,
      "5c6e": 10042,
      "d072": 10043,
      "e218": 10044,
      "ff7c": 10045,
[...]
