{
  "version": "1.0",
  "truncation": null,
  "padding": null,
  "added_tokens": [],
  "normalizer": null,
  "pre_tokenizer": {
    "type": "BertPreTokenizer"
  },
  "post_processor": {
    "type": "BertProcessing",
    "sep": [
      "[SEP]",
      1
    ],
    "cls": [
      "[CLS]",
      2
    ]
  },
  "decoder": {
    "type": "WordPiece",
    "prefix": "##",
    "cleanup": true
  },
  "model": {
    "type": "WordPiece",
    "unk_token": "[UNK]",
    "continuing_subword_prefix": "##",
    "max_input_chars_per_word": 4,
    "vocab": {
      "0": 0,
      "1": 1,
      "2": 2,
      "3": 3,
      "4": 4,
      "5": 5,
      "6": 6,
      "7": 7,
      "8": 8,
      "9": 9,
      "a": 10,
      "b": 11,
      "c": 12,
      "d": 13,
      "e": 14,
      "f": 15,
      "##8": 16,
      "##e": 17,
      "##5": 18,
      "##9": 19,
      "##4": 20,
      "##3": 21,
      "##7": 22,
      "##a": 23,
      "##6": 24,
      "##b": 25,
      "##1": 26,
      "##2": 27,
      "##d": 28,
      "##f": 29,
      "##c": 30,
      "##0": 31,
      "##00": 32,
      "000": 33,
      "0000": 34,
      "##01": 35,
      "01": 36,
      "##80": 37,
      "00": 38,
      "##08": 39,
      "##ff": 40,
      "0001": 41,
      "##02": 42,
      "##05": 43,
      "0a": 44,
      "##f5": 45,
      "02": 46,
      "##b6": 47,
      "##55": 48,
      "##6d": 49,
      "##1b": 50,
      "##42": 51,
      "##bc": 52,
      "##76": 53,
      "##d2": 54,
      "##1c": 55,
      "05": 56,
      "##29": 57,
      "##4f": 58,
      "##df": 59,
      "0101": 60,
      "##6e": 61,
      "##78": 62,
      "##4e": 63,
      "##aa": 64,
      "##51": 65,
      "##73": 66,
      "##7e": 67,
      "##fb": 68,
      "##4a": 69,
      "##7c": 70,
      "##52": 71,
      "##46": 72,
      "##7b": 73,
      "##48": 74,
      "##79": 75,
      "##43": 76,
      "##7a": 77,
      "##80a": 78,
      "##d3": 79,
      "##03": 80,
      "##49": 81,
      "18": 82,
      "##de": 83,
      "##4c": 84,
      "080a": 85,
      "##71": 86,
      "##72": 87,
      "##fe": 88,
      "##f3": 89,
      "##0a": 90,
      "##0c": 91,
      "##4b": 92,
      "##41": 93,
      "0108": 94,
      "##dc": 95,
      "0100": 96,
      "##45": 97,
      "##d8": 98,
      "##d9": 99,
      "##f9": 100,
      "##fc": 101,
      "##21": 102,
      "##d6": 103,
      "801": 104,
      "##09": 105,
      "##da": 106,
      "##0e": 107,
      "##06": 108,
      "##59": 109,
      "##0b": 110,
      "##53": 111,
      "##f8": 112,
      "##db": 113,
      "##fa": 114,
      "##f6": 115,
      "##f1": 116,
      "##39": 117,
      "##d1": 118,
      "##ac": 119,
      "##f2": 120,
      "##5c": 121,
      "##88": 122,
      "1c": 123,
      "1b": 124,
      "##a9": 125,
      "##75": 126,
      "##3e": 127,
      "##3c": 128,
      "##6c": 129,
      "##69": 130,
      "##8e": 131,
      "##5e": 132,
      "##5b": 133,
      "##2c": 134,
      "##19": 135,
      "##2e": 136,
      "##89": 137,
      "##1e": 138,
      "##2a": 139,
      "##8c": 140,
      "##5a": 141,
      "##6b": 142,
      "##47": 143,
      "##33": 144,
      "##8b": 145,
      "##2b": 146,
      "##8a": 147,
      "##81": 148,
      "##6a": 149,
      "##3a": 150,
      "##4d": 151,
      "##3b": 152,
      "##61": 153,
      "##25": 154,
      "##7d": 155,
      "6e": 156,
      "##20": 157,
      "69": 158,
      "##40": 159,
      "##31": 160,
      "001": 161,
      "##fd": 162,
      "##ec": 163,
      "##70": 164,
      "0c": 165,
      "##b9": 166,
      "##66": 167,
      "##e9": 168,
      "##44": 169,
      "79": 170,
      "##50": 171,
      "51": 172,
      "##83": 173,
      "##23": 174,
      "##77": 175,
      "a9": 176,
      "##be": 177,
      "19": 178,
      "21": 179,
      "##26": 180,
      "##ba": 181,
      "7c": 182,
      "8018": 183,
      "bc": 184,
      "4e": 185,
      "9c": 186,
      "##86": 187,
      "##d5": 188,
      "##f0": 189,
      "aa": 190,
      "42": 191,
      "0500": 192,
      "##b1": 193,
      "##74": 194,
      "3c": 195,
      "59": 196,
      "09": 197,
      "49": 198,
      "39": 199,
      "29": 200,
      "f9": 201,
      "fc": 202,
      "##7f": 203,
      "ac": 204,
      "##63": 205,
      "##ae": 206,
      "2c": 207,
      "4c": 208,
      "6c": 209,
      "dc": 210,
      "##d0": 211,
      "99": 212,
      "7e": 213,
      "cc": 214,
      "d9": 215,
      "89": 216,
      "8c": 217,
      "##11": 218,
      "ce": 219,
      "9e": 220,
      "5c": 221,
      "b9": 222,
      "e9": 223,
      "c9": 224,
      "##28": 225,
      "fe": 226,
      "0e": 227,
      "##58": 228,
      "##56": 229,
      "7a": 230,
      "##bb": 231,
      "ec": 232,
      "76": 233,
      "1e": 234,
      "4a": 235,
      "##dd": 236,
      "03": 237,
      "##22": 238,
      "ee": 239,
      "8e": 240,
      "3e": 241,
      "de": 242,
      "0200": 243,
      "##1a": 244,
      "2a": 245,
      "##36": 246,
      "be": 247,
      "5e": 248,
      "ae": 249,
      "ca": 250,
      "ea": 251,
      "2e": 252,
      "0b": 253,
      "##f4": 254,
      "6a": 255,
      "1a": 256,
      "db": 257,
      "7b": 258,
      "fa": 259,
      "61": 260,
      "5a": 261,
      "0002": 262,
      "16": 263,
      "c0": 264,
      "55": 265,
      "3a": 266,
      "9a": 267,
      "da": 268,
      "53": 269,
      "##f7": 270,
      "ba": 271,
      "8a": 272,
      "b1": 273,
      "##85": 274,
      "a1": 275,
      "41": 276,
      "11": 277,
      "##2d": 278,
      "81": 279,
      "f1": 280,
      "fff": 281,
      "91": 282,
      "bb": 283,
      "31": 284,
      "e1": 285,
      "25": 286,
      "71": 287,
      "c1": 288,
      "5b": 289,
      "8010": 290,
      "52": 291,
      "6b": 292,
      "##82": 293,
      "f3": 294,
      "##d7": 295,
      "2b": 296,
      "3b": 297,
      "##d4": 298,
      "df5": 299,
      "fb": 300,
      "c6": 301,
      "8b": 302,
      "ffff": 303,
      "4b": 304,
      "##30": 305,
      "d1": 306,
      "78": 307,
      "ab": 308,
      "cb": 309,
      "9b": 310,
      "1b00": 311,
      "eb": 312,
      "43": 313,
      "13": 314,
      "1d": 315,
      "06": 316,
      "66": 317,
      "56": 318,
      "23": 319,
      "73": 320,
      "63": 321,
      "26": 322,
      "08": 323,
      "83": 324,
      "e3": 325,
      "46": 326,
      "##bc0": 327,
      "##6db": 328,
      "33": 329,
      "##57": 330,
      "a3": 331,
      "b3": 332,
      "93": 333,
      "##5f": 334,
      "32": 335,
      "d29": 336,
      "d3": 337,
      "##54": 338,
      "88": 339,
      "86": 340,
      "d6": 341,
      "##87": 342,
      "e8": 343,
      "30": 344,
      "##04": 345,
      "##2f": 346,
      "##24": 347,
      "12": 348,
      "c3": 349,
      "c2": 350,
      "92": 351,
      "f2": 352,
      "d2": 353,
      "72": 354,
      "65": 355,
      "a6": 356,
      "##8f": 357,
      "f6": 358,
      "e6": 359,
      "36": 360,
      "e2": 361,
      "96": 362,
      "fbc0": 363,
      "##8d": 364,
      "##27": 365,
      "b6db": 366,
      "a2": 367,
      "62": 368,
      "##5d": 369,
      "82": 370,
      "28": 371,
      "c0b6": 372,
      "22": 373,
      "##0d": 374,
      "##07": 375,
      "b8": 376,
      "b6": 377,
      "b2": 378,
      "100": 379,
      "##84": 380,
      "f5": 381,
      "98": 382,
      "##1d": 383,
      "01f5": 384,
      "##0f": 385,
      "48": 386,
      "f8": 387,
      "95": 388,
      "a8": 389,
      "45": 390,
      "38": 391,
      "d8": 392,
      "1801": 393,
      "fd": 394,
      "58": 395,
      "68": 396,
      "44": 397,
      "ff": 398,
      "c5": 399,
      "07": 400,
      "15": 401,
      "35": 402,
      "e5": 403,
      "85": 404,
      "c8": 405,
      "d5": 406,
      "102": 407,
      "b5": 408,
      "75": 409,
      "0220": 410,
      "50": 411,
      "##37": 412,
      "##000": 413,
      "##32": 414,
      "04": 415,
      "20": 416,
      "##34": 417,
      "##38": 418,
      "##14": 419,
      "a5": 420,
      "##67": 421,
      "##60": 422,
      "180": 423,
      "67": 424,
      "17": 425,
      "##3f": 426,
      "##35": 427,
      "0d": 428,
      "6d": 429,
      "##6f": 430,
      "74": 431,
      "db6": 432,
      "##3d": 433,
      "9d": 434,
      "f55": 435,
      "57": 436,
      "e7": 437,
      "009": 438,
      "##62": 439,
      "27": 440,
      "87": 441,
      "f7": 442,
      "14": 443,
      "##64": 444,
      "##65": 445,
      "7d": 446,
      "00c": 447,
      "4f": 448,
      "77": 449,
      "d7": 450,
      "c7": 451,
      "3d": 452,
      "##b5": 453,
      "##b0": 454,
      "1c00": 455,
      "4d": 456,
      "##68": 457,
      "b7": 458,
      "8d": 459,
      "47": 460,
      "##18": 461,
      "97": 462,
      "37": 463,
      "90": 464,
      "ed": 465,
      "f4": 466,
      "00e": 467,
      "bd": 468,
      "0a42": 469,
      "0f": 470,
      "9f": 471,
      "a7": 472,
      "2d": 473,
      "##b2": 474,
      "cd": 475,
      "##10": 476,
      "94": 477,
      "001d": 478,
      "ad": 479,
      "696e": 480,
      "dd": 481,
      "54": 482,
      "af": 483,
      "10": 484,
      "##b8": 485,
      "24": 486,
      "5d": 487,
      "##17": 488,
      "6f": 489,
      "2f": 490,
      "##bd": 491,
      "bf": 492,
      "##010": 493,
      "##1f": 494,
      "aa00": 495,
      "80": 496,
      "##b4": 497,
      "0105": 498,
      "3f": 499,
      "df": 500,
      "7600": 501,
      "f555": 502,
      "##12": 503,
      "##bf": 504,
      "5f": 505,
      "b0": 506,
      "34": 507,
      "55aa": 508,
      "##ea": 509,
      "##15": 510,
      "ef": 511,
      "8f": 512,
      "6e76": 513,
      "a0": 514,
      "##b3": 515,
      "1f": 516,
      "##b7": 517,
      "cf": 518,
      "70": 519,
      "##13": 520,
      "64": 521,
      "e4": 522,
      "60": 523,
      "##a0": 524,
      "##16": 525,
      "d0": 526,
      "40": 527,
      "##af": 528,
      "7f": 529,
      "e0": 530,
      "##a2": 531,
      "f0": 532,
      "d4": 533,
      "c4": 534,
      "84": 535,
      "1025": 536,
      "b4": 537,
      "##a1": 538,
      "473": 539,
      "a4": 540,
      "db69": 541,
      "##a6": 542,
      "##ad": 543,
      "##a7": 544,
      "##eb": 545,
      "##e2": 546,
      "0121": 547,
      "##a5": 548,
      "##018": 549,
      "##ab": 550,
      "##e8": 551,
      "##a8": 552,
      "##e0": 553,
      "0014": 554,
      "##a3": 555,
      "1600": 556,
      "##a4": 557,
      "##ed": 558,
      "##e6": 559,
      "##e5": 560,
      "##e7": 561,
      "##e1": 562,
      "##e3": 563,
      "##ef": 564,
      "##e4": 565,
      "##90": 566,
      "##ee": 567,
      "##99": 568,
      "050a": 569,
      "4730": 570,
      "##c6": 571,
      "##461": 572,
      "4402": 573,
      "3044": 574,
      "101": 575,
      "##92": 576,
      "##c5": 577,
      "##ca": 578,
      "##94": 579,
      "0ad2": 580,
      "##9d": 581,
      "##cc": 582,
      "0016": 583,
      "d29e": 584,
      "##c7": 585,
      "##c0": 586,
      "##765": 587,
      "##98": 588,
      "##9f": 589,
      "##97": 590,
      "##001": 591,
      "##c2": 592,
      "b010": 593,
      "011d": 594,
      "##9c": 595,
      "##c1": 596,
      "##cf": 597,
      "##93": 598,
      "##cb": 599,
      "##ce": 600,
      "##91": 601,
      "##9e": 602,
      "427e": 603,
      "##cd": 604,
      "427d": 605,
      "##9b": 606,
      "2103": 607,
      "##9a": 608,
      "a914": 609,
      "0247": 610,
      "##c4": 611,
      "1825": 612,
      "##95": 613,
      "##c8": 614,
      "##c3": 615,
      "df54": 616,
      "1001": 617,
      "##002": 618,
      "25a": 619,
      "##c9": 620,
      "0017": 621,
      "##96": 622,
      "df53": 623,
      "659": 624,
      "0025": 625,
      "df55": 626,
      "5018": 627,
      "df56": 628,
      "f6d": 629,
      "##005": 630,
      "1d6": 631,
      "##464": 632,
      "2500": 633,
      "205": 634,
      "##ffb": 635,
      "d29d": 636,
      "f4f": 637,
      "17a": 638,
      "b48": 639,
      "##830": 640,
      "2102": 641,
      "07e": 642,
      "202": 643,
      "##716": 644,
      "25b": 645,
      "203": 646,
      "57c": 647,
      "df9": 648,
      "7800": 649,
      "706": 650,
      "51b": 651,
      "7ec": 652,
      "##805": 653,
      "201": 654,
      "4f6": 655,
      "##dfb": 656,
      "9fb": 657,
      "e29": 658,
      "339": 659,
      "142": 660,
      "d29f": 661,
      "0019": 662,
      "d29c": 663,
      "bd3": 664,
      "25c": 665,
      "00fd": 666,
      "206": 667,
      "b52": 668,
      "455": 669,
      "66e": 670,
      "ff02": 671,
      "##8a1": 672,
      "##d21": 673,
      "04b": 674,
      "529": 675,
      "fac": 676,
      "52e": 677,
      "143": 678,
      "4f8": 679,
      "28e": 680,
      "542": 681,
      "af8": 682,
      "ff6": 683,
      "4f9": 684,
      "2de": 685,
      "94a": 686,
      "427c": 687,
      "##802": 688,
      "7478": 689,
      "78b": 690,
      "##2a0": 691,
      "86c": 692,
      "##886": 693,
      "6f3": 694,
      "##8a3": 695,
      "555": 696,
      "b2e": 697,
      "36d": 698,
      "778": 699,
      "1b6": 700,
      "609": 701,
      "c52": 702,
      "0008": 703,
      "1dc": 704,
      "1de": 705,
      "f39": 706,
      "b76": 707,
      "4d3": 708,
      "a1e": 709,
      "##11d": 710,
      "4ac": 711,
      "##450": 712,
      "##61a": 713,
      "b0e": 714,
      "f51": 715,
      "4f5": 716,
      "0ff": 717,
      "##db0": 718,
      "505": 719,
      "951": 720,
      "##fce": 721,
      "1d2": 722,
      "##bbf": 723,
      "##750": 724,
      "1b01": 725,
      "0800": 726,
      "151": 727,
      "6b9": 728,
      "00fb": 729,
      "50c": 730,
      "200": 731,
      "4f3": 732,
      "##088": 733,
      "52c": 734,
      "8ac": 735,
      "501": 736,
      "51e": 737,
      "789": 738,
      "8fe": 739,
      "14e": 740,
      "3ac": 741,
      "1d3": 742,
      "##360": 743,
      "dfe": 744,
      "105": 745,
      "##6a8": 746,
      "##f07": 747,
      "efc": 748,
      "419": 749,
      "2f6": 750,
      "259": 751,
      "##4b0": 752,
      "06e": 753,
      "50e": 754,
      "2100": 755,
      "67b": 756,
      "##710": 757,
      "00ff": 758,
      "df57": 759,
      "##1af": 760,
      "0dc": 761,
      "14f": 762,
      "b5e": 763,
      "26e": 764,
      "248": 765,
      "306": 766,
      "##465": 767,
      "##f1d": 768,
      "db74": 769,
      "##f50": 770,
      "##083": 771,
      "4da": 772,
      "a6d": 773,
      "251": 774,
      "1d9": 775,
      "##70f": 776,
      "##fa1": 777,
      "905": 778,
      "252": 779,
      "##33b": 780,
      "f4e": 781,
      "502": 782,
      "4df": 783,
      "0ba": 784,
      "4fe": 785,
      "70b": 786,
      "427f": 787,
      "76a9": 788,
      "##367": 789,
      "8d3": 790,
      "1da": 791,
      "001c": 792,
      "fdff": 793,
      "53c": 794,
      "503": 795,
      "50a": 796,
      "1d8": 797,
      "c76": 798,
      "##3ed": 799,
      "##f51": 800,
      "103": 801,
      "d45": 802,
      "ed2": 803,
      "14c": 804,
      "f1b": 805,
      "##fd0": 806,
      "##810": 807,
      "##4af": 808,
      "##3b0": 809,
      "51c": 810,
      "1976": 811,
      "##bef": 812,
      "6100": 813,
      "##250": 814,
      "##7b4": 815,
      "##6b0": 816,
      "efe": 817,
      "0049": 818,
      "##407": 819,
      "1802": 820,
      "##610": 821,
      "##632": 822,
      "559": 823,
      "##3a1": 824,
      "78c": 825,
      "6d3": 826,
      "bae": 827,
      "6700": 828,
      "88ac": 829,
      "##118": 830,
      "##811": 831,
      "4f2": 832,
      "149": 833,
      "##71e": 834,
      "##3ee": 835,
      "539": 836,
      "11c": 837,
      "##212": 838,
      "62e": 839,
      "##550": 840,
      "e2b": 841,
      "##f52": 842,
      "##41d": 843,
      "50b": 844,
      "ddf": 845,
      "3fe": 846,
      "519": 847,
      "##be7": 848,
      "eac": 849,
      "##431": 850,
      "##72c": 851,
      "##b14": 852,
      "afe": 853,
      "##218": 854,
      "0221": 855,
      "573": 856,
      "54c": 857,
      "ef9": 858,
      "54f": 859,
      "378": 860,
      "b09": 861,
      "##58d": 862,
      "1d1": 863,
      "5ff": 864,
      "788": 865,
      "##80d": 866,
      "##717": 867,
      "7a9": 868,
      "c1e": 869,
      "1f3": 870,
      "253": 871,
      "##3a6": 872,
      "##217": 873,
      "##003": 874,
      "##50d": 875,
      "4aa": 876,
      "##80c": 877,
      "##7e4": 878,
      "##3ef": 879,
      "cf3": 880,
      "b05": 881,
      "427b": 882,
      "##40d": 883,
      "6574": 884,
      "f19": 885,
      "##bb5": 886,
      "78e": 887,
      "f59": 888,
      "22c": 889,
      "##663": 890,
      "##46c": 891,
      "##418": 892,
      "6765": 893,
      "7f3": 894,
      "509": 895,
      "4900": 896,
      "bde": 897,
      "55c": 898,
      "31e": 899,
      "9f3": 900,
      "d79": 901,
      "##817": 902,
      "##551": 903,
      "##d04": 904,
      "533": 905,
      "##f04": 906,
      "3a9": 907,
      "f6c": 908,
      "##492": 909,
      "##695": 910,
      "7ac": 911,
      "##f16": 912,
      "e2c": 913,
      "##fb5": 914,
      "4ec": 915,
      "9ec": 916,
      "bd1": 917,
      "7e9": 918,
      "af6": 919,
      "##3af": 920,
      "7dc": 921,
      "7aa": 922,
      "##6bb": 923,
      "28b": 924,
      "##781": 925,
      "##fb0": 926,
      "7d3": 927,
      "##7bb": 928,
      "8ba": 929,
      "##808": 930,
      "##81d": 931,
      "6174": 932,
      "359": 933,
      "1df": 934,
      "##865": 935,
      "088": 936,
      "##43d": 937,
      "bd6": 938,
      "2ff": 939,
      "9fe": 940,
      "54e": 941,
      "17a9": 942,
      "##638": 943,
      "148": 944,
      "1db": 945,
      "873": 946,
      "f5e": 947,
      "##224": 948,
      "605": 949,
      "##722": 950,
      "e4c": 951,
      "5010": 952,
      "##f14": 953,
      "##410": 954,
      "e89": 955,
      "11b": 956,
      "##80b": 957,
      "9dc": 958,
      "f6e": 959,
      "##667": 960,
      "##fcb": 961,
      "3ec": 962,
      "ff3": 963,
      "52b": 964,
      "##207": 965,
      "##313": 966,
      "##777": 967,
      "20e": 968,
      "48e": 969,
      "42c": 970,
      "##807": 971,
      "##314": 972,
      "##2a1": 973,
      "7ae": 974,
      "##614": 975,
      "##72f": 976,
      "4502": 977,
      "039": 978,
      "7de": 979,
      "56c": 980,
      "4fa": 981,
      "729": 982,
      "f53": 983,
      "##453": 984,
      "642": 985,
      "679": 986,
      "14b": 987,
      "##3a0": 988,
      "##3a5": 989,
      "##615": 990,
      "##fdd": 991,
      "805": 992,
      "##fc4": 993,
      "##3a7": 994,
      "da9": 995,
      "ff8": 996,
      "##bc6": 997,
      "1aa": 998,
      "c53": 999,
      "##f53": 1000,
      "6461": 1001,
      "##237": 1002,
      "##f1a": 1003,
      "##784": 1004,
      "2800": 1005,
      "##d0d": 1006,
      "##2ab": 1007,
      "06d": 1008,
      "fa9": 1009,
      "56e": 1010,
      "9d9": 1011,
      "##5b0": 1012,
      "##bb0": 1013,
      "079": 1014,
      "##d07": 1015,
      "40c": 1016,
      "7461": 1017,
      "aaa": 1018,
      "7f8": 1019,
      "7b9": 1020,
      "##25d": 1021,
      "4ff": 1022,
      "##444": 1023,
      "##3a2": 1024,
      "ce9": 1025,
      "##7d4": 1026,
      "3045": 1027,
      "4830": 1028,
      "1fe": 1029,
      "##7d7": 1030,
      "f01": 1031,
      "7464": 1032,
      "f29": 1033,
      "fd3": 1034,
      "##804": 1035,
      "10e": 1036,
      "a01": 1037,
      "##4fb": 1038,
      "1804": 1039,
      "92c": 1040,
      "##4d7": 1041,
      "##430": 1042,
      "b73": 1043,
      "##312": 1044,
      "##232": 1045,
      "03c": 1046,
      "302": 1047,
      "##310": 1048,
      "##bce": 1049,
      "179": 1050,
      "9e9": 1051,
      "##4d5": 1052,
      "##268": 1053,
      "c03": 1054,
      "31b": 1055,
      "86d": 1056,
      "##726": 1057,
      "ea9": 1058,
      "##707": 1059,
      "9f9": 1060,
      "##49c": 1061,
      "40e": 1062,
      "852": 1063,
      "7d2": 1064,
      "7b6": 1065,
      "93c": 1066,
      "##468": 1067,
      "##287": 1068,
      "60c": 1069,
      "db67": 1070,
      "##69c": 1071,
      "##694": 1072,
      "##317": 1073,
      "cb6": 1074,
      "04e": 1075,
      "##d0f": 1076,
      "552": 1077,
      "##7b1": 1078,
      "f2c": 1079,
      "##71a": 1080,
      "705": 1081,
      "##40f": 1082,
      "##635": 1083,
      "##f24": 1084,
      "4a9": 1085,
      "edc": 1086,
      "##2a7": 1087,
      "309": 1088,
      "ff9": 1089,
      "6e67": 1090,
      "ef8": 1091,
      "##71f": 1092,
      "##725": 1093,
      "##71d": 1094,
      "fde": 1095,
      "773": 1096,
      "bdc": 1097,
      "cd3": 1098,
      "d7c": 1099,
      "0ec": 1100,
      "e01": 1101,
      "a0e": 1102,
      "##419": 1103,
      "##3b3": 1104,
      "7ff": 1105,
      "2d1": 1106,
      "##7ab": 1107,
      "ffa": 1108,
      "c02": 1109,
      "e6e": 1110,
      "a7c": 1111,
      "a59": 1112,
      "9d3": 1113,
      "##815": 1114,
      "553": 1115,
      "##3e8": 1116,
      "##70d": 1117,
      "##7f7": 1118,
      "c59": 1119,
      "7d9": 1120,
      "##08d": 1121,
      "##bc5": 1122,
      "##3e6": 1123,
      "453": 1124,
      "##80e": 1125,
      "##d56": 1126,
      "65e": 1127,
      "##f10": 1128,
      "6ac": 1129,
      "##72b": 1130,
      "80c": 1131,
      "##837": 1132,
      "229": 1133,
      "56d": 1134,
      "b6e": 1135,
      "91c": 1136,
      "c2c": 1137,
      "a09": 1138,
      "d1e": 1139,
      "34e": 1140,
      "de9": 1141,
      "##552": 1142,
      "e53": 1143,
      "##219": 1144,
      "##490": 1145,
      "##f15": 1146,
      "##7d5": 1147,
      "##630": 1148,
      "##f1f": 1149,
      "##007": 1150,
      "##08b": 1151,
      "94e": 1152,
      "279": 1153,
      "##d85": 1154,
      "##82f": 1155,
      "55e": 1156,
      "753": 1157,
      "0578": 1158,
      "21c": 1159,
      "c0e": 1160,
      "##3bb": 1161,
      "##6a4": 1162,
      "08e": 1163,
      "9f8": 1164,
      "##6bd": 1165,
      "90e": 1166,
      "173": 1167,
      "a05": 1168,
      "##587": 1169,
      "##63f": 1170,
      "##36f": 1171,
      "##862": 1172,
      "a3c": 1173,
      "959": 1174,
      "909": 1175,
      "eb6": 1176,
      "5de": 1177,
      "e8e": 1178,
      "109": 1179,
      "23c": 1180,
      "##234": 1181,
      "##254": 1182,
      "##69b": 1183,
      "439": 1184,
      "809": 1185,
      "e5c": 1186,
      "##613": 1187,
      "653": 1188,
      "d8c": 1189,
      "##6b4": 1190,
      "##818": 1191,
      "##72e": 1192,
      "6d9": 1193,
      "2aa": 1194,
      "63c": 1195,
      "##d5f": 1196,
      "b7c": 1197,
      "##812": 1198,
      "b53": 1199,
      "##72a": 1200,
      "97c": 1201,
      "##665": 1202,
      "##23d": 1203,
      "ef3": 1204,
      "##3e7": 1205,
      "6aa": 1206,
      "##fc7": 1207,
      "##8b0": 1208,
      "##7f4": 1209,
      "##22f": 1210,
      "a1b": 1211,
      "0400": 1212,
      "##bb2": 1213,
      "##dd7": 1214,
      "a53": 1215,
      "##72d": 1216,
      "##756": 1217,
      "239": 1218,
      "fec": 1219,
      "##f20": 1220,
      "14a": 1221,
      "##7b0": 1222,
      "##fcd": 1223,
      "##698": 1224,
      "a03": 1225,
      "##413": 1226,
      "##b12": 1227,
      "90c": 1228,
      "##562": 1229,
      "31c": 1230,
      "939": 1231,
      "##713": 1232,
      "##215": 1233,
      "12b": 1234,
      "506": 1235,
      "c39": 1236,
      "##265": 1237,
      "##58f": 1238,
      "37c": 1239,
      "##411": 1240,
      "60e": 1241,
      "##7dd": 1242,
      "c1c": 1243,
      "##416": 1244,
      "24e": 1245,
      "a2e": 1246,
      "##bc1": 1247,
      "##813": 1248,
      "1f9": 1249,
      "803": 1250,
      "db70": 1251,
      "38c": 1252,
      "##d6b": 1253,
      "##db3": 1254,
      "##814": 1255,
      "68e": 1256,
      "bfe": 1257,
      "66c": 1258,
      "a8c": 1259,
      "c09": 1260,
      "##3ad": 1261,
      "35c": 1262,
      "5e9": 1263,
      "719": 1264,
      "952": 1265,
      "e73": 1266,
      "##809": 1267,
      "b79": 1268,
      "##d8b": 1269,
      "af3": 1270,
      "##3b2": 1271,
      "##568": 1272,
      "242": 1273,
      "##fd5": 1274,
      "04c": 1275,
      "##806": 1276,
      "##61f": 1277,
      "0d3": 1278,
      "d4c": 1279,
      "9ac": 1280,
      "##25f": 1281,
      "##467": 1282,
      "409": 1283,
      "76c": 1284,
      "##728": 1285,
      "##718": 1286,
      "##d87": 1287,
      "d73": 1288,
      "e05": 1289,
      "4b9": 1290,
      "119": 1291,
      "c05": 1292,
      "faa": 1293,
      "##bcf": 1294,
      "17c": 1295,
      "c3c": 1296,
      "##3a3": 1297,
      "0da": 1298,
      "eec": 1299,
      "8b6": 1300,
      "e6d": 1301,
      "##463": 1302,
      "##711": 1303,
      "5aa": 1304,
      "5f3": 1305,
      "##7ee": 1306,
      "##41a": 1307,
      "12c": 1308,
      "80e": 1309,
      "##f13": 1310,
      "##f11": 1311,
      "36c": 1312,
      "##462": 1313,
      "##75a": 1314,
      "ba9": 1315,
      "##b10": 1316,
      "d05": 1317,
      "##fb1": 1318,
      "##6af": 1319,
      "##3b5": 1320,
      "1ac": 1321,
      "d2e": 1322,
      "##bc7": 1323,
      "953": 1324,
      "319": 1325,
      "b0c": 1326,
      "##fca": 1327,
      "##f0f": 1328,
      "be9": 1329,
      "ee9": 1330,
      "21e": 1331,
      "fb9": 1332,
      "##3b4": 1333,
      "f73": 1334,
      "##db4": 1335,
      "1e9": 1336,
      "489": 1337,
      "bb9": 1338,
      "##3a8": 1339,
      "##61d": 1340,
      "e39": 1341,
      "##75b": 1342,
      "1a9": 1343,
      "##b13": 1344,
      "##634": 1345,
      "##3e5": 1346,
      "##dd4": 1347,
      "e0c": 1348,
      "0205": 1349,
      "##bcd": 1350,
      "551": 1351,
      "f05": 1352,
      "##b1a": 1353,
      "##78b": 1354,
      "a0c": 1355,
      "##fba": 1356,
      "##754": 1357,
      "##6b2": 1358,
      "##227": 1359,
      "64e": 1360,
      "41c": 1361,
      "##257": 1362,
      "86e": 1363,
      "209": 1364,
      "68c": 1365,
      "##d57": 1366,
      "c4e": 1367,
      "##316": 1368,
      "9da": 1369,
      "fb6": 1370,
      "##720": 1371,
      "##417": 1372,
      "daa": 1373,
      "##2af": 1374,
      "##5a1": 1375,
      "d01": 1376,
      "##3e9": 1377,
      "e4a": 1378,
      "21b": 1379,
      "24c": 1380,
      "a79": 1381,
      "c79": 1382,
      "##458": 1383,
      "##fc6": 1384,
      "##6b5": 1385,
      "20c": 1386,
      "5b9": 1387,
      "ab9": 1388,
      "4dc": 1389,
      "dec": 1390,
      "##6b7": 1391,
      "##6a0": 1392,
      "159": 1393,
      "##460": 1394,
      "##714": 1395,
      "##78e": 1396,
      "83c": 1397,
      "6f6": 1398,
      "d3c": 1399,
      "##727": 1400,
      "##854": 1401,
      "##2a8": 1402,
      "##8a5": 1403,
      "5d3": 1404,
      "##6b1": 1405,
      "a4e": 1406,
      "##507": 1407,
      "6dc": 1408,
      "f8e": 1409,
      "##0b0": 1410,
      "##f18": 1411,
      "##31d": 1412,
      "##263": 1413,
      "##f54": 1414,
      "1c80": 1415,
      "3e9": 1416,
      "##b11": 1417,
      "f5c": 1418,
      "##7d0": 1419,
      "f79": 1420,
      "5a9": 1421,
      "##f0d": 1422,
      "089": 1423,
      "9fa": 1424,
      "a5e": 1425,
      "2d3": 1426,
      "4de": 1427,
      "46c": 1428,
      "8f3": 1429,
      "a6c": 1430,
      "##3bd": 1431,
      "1ec": 1432,
      "##db2": 1433,
      "##be3": 1434,
      "##333": 1435,
      "0f9": 1436,
      "##803": 1437,
      "##469": 1438,
      "##3ae": 1439,
      "305": 1440,
      "##d88": 1441,
      "04a": 1442,
      "0f8": 1443,
      "15e": 1444,
      "##3be": 1445,
      "87c": 1446,
      "d5c": 1447,
      "##6a1": 1448,
      "576": 1449,
      "ab6": 1450,
      "cec": 1451,
      "##4dd": 1452,
      "5ac": 1453,
      "942": 1454,
      "859": 1455,
      "96c": 1456,
      "c29": 1457,
      "d2c": 1458,
      "006d": 1459,
      "9de": 1460,
      "##404": 1461,
      "##69e": 1462,
      "329": 1463,
      "a02": 1464,
      "ffe": 1465,
      "##6b8": 1466,
      "##81a": 1467,
      "1d00": 1468,
      "75c": 1469,
      "##668": 1470,
      "709": 1471,
      "c0c": 1472,
      "##bcc": 1473,
      "##715": 1474,
      "1f8": 1475,
      "405": 1476,
      "##f12": 1477,
      "##666": 1478,
      "629": 1479,
      "81c": 1480,
      "c0a": 1481,
      "8e9": 1482,
      "b59": 1483,
      "##fbb": 1484,
      "##43b": 1485,
      "401": 1486,
      "48c": 1487,
      "b42": 1488,
      "##d81": 1489,
      "b5c": 1490,
      "##330": 1491,
      "##3bf": 1492,
      "fdc": 1493,
      "##f19": 1494,
      "13c": 1495,
      "548": 1496,
      "##433": 1497,
      "##719": 1498,
      "##d61": 1499,
      "2f3": 1500,
      "f09": 1501,
      "##612": 1502,
      "##7bf": 1503,
      "38e": 1504,
      "5dc": 1505,
      "619": 1506,
      "ade": 1507,
      "##723": 1508,
      "##75e": 1509,
      "22e": 1510,
      "##712": 1511,
      "##457": 1512,
      "##838": 1513,
      "##238": 1514,
      "0e9": 1515,
      "3f3": 1516,
      "e3c": 1517,
      "676": 1518,
      "aff": 1519,
      "##081": 1520,
      "##fb2": 1521,
      "##47f": 1522,
      "##85d": 1523,
      "##553": 1524,
      "##4d4": 1525,
      "042": 1526,
      "303": 1527,
      "bff": 1528,
      "eb9": 1529,
      "##724": 1530,
      "##46b": 1531,
      "##45e": 1532,
      "##774": 1533,
      "##f2b": 1534,
      "25e": 1535,
      "e5e": 1536,
      "##21d": 1537,
      "10a": 1538,
      "2dc": 1539,
      "353": 1540,
      "##f55": 1541,
      "##660": 1542,
      "15c": 1543,
      "5b6": 1544,
      "a39": 1545,
      "##3b9": 1546,
      "85c": 1547,
      "3d3": 1548,
      "##836": 1549,
      "##3e2": 1550,
      "##31a": 1551,
      "0b9": 1552,
      "fe9": 1553,
      "##bc8": 1554,
      "##758": 1555,
      "##230": 1556,
      "139": 1557,
      "d6e": 1558,
      "eff": 1559,
      "##41f": 1560,
      "##20d": 1561,
      "##66f": 1562,
      "33c": 1563,
      "459": 1564,
      "98c": 1565,
      "d53": 1566,
      "e19": 1567,
      "106": 1568,
      "b8e": 1569,
      "##00a": 1570,
      "##432": 1571,
      "##662": 1572,
      "9f6": 1573,
      "##493": 1574,
      "##bed": 1575,
      "##860": 1576,
      "073": 1577,
      "##4b8": 1578,
      "##690": 1579,
      "cd9": 1580,
      "##7a1": 1581,
      "##8a8": 1582,
      "6fe": 1583,
      "8000": 1584,
      "##6b3": 1585,
      "##75d": 1586,
      "##5a0": 1587,
      "##be8": 1588,
      "e88": 1589,
      "2d9": 1590,
      "9ff": 1591,
      "903": 1592,
      "ad3": 1593,
      "df3": 1594,
      "##664": 1595,
      "##b17": 1596,
      "30e": 1597,
      "8da": 1598,
      "##721": 1599,
      "##77f": 1600,
      "##fbe": 1601,
      "9d2": 1602,
      "829": 1603,
      "c5e": 1604,
      "##bb7": 1605,
      "602": 1606,
      "b1c": 1607,
      "efa": 1608,
      "40a": 1609,
      "##75f": 1610,
      "##be0": 1611,
      "3dc": 1612,
      "dac": 1613,
      "603": 1614,
      "bd9": 1615,
      "b19": 1616,
      "##414": 1617,
      "b02": 1618,
      "f7c": 1619,
      "##31f": 1620,
      "e79": 1621,
      "f0c": 1622,
      "##835": 1623,
      "601": 1624,
      "919": 1625,
      "##4d0": 1626,
      "f8c": 1627,
      "##3b1": 1628,
      "fda": 1629,
      "##214": 1630,
      "44c": 1631,
      "85e": 1632,
      "##7b9": 1633,
      "##7b3": 1634,
      "62c": 1635,
      "eaa": 1636,
      "##fc0": 1637,
      "##b18": 1638,
      "##b1d": 1639,
      "b4c": 1640,
      "##2a6": 1641,
      "##41e": 1642,
      "##260": 1643,
      "979": 1644,
      "##69a": 1645,
      "aac": 1646,
      "652": 1647,
      "129": 1648,
      "606": 1649,
      "75e": 1650,
      "##bc3": 1651,
      "0d2": 1652,
      "a89": 1653,
      "##5b8": 1654,
      "3aa": 1655,
      "8ae": 1656,
      "0de": 1657,
      "24a": 1658,
      "45c": 1659,
      "##3e3": 1660,
      "##33f": 1661,
      "##30f": 1662,
      "342": 1663,
      "e52": 1664,
      "##474": 1665,
      "902": 1666,
      "11e": 1667,
      "e42": 1668,
      "##2ad": 1669,
      "##d54": 1670,
      "403": 1671,
      "##693": 1672,
      "##47d": 1673,
      "eda": 1674,
      "##337": 1675,
      "##8a4": 1676,
      "153": 1677,
      "##267": 1678,
      "b29": 1679,
      "##3eb": 1680,
      "##6a5": 1681,
      "##d5d": 1682,
      "##2d7": 1683,
      "0d9": 1684,
      "##08a": 1685,
      "##d8d": 1686,
      "e4e": 1687,
      "379": 1688,
      "c8c": 1689,
      "9aa": 1690,
      "##45b": 1691,
      "##6ab": 1692,
      "##3ba": 1693,
      "16c": 1694,
      "##f27": 1695,
      "##49e": 1696,
      "3de": 1697,
      "##2a2": 1698,
      "2ac": 1699,
      "##338": 1700,
      "16e": 1701,
      "##5bb": 1702,
      "##b15": 1703,
      "8dc": 1704,
      "c5c": 1705,
      "##45a": 1706,
      "##7e0": 1707,
      "##704": 1708,
      "e8c": 1709,
      "##331": 1710,
      "##315": 1711,
      "989": 1712,
      "##459": 1713,
      "3b6": 1714,
      "##3e0": 1715,
      "779": 1716,
      "##45d": 1717,
      "##69f": 1718,
      "64c": 1719,
      "af9": 1720,
      "ca9": 1721,
      "##0b1": 1722,
      "##256": 1723,
      "f42": 1724,
      "##db5": 1725,
      "6de": 1726,
      "7f9": 1727,
      "b01": 1728,
      "20a": 1729,
      "92b": 1730,
      "802": 1731,
      "df8": 1732,
      "##637": 1733,
      "##494": 1734,
      "08c": 1735,
      "889": 1736,
      "adc": 1737,
      "##7e9": 1738,
      "##491": 1739,
      "b39": 1740,
      "cf9": 1741,
      "e59": 1742,
      "e2e": 1743,
      "##783": 1744,
      "##50f": 1745,
      "10c": 1746,
      "373": 1747,
      "b6c": 1748,
      "c6c": 1749,
      "d0c": 1750,
      "##46f": 1751,
      "##4bb": 1752,
      "##318": 1753,
      "##fd7": 1754,
      "f89": 1755,
      "9a9": 1756,
      "##7ef": 1757,
      "##43e": 1758,
      "b6d": 1759,
      "f48": 1760,
      "##f17": 1761,
      "##22d": 1762,
      "2b6": 1763,
      "db9": 1764,
      "219": 1765,
      "61c": 1766,
      "95c": 1767,
      "##617": 1768,
      "2fe": 1769,
      "429": 1770,
      "##204": 1771,
      "##365": 1772,
      "##364": 1773,
      "b03": 1774,
      "d42": 1775,
      "##f2f": 1776,
      "##565": 1777,
      "##d89": 1778,
      "301": 1779,
      "dde": 1780,
      "##618": 1781,
      "27c": 1782,
      "759": 1783,
      "d6d": 1784,
      "##fb4": 1785,
      "##f1e": 1786,
      "702": 1787,
      "##5a7": 1788,
      "65c": 1789,
      "##3ab": 1790,
      "##115": 1791,
      "3d9": 1792,
      "##3ec": 1793,
      "##69d": 1794,
      "##f57": 1795,
      "##7b7": 1796,
      "##3ea": 1797,
      "839": 1798,
      "c6e": 1799,
      "##bca": 1800,
      "##be2": 1801,
      "34c": 1802,
      "dd3": 1803,
      "0091": 1804,
      "##7af": 1805,
      "fd2": 1806,
      "6ba": 1807,
      "f52": 1808,
      "##80f": 1809,
      "2e9": 1810,
      "402": 1811,
      "##fbd": 1812,
      "##757": 1813,
      "74e": 1814,
      "bb6": 1815,
      "cf8": 1816,
      "##fc9": 1817,
      "##d6c": 1818,
      "742": 1819,
      "8ff": 1820,
      "973": 1821,
      "cb9": 1822,
      "##d8f": 1823,
      "e02": 1824,
      "a4c": 1825,
      "##fc5": 1826,
      "348": 1827,
      "##beb": 1828,
      "8b9": 1829,
      "##466": 1830,
      "##db8": 1831,
      "##7b8": 1832,
      "##bee": 1833,
      "389": 1834,
      "5d1": 1835,
      "a0a": 1836,
      "##7ea": 1837,
      "##336": 1838,
      "176": 1839,
      "842": 1840,
      "c01": 1841,
      "273": 1842,
      "72c": 1843,
      "f0e": 1844,
      "cdc": 1845,
      "##f2d": 1846,
      "##235": 1847,
      "4b6": 1848,
      "##db1": 1849,
      "##bb4": 1850,
      "639": 1851,
      "6a9": 1852,
      "##636": 1853,
      "81e": 1854,
      "f2e": 1855,
      "12e": 1856,
      "58e": 1857,
      "8f9": 1858,
      "6ff": 1859,
      "##33a": 1860,
      "fd9": 1861,
      "929": 1862,
      "c7c": 1863,
      "1c1c": 1864,
      "2b9": 1865,
      "b0a": 1866,
      "cfe": 1867,
      "##7e2": 1868,
      "##f26": 1869,
      "##6be": 1870,
      "2a9": 1871,
      "a2c": 1872,
      "##7bd": 1873,
      "##470": 1874,
      "##8af": 1875,
      "71e": 1876,
      "##216": 1877,
      "##6ba": 1878,
      "##816": 1879,
      "##6a7": 1880,
      "0fe": 1881,
      "77c": 1882,
      "98e": 1883,
      "c48": 1884,
      "e48": 1885,
      "648": 1886,
      "##fc3": 1887,
      "ede": 1888,
      "e1e": 1889,
      "##4b7": 1890,
      "76d": 1891,
      "##ddd": 1892,
      "80a": 1893,
      "##7b5": 1894,
      "9df": 1895,
      "##b16": 1896,
      "##412": 1897,
      "##262": 1898,
      "61e": 1899,
      "92e": 1900,
      "a1c": 1901,
      "b1b": 1902,
      "f1c": 1903,
      "32e": 1904,
      "3b9": 1905,
      "8ec": 1906,
      "##08f": 1907,
      "d6c": 1908,
      "##7a5": 1909,
      "##f2e": 1910,
      "##fd4": 1911,
      "5f8": 1912,
      "##415": 1913,
      "35e": 1914,
      "##bcb": 1915,
      "##bb8": 1916,
      "26c": 1917,
      "36e": 1918,
      "##08e": 1919,
      "##78a": 1920,
      "##362": 1921,
      "3f9": 1922,
      "06c": 1923,
      "70c": 1924,
      "5d2": 1925,
      "a19": 1926,
      "b2c": 1927,
      "b8c": 1928,
      "f3c": 1929,
      "30c": 1930,
      "d59": 1931,
      "##d83": 1932,
      "##335": 1933,
      "32c": 1934,
      "e6c": 1935,
      "##be1": 1936,
      "7df": 1937,
      "a29": 1938,
      "fd1": 1939,
      "##f2c": 1940,
      "d4e": 1941,
      "##f5b": 1942,
      "##7eb": 1943,
      "5d9": 1944,
      "##d58": 1945,
      "##bbd": 1946,
      "4d9": 1947,
      "##264": 1948,
      "b2b": 1949,
      "##582": 1950,
      "60a": 1951,
      "048": 1952,
      "c73": 1953,
      "ed3": 1954,
      "a42": 1955,
      "41b": 1956,
      "##fb7": 1957,
      "##d60": 1958,
      "##8ba": 1959,
      "##6a2": 1960,
      "b89": 1961,
      "cff": 1962,
      "95e": 1963,
      "579": 1964,
      "2ec": 1965,
      "589": 1966,
      "cac": 1967,
      "##084": 1968,
      "##56f": 1969,
      "689": 1970,
      "##7ed": 1971,
      "##4b3": 1972,
      "##6b9": 1973,
      "5f9": 1974,
      "baa": 1975,
      "eae": 1976,
      "##bc9": 1977,
      "##bc4": 1978,
      "##7e7": 1979,
      "##824": 1980,
      "71b": 1981,
      "##6a6": 1982,
      "0f3": 1983,
      "46d": 1984,
      "##bc2": 1985,
      "6f8": 1986,
      "##258": 1987,
      "##43c": 1988,
      "e09": 1989,
      "##4b4": 1990,
      "##867": 1991,
      "47c": 1992,
      "##7a7": 1993,
      "651": 1994,
      "##fbf": 1995,
      "##f28": 1996,
      "43c": 1997,
      "5ec": 1998,
      "a51": 1999,
      "a8e": 2000,
      "d48": 2001,
      "##63d": 2002,
      "888": 2003,
      "##699": 2004,
      "0f6": 2005,
      "##864": 2006,
      "0b6": 2007,
      "74c": 2008,
      "5fe": 2009,
      "##085": 2010,
      "##f5e": 2011,
      "##7a2": 2012,
      "e0e": 2013,
      "##082": 2014,
      "##5b2": 2015,
      "##8a7": 2016,
      "54a": 2017,
      "76e": 2018,
      "ad9": 2019,
      "e7c": 2020,
      "##564": 2021,
      "42e": 2022,
      "6f9": 2023,
      "c89": 2024,
      "##3b8": 2025,
      "##3b7": 2026,
      "c19": 2027,
      "72e": 2028,
      "8f8": 2029,
      "##33d": 2030,
      "324a": 2031,
      "739": 2032,
      "##004": 2033,
      "##08c": 2034,
      "7fe": 2035,
      "d1c": 2036,
      "##83f": 2037,
      "##560": 2038,
      "f4c": 2039,
      "a5c": 2040,
      "##616": 2041,
      "##1a3": 2042,
      "96d": 2043,
      "##697": 2044,
      "f02": 2045,
      "##786": 2046,
      "##21f": 2047,
      "##477": 2048,
      "479": 2049,
      "##787": 2050,
      "##8bf": 2051,
      "c1b": 2052,
      "##454": 2053,
      "44e": 2054,
      "##868": 2055,
      "##611": 2056,
      "cda": 2057,
      "d89": 2058,
      "##bea": 2059,
      "9b6": 2060,
      "##46a": 2061,
      "##2ae": 2062,
      "452": 2063,
      "##7a3": 2064,
      "##8ad": 2065,
      "58c": 2066,
      "##7ac": 2067,
      "##584": 2068,
      "##f25": 2069,
      "##3e4": 2070,
      "07ef": 2071,
      "076": 2072,
      "70a": 2073,
      "dd2": 2074,
      "##332": 2075,
      "##00c": 2076,
      "b51": 2077,
      "##434": 2078,
      "##696": 2079,
      "bba": 2080,
      "##8ae": 2081,
      "##692": 2082,
      "##334": 2083,
      "##4f7": 2084,
      "88c": 2085,
      "0c1c": 2086,
      "4d2": 2087,
      "##6a3": 2088,
      "45e": 2089,
      "##495": 2090,
      "##8a2": 2091,
      "##5b4": 2092,
      "##5ad": 2093,
      "6d00": 2094,
      "##d63": 2095,
      "c2e": 2096,
      "a48": 2097,
      "376": 2098,
      "41e": 2099,
      "c42": 2100,
      "ddc": 2101,
      "448": 2102,
      "##86f": 2103,
      "703": 2104,
      "851": 2105,
      "##7a0": 2106,
      "f03": 2107,
      "2ae": 2108,
      "c4c": 2109,
      "##7b2": 2110,
      "##499": 2111,
      "7c29": 2112,
      "d09": 2113,
      "d2b": 2114,
      "bf3": 2115,
      "##496": 2116,
      "819": 2117,
      "e0a": 2118,
      "##4ba": 2119,
      "##456": 2120,
      "3da": 2121,
      "6fa": 2122,
      "94c": 2123,
      "##fcf": 2124,
      "##086": 2125,
      "ad2": 2126,
      "bec": 2127,
      "488": 2128,
      "df6": 2129,
      "##d8c": 2130,
      "##7e3": 2131,
      "0fa": 2132,
      "##788": 2133,
      "90a": 2134,
      "1ff": 2135,
      "289": 2136,
      "67c": 2137,
      "62b": 2138,
      "aa9": 2139,
      "bac": 2140,
      "##782": 2141,
      "##7ad": 2142,
      "##282": 2143,
      "bf9": 2144,
      "cde": 2145,
      "81b": 2146,
      "##7a8": 2147,
      "71c": 2148,
      "6b6": 2149,
      "##fc1": 2150,
      "##210": 2151,
      "2d2": 2152,
      "caa": 2153,
      "c06": 2154,
      "ed9": 2155,
      "##45f": 2156,
      "##089": 2157,
      "##49f": 2158,
      "##d69": 2159,
      "9b9": 2160,
      "##d65": 2161,
      "##5b1": 2162,
      "##585": 2163,
      "##8ab": 2164,
      "##311": 2165,
      "1ae": 2166,
      "bda": 2167,
      "##211": 2168,
      "4e9": 2169,
      "8aa": 2170,
      "##5af": 2171,
      "##863": 2172,
      "##368": 2173,
      "8d2": 2174,
      "##f56": 2175,
      "91e": 2176,
      "##2d4": 2177,
      "a73": 2178,
      "cd2": 2179,
      "##5b7": 2180,
      "673": 2181,
      "##fb9": 2182,
      "##7ae": 2183,
      "##236": 2184,
      "e03": 2185,
      "e06": 2186,
      "##857": 2187,
      "751": 2188,
      "aec": 2189,
      "9d1": 2190,
      "e1c": 2191,
      "##7e5": 2192,
      "dff": 2193,
      "##dbe": 2194,
      "##117": 2195,
      "1004": 2196,
      "##4b2": 2197,
      "7ba": 2198,
      "d02": 2199,
      "44a": 2200,
      "42b": 2201,
      "91b": 2202,
      "b1e": 2203,
      "d0a": 2204,
      "##d6a": 2205,
      "b88": 2206,
      "##7e6": 2207,
      "##7a6": 2208,
      "##dba": 2209,
      "##6bf": 2210,
      "##be4": 2211,
      "##1a2": 2212,
      "442": 2213,
      "d5e": 2214,
      "##7be": 2215,
      "3ff": 2216,
      "46e": 2217,
      "d19": 2218,
      "c8e": 2219,
      "##21e": 2220,
      "00b5": 2221,
      "##db9": 2222,
      "752": 2223,
      "8de": 2224,
      "d88": 2225,
      "##3a4": 2226,
      "##db7": 2227,
      "##bb3": 2228,
      "bd2": 2229,
      "876": 2230,
      "##6ad": 2231,
      "##5a8": 2232,
      "07c": 2233,
      "152": 2234,
      "bf8": 2235,
      "##4fa": 2236,
      "##438": 2237,
      "##567": 2238,
      "##2a4": 2239,
      "7da": 2240,
      "853": 2241,
      "1fa": 2242,
      "##f5f": 2243,
      "##b1f": 2244,
      "dd1": 2245,
      "d76": 2246,
      "0af3": 2247,
      "ef6": 2248,
      "##26f": 2249,
      "2f8": 2250,
      "5fa": 2251,
      "a88": 2252,
      "dd9": 2253,
      "f76": 2254,
      "d8e": 2255,
      "806": 2256,
      "##4f4": 2257,
      "##3e1": 2258,
      "##fb8": 2259,
      "0080": 2260,
      "84e": 2261,
      "a52": 2262,
      "d39": 2263,
      "##bbb": 2264,
      "96e": 2265,
      "afa": 2266,
      "##dbb": 2267,
      "1f6": 2268,
      "73c": 2269,
      "##437": 2270,
      "ae9": 2271,
      "##7e1": 2272,
      "3f8": 2273,
      "##78f": 2274,
      "906": 2275,
      "cae": 2276,
      "##498": 2277,
      "##f22": 2278,
      "##436": 2279,
      "##43f": 2280,
      "688": 2281,
      "26d": 2282,
      "##7ba": 2283,
      "##43a": 2284,
      "6d2": 2285,
      "dda": 2286,
      "##0ba": 2287,
      "##1a0": 2288,
      "##0bd": 2289,
      "##23f": 2290,
      "2f9": 2291,
      "##497": 2292,
      "6df": 2293,
      "f1e": 2294,
      "##21a": 2295,
      "9ba": 2296,
      "##78c": 2297,
      "##8a0": 2298,
      "##f5a": 2299,
      "66d": 2300,
      "f2b": 2301,
      "28c": 2302,
      "##8b9": 2303,
      "f88": 2304,
      "88e": 2305,
      "##d66": 2306,
      "b4e": 2307,
      "##785": 2308,
      "##be5": 2309,
      "d51": 2310,
      "a6e": 2311,
      "##fc2": 2312,
      "16d": 2313,
      "d0e": 2314,
      "6da": 2315,
      "##dbd": 2316,
      "25a8": 2317,
      "352": 2318,
      "##d84": 2319,
      "##5a4": 2320,
      "##49b": 2321,
      "##691": 2322,
      "d03": 2323,
      "##45c": 2324,
      "##f23": 2325,
      "2da": 2326,
      "##304": 2327,
      "##7a4": 2328,
      "##832": 2329,
      "##dbf": 2330,
      "c51": 2331,
      "##834": 2332,
      "82e": 2333,
      "e1b": 2334,
      "##7ec": 2335,
      "eba": 2336,
      "##d67": 2337,
      "4ae": 2338,
      "f0a": 2339,
      "##1a1": 2340,
      "34a": 2341,
      "748": 2342,
      "9ae": 2343,
      "##fb3": 2344,
      "##fc8": 2345,
      "##5ba": 2346,
      "f4f6": 2347,
      "##5a3": 2348,
      "70e": 2349,
      "c6d": 2350,
      "8d9": 2351,
      "a06": 2352,
      "##006": 2353,
      "##284": 2354,
      "##8a6": 2355,
      "8a9": 2356,
      "adf": 2357,
      "##435": 2358,
      "ed1": 2359,
      "##6ae": 2360,
      "##827": 2361,
      "64a": 2362,
      "ada": 2363,
      "##4bd": 2364,
      "##28f": 2365,
      "b3c": 2366,
      "##fcc": 2367,
      "##be6": 2368,
      "1716": 2369,
      "bf6": 2370,
      "##5bd": 2371,
      "0d1": 2372,
      "32b": 2373,
      "5ba": 2374,
      "##504": 2375,
      "879": 2376,
      "276": 2377,
      "988": 2378,
      "8d1": 2379,
      "##0b9": 2380,
      "2700": 2381,
      "##008": 2382,
      "##439": 2383,
      "##81f": 2384,
      "##8b7": 2385,
      "a4a": 2386,
      "dae": 2387,
      "##d6f": 2388,
      "4d1": 2389,
      "##2a3": 2390,
      "848": 2391,
      "##28d": 2392,
      "##00d": 2393,
      "##1a6": 2394,
      "##20f": 2395,
      "##5ae": 2396,
      "##5a5": 2397,
      "##110": 2398,
      "3ae": 2399,
      "##d8a": 2400,
      "##f2a": 2401,
      "edf": 2402,
      "59ea": 2403,
      "5df": 2404,
      "3d2": 2405,
      "d1b": 2406,
      "##087": 2407,
      "##d82": 2408,
      "##f59": 2409,
      "901": 2410,
      "##8b8": 2411,
      "##8bd": 2412,
      "##4f3": 2413,
      "##49a": 2414,
      "588": 2415,
      "006a": 2416,
      "##556": 2417,
      "7f6": 2418,
      "##4b5": 2419,
      "e76": 2420,
      "##83d": 2421,
      "a76": 2422,
      "##4b1": 2423,
      "5f6": 2424,
      "##8be": 2425,
      "##1a7": 2426,
      "82c": 2427,
      "##4f9": 2428,
      "##55e": 2429,
      "aba": 2430,
      "##d64": 2431,
      "##4f6": 2432,
      "406": 2433,
      "##d68": 2434,
      "c4a": 2435,
      "5da": 2436,
      "5ae": 2437,
      "##8b4": 2438,
      "8f6": 2439,
      "776": 2440,
      "84a": 2441,
      "##557": 2442,
      "d2a0": 2443,
      "4e6f": 2444,
      "f06": 2445,
      "##d62": 2446,
      "fdf": 2447,
      "30a": 2448,
      "dfa": 2449,
      "ad1": 2450,
      "##7e8": 2451,
      "##0b2": 2452,
      "84c": 2453,
      "##00f": 2454,
      "948": 2455,
      "##5bf": 2456,
      "bdf": 2457,
      "##d8e": 2458,
      "##d86": 2459,
      "##1a8": 2460,
      "6000": 2461,
      "72b": 2462,
      "351": 2463,
      "8df": 2464,
      "000e": 2465,
      "##7a9": 2466,
      "##8b3": 2467,
      "7fa": 2468,
      "##30d": 2469,
      "a2b": 2470,
      "288": 2471,
      "3fa": 2472,
      "82b": 2473,
      "##f5d": 2474,
      "##85f": 2475,
      "d52": 2476,
      "##00b": 2477,
      "fba": 2478,
      "e51": 2479,
      "##554": 2480,
      "##f5c": 2481,
      "3d1": 2482,
      "b528": 2483,
      "##111": 2484,
      "1803": 2485,
      "##f58": 2486,
      "##5be": 2487,
      "##4f1": 2488,
      "##78d": 2489,
      "0b1b": 2490,
      "cd1": 2491,
      "3ba": 2492,
      "c2b": 2493,
      "7d1": 2494,
      "b06": 2495,
      "##009": 2496,
      "##8b1": 2497,
      "##4fe": 2498,
      "##49d": 2499,
      "##213": 2500,
      "##2a5": 2501,
      "3f6": 2502,
      "##4be": 2503,
      "##5b3": 2504,
      "##4b9": 2505,
      "##55c": 2506,
      "388": 2507,
      "cfa": 2508,
      "0300": 2509,
      "61b": 2510,
      "b4a": 2511,
      "4ba": 2512,
      "##0b5": 2513,
      "1003": 2514,
      "701": 2515,
      "##00e": 2516,
      "##5ab": 2517,
      "##0bf": 2518,
      "##5a6": 2519,
      "8fa": 2520,
      "##4bf": 2521,
      "3df": 2522,
      "6d1": 2523,
      "2ba": 2524,
      "##55f": 2525,
      "##4f8": 2526,
      "##8b2": 2527,
      "22b": 2528,
      "cba": 2529,
      "0df": 2530,
      "##4f2": 2531,
      "##113": 2532,
      "476": 2533,
      "6ae": 2534,
      "4000": 2535,
      "##55b": 2536,
      "##555": 2537,
      "feff": 2538,
      "976": 2539,
      "##789": 2540,
      "##222": 2541,
      "ac00": 2542,
      "##1a4": 2543,
      "451": 2544,
      "dba": 2545,
      "fae": 2546,
      "##0be": 2547,
      "##0b4": 2548,
      "##112": 2549,
      "##5b5": 2550,
      "1805": 2551,
      "9fb7": 2552,
      "##285": 2553,
      "##4fc": 2554,
      "##5a2": 2555,
      "##11a": 2556,
      "##307": 2557,
      "c88": 2558,
      "bfa": 2559,
      "e11d": 2560,
      "##0bb": 2561,
      "##55a": 2562,
      "##0b7": 2563,
      "cf6": 2564,
      "##5b9": 2565,
      "##1a5": 2566,
      "2df": 2567,
      "74a": 2568,
      "d4a": 2569,
      "##0b3": 2570,
      "006b": 2571,
      "0003": 2572,
      "a100": 2573,
      "##1ab": 2574,
      "f4a": 2575,
      "##4f0": 2576,
      "9100": 2577,
      "d06": 2578,
      "##114": 2579,
      "##0b8": 2580,
      "##4fd": 2581,
      "2fa": 2582,
      "##558": 2583,
      "##1ad": 2584,
      "##11f": 2585,
      "0a90": 2586,
      "##8bb": 2587,
      "##116": 2588,
      "141b": 2589,
      "0a4d": 2590,
      "cdf": 2591,
      "dc01": 2592,
      "##559": 2593,
      "f40c": 2594,
      "df00": 2595,
      "36d7": 2596,
      "dd21": 2597,
      "d886": 2598,
      "2501": 2599,
      "##55d": 2600,
      "0040": 2601,
      "0305": 2602,
      "6c77": 2603,
      "bd31": 2604,
      "38a3": 2605,
      "0d1c": 2606,
      "7ec2": 2607,
      "00ce": 2608,
      "181b": 2609,
      "0a0b": 2610,
      "d900": 2611,
      "c000": 2612,
      "00d9": 2613,
      "0a0e": 2614,
      "0ab2": 2615,
      "254e": 2616,
      "e7f2": 2617,
      "1c01": 2618,
      "bf00": 2619,
      "1011": 2620,
      "0102": 2621,
      "0248": 2622,
      "1000": 2623,
      "4280": 2624,
      "0ac6": 2625,
      "##8b5": 2626,
      "b500": 2627,
      "df94": 2628,
      "4a86": 2629,
      "0005": 2630,
      "d61a": 2631,
      "1818": 2632,
      "bc1c": 2633,
      "2ffb": 2634,
      "d29b": 2635,
      "bb55": 2636,
      "c765": 2637,
      "0004": 2638,
      "fd00": 2639,
      "1027": 2640,
      "00de": 2641,
      "1026": 2642,
      "0021": 2643,
      "80f2": 2644,
      "b48b": 2645,
      "038e": 2646,
      "0600": 2647,
      "00fe": 2648,
      "1811": 2649,
      "1700": 2650,
      "0020": 2651,
      "6595": 2652,
      "1800": 2653,
      "0a1c": 2654,
      "9c21": 2655,
      "3066": 2656,
      "c676": 2657,
      "fbbf": 2658,
      "0c3e": 2659,
      "00df": 2660,
      "db41": 2661,
      "0b1c": 2662,
      "0a1d": 2663,
      "a6d6": 2664,
      "49fa": 2665,
      "ca00": 2666,
      "00d5": 2667,
      "455a": 2668,
      "0405": 2669,
      "7b4e": 2670,
      "100b": 2671,
      "1d80": 2672,
      "6b9f": 2673,
      "50f4": 2674,
      "6f6e": 2675,
      "9200": 2676,
      "1c40": 2677,
      "6a47": 2678,
      "706f": 2679,
      "3c1e": 2680,
      "a000": 2681,
      "1826": 2682,
      "2657": 2683,
      "b82a": 2684,
      "101b": 2685,
      "0060": 2686,
      "c61c": 2687,
      "af73": 2688,
      "9800": 2689,
      "609f": 2690,
      "161b": 2691,
      "000d": 2692,
      "000a": 2693,
      "7069": 2694,
      "25b7": 2695,
      "5162": 2696,
      "28ee": 2697,
      "180c": 2698,
      "c523": 2699,
      "142c": 2700,
      "00c0": 2701,
      "0007": 2702,
      "9e00": 2703,
      "9f06": 2704,
      "7360": 2705,
      "e348": 2706,
      "b764": 2707,
      "0006": 2708,
      "0034": 2709,
      "2de8": 2710,
      "48df": 2711,
      "2cb8": 2712,
      "1100": 2713,
      "ff01": 2714,
      "0a79": 2715,
      "0329": 2716,
      "6088": 2717,
      "010a": 2718,
      "f700": 2719,
      "8800": 2720,
      "de00": 2721,
      "1d69": 2722,
      "a8a1": 2723,
      "e54d": 2724,
      "0700": 2725,
      "a1e1": 2726,
      "0085": 2727,
      "001f": 2728,
      "000b": 2729,
      "f6df": 2730,
      "6b00": 2731,
      "2ab0": 2732,
      "180b": 2733,
      "0a81": 2734,
      "3aca": 2735,
      "06e5": 2736,
      "7300": 2737,
      "0ba7": 2738,
      "efcf": 2739,
      "0a7a": 2740,
      "a1af": 2741,
      "b0e3": 2742,
      "1007": 2743,
      "0009": 2744,
      "7782": 2745,
      "bc5f": 2746,
      "ff60": 2747,
      "1852": 2748,
      "0010": 2749,
      "190c": 2750,
      "517b": 2751,
      "e13a": 2752,
      "001b": 2753,
      "78bd": 2754,
      "4da8": 2755,
      "9c20": 2756,
      "f1b3": 2757,
      "598a": 2758,
      "3b59": 2759,
      "001a": 2760,
      "04b1": 2761,
      "b018": 2762,
      "0031": 2763,
      "0a51": 2764,
      "0aea": 2765,
      "000c": 2766,
      "29f1": 2767,
      "8ac6": 2768,
      "0045": 2769,
      "008c": 2770,
      "52bc": 2771,
      "0065": 2772,
      "4a1b": 2773,
      "4c9d": 2774,
      "0a94": 2775,
      "9dbc": 2776,
      "00dc": 2777,
      "2919": 2778,
      "008d": 2779,
      "57c1": 2780,
      "07f8": 2781,
      "0052": 2782,
      "5f43": 2783,
      "b367": 2784,
      "dfef": 2785,
      "3d1b": 2786,
      "5fd0": 2787,
      "00e0": 2788,
      "4195": 2789,
      "cfce": 2790,
      "f000": 2791,
      "0ca6": 2792,
      "d6a8": 2793,
      "25ce": 2794,
      "8700": 2795,
      "b5e2": 2796,
      "1c55": 2797,
      "95f6": 2798,
      "a841": 2799,
      "d083": 2800,
      "0c1b": 2801,
      "c6f9": 2802,
      "000f": 2803,
      "0015": 2804,
      "0ae2": 2805,
      "e000": 2806,
      "0afe": 2807,
      "ce5f": 2808,
      "67b5": 2809,
      "51b1": 2810,
      "434c": 2811,
      "0053": 2812,
      "f929": 2813,
      "1808": 2814,
      "0505": 2815,
      "001e": 2816,
      "091c": 2817,
      "002d": 2818,
      "004f": 2819,
      "0072": 2820,
      "b300": 2821,
      "00bc": 2822,
      "1b66": 2823,
      "51a9": 2824,
      "2a2c": 2825,
      "833b": 2826,
      "0012": 2827,
      "9500": 2828,
      "0a66": 2829,
      "0018": 2830,
      "ce2a": 2831,
      "008a": 2832,
      "003c": 2833,
      "0024": 2834,
      "4a5b": 2835,
      "74db": 2836,
      "008b": 2837,
      "7200": 2838,
      "a70f": 2839,
      "002b": 2840,
      "ca02": 2841,
      "00ed": 2842,
      "d800": 2843,
      "659e": 2844,
      "0069": 2845,
      "9400": 2846,
      "d700": 2847,
      "0028": 2848,
      "5200": 2849,
      "0070": 2850,
      "ae00": 2851,
      "00d3": 2852,
      "00bf": 2853,
      "1005": 2854,
      "2000": 2855,
      "3900": 2856,
      "0022": 2857,
      "e8fa": 2858,
      "0a88": 2859,
      "0a47": 2860,
      "e400": 2861,
      "0a70": 2862,
      "18ca": 2863,
      "8001": 2864,
      "0023": 2865,
      "02d9": 2866,
      "bc00": 2867,
      "00ea": 2868,
      "0047": 2869,
      "4be7": 2870,
      "6b48": 2871,
      "0ad8": 2872,
      "0043": 2873,
      "006c": 2874,
      "005a": 2875,
      "57c0": 2876,
      "86ca": 2877,
      "0afc": 2878,
      "94a4": 2879,
      "002c": 2880,
      "0ac5": 2881,
      "517c": 2882,
      "b900": 2883,
      "1806": 2884,
      "0026": 2885,
      "0ac7": 2886,
      "dfa1": 2887,
      "b4af": 2888,
      "00b1": 2889,
      "1e00": 2890,
      "0b14": 2891,
      "0078": 2892,
      "0af1": 2893,
      "0c20": 2894,
      "00b0": 2895,
      "0adf": 2896,
      "00e1": 2897,
      "0042": 2898,
      "760d": 2899,
      "25c0": 2900,
      "0a33": 2901,
      "020d": 2902,
      "2475": 2903,
      "002a": 2904,
      "5ff7": 2905,
      "011c": 2906,
      "0512": 2907,
      "0068": 2908,
      "0add": 2909,
      "8200": 2910,
      "0074": 2911,
      "0013": 2912,
      "00f9": 2913,
      "00e7": 2914,
      "d500": 2915,
      "005d": 2916,
      "0050": 2917,
      "39eb": 2918,
      "6c1b": 2919,
      "0aaf": 2920,
      "00ee": 2921,
      "00d2": 2922,
      "3080": 2923,
      "071c": 2924,
      "0501": 2925,
      "2511": 2926,
      "0048": 2927,
      "002e": 2928,
      "0030": 2929,
      "031c": 2930,
      "0036": 2931,
      "00e5": 2932,
      "107c": 2933,
      "0a0a": 2934,
      "78bc": 2935,
      "0af4": 2936,
      "74da": 2937,
      "0027": 2938,
      "0a78": 2939,
      "0011": 2940,
      "4688": 2941,
      "0083": 2942,
      "4f00": 2943,
      "00f7": 2944,
      "0db0": 2945,
      "00e2": 2946,
      "00bd": 2947,
      "0041": 2948,
      "00fa": 2949,
      "0a54": 2950,
      "100f": 2951,
      "0071": 2952,
      "8702": 2953,
      "0a6d": 2954,
      "2f6a": 2955,
      "007f": 2956,
      "e7b4": 2957,
      "0035": 2958,
      "1810": 2959,
      "0090": 2960,
      "0301": 2961,
      "9900": 2962,
      "0a02": 2963,
      "0061": 2964,
      "0039": 2965,
      "061c": 2966,
      "0a2f": 2967,
      "1002": 2968,
      "b000": 2969,
      "021c": 2970,
      "0029": 2971,
      "00c3": 2972,
      "0099": 2973,
      "0810": 2974,
      "1b02": 2975,
      "1018": 2976,
      "f6dc": 2977,
      "f550": 2978,
      "252b": 2979,
      "0605": 2980,
      "005c": 2981,
      "0081": 2982,
      "00a7": 2983,
      "e299": 2984,
      "6465": 2985,
      "0064": 2986,
      "0a8f": 2987,
      "5100": 2988,
      "143a": 2989,
      "0a15": 2990,
      "2663": 2991,
      "009a": 2992,
      "0096": 2993,
      "003e": 2994,
      "b48c": 2995,
      "2d00": 2996,
      "00f5": 2997,
      "dc00": 2998,
      "5800": 2999,
      "00a1": 3000,
      "1200": 3001,
      "00a0": 3002,
      "1a00": 3003,
      "f800": 3004,
      "0046": 3005,
      "0077": 3006,
      "3000": 3007,
      "1d1c": 3008,
      "00c9": 3009,
      "11c2": 3010,
      "0201": 3011,
      "e800": 3012,
      "0a26": 3013,
      "9b00": 3014,
      "04bd": 3015,
      "d600": 3016,
      "461b": 3017,
      "00c2": 3018,
      "005b": 3019,
      "003a": 3020,
      "007a": 3021,
      "005f": 3022,
      "0a18": 3023,
      "00c4": 3024,
      "00c1": 3025,
      "0055": 3026,
      "00c8": 3027,
      "0431": 3028,
      "00ad": 3029,
      "250b": 3030,
      "7119": 3031,
      "e8f9": 3032,
      "00d6": 3033,
      "0a4f": 3034,
      "1601": 3035,
      "00eb": 3036,
      "044b": 3037,
      "005e": 3038,
      "1171": 3039,
      "7118": 3040,
      "0a43": 3041,
      "0a41": 3042,
      "4a00": 3043,
      "00d1": 3044,
      "d300": 3045,
      "8e00": 3046,
      "00be": 3047,
      "004d": 3048,
      "6164": 3049,
      "9a7e": 3050,
      "381b": 3051,
      "f6dd": 3052,
      "0033": 3053,
      "131b": 3054,
      "28b5": 3055,
      "7c42": 3056,
      "0ad4": 3057,
      "5013": 3058,
      "00e4": 3059,
      "0038": 3060,
      "f7de": 3061,
      "00aa": 3062,
      "9300": 3063,
      "009b": 3064,
      "5000": 3065,
      "0063": 3066,
      "1900": 3067,
      "0401": 3068,
      "0044": 3069,
      "378d": 3070,
      "00b9": 3071,
      "0086": 3072,
      "0ccc": 3073,
      "00e3": 3074,
      "5e00": 3075,
      "0092": 3076,
      "00a2": 3077,
      "00b4": 3078,
      "0705": 3079,
      "25bb": 3080,
      "00ec": 3081,
      "4e00": 3082,
      "0037": 3083,
      "ce29": 3084,
      "00e8": 3085,
      "00bb": 3086,
      "009f": 3087,
      "05b5": 3088,
      "e85b": 3089,
      "00ac": 3090,
      "94a5": 3091,
      "0a92": 3092,
      "091b": 3093,
      "5600": 3094,
      "4f33": 3095,
      "00b7": 3096,
      "e100": 3097,
      "081b": 3098,
      "dd00": 3099,
      "0a89": 3100,
      "0059": 3101,
      "0098": 3102,
      "8efd": 3103,
      "004b": 3104,
      "0066": 3105,
      "a601": 3106,
      "0054": 3107,
      "0a3c": 3108,
      "c900": 3109,
      "0057": 3110,
      "5a00": 3111,
      "00a6": 3112,
      "8b00": 3113,
      "1008": 3114,
      "a700": 3115,
      "0051": 3116,
      "5154": 3117,
      "3a1b": 3118,
      "1817": 3119,
      "00c5": 3120,
      "00d8": 3121,
      "00b3": 3122,
      "0adc": 3123,
      "6600": 3124,
      "8f00": 3125,
      "00f4": 3126,
      "f54a": 3127,
      "af00": 3128,
      "0dcc": 3129,
      "00ab": 3130,
      "0c63": 3131,
      "0900": 3132,
      "007e": 3133,
      "4180": 3134,
      "00ae": 3135,
      "00d4": 3136,
      "006e": 3137,
      "6bb1": 3138,
      "00cd": 3139,
      "659f": 3140,
      "003b": 3141,
      "0097": 3142,
      "ebef": 3143,
      "0a00": 3144,
      "5b1b": 3145,
      "00fc": 3146,
      "0062": 3147,
      "00a5": 3148,
      "0104": 3149,
      "0032": 3150,
      "003d": 3151,
      "0632": 3152,
      "2571": 3153,
      "0088": 3154,
      "002f": 3155,
      "3fea": 3156,
      "ab2d": 3157,
      "00a9": 3158,
      "00af": 3159,
      "00e6": 3160,
      "ef00": 3161,
      "00ba": 3162,
      "c61b": 3163,
      "0141": 3164,
      "007b": 3165,
      "008e": 3166,
      "0093": 3167,
      "10f9": 3168,
      "5002": 3169,
      "0073": 3170,
      "00a4": 3171,
      "0089": 3172,
      "0075": 3173,
      "0299": 3174,
      "007c": 3175,
      "0082": 3176,
      "0094": 3177,
      "1f3f": 3178,
      "1701": 3179,
      "0b00": 3180,
      "4eb9": 3181,
      "0095": 3182,
      "00a8": 3183,
      "00db": 3184,
      "0aed": 3185,
      "0f00": 3186,
      "00b8": 3187,
      "6572": 3188,
      "00b6": 3189,
      "004e": 3190,
      "00c7": 3191,
      "0aba": 3192,
      "181f": 3193,
      "00ef": 3194,
      "0a07": 3195,
      "00cc": 3196,
      "62e8": 3197,
      "7273": 3198,
      "00f1": 3199,
      "0a39": 3200,
      "00f6": 3201,
      "009e": 3202,
      "2400": 3203,
      "86c9": 3204,
      "00d0": 3205,
      "00b2": 3206,
      "9600": 3207,
      "a500": 3208,
      "6865": 3209,
      "008f": 3210,
      "1850": 3211,
      "b4b0": 3212,
      "0a24": 3213,
      "e500": 3214,
      "00d7": 3215,
      "0a0f": 3216,
      "2101": 3217,
      "009c": 3218,
      "00ca": 3219,
      "1010": 3220,
      "0067": 3221,
      "1860": 3222,
      "1024": 3223,
      "6561": 3224,
      "004a": 3225,
      "da00": 3226,
      "5424": 3227,
      "1300": 3228,
      "e298": 3229,
      "0058": 3230,
      "01fd": 3231,
      "003f": 3232,
      "3200": 3233,
      "3600": 3234,
      "00f3": 3235,
      "f58d": 3236,
      "009d": 3237,
      "0610": 3238,
      "00a3": 3239,
      "00cf": 3240,
      "004c": 3241,
      "5500": 3242,
      "b763": 3243,
      "006f": 3244,
      "4a5c": 3245,
      "00e9": 3246,
      "2a00": 3247,
      "00da": 3248,
      "0a83": 3249,
      "1923": 3250,
      "50be": 3251,
      "d100": 3252,
      "0079": 3253,
      "0a5c": 3254,
      "3800": 3255,
      "1500": 3256,
      "00f0": 3257,
      "184b": 3258,
      "185f": 3259,
      "0e00": 3260,
      "22ca": 3261,
      "a710": 3262,
      "0c00": 3263,
      "db40": 3264,
      "05f7": 3265,
      "d7e4": 3266,
      "0a73": 3267,
      "5900": 3268,
      "50fb": 3269,
      "ab00": 3270,
      "a902": 3271,
      "3100": 3272,
      "0d51": 3273,
      "0076": 3274,
      "ff00": 3275,
      "0087": 3276,
      "00f8": 3277,
      "5380": 3278,
      "0a4a": 3279,
      "1839": 3280,
      "0056": 3281,
      "51da": 3282,
      "2a37": 3283,
      "8811": 3284,
      "00dd": 3285,
      "ea00": 3286,
      "100c": 3287,
      "181c": 3288,
      "9f00": 3289,
      "8ba3": 3290,
      "1cc0": 3291,
      "641b": 3292,
      "1819": 3293,
      "7a00": 3294,
      "0c1f": 3295,
      "1108": 3296,
      "551b": 3297,
      "007d": 3298,
      "2200": 3299,
      "3a00": 3300,
      "0ade": 3301,
      "e200": 3302,
      "31ef": 3303,
      "1d6a": 3304,
      "0280": 3305,
      "1b80": 3306,
      "4f92": 3307,
      "facc": 3308,
      "4500": 3309,
      "5022": 3310,
      "e29b": 3311,
      "4c00": 3312,
      "3ca2": 3313,
      "3d00": 3314,
      "7b00": 3315,
      "7f00": 3316,
      "4ea1": 3317,
      "c524": 3318,
      "4600": 3319,
      "6f38": 3320,
      "42ce": 3321,
      "7e00": 3322,
      "4b1b": 3323,
      "951e": 3324,
      "c600": 3325,
      "0f1c": 3326,
      "00c6": 3327,
      "3f00": 3328,
      "780d": 3329,
      "d010": 3330,
      "fc00": 3331,
      "8e01": 3332,
      "0a77": 3333,
      "7705": 3334,
      "ed00": 3335,
      "0180": 3336,
      "ff61": 3337,
      "5172": 3338,
      "f5d3": 3339,
      "cd00": 3340,
      "00cb": 3341,
      "4300": 3342,
      "25ab": 3343,
      "2f69": 3344,
      "02fa": 3345,
      "bde1": 3346,
      "63a1": 3347,
      "0ae9": 3348,
      "1846": 3349,
      "e202": 3350,
      "1837": 3351,
      "4f85": 3352,
      "951d": 3353,
      "7201": 3354,
      "6200": 3355,
      "00f2": 3356,
      "fa00": 3357,
      "7700": 3358,
      "2b00": 3359,
      "4800": 3360,
      "101c": 3361,
      "571b": 3362,
      "5f00": 3363,
      "0084": 3364,
      "101f": 3365,
      "3ca0": 3366,
      "5102": 3367,
      "4200": 3368,
      "131c": 3369,
      "0480": 3370,
      "6e00": 3371,
      "0801": 3372,
      "0805": 3373,
      "455b": 3374,
      "2de7": 3375,
      "9c00": 3376,
      "2f00": 3377,
      "0904": 3378,
      "facd": 3379,
      "ca47": 3380,
      "3b00": 3381,
      "5400": 3382,
      "4f07": 3383,
      "5142": 3384,
      "f300": 3385,
      "f100": 3386,
      "5b00": 3387,
      "6500": 3388,
      "6800": 3389,
      "8505": 3390,
      "5d00": 3391,
      "d9a8": 3392,
      "661b": 3393,
      "8500": 3394,
      "7400": 3395,
      "52e4": 3396,
      "fa4a": 3397,
      "0e1c": 3398,
      "f500": 3399,
      "4f0c": 3400,
      "021d": 3401,
      "0abc": 3402,
      "3e00": 3403,
      "4d00": 3404,
      "23a6": 3405,
      "511b": 3406,
      "671b": 3407,
      "6002": 3408,
      "2600": 3409,
      "1d6f": 3410,
      "4e23": 3411,
      "50c2": 3412,
      "14f2": 3413,
      "ce00": 3414,
      "cb80": 3415,
      "0701": 3416,
      "8c00": 3417,
      "bd00": 3418,
      "5224": 3419,
      "5178": 3420,
      "1e1c": 3421,
      "3e01": 3422,
      "4fe2": 3423,
      "52c1": 3424,
      "2b58": 3425,
      "481b": 3426,
      "af67": 3427,
      "51af": 3428,
      "9000": 3429,
      "0a1b": 3430,
      "511a": 3431,
      "1d6e": 3432,
      "0d00": 3433,
      "7244": 3434,
      "6f00": 3435,
      "4400": 3436,
      "ee11": 3437,
      "fd46": 3438,
      "0d1b": 3439,
      "bc30": 3440,
      "7100": 3441,
      "f305": 3442,
      "b1fd": 3443,
      "e14d": 3444,
      "b800": 3445,
      "041d": 3446,
      "4407": 3447,
      "5021": 3448,
      "2300": 3449,
      "0325": 3450,
      "a266": 3451,
      "2455": 3452,
      "121b": 3453,
      "1248": 3454,
      "520b": 3455,
      "4f48": 3456,
      "5237": 3457,
      "3300": 3458,
      "a300": 3459,
      "8600": 3460,
      "f900": 3461,
      "f3f5": 3462,
      "35aa": 3463,
      "6212": 3464,
      "9a00": 3465,
      "1400": 3466,
      "4501": 3467,
      "4f6a": 3468,
      "6a00": 3469,
      "1f00": 3470,
      "8380": 3471,
      "471b": 3472,
      "6300": 3473,
      "be00": 3474,
      "100d": 3475,
      "5580": 3476,
      "2502": 3477,
      "57bb": 3478,
      "def0": 3479,
      "0af5": 3480,
      "51dd": 3481,
      "5306": 3482,
      "081c": 3483,
      "0bf9": 3484,
      "9d01": 3485,
      "53ce": 3486,
      "a817": 3487,
      "0380": 3488,
      "171c": 3489,
      "0210": 3490,
      "2c00": 3491,
      "a800": 3492,
      "9d00": 3493,
      "c700": 3494,
      "db00": 3495,
      "3f1b": 3496,
      "bd64": 3497,
      "c300": 3498,
      "0781": 3499,
      "1188": 3500,
      "4d1b": 3501,
      "b10c": 3502,
      "a600": 3503,
      "180f": 3504,
      "4dfb": 3505,
      "341b": 3506,
      "50e8": 3507,
      "2900": 3508,
      "3700": 3509,
      "d200": 3510,
      "5700": 3511,
      "816f": 3512,
      "ad00": 3513,
      "8400": 3514,
      "051d": 3515,
      "39a2": 3516,
      "c400": 3517,
      "08a1": 3518,
      "421b": 3519,
      "7e01": 3520,
      "3400": 3521,
      "431b": 3522,
      "cc00": 3523,
      "ca53": 3524,
      "8002": 3525,
      "8100": 3526,
      "5218": 3527,
      "1814": 3528,
      "b700": 3529,
      "51bd": 3530,
      "508d": 3531,
      "7000": 3532,
      "43ed": 3533,
      "6c00": 3534,
      "1014": 3535,
      "0b01": 3536,
      "4b00": 3537,
      "7900": 3538,
      "6767": 3539,
      "0402": 3540,
      "ce57": 3541,
      "b127": 3542,
      "e0f3": 3543,
      "051c": 3544,
      "274a": 3545,
      "8300": 3546,
      "52e8": 3547,
      "a400": 3548,
      "6e1b": 3549,
      "ee01": 3550,
      "b600": 3551,
      "d016": 3552,
      "5139": 3553,
      "3500": 3554,
      "0c80": 3555,
      "8a00": 3556,
      "a580": 3557,
      "529a": 3558,
      "2005": 3559,
      "7cbd": 3560,
      "50f3": 3561,
      "8900": 3562,
      "fe00": 3563,
      "8e76": 3564,
      "6201": 3565,
      "7b50": 3566,
      "c677": 3567,
      "491b": 3568,
      "c100": 3569,
      "e300": 3570,
      "3394": 3571,
      "df95": 3572,
      "11bd": 3573,
      "c001": 3574,
      "01bb": 3575,
      "28ef": 3576,
      "3680": 3577,
      "9700": 3578,
      "d005": 3579,
      "2580": 3580,
      "d000": 3581,
      "6900": 3582,
      "c500": 3583,
      "0bd7": 3584,
      "8901": 3585,
      "f013": 3586,
      "50a0": 3587,
      "a153": 3588,
      "b200": 3589,
      "3e1b": 3590,
      "7c00": 3591,
      "bb00": 3592,
      "5300": 3593,
      "4100": 3594,
      "151b": 3595,
      "b080": 3596,
      "4001": 3597,
      "0c3f": 3598,
      "c200": 3599,
      "0884": 3600,
      "8492": 3601,
      "a900": 3602,
      "ec00": 3603,
      "50f0": 3604,
      "e700": 3605,
      "a002": 3606,
      "e900": 3607,
      "e600": 3608,
      "d784": 3609,
      "0a60": 3610,
      "4d01": 3611,
      "6bb2": 3612,
      "218c": 3613,
      "f5d6": 3614,
      "4f01": 3615,
      "559e": 3616,
      "646c": 3617,
      "8d00": 3618,
      "b400": 3619,
      "2a35": 3620,
      "ba00": 3621,
      "f54f": 3622,
      "43ee": 3623,
      "1505": 3624,
      "e501": 3625,
      "0fd9": 3626,
      "f400": 3627,
      "83b0": 3628,
      "f600": 3629,
      "3c00": 3630,
      "0905": 3631,
      "1480": 3632,
      "d400": 3633,
      "5c00": 3634,
      "8476": 3635,
      "a78e": 3636,
      "f200": 3637,
      "201b": 3638,
      "8f01": 3639,
      "7d00": 3640,
      "5152": 3641,
      "0acc": 3642,
      "5301": 3643,
      "51aa": 3644,
      "ff16": 3645,
      "1816": 3646,
      "9101": 3647,
      "7980": 3648,
      "180d": 3649,
      "03ff": 3650,
      "eab1": 3651,
      "2e00": 3652,
      "bb54": 3653,
      "2701": 3654,
      "0b7a": 3655,
      "01fc": 3656,
      "a200": 3657,
      "4a01": 3658,
      "4700": 3659,
      "8780": 3660,
      "8b80": 3661,
      "cf00": 3662,
      "0a19": 3663,
      "bb4f": 3664,
      "b501": 3665,
      "51be": 3666,
      "1180": 3667,
      "0e80": 3668,
      "307b": 3669,
      "d501": 3670,
      "e380": 3671,
      "8d01": 3672,
      "1822": 3673,
      "1dc0": 3674,
      "4a5a": 3675,
      "4880": 3676,
      "6400": 3677,
      "e801": 3678,
      "fb00": 3679,
      "b101": 3680,
      "3205": 3681,
      "359f": 3682,
      "57ca": 3683,
      "18f9": 3684,
      "6901": 3685,
      "ee00": 3686,
      "1101": 3687,
      "1022": 3688,
      "5232": 3689,
      "ac02": 3690,
      "105f": 3691,
      "b100": 3692,
      "816e": 3693,
      "1d40": 3694,
      "aa80": 3695,
      "cb00": 3696,
      "01d2": 3697,
      "7500": 3698,
      "2880": 3699,
      "501a": 3700,
      "4ea2": 3701,
      "4ea7": 3702,
      "02c2": 3703,
      "eb00": 3704,
      "441b": 3705,
      "ee80": 3706,
      "3580": 3707,
      "97ff": 3708,
      "6780": 3709,
      "7a80": 3710,
      "1d0b": 3711,
      "6880": 3712,
      "1820": 3713,
      "0601": 3714,
      "4eda": 3715,
      "4c05": 3716,
      "3280": 3717,
      "0a7b": 3718,
      "be80": 3719,
      "2bb5": 3720,
      "ea05": 3721,
      "8280": 3722,
      "fc80": 3723,
      "2080": 3724,
      "854b": 3725,
      "5297": 3726,
      "ea02": 3727,
      "1016": 3728,
      "4251": 3729,
      "2380": 3730,
      "b07b": 3731,
      "0b05": 3732,
      "b180": 3733,
      "d5d2": 3734,
      "6c49": 3735,
      "8680": 3736,
      "e01b": 3737,
      "1b19": 3738,
      "517a": 3739,
      "d2d2": 3740,
      "f980": 3741,
      "b906": 3742,
      "a119": 3743,
      "3b80": 3744,
      "251e": 3745,
      "bcd9": 3746,
      "50bc": 3747,
      "1046": 3748,
      "6f3a": 3749,
      "1052": 3750,
      "ac80": 3751,
      "4f62": 3752,
      "bc1d": 3753,
      "f480": 3754,
      "2ffc": 3755,
      "4f5f": 3756,
      "5397": 3757,
      "7802": 3758,
      "1c2a": 3759,
      "7144": 3760,
      "151c": 3761,
      "4b80": 3762,
      "a901": 3763,
      "e280": 3764,
      "4780": 3765,
      "dd51": 3766,
      "3017": 3767,
      "0baa": 3768,
      "e880": 3769,
      "f005": 3770,
      "1c99": 3771,
      "d9df": 3772,
      "d646": 3773,
      "0901": 3774,
      "fe01": 3775,
      "2d80": 3776,
      "517e": 3777,
      "7d80": 3778,
      "0204": 3779,
      "db68": 3780,
      "1c33": 3781,
      "f180": 3782,
      "49f9": 3783,
      "22fb": 3784,
      "c800": 3785,
      "471e": 3786,
      "1880": 3787,
      "7e71": 3788,
      "f4f7": 3789,
      "31bb": 3790,
      "2a01": 3791,
      "ae80": 3792,
      "18d0": 3793,
      "ce39": 3794,
      "4a80": 3795,
      "58a1": 3796,
      "5c52": 3797,
      "af1d": 3798,
      "13bc": 3799,
      "371a": 3800,
      "eb80": 3801,
      "65df": 3802,
      "10ee": 3803,
      "7117": 3804,
      "7e38": 3805,
      "cb6d": 3806,
      "4480": 3807,
      "9580": 3808,
      "8580": 3809,
      "121c": 3810,
      "9050": 3811,
      "0110": 3812,
      "2cb5": 3813,
      "2e80": 3814,
      "de92": 3815,
      "51d2": 3816,
      "524f": 3817,
      "2480": 3818,
      "face": 3819,
      "53d7": 3820,
      "e180": 3821,
      "2001": 3822,
      "900a": 3823,
      "f10c": 3824,
      "d505": 3825,
      "3ca1": 3826,
      "506d": 3827,
      "1807": 3828,
      "9e80": 3829,
      "fb0f": 3830,
      "ff05": 3831,
      "9f80": 3832,
      "25b3": 3833,
      "a016": 3834,
      "fc01": 3835,
      "4626": 3836,
      "8801": 3837,
      "e480": 3838,
      "1680": 3839,
      "4f02": 3840,
      "6ba0": 3841,
      "1219": 3842,
      "0880": 3843,
      "6280": 3844,
      "1039": 3845,
      "ba80": 3846,
      "392a": 3847,
      "c602": 3848,
      "9780": 3849,
      "6e80": 3850,
      "7b3a": 3851,
      "e580": 3852,
      "8f80": 3853,
      "fd80": 3854,
      "1580": 3855,
      "506f": 3856,
      "44b8": 3857,
      "b8bf": 3858,
      "01e6": 3859,
      "1ca0": 3860,
      "be64": 3861,
      "1a1c": 3862,
      "9d09": 3863,
      "0aef": 3864,
      "2780": 3865,
      "c747": 3866,
      "0bd8": 3867,
      "5283": 3868,
      "1020": 3869,
      "8011": 3870,
      "5c18": 3871,
      "1006": 3872,
      "c5fb": 3873,
      "0f80": 3874,
      "ce80": 3875,
      "2a34": 3876,
      "1080": 3877,
      "6980": 3878,
      "fe80": 3879,
      "5687": 3880,
      "1717": 3881,
      "1c66": 3882,
      "526a": 3883,
      "d680": 3884,
      "7c1c": 3885,
      "8af8": 3886,
      "4680": 3887,
      "0298": 3888,
      "037a": 3889,
      "0680": 3890,
      "d580": 3891,
      "b610": 3892,
      "ab01": 3893,
      "c280": 3894,
      "7818": 3895,
      "7f8b": 3896,
      "535c": 3897,
      "5056": 3898,
      "7b43": 3899,
      "c580": 3900,
      "51e3": 3901,
      "3218": 3902,
      "0ee5": 3903,
      "45ff": 3904,
      "0111": 3905,
      "6252": 3906,
      "251b": 3907,
      "0c05": 3908,
      "50e5": 3909,
      "1ade": 3910,
      "6d1b": 3911,
      "6480": 3912,
      "25af": 3913,
      "5051": 3914,
      "53ae": 3915,
      "d912": 3916,
      "52fa": 3917,
      "e7f1": 3918,
      "104b": 3919,
      "a807": 3920,
      "0103": 3921,
      "0cac": 3922,
      "5980": 3923,
      "5205": 3924,
      "8d3f": 3925,
      "53e6": 3926,
      "52f3": 3927,
      "4f1b": 3928,
      "67bb": 3929,
      "5108": 3930,
      "aa25": 3931,
      "200a": 3932,
      "11af": 3933,
      "791c": 3934,
      "4e80": 3935,
      "e2bf": 3936,
      "4fcb": 3937,
      "8701": 3938,
      "5480": 3939,
      "1e80": 3940,
      "1105": 3941,
      "7115": 3942,
      "0147": 3943,
      "9506": 3944,
      "51b9": 3945,
      "ea80": 3946,
      "9c84": 3947,
      "f9d8": 3948,
      "7680": 3949,
      "7880": 3950,
      "f780": 3951,
      "f742": 3952,
      "b48a": 3953,
      "ff80": 3954,
      "d50d": 3955,
      "51df": 3956,
      "b904": 3957,
      "1ed5": 3958,
      "d201": 3959,
      "7480": 3960,
      "b418": 3961,
      "f50d": 3962,
      "5680": 3963,
      "56f8": 3964,
      "b380": 3965,
      "eac7": 3966,
      "4e72": 3967,
      "0780": 3968,
      "830f": 3969,
      "0580": 3970,
      "ea04": 3971,
      "c601": 3972,
      "2f80": 3973,
      "fa80": 3974,
      "b1df": 3975,
      "9b80": 3976,
      "5780": 3977,
      "0a80": 3978,
      "218d": 3979,
      "3c51": 3980,
      "4602": 3981,
      "35a9": 3982,
      "503e": 3983,
      "5104": 3984,
      "dc2d": 3985,
      "8a0e": 3986,
      "c680": 3987,
      "fa31": 3988,
      "5080": 3989,
      "43a5": 3990,
      "3c1b": 3991,
      "9df0": 3992,
      "643d": 3993,
      "2c80": 3994,
      "ec97": 3995,
      "de80": 3996,
      "1c60": 3997,
      "2015": 3998,
      "1de4": 3999,
      "9808": 4000,
      "3942": 4001,
      "fe0d": 4002,
      "311b": 4003,
      "28a9": 4004,
      "4d80": 4005,
      "9049": 4006,
      "ad01": 4007,
      "2217": 4008,
      "4e3b": 4009,
      "da8a": 4010,
      "50aa": 4011,
      "2f1c": 4012,
      "8d32": 4013,
      "54f6": 4014,
      "863f": 4015,
      "f901": 4016,
      "b680": 4017,
      "6d75": 4018,
      "9520": 4019,
      "2202": 4020,
      "bba1": 4021,
      "2002": 4022,
      "5bd7": 4023,
      "9d5a": 4024,
      "a780": 4025,
      "b480": 4026,
      "425d": 4027,
      "ea01": 4028,
      "6506": 4029,
      "6f37": 4030,
      "50d2": 4031,
      "489e": 4032,
      "f310": 4033,
      "6e1f": 4034,
      "2969": 4035,
      "ef8e": 4036,
      "8d85": 4037,
      "d50a": 4038,
      "5401": 4039,
      "ef80": 4040,
      "5052": 4041,
      "ef98": 4042,
      "4ec8": 4043,
      "4f26": 4044,
      "ad6b": 4045,
      "1caa": 4046,
      "ae12": 4047,
      "5387": 4048,
      "4f72": 4049,
      "facb": 4050,
      "4dee": 4051,
      "c880": 4052,
      "fe3d": 4053,
      "7b05": 4054,
      "3209": 4055,
      "b880": 4056,
      "179a": 4057,
      "e725": 4058,
      "4e53": 4059,
      "0eb6": 4060,
      "0e06": 4061,
      "4f86": 4062,
      "0ba8": 4063,
      "044a": 4064,
      "3d80": 4065,
      "480a": 4066,
      "0a99": 4067,
      "0980": 4068,
      "a1d7": 4069,
      "1383": 4070,
      "7350": 4071,
      "0d05": 4072,
      "694a": 4073,
      "5292": 4074,
      "790c": 4075,
      "aa38": 4076,
      "2e05": 4077,
      "7180": 4078,
      "cbf7": 4079,
      "1d1b": 4080,
      "e839": 4081,
      "4fce": 4082,
      "b50d": 4083,
      "fc5a": 4084,
      "2b80": 4085,
      "e86c": 4086,
      "506e": 4087,
      "52c5": 4088,
      "efe8": 4089,
      "51a5": 4090,
      "4e70": 4091,
      "9c80": 4092,
      "3f09": 4093,
      "4f89": 4094,
      "cf3a": 4095,
      "4532": 4096,
      "4002": 4097,
      "b980": 4098,
      "bb03": 4099,
      "d619": 4100,
      "ed80": 4101,
      "33b3": 4102,
      "5227": 4103,
      "4c80": 4104,
      "8a04": 4105,
      "1037": 4106,
      "48e8": 4107,
      "a08a": 4108,
      "efb0": 4109,
      "a93c": 4110,
      "210a": 4111,
      "c980": 4112,
      "4bfe": 4113,
      "1d05": 4114,
      "626c": 4115,
      "b780": 4116,
      "50c9": 4117,
      "c2a8": 4118,
      "7a3e": 4119,
      "f8df": 4120,
      "50b8": 4121,
      "1b46": 4122,
      "261c": 4123,
      "51ce": 4124,
      "f53e": 4125,
      "c862": 4126,
      "4eb0": 4127,
      "2980": 4128,
      "ce21": 4129,
      "da4d": 4130,
      "53ff": 4131,
      "4181": 4132,
      "814b": 4133,
      "52dd": 4134,
      "a280": 4135,
      "6f80": 4136,
      "51e0": 4137,
      "afe0": 4138,
      "8e43": 4139,
      "5a82": 4140,
      "1d75": 4141,
      "2072": 4142,
      "528d": 4143,
      "b87e": 4144,
      "2d1b": 4145,
      "272c": 4146,
      "5234": 4147,
      "6952": 4148,
      "d980": 4149,
      "3f80": 4150,
      "52e7": 4151,
      "519a": 4152,
      "070d": 4153,
      "66bb": 4154,
      "b4f7": 4155,
      "d710": 4156,
      "e802": 4157,
      "0a05": 4158,
      "c90f": 4159,
      "4b0b": 4160,
      "9280": 4161,
      "0a2b": 4162,
      "fc08": 4163,
      "c9ae": 4164,
      "1380": 4165,
      "a401": 4166,
      "5295": 4167,
      "efe7": 4168,
      "5146": 4169,
      "8980": 4170,
      "7a0c": 4171,
      "de7a": 4172,
      "6b75": 4173,
      "a305": 4174,
      "b014": 4175,
      "ab10": 4176,
      "4a49": 4177,
      "8b02": 4178,
      "470b": 4179,
      "5287": 4180,
      "b430": 4181,
      "f81d": 4182,
      "d880": 4183,
      "fd01": 4184,
      "a080": 4185,
      "8781": 4186,
      "4e47": 4187,
      "c180": 4188,
      "4380": 4189,
      "1b1c": 4190,
      "4e4b": 4191,
      "2a80": 4192,
      "9a2d": 4193,
      "eaef": 4194,
      "22a1": 4195,
      "4e4d": 4196,
      "9180": 4197,
      "731c": 4198,
      "d280": 4199,
      "4ff1": 4200,
      "d614": 4201,
      "a980": 4202,
      "527f": 4203,
      "1d01": 4204,
      "2375": 4205,
      "48f1": 4206,
      "ffd3": 4207,
      "1aa1": 4208,
      "ef07": 4209,
      "0a03": 4210,
      "6e32": 4211,
      "04d6": 4212,
      "3f01": 4213,
      "4f83": 4214,
      "4f1d": 4215,
      "d90d": 4216,
      "712d": 4217,
      "4305": 4218,
      "44d5": 4219,
      "e20d": 4220,
      "017d": 4221,
      "4c1b": 4222,
      "2e10": 4223,
      "8b0b": 4224,
      "d180": 4225,
      "51c9": 4226,
      "9080": 4227,
      "9048": 4228,
      "4fa6": 4229,
      "7291": 4230,
      "5d13": 4231,
      "0f1d": 4232,
      "1317": 4233,
      "4313": 4234,
      "52ab": 4235,
      "a7bf": 4236,
      "8902": 4237,
      "0821": 4238,
      "c380": 4239,
      "92db": 4240,
      "a64f": 4241,
      "b580": 4242,
      "1b60": 4243,
      "e892": 4244,
      "52b7": 4245,
      "fa9e": 4246,
      "4c4b": 4247,
      "ca25": 4248,
      "da80": 4249,
      "530e": 4250,
      "f229": 4251,
      "681c": 4252,
      "cd09": 4253,
      "4f3c": 4254,
      "0695": 4255,
      "11a2": 4256,
      "2f50": 4257,
      "011b": 4258,
      "fe0e": 4259,
      "76aa": 4260,
      "de01": 4261,
      "5322": 4262,
      "3380": 4263,
      "9380": 4264,
      "4403": 4265,
      "50d7": 4266,
      "4f6f": 4267,
      "3a95": 4268,
      "51a3": 4269,
      "3c17": 4270,
      "390b": 4271,
      "414b": 4272,
      "904d": 4273,
      "50a2": 4274,
      "760c": 4275,
      "ca80": 4276,
      "5304": 4277,
      "5ba9": 4278,
      "f3f6": 4279,
      "2876": 4280,
      "f580": 4281,
      "4f0b": 4282,
      "3a2f": 4283,
      "e779": 4284,
      "904e": 4285,
      "253e": 4286,
      "bff3": 4287,
      "4f1a": 4288,
      "fbb5": 4289,
      "51f2": 4290,
      "5303": 4291,
      "b8d9": 4292,
      "3a93": 4293,
      "41c1": 4294,
      "6f07": 4295,
      "2180": 4296,
      "4e5b": 4297,
      "5a80": 4298,
      "8180": 4299,
      "770c": 4300,
      "0f01": 4301,
      "7f80": 4302,
      "971e": 4303,
      "0a01": 4304,
      "5165": 4305,
      "2b1c": 4306,
      "54d2": 4307,
      "2c1c": 4308,
      "0e0c": 4309,
      "5345": 4310,
      "1f01": 4311,
      "200b": 4312,
      "6fb5": 4313,
      "7081": 4314,
      "017e": 4315,
      "ee04": 4316,
      "2b02": 4317,
      "df93": 4318,
      "1519": 4319,
      "51ea": 4320,
      "e9fc": 4321,
      "ea07": 4322,
      "f380": 4323,
      "4701": 4324,
      "904a": 4325,
      "cf80": 4326,
      "9bab": 4327,
      "a217": 4328,
      "0ae7": 4329,
      "187b": 4330,
      "51a6": 4331,
      "f958": 4332,
      "fc48": 4333,
      "9231": 4334,
      "507e": 4335,
      "904c": 4336,
      "5fd3": 4337,
      "d799": 4338,
      "01bc": 4339,
      "0ac1": 4340,
      "9a6c": 4341,
      "fb1c": 4342,
      "751b": 4343,
      "b5e7": 4344,
      "2d11": 4345,
      "13ef": 4346,
      "f940": 4347,
      "ce8b": 4348,
      "9e40": 4349,
      "ee08": 4350,
      "6a8e": 4351,
      "20df": 4352,
      "171b": 4353,
      "ed0c": 4354,
      "52ea": 4355,
      "5054": 4356,
      "4f22": 4357,
      "8214": 4358,
      "0538": 4359,
      "4980": 4360,
      "ce16": 4361,
      "3a48": 4362,
      "411b": 4363,
      "e241": 4364,
      "0d80": 4365,
      "d780": 4366,
      "3780": 4367,
      "205c": 4368,
      "f598": 4369,
      "44a9": 4370,
      "58b9": 4371,
      "5167": 4372,
      "6c05": 4373,
      "fe09": 4374,
      "c164": 4375,
      "1d70": 4376,
      "8501": 4377,
      "670b": 4378,
      "5f80": 4379,
      "2032": 4380,
      "35c5": 4381,
      "17b1": 4382,
      "480b": 4383,
      "53e8": 4384,
      "5106": 4385,
      "0b80": 4386,
      "0bf8": 4387,
      "5b80": 4388,
      "5221": 4389,
      "3601": 4390,
      "2049": 4391,
      "f554": 4392,
      "3d8b": 4393,
      "5001": 4394,
      "92ab": 4395,
      "a005": 4396,
      "0992": 4397,
      "1a0a": 4398,
      "5091": 4399,
      "5143": 4400,
      "4e1b": 4401,
      "4e69": 4402,
      "89da": 4403,
      "26f7": 4404,
      "d223": 4405,
      "9d80": 4406,
      "7d05": 4407,
      "df44": 4408,
      "4f9d": 4409,
      "5337": 4410,
      "7507": 4411,
      "02d0": 4412,
      "7c80": 4413,
      "cc80": 4414,
      "b91e": 4415,
      "9a80": 4416,
      "f150": 4417,
      "2b1b": 4418,
      "5048": 4419,
      "4fbc": 4420,
      "bf80": 4421,
      "e401": 4422,
      "51cf": 4423,
      "1197": 4424,
      "8118": 4425,
      "e001": 4426,
      "691b": 4427,
      "0c01": 4428,
      "4104": 4429,
      "f3f0": 4430,
      "fb05": 4431,
      "e301": 4432,
      "25a7": 4433,
      "5290": 4434,
      "533a": 4435,
      "733b": 4436,
      "cd6c": 4437,
      "5501": 4438,
      "91f5": 4439,
      "af80": 4440,
      "fb65": 4441,
      "4003": 4442,
      "1980": 4443,
      "5905": 4444,
      "1a1b": 4445,
      "daba": 4446,
      "c173": 4447,
      "5276": 4448,
      "62dd": 4449,
      "c5ff": 4450,
      "c780": 4451,
      "50ec": 4452,
      "92a7": 4453,
      "192c": 4454,
      "4c41": 4455,
      "fa01": 4456,
      "5383": 4457,
      "720b": 4458,
      "4f44": 4459,
      "2f51": 4460,
      "4fca": 4461,
      "a81a": 4462,
      "21a0": 4463,
      "9e89": 4464,
      "2e01": 4465,
      "6a8f": 4466,
      "c2f4": 4467,
      "5042": 4468,
      "0f0a": 4469,
      "a0f0": 4470,
      "b09d": 4471,
      "60c7": 4472,
      "541f": 4473,
      "840d": 4474,
      "51a7": 4475,
      "3c80": 4476,
      "5377": 4477,
      "66ec": 4478,
      "4f9e": 4479,
      "7216": 4480,
      "211b": 4481,
      "0e01": 4482,
      "6108": 4483,
      "160c": 4484,
      "6b80": 4485,
      "904b": 4486,
      "0d04": 4487,
      "37ab": 4488,
      "9943": 4489,
      "5228": 4490,
      "a2bc": 4491,
      "984e": 4492,
      "5801": 4493,
      "d705": 4494,
      "4fe9": 4495,
      "e4c2": 4496,
      "a237": 4497,
      "4e21": 4498,
      "ce05": 4499,
      "3e4b": 4500,
      "5266": 4501,
      "cf01": 4502,
      "50e7": 4503,
      "533d": 4504,
      "37ee": 4505,
      "6f14": 4506,
      "5117": 4507,
      "4ce8": 4508,
      "4a72": 4509,
      "8e80": 4510,
      "7e96": 4511,
      "6410": 4512,
      "9667": 4513,
      "d0b1": 4514,
      "1c20": 4515,
      "4ebf": 4516,
      "9a4c": 4517,
      "525b": 4518,
      "5223": 4519,
      "4b1c": 4520,
      "a680": 4521,
      "c5fe": 4522,
      "2063": 4523,
      "4f98": 4524,
      "259f": 4525,
      "7282": 4526,
      "5170": 4527,
      "f3f8": 4528,
      "97fc": 4529,
      "1060": 4530,
      "5215": 4531,
      "5144": 4532,
      "66fe": 4533,
      "a880": 4534,
      "904f": 4535,
      "4f8a": 4536,
      "881d": 4537,
      "f95a": 4538,
      "9ee8": 4539,
      "c901": 4540,
      "7625": 4541,
      "f688": 4542,
      "f84c": 4543,
      "c708": 4544,
      "9480": 4545,
      "ef76": 4546,
      "5555": 4547,
      "0ecd": 4548,
      "5254": 4549,
      "7003": 4550,
      "723d": 4551,
      "d7b1": 4552,
      "e3a1": 4553,
      "5153": 4554,
      "4e62": 4555,
      "f972": 4556,
      "03fe": 4557,
      "8a18": 4558,
      "520e": 4559,
      "636b": 4560,
      "33f0": 4561,
      "3880": 4562,
      "0d01": 4563,
      "7701": 4564,
      "501e": 4565,
      "50af": 4566,
      "5128": 4567,
      "b136": 4568,
      "6301": 4569,
      "4f69": 4570,
      "151a": 4571,
      "4f25": 4572,
      "4f27": 4573,
      "8005": 4574,
      "8d61": 4575,
      "a083": 4576,
      "de1c": 4577,
      "1a80": 4578,
      "111b": 4579,
      "231c": 4580,
      "f51b": 4581,
      "5073": 4582,
      "dd80": 4583,
      "4f5a": 4584,
      "cc40": 4585,
      "1309": 4586,
      "2280": 4587,
      "8d80": 4588,
      "c480": 4589,
      "852b": 4590,
      "2d15": 4591,
      "91ca": 4592,
      "5060": 4593,
      "e4ae": 4594,
      "52d7": 4595,
      "6416": 4596,
      "a72e": 4597,
      "7580": 4598,
      "d080": 4599,
      "66ee": 4600,
      "509b": 4601,
      "3a6c": 4602,
      "4105": 4603,
      "1d74": 4604,
      "f280": 4605,
      "6d05": 4606,
      "1019": 4607,
      "4f3a": 4608,
      "f192": 4609,
      "891c": 4610,
      "3e80": 4611,
      "5241": 4612,
      "5239": 4613,
      "35d2": 4614,
      "6d80": 4615,
      "f41c": 4616,
      "ad80": 4617,
      "52cf": 4618,
      "7419": 4619,
      "291c": 4620,
      "db80": 4621,
      "1681": 4622,
      "c10a": 4623,
      "5b01": 4624,
      "c247": 4625,
      "e680": 4626,
      "5d80": 4627,
      "fef9": 4628,
      "2b05": 4629,
      "c604": 4630,
      "1d02": 4631,
      "8376": 4632,
      "f605": 4633,
      "4f7e": 4634,
      "f510": 4635,
      "5212": 4636,
      "ddfb": 4637,
      "dc80": 4638,
      "9a0c": 4639,
      "3b1b": 4640,
      "ab09": 4641,
      "e6e2": 4642,
      "e889": 4643,
      "7605": 4644,
      "52f6": 4645,
      "f3f4": 4646,
      "7280": 4647,
      "e22b": 4648,
      "4080": 4649,
      "3777": 4650,
      "ddb3": 4651,
      "ef14": 4652,
      "bca0": 4653,
      "03fd": 4654,
      "6580": 4655,
      "b280": 4656,
      "2050": 4657,
      "753f": 4658,
      "0597": 4659,
      "51ad": 4660,
      "9980": 4661,
      "8170": 4662,
      "df80": 4663,
      "4d3b": 4664,
      "5150": 4665,
      "ec56": 4666,
      "de3a": 4667,
      "2a4e": 4668,
      "bb59": 4669,
      "3305": 4670,
      "757c": 4671,
      "5701": 4672,
      "2f4f": 4673,
      "2024": 4674,
      "5364": 4675,
      "5187": 4676,
      "f99e": 4677,
      "6c0b": 4678,
      "8c80": 4679,
      "038c": 4680,
      "da01": 4681,
      "6609": 4682,
      "3301": 4683,
      "9674": 4684,
      "8fdf": 4685,
      "4f81": 4686,
      "78b1": 4687,
      "51c7": 4688,
      "4ff8": 4689,
      "9fae": 4690,
      "f615": 4691,
      "4e67": 4692,
      "6680": 4693,
      "7380": 4694,
      "1501": 4695,
      "f39a": 4696,
      "d316": 4697,
      "bc72": 4698,
      "3b27": 4699,
      "ff03": 4700,
      "27cb": 4701,
      "5e01": 4702,
      "8188": 4703,
      "bb51": 4704,
      "4b05": 4705,
      "503a": 4706,
      "e668": 4707,
      "1c0b": 4708,
      "1b05": 4709,
      "4ea9": 4710,
      "7a50": 4711,
      "ec80": 4712,
      "2b01": 4713,
      "063b": 4714,
      "f205": 4715,
      "e679": 4716,
      "e077": 4717,
      "66ed": 4718,
      "5a21": 4719,
      "5272": 4720,
      "6380": 4721,
      "8605": 4722,
      "f680": 4723,
      "1f80": 4724,
      "2296": 4725,
      "21fe": 4726,
      "4eb8": 4727,
      "9cd9": 4728,
      "fef6": 4729,
      "3b0b": 4730,
      "667b": 4731,
      "8601": 4732,
      "041c": 4733,
      "bd80": 4734,
      "6080": 4735,
      "f080": 4736,
      "21ed": 4737,
      "025f": 4738,
      "da06": 4739,
      "f505": 4740,
      "f58e": 4741,
      "1f1c": 4742,
      "c7bb": 4743,
      "0142": 4744,
      "5180": 4745,
      "0b4f": 4746,
      "55d2": 4747,
      "ab80": 4748,
      "4f4c": 4749,
      "c772": 4750,
      "014c": 4751,
      "0260": 4752,
      "fc50": 4753,
      "bb02": 4754,
      "2680": 4755,
      "d209": 4756,
      "960a": 4757,
      "7080": 4758,
      "401b": 4759,
      "923d": 4760,
      "6999": 4761,
      "bb05": 4762,
      "50d6": 4763,
      "54df": 4764,
      "53a0": 4765,
      "9802": 4766,
      "fc05": 4767,
      "ec39": 4768,
      "ee34": 4769,
      "521b": 4770,
      "c51b": 4771,
      "0534": 4772,
      "ce22": 4773,
      "9102": 4774,
      "b305": 4775,
      "4f80": 4776,
      "34dc": 4777,
      "529d": 4778,
      "8808": 4779,
      "1cd5": 4780,
      "5113": 4781,
      "2cdf": 4782,
      "a180": 4783,
      "fb80": 4784,
      "6305": 4785,
      "5043": 4786,
      "504d": 4787,
      "204a": 4788,
      "f401": 4789,
      "4f9f": 4790,
      "5193": 4791,
      "7292": 4792,
      "a595": 4793,
      "7713": 4794,
      "8717": 4795,
      "8003": 4796,
      "db13": 4797,
      "0240": 4798,
      "4239": 4799,
      "7b80": 4800,
      "25d3": 4801,
      "c605": 4802,
      "93a9": 4803,
      "d380": 4804,
      "b50b": 4805,
      "7401": 4806,
      "3d09": 4807,
      "b73c": 4808,
      "4814": 4809,
      "578b": 4810,
      "01ff": 4811,
      "1905": 4812,
      "895c": 4813,
      "1ab5": 4814,
      "f880": 4815,
      "f741": 4816,
      "5472": 4817,
      "103a": 4818,
      "52b9": 4819,
      "e01d": 4820,
      "516a": 4821,
      "3c01": 4822,
      "5280": 4823,
      "75d2": 4824,
      "5075": 4825,
      "1401": 4826,
      "7780": 4827,
      "52ec": 4828,
      "1b64": 4829,
      "a1bf": 4830,
      "979d": 4831,
      "071d": 4832,
      "cad8": 4833,
      "53d0": 4834,
      "4505": 4835,
      "1fe3": 4836,
      "bc4e": 4837,
      "fc52": 4838,
      "b9ca": 4839,
      "cd80": 4840,
      "53af": 4841,
      "678a": 4842,
      "2076": 4843,
      "0f05": 4844,
      "b401": 4845,
      "4df3": 4846,
      "4fa7": 4847,
      "06d5": 4848,
      "bb96": 4849,
      "cff5": 4850,
      "0ffb": 4851,
      "2010": 4852,
      "d287": 4853,
      "514f": 4854,
      "517f": 4855,
      "2ab5": 4856,
      "db05": 4857,
      "b1d2": 4858,
      "2601": 4859,
      "8480": 4860,
      "2798": 4861,
      "83ca": 4862,
      "5235": 4863,
      "83ad": 4864,
      "025e": 4865,
      "6c80": 4866,
      "e9fd": 4867,
      "4101": 4868,
      "3180": 4869,
      "5880": 4870,
      "d480": 4871,
      "26ef": 4872,
      "cd32": 4873,
      "fc55": 4874,
      "d9d2": 4875,
      "30d4": 4876,
      "8201": 4877,
      "50c7": 4878,
      "c53d": 4879,
      "7ffe": 4880,
      "c2cd": 4881,
      "12b3": 4882,
      "66ca": 4883,
      "4fb5": 4884,
      "55b0": 4885,
      "18de": 4886,
      "79c2": 4887,
      "3ce5": 4888,
      "cb05": 4889,
      "5396": 4890,
      "68a8": 4891,
      "a0b9": 4892,
      "3c05": 4893,
      "e9ca": 4894,
      "220e": 4895,
      "db62": 4896,
      "2065": 4897,
      "6f39": 4898,
      "b2e8": 4899,
      "c767": 4900,
      "01eb": 4901,
      "a98f": 4902,
      "410e": 4903,
      "1278": 4904,
      "4e13": 4905,
      "b913": 4906,
      "0e31": 4907,
      "1e0f": 4908,
      "6a27": 4909,
      "531e": 4910,
      "e701": 4911,
      "3448": 4912,
      "202c": 4913,
      "c002": 4914,
      "6e01": 4915,
      "5151": 4916,
      "bc51": 4917,
      "1780": 4918,
      "af87": 4919,
      "51e6": 4920,
      "fd56": 4921,
      "5118": 4922,
      "9c05": 4923,
      "3e05": 4924,
      "c101": 4925,
      "50fc": 4926,
      "3480": 4927,
      "66ef": 4928,
      "4f34": 4929,
      "2e91": 4930,
      "4fb1": 4931,
      "4abd": 4932,
      "cb45": 4933,
      "1d73": 4934,
      "8b66": 4935,
      "5268": 4936,
      "a001": 4937,
      "0c02": 4938,
      "d37c": 4939,
      "fdd0": 4940,
      "5041": 4941,
      "203d": 4942,
      "5030": 4943,
      "1fcf": 4944,
      "7a02": 4945,
      "ec01": 4946,
      "dbfd": 4947,
      "c080": 4948,
      "1d6d": 4949,
      "451b": 4950,
      "3501": 4951,
      "2073": 4952,
      "2d05": 4953,
      "4ac3": 4954,
      "1050": 4955,
      "6f63": 4956,
      "811d": 4957,
      "0120": 4958,
      "2c05": 4959,
      "2c1b": 4960,
      "4abf": 4961,
      "a16b": 4962,
      "9801": 4963,
      "cd50": 4964,
      "34d2": 4965,
      "e8ee": 4966,
      "601a": 4967,
      "5509": 4968,
      "d7fe": 4969,
      "6f3b": 4970,
      "1512": 4971,
      "52b4": 4972,
      "0794": 4973,
      "309e": 4974,
      "14b0": 4975,
      "2f52": 4976,
      "510e": 4977,
      "3980": 4978,
      "fef5": 4979,
      "3a7b": 4980,
      "560c": 4981,
      "2014": 4982,
      "1901": 4983,
      "3201": 4984,
      "95fa": 4985,
      "2051": 4986,
      "14e9": 4987,
      "6acb": 4988,
      "ddab": 4989,
      "181e": 4990,
      "e9fe": 4991,
      "2301": 4992,
      "d66e": 4993,
      "d001": 4994,
      "056e": 4995,
      "8301": 4996,
      "3605": 4997,
      "b201": 4998,
      "dd01": 4999,
      "7f55": 5000,
      "836f": 5001,
      "e722": 5002,
      "0b55": 5003,
      "20e1": 5004,
      "1950": 5005,
      "9c01": 5006,
      "7e70": 5007,
      "9eda": 5008,
      "1280": 5009,
      "047e": 5010,
      "5408": 5011,
      "6401": 5012,
      "0ff5": 5013,
      "38cd": 5014,
      "7e2f": 5015,
      "7a52": 5016,
      "6d41": 5017,
      "2801": 5018,
      "6f01": 5019,
      "2029": 5020,
      "788d": 5021,
      "d812": 5022,
      "7901": 5023,
      "c967": 5024,
      "e101": 5025,
      "9b01": 5026,
      "8880": 5027,
      "4401": 5028,
      "0702": 5029,
      "2060": 5030,
      "0ae4": 5031,
      "1d72": 5032,
      "2ad6": 5033,
      "ea03": 5034,
      "a301": 5035,
      "bd05": 5036,
      "a405": 5037,
      "f207": 5038,
      "0202": 5039,
      "bc4f": 5040,
      "3928": 5041,
      "fefb": 5042,
      "f38e": 5043,
      "f801": 5044,
      "ad0e": 5045,
      "efe9": 5046,
      "ce9d": 5047,
      "1e05": 5048,
      "fabe": 5049,
      "f14f": 5050,
      "f515": 5051,
      "eac9": 5052,
      "fd34": 5053,
      "6001": 5054,
      "8db4": 5055,
      "d811": 5056,
      "0140": 5057,
      "7102": 5058,
      "6d6d": 5059,
      "9701": 5060,
      "d41c": 5061,
      "519c": 5062,
      "2fff": 5063,
      "3001": 5064,
      "a450": 5065,
      "0259": 5066,
      "bc80": 5067,
      "5e05": 5068,
      "6b01": 5069,
      "d205": 5070,
      "9880": 5071,
      "6705": 5072,
      "e780": 5073,
      "541c": 5074,
      "9054": 5075,
      "c76b": 5076,
      "35a0": 5077,
      "472a": 5078,
      "fdfb": 5079,
      "0e05": 5080,
      "ea50": 5081,
      "6101": 5082,
      "f152": 5083,
      "25ac": 5084,
      "54fd": 5085,
      "3425": 5086,
      "5b05": 5087,
      "2040": 5088,
      "cd01": 5089,
      "d405": 5090,
      "0ffd": 5091,
      "8ba0": 5092,
      "a4ef": 5093,
      "e8ea": 5094,
      "0adb": 5095,
      "cc51": 5096,
      "531c": 5097,
      "1d55": 5098,
      "2042": 5099,
      "3705": 5100,
      "9bce": 5101,
      "2901": 5102,
      "1301": 5103,
      "30d2": 5104,
      "8080": 5105,
      "40fd": 5106,
      "d458": 5107,
      "8738": 5108,
      "bf04": 5109,
      "0ae8": 5110,
      "fefa": 5111,
      "5e51": 5112,
      "6180": 5113,
      "a101": 5114,
      "0ff6": 5115,
      "9051": 5116,
      "8976": 5117,
      "8c01": 5118,
      "e9fb": 5119,
      "0b53": 5120,
      "5305": 5121,
      "8a80": 5122,
      "d80e": 5123,
      "aa05": 5124,
      "9e01": 5125,
      "7601": 5126,
      "5e80": 5127,
      "0b50": 5128,
      "8172": 5129,
      "986e": 5130,
      "6d01": 5131,
      "5423": 5132,
      "0ffa": 5133,
      "025a": 5134,
      "0e86": 5135,
      "c6fb": 5136,
      "12d1": 5137,
      "20de": 5138,
      "1d20": 5139,
      "14c3": 5140,
      "7e30": 5141,
      "d905": 5142,
      "a1ff": 5143,
      "4601": 5144,
      "824f": 5145,
      "1da9": 5146,
      "8805": 5147,
      "8806": 5148,
      "0a0c": 5149,
      "0258": 5150,
      "19b1": 5151,
      "5cdf": 5152,
      "328b": 5153,
      "6502": 5154,
      "e601": 5155,
      "c401": 5156,
      "2052": 5157,
      "4d3d": 5158,
      "04a8": 5159,
      "0a50": 5160,
      "0348": 5161,
      "7b4d": 5162,
      "e179": 5163,
      "1d78": 5164,
      "204d": 5165,
      "8d4a": 5166,
      "3396": 5167,
      "339c": 5168,
      "35a7": 5169,
      "7001": 5170,
      "f72c": 5171,
      "6c6f": 5172,
      "0b0c": 5173,
      "5505": 5174,
      "bb01": 5175,
      "8b05": 5176,
      "14e2": 5177,
      "2538": 5178,
      "80c3": 5179,
      "d007": 5180,
      "fc59": 5181,
      "7e80": 5182,
      "918f": 5183,
      "1d76": 5184,
      "2075": 5185,
      "7887": 5186,
      "c9d2": 5187,
      "e080": 5188,
      "2056": 5189,
      "4f5e": 5190,
      "909c": 5191,
      "0aa2": 5192,
      "0242": 5193,
      "02c0": 5194,
      "051a": 5195,
      "fc51": 5196,
      "8171": 5197,
      "4801": 5198,
      "48d2": 5199,
      "f701": 5200,
      "1fd8": 5201,
      "d451": 5202,
      "205f": 5203,
      "2039": 5204,
      "f5e7": 5205,
      "5c80": 5206,
      "6afb": 5207,
      "fa02": 5208,
      "7301": 5209,
      "9442": 5210,
      "7f01": 5211,
      "b001": 5212,
      "9c52": 5213,
      "3901": 5214,
      "3950": 5215,
      "fc57": 5216,
      "d9de": 5217,
      "be02": 5218,
      "816d": 5219,
      "2253": 5220,
      "3851": 5221,
      "bd01": 5222,
      "7ec1": 5223,
      "d457": 5224,
      "4005": 5225,
      "9c02": 5226,
      "0b51": 5227,
      "d378": 5228,
      "3401": 5229,
      "1017": 5230,
      "26e6": 5231,
      "7f86": 5232,
      "7468": 5233,
      "2105": 5234,
      "4901": 5235,
      "ac01": 5236,
      "4108": 5237,
      "2656": 5238,
      "922a": 5239,
      "7702": 5240,
      "c770": 5241,
      "af6e": 5242,
      "a44e": 5243,
      "fd3e": 5244,
      "d80a": 5245,
      "fc4f": 5246,
      "1a79": 5247,
      "4357": 5248,
      "e22c": 5249,
      "1702": 5250,
      "f514": 5251,
      "9052": 5252,
      "8ba4": 5253,
      "c851": 5254,
      "54f3": 5255,
      "48ec": 5256,
      "7be8": 5257,
      "7db1": 5258,
      "d2a1": 5259,
      "aa50": 5260,
      "e901": 5261,
      "a105": 5262,
      "4b01": 5263,
      "8379": 5264,
      "944d": 5265,
      "df05": 5266,
      "fefe": 5267,
      "5a19": 5268,
      "8bfb": 5269,
      "2d50": 5270,
      "d459": 5271,
      "b8cb": 5272,
      "74bb": 5273,
      "0a62": 5274,
      "02fb": 5275,
      "191a": 5276,
      "59d1": 5277,
      "a380": 5278,
      "6501": 5279,
      "2038": 5280,
      "8004": 5281,
      "0150": 5282,
      "0154": 5283,
      "ca01": 5284,
      "31fc": 5285,
      "43f3": 5286,
      "7708": 5287,
      "9fb0": 5288,
      "5420": 5289,
      "4d3e": 5290,
      "af65": 5291,
      "5638": 5292,
      "6a80": 5293,
      "8afb": 5294,
      "9bba": 5295,
      "5628": 5296,
      "0250": 5297,
      "fe7a": 5298,
      "816b": 5299,
      "c105": 5300,
      "9448": 5301,
      "f394": 5302,
      "200f": 5303,
      "4930": 5304,
      "1a05": 5305,
      "b151": 5306,
      "f153": 5307,
      "3130": 5308,
      "7501": 5309,
      "2f01": 5310,
      "6405": 5311,
      "4f65": 5312,
      "206b": 5313,
      "4df4": 5314,
      "20e5": 5315,
      "1b40": 5316,
      "897d": 5317,
      "8173": 5318,
      "1dd0": 5319,
      "3253": 5320,
      "205a": 5321,
      "f391": 5322,
      "4ac7": 5323,
      "d809": 5324,
      "a9d2": 5325,
      "f101": 5326,
      "f156": 5327,
      "d102": 5328,
      "c44e": 5329,
      "203e": 5330,
      "2591": 5331,
      "4095": 5332,
      "0f19": 5333,
      "1781": 5334,
      "0ee7": 5335,
      "038b": 5336,
      "f3f7": 5337,
      "d37b": 5338,
      "6801": 5339,
      "c5f9": 5340,
      "af01": 5341,
      "af86": 5342,
      "472f": 5343,
      "d80b": 5344,
      "0af6": 5345,
      "0a2a": 5346,
      "0976": 5347,
      "f301": 5348,
      "43f4": 5349,
      "1df5": 5350,
      "3505": 5351,
      "4733": 5352,
      "25a3": 5353,
      "2064": 5354,
      "a1e4": 5355,
      "2550": 5356,
      "b750": 5357,
      "9e76": 5358,
      "2068": 5359,
      "d45a": 5360,
      "922f": 5361,
      "0132": 5362,
      "02eb": 5363,
      "0577": 5364,
      "7c57": 5365,
      "4205": 5366,
      "5c01": 5367,
      "6a30": 5368,
      "917f": 5369,
      "5201": 5370,
      "1daa": 5371,
      "5601": 5372,
      "d363": 5373,
      "5705": 5374,
      "7d01": 5375,
      "f4f0": 5376,
      "3399": 5377,
      "70b3": 5378,
      "dc5c": 5379,
      "cc28": 5380,
      "897c": 5381,
      "7b77": 5382,
      "1d4a": 5383,
      "206e": 5384,
      "2071": 5385,
      "2047": 5386,
      "4d05": 5387,
      "c451": 5388,
      "d45b": 5389,
      "7d90": 5390,
      "c551": 5391,
      "fc54": 5392,
      "f158": 5393,
      "e11b": 5394,
      "662e": 5395,
      "32d2": 5396,
      "0fd6": 5397,
      "ad02": 5398,
      "5f01": 5399,
      "70bc": 5400,
      "66e8": 5401,
      "4d39": 5402,
      "f4ea": 5403,
      "df86": 5404,
      "9001": 5405,
      "9fcb": 5406,
      "aa01": 5407,
      "3927": 5408,
      "dc50": 5409,
      "7e3c": 5410,
      "8974": 5411,
      "7a2f": 5412,
      "03d6": 5413,
      "de82": 5414,
      "3a51": 5415,
      "c201": 5416,
      "57fb": 5417,
      "7891": 5418,
      "9fe8": 5419,
      "2391": 5420,
      "5710": 5421,
      "2a32": 5422,
      "7b4b": 5423,
      "9501": 5424,
      "a801": 5425,
      "2017": 5426,
      "4f66": 5427,
      "af83": 5428,
      "f511": 5429,
      "8fe1": 5430,
      "2018": 5431,
      "2902": 5432,
      "e980": 5433,
      "aefd": 5434,
      "4102": 5435,
      "1d71": 5436,
      "d202": 5437,
      "f6ff": 5438,
      "7d71": 5439,
      "2d01": 5440,
      "25b2": 5441,
      "2030": 5442,
      "af85": 5443,
      "b2e9": 5444,
      "b0e6": 5445,
      "951f": 5446,
      "1dfe": 5447,
      "d860": 5448,
      "f113": 5449,
      "02d2": 5450,
      "05f3": 5451,
      "9c65": 5452,
      "ea06": 5453,
      "ba01": 5454,
      "e105": 5455,
      "c34e": 5456,
      "7261": 5457,
      "207e": 5458,
      "e751": 5459,
      "1497": 5460,
      "9dc9": 5461,
      "1453": 5462,
      "9224": 5463,
      "02df": 5464,
      "0252": 5465,
      "ce4e": 5466,
      "038d": 5467,
      "66bc": 5468,
      "bd51": 5469,
      "df01": 5470,
      "f4f1": 5471,
      "143b": 5472,
      "f519": 5473,
      "1d83": 5474,
      "f017": 5475,
      "07d5": 5476,
      "e365": 5477,
      "f40d": 5478,
      "0203": 5479,
      "794f": 5480,
      "dc57": 5481,
      "9901": 5482,
      "0323": 5483,
      "da05": 5484,
      "7801": 5485,
      "4451": 5486,
      "2046": 5487,
      "3951": 5488,
      "3a80": 5489,
      "bb80": 5490,
      "bbb9": 5491,
      "d166": 5492,
      "4605": 5493,
      "e8fb": 5494,
      "d251": 5495,
      "4580": 5496,
      "07db": 5497,
      "7d7b": 5498,
      "1d39": 5499,
      "1da0": 5500,
      "fd1f": 5501,
      "1450": 5502,
      "2be3": 5503,
      "7450": 5504,
      "d8ba": 5505,
      "1c05": 5506,
      "cc42": 5507,
      "f3fa": 5508,
      "207a": 5509,
      "f705": 5510,
      "7005": 5511,
      "7918": 5512,
      "4e01": 5513,
      "4c68": 5514,
      "7e4e": 5515,
      "7af2": 5516,
      "4302": 5517,
      "1d77": 5518,
      "654f": 5519,
      "2f02": 5520,
      "a480": 5521,
      "2d81": 5522,
      "d3a2": 5523,
      "f001": 5524,
      "0a71": 5525,
      "025d": 5526,
      "1ce0": 5527,
      "5901": 5528,
      "2a2d": 5529,
      "5a01": 5530,
      "f3fb": 5531,
      "2011": 5532,
      "f393": 5533,
      "259b": 5534,
      "7b6d": 5535,
      "0450": 5536,
      "2805": 5537,
      "93ed": 5538,
      "0261": 5539,
      "7c14": 5540,
      "fef7": 5541,
      "7b01": 5542,
      "4301": 5543,
      "1d0e": 5544,
      "b801": 5545,
      "8401": 5546,
      "4736": 5547,
      "6d3e": 5548,
      "5732": 5549,
      "54eb": 5550,
      "8803": 5551,
      "e0b0": 5552,
      "01c8": 5553,
      "025b": 5554,
      "5155": 5555,
      "fcdf": 5556,
      "fefd": 5557,
      "5389": 5558,
      "f601": 5559,
      "9601": 5560,
      "9f01": 5561,
      "d456": 5562,
      "653e": 5563,
      "7d83": 5564,
      "bc64": 5565,
      "4b53": 5566,
      "c305": 5567,
      "f286": 5568,
      "b2df": 5569,
      "6d40": 5570,
      "31be": 5571,
      "5465": 5572,
      "7a5a": 5573,
      "1a01": 5574,
      "8b01": 5575,
      "7358": 5576,
      "8381": 5577,
      "d6fb": 5578,
      "b650": 5579,
      "201a": 5580,
      "ed2a": 5581,
      "a536": 5582,
      "07d4": 5583,
      "0146": 5584,
      "6e0f": 5585,
      "fefc": 5586,
      "7a01": 5587,
      "f157": 5588,
      "26f2": 5589,
      "4650": 5590,
      "a208": 5591,
      "204f": 5592,
      "7d6e": 5593,
      "944b": 5594,
      "cfd2": 5595,
      "201d": 5596,
      "555e": 5597,
      "1515": 5598,
      "54ac": 5599,
      "1238": 5600,
      "d314": 5601,
      "02a0": 5602,
      "5c50": 5603,
      "88f5": 5604,
      "f602": 5605,
      "2044": 5606,
      "14d2": 5607,
      "c402": 5608,
      "1d60": 5609,
      "2058": 5610,
      "66e6": 5611,
      "5731": 5612,
      "56d2": 5613,
      "ee95": 5614,
      "3aa0": 5615,
      "141a": 5616,
      "48a5": 5617,
      "7265": 5618,
      "cdfb": 5619,
      "ce01": 5620,
      "e9ff": 5621,
      "0353": 5622,
      "1d4c": 5623,
      "65fe": 5624,
      "f405": 5625,
      "bf01": 5626,
      "f513": 5627,
      "1d30": 5628,
      "bae5": 5629,
      "eac1": 5630,
      "d6d2": 5631,
      "57e4": 5632,
      "01f4": 5633,
      "b94f": 5634,
      "2a36": 5635,
      "3105": 5636,
      "f34f": 5637,
      "2306": 5638,
      "d851": 5639,
      "07de": 5640,
      "6472": 5641,
      "5fa4": 5642,
      "4614": 5643,
      "6f1a": 5644,
      "d808": 5645,
      "01c0": 5646,
      "18aa": 5647,
      "9c28": 5648,
      "7adf": 5649,
      "3eb9": 5650,
      "0b02": 5651,
      "db01": 5652,
      "9680": 5653,
      "af8a": 5654,
      "f4e7": 5655,
      "bae4": 5656,
      "6fee": 5657,
      "6905": 5658,
      "4ab8": 5659,
      "5388": 5660,
      "f3f1": 5661,
      "cb4e": 5662,
      "127a": 5663,
      "c24e": 5664,
      "e201": 5665,
      "e2fb": 5666,
      "1405": 5667,
      "26ee": 5668,
      "472e": 5669,
      "57bd": 5670,
      "cc02": 5671,
      "9e4e": 5672,
      "4a02": 5673,
      "0ba9": 5674,
      "baec": 5675,
      "8175": 5676,
      "eb05": 5677,
      "2f49": 5678,
      "3f05": 5679,
      "11ba": 5680,
      "07dd": 5681,
      "808b": 5682,
      "0a9f": 5683,
      "6e05": 5684,
      "6e9f": 5685,
      "5105": 5686,
      "7b0f": 5687,
      "d801": 5688,
      "5773": 5689,
      "14df": 5690,
      "6596": 5691,
      "f392": 5692,
      "4198": 5693,
      "2f53": 5694,
      "c005": 5695,
      "21d2": 5696,
      "fe05": 5697,
      "3ed2": 5698,
      "ae01": 5699,
      "3b02": 5700,
      "6701": 5701,
      "74d2": 5702,
      "af88": 5703,
      "8802": 5704,
      "0a45": 5705,
      "3ee0": 5706,
      "8603": 5707,
      "5851": 5708,
      "ffdf": 5709,
      "2043": 5710,
      "f478": 5711,
      "bd02": 5712,
      "bd4e": 5713,
      "2028": 5714,
      "9fc4": 5715,
      "b260": 5716,
      "7950": 5717,
      "7e05": 5718,
      "ce51": 5719,
      "9e88": 5720,
      "b950": 5721,
      "1eda": 5722,
      "2a48": 5723,
      "0b58": 5724,
      "c151": 5725,
      "5620": 5726,
      "544e": 5727,
      "2486": 5728,
      "5739": 5729,
      "54c0": 5730,
      "cae5": 5731,
      "4750": 5732,
      "93a5": 5733,
      "01fb": 5734,
      "1cdb": 5735,
      "bc01": 5736,
      "2c79": 5737,
      "0366": 5738,
      "de63": 5739,
      "614e": 5740,
      "6605": 5741,
      "826b": 5742,
      "d86d": 5743,
      "f55b": 5744,
      "202e": 5745,
      "b2e2": 5746,
      "1de9": 5747,
      "e2ba": 5748,
      "9ec1": 5749,
      "5ffb": 5750,
      "0a7c": 5751,
      "1b0b": 5752,
      "bc2f": 5753,
      "6c01": 5754,
      "5ed2": 5755,
      "0b5a": 5756,
      "5604": 5757,
      "f2fb": 5758,
      "7d59": 5759,
      "d701": 5760,
      "3742": 5761,
      "104a": 5762,
      "2031": 5763,
      "4f5c": 5764,
      "ef34": 5765,
      "0fc4": 5766,
      "2815": 5767,
      "3260": 5768,
      "1b33": 5769,
      "7c02": 5770,
      "be05": 5771,
      "c04e": 5772,
      "3175": 5773,
      "3140": 5774,
      "723a": 5775,
      "ff4f": 5776,
      "c5fd": 5777,
      "1de0": 5778,
      "4ac2": 5779,
      "70b9": 5780,
      "b535": 5781,
      "a0cb": 5782,
      "64cc": 5783,
      "5805": 5784,
      "8777": 5785,
      "7c01": 5786,
      "9c10": 5787,
      "4c01": 5788,
      "eeb5": 5789,
      "bae9": 5790,
      "c301": 5791,
      "204e": 5792,
      "f551": 5793,
      "3d51": 5794,
      "4042": 5795,
      "202d": 5796,
      "f396": 5797,
      "2003": 5798,
      "14fb": 5799,
      "4dfa": 5800,
      "70b8": 5801,
      "bd15": 5802,
      "7bc6": 5803,
      "1b23": 5804,
      "7ed7": 5805,
      "7a05": 5806,
      "2a02": 5807,
      "6505": 5808,
      "2201": 5809,
      "d74f": 5810,
      "339a": 5811,
      "4ac4": 5812,
      "14ee": 5813,
      "4df7": 5814,
      "e2c3": 5815,
      "3ec4": 5816,
      "5fbf": 5817,
      "0aa7": 5818,
      "4952": 5819,
      "4c69": 5820,
      "9e77": 5821,
      "fef4": 5822,
      "0ee6": 5823,
      "be01": 5824,
      "7bff": 5825,
      "5b51": 5826,
      "eb5d": 5827,
      "8377": 5828,
      "5d01": 5829,
      "4734": 5830,
      "7ecc": 5831,
      "3391": 5832,
      "1d2f": 5833,
      "7896": 5834,
      "7deb": 5835,
      "3838": 5836,
      "9f54": 5837,
      "e1a4": 5838,
      "0af9": 5839,
      "fef8": 5840,
      "8105": 5841,
      "6b52": 5842,
      "8b76": 5843,
      "1dd5": 5844,
      "2650": 5845,
      "44d2": 5846,
      "c701": 5847,
      "e451": 5848,
      "2069": 5849,
      "ed24": 5850,
      "94ec": 5851,
      "df65": 5852,
      "7b1f": 5853,
      "c6b1": 5854,
      "1e01": 5855,
      "ee60": 5856,
      "6bd4": 5857,
      "eb02": 5858,
      "1350": 5859,
      "467a": 5860,
      "2041": 5861,
      "d401": 5862,
      "b2e6": 5863,
      "1d2a": 5864,
      "ddf9": 5865,
      "319a": 5866,
      "fdf4": 5867,
      "7886": 5868,
      "b726": 5869,
      "02d5": 5870,
      "dc58": 5871,
      "8ed3": 5872,
      "2a05": 5873,
      "9a01": 5874,
      "5348": 5875,
      "b150": 5876,
      "f3f9": 5877,
      "66fd": 5878,
      "e605": 5879,
      "2401": 5880,
      "d452": 5881,
      "2025": 5882,
      "5553": 5883,
      "1bc0": 5884,
      "5613": 5885,
      "b43d": 5886,
      "df20": 5887,
      "f212": 5888,
      "f9d7": 5889,
      "7e89": 5890,
      "7a71": 5891,
      "3e02": 5892,
      "5549": 5893,
      "b105": 5894,
      "1d7a": 5895,
      "9301": 5896,
      "9350": 5897,
      "2079": 5898,
      "2705": 5899,
      "f516": 5900,
      "7632": 5901,
      "9444": 5902,
      "01dd": 5903,
      "0253": 5904,
      "3922": 5905,
      "8975": 5906,
      "2a55": 5907,
      "0b56": 5908,
      "f151": 5909,
      "254f": 5910,
      "f3f2": 5911,
      "2b59": 5912,
      "868b": 5913,
      "c251": 5914,
      "c76d": 5915,
      "205e": 5916,
      "778c": 5917,
      "0ff7": 5918,
      "1d23": 5919,
      "1d2c": 5920,
      "26ed": 5921,
      "c766": 5922,
      "0f50": 5923,
      "31af": 5924,
      "56b4": 5925,
      "a712": 5926,
      "021f": 5927,
      "02c9": 5928,
      "5158": 5929,
      "1e1e": 5930,
      "ae07": 5931,
      "db02": 5932,
      "7bf4": 5933,
      "c07b": 5934,
      "3101": 5935,
      "ebf0": 5936,
      "43f2": 5937,
      "1dd8": 5938,
      "837c": 5939,
      "5752": 5940,
      "b705": 5941,
      "202a": 5942,
      "bd1a": 5943,
      "7d27": 5944,
      "04f3": 5945,
      "36b0": 5946,
      "43ef": 5947,
      "5568": 5948,
      "6464": 5949,
      "c6b0": 5950,
      "1c1e": 5951,
      "4201": 5952,
      "db0d": 5953,
      "6181": 5954,
      "5650": 5955,
      "c54e": 5956,
      "b702": 5957,
      "94ff": 5958,
      "5d4f": 5959,
      "5f02": 5960,
      "3405": 5961,
      "3002": 5962,
      "5718": 5963,
      "9f24": 5964,
      "e005": 5965,
      "013b": 5966,
      "f905": 5967,
      "4cfb": 5968,
      "9e52": 5969,
      "5c05": 5970,
      "0b59": 5971,
      "7bde": 5972,
      "6b05": 5973,
      "5602": 5974,
      "837d": 5975,
      "1201": 5976,
      "f64f": 5977,
      "f502": 5978,
      "144e": 5979,
      "4705": 5980,
      "5d05": 5981,
      "202f": 5982,
      "4ac5": 5983,
      "1514": 5984,
      "70b7": 5985,
      "cf3d": 5986,
      "9090": 5987,
      "1552": 5988,
      "1d5f": 5989,
      "3805": 5990,
      "42ad": 5991,
      "8610": 5992,
      "1cfb": 5993,
      "0902": 5994,
      "2c01": 5995,
      "dc5d": 5996,
      "7b48": 5997,
      "7b72": 5998,
      "fa33": 5999,
      "816a": 6000,
      "e3d2": 6001,
      "9045": 6002,
      "a74e": 6003,
      "944a": 6004,
      "2f05": 6005,
      "c40a": 6006,
      "206f": 6007,
      "d454": 6008,
      "af6f": 6009,
      "a0ac": 6010,
      "0d15": 6011,
      "5005": 6012,
      "63a2": 6013,
      "f805": 6014,
      "0159": 6015,
      "0ac0": 6016,
      "0a91": 6017,
      "0cc4": 6018,
      "5101": 6019,
      "5157": 6020,
      "19d2": 6021,
      "8c33": 6022,
      "c998": 6023,
      "0340": 6024,
      "de5f": 6025,
      "5b02": 6026,
      "8b51": 6027,
      "1d50": 6028,
      "561e": 6029,
      "c2fb": 6030,
      "e642": 6031,
      "3642": 6032,
      "98a9": 6033,
      "d8fb": 6034,
      "07dc": 6035,
      "f446": 6036,
      "9405": 6037,
      "5557": 6038,
      "5556": 6039,
      "f39b": 6040,
      "efca": 6041,
      "70bb": 6042,
      "7df8": 6043,
      "01b9": 6044,
      "79d2": 6045,
      "7c0a": 6046,
      "7e52": 6047,
      "dbfb": 6048,
      "dbf8": 6049,
      "41df": 6050,
      "c68f": 6051,
      "2654": 6052,
      "9242": 6053,
      "d241": 6054,
      "c5fa": 6055,
      "146d": 6056,
      "3dd8": 6057,
      "142d": 6058,
      "c1e9": 6059,
      "5def": 6060,
      "5756": 6061,
      "011f": 6062,
      "7974": 6063,
      "897a": 6064,
      "9edf": 6065,
      "f155": 6066,
      "cb01": 6067,
      "6642": 6068,
      "d351": 6069,
      "07df": 6070,
      "f7df": 6071,
      "3393": 6072,
      "5422": 6073,
      "5558": 6074,
      "f4e9": 6075,
      "36af": 6076,
      "30b0": 6077,
      "55b8": 6078,
      "b723": 6079,
      "0ab8": 6080,
      "69d6": 6081,
      "f965": 6082,
      "6c97": 6083,
      "533c": 6084,
      "d64e": 6085,
      "a751": 6086,
      "cd51": 6087,
      "5452": 6088,
      "5d4c": 6089,
      "84aa": 6090,
      "2057": 6091,
      "9dc4": 6092,
      "c0c9": 6093,
      "24ab": 6094,
      "35e4": 6095,
      "472c": 6096,
      "8807": 6097,
      "0187": 6098,
      "02e8": 6099,
      "5176": 6100,
      "2cd2": 6101,
      "d9b3": 6102,
      "4abe": 6103,
      "0bd4": 6104,
      "7b02": 6105,
      "c152": 6106,
      "8b50": 6107,
      "f542": 6108,
      "97fb": 6109,
      "9447": 6110,
      "f395": 6111,
      "7f32": 6112,
      "12ad": 6113,
      "4805": 6114,
      "5584": 6115,
      "758d": 6116,
      "b265": 6117,
      "7ccf": 6118,
      "5940": 6119,
      "2a50": 6120,
      "7bfb": 6121,
      "5a05": 6122,
      "5351": 6123,
      "8a05": 6124,
      "8169": 6125,
      "9105": 6126,
      "78da": 6127,
      "f87a": 6128,
      "3801": 6129,
      "7dd2": 6130,
      "3f4f": 6131,
      "b525": 6132,
      "8fe2": 6133,
      "3065": 6134,
      "4df8": 6135,
      "14c1": 6136,
      "5590": 6137,
      "55c0": 6138,
      "d1e8": 6139,
      "27b3": 6140,
      "54d7": 6141,
      "7550": 6142,
      "92af": 6143,
      "b783": 6144,
      "c6bb": 6145,
      "181a": 6146,
      "2992": 6147,
      "f90f": 6148,
      "fc58": 6149,
      "7e49": 6150,
      "4abc": 6151,
      "8efe": 6152,
      "0b08": 6153,
      "3a42": 6154,
      "532a": 6155,
      "1d46": 6156,
      "6d42": 6157,
      "9443": 6158,
      "2022": 6159,
      "af89": 6160,
      "b2e0": 6161,
      "1d89": 6162,
      "baea": 6163,
      "ddf8": 6164,
      "e2c0": 6165,
      "7d3f": 6166,
      "880c": 6167,
      "880b": 6168,
      "b263": 6169,
      "edb8": 6170,
      "ffc5": 6171,
      "0124": 6172,
      "0ae5": 6173,
      "6e53": 6174,
      "ac2a": 6175,
      "7e33": 6176,
      "cc01": 6177,
      "7b06": 6178,
      "9a42": 6179,
      "1d52": 6180,
      "6302": 6181,
      "fdd2": 6182,
      "206d": 6183,
      "6d44": 6184,
      "6d3c": 6185,
      "b090": 6186,
      "0fc9": 6187,
      "543e": 6188,
      "fd0d": 6189,
      "01fe": 6190,
      "0ae6": 6191,
      "057b": 6192,
      "514d": 6193,
      "cadf": 6194,
      "ca06": 6195,
      "a302": 6196,
      "b8d7": 6197,
      "95d2": 6198,
      "c569": 6199,
      "8d05": 6200,
      "9445": 6201,
      "b4df": 6202,
      "4731": 6203,
      "2026": 6204,
      "2008": 6205,
      "2ba3": 6206,
      "1462": 6207,
      "54b0": 6208,
      "0257": 6209,
      "18ae": 6210,
      "1cf2": 6211,
      "3c39": 6212,
      "7e7e": 6213,
      "4adf": 6214,
      "da02": 6215,
      "da4e": 6216,
      "8a50": 6217,
      "81fd": 6218,
      "58bc": 6219,
      "d54e": 6220,
      "2f21": 6221,
      "6402": 6222,
      "25a2": 6223,
      "1dc8": 6224,
      "2007": 6225,
      "2485": 6226,
      "54f7": 6227,
      "3005": 6228,
      "4db0": 6229,
      "5410": 6230,
      "8250": 6231,
      "b411": 6232,
      "f337": 6233,
      "3c62": 6234,
      "dc06": 6235,
      "7e66": 6236,
      "cc0c": 6237,
      "0ea2": 6238,
      "7b38": 6239,
      "5b86": 6240,
      "6542": 6241,
      "1402": 6242,
      "b701": 6243,
      "4751": 6244,
      "2405": 6245,
      "40fb": 6246,
      "2027": 6247,
      "66e7": 6248,
      "66ea": 6249,
      "0dcb": 6250,
      "1d95": 6251,
      "6d3a": 6252,
      "bfee": 6253,
      "652c": 6254,
      "5feb": 6255,
      "afc7": 6256,
      "0a9c": 6257,
      "0c56": 6258,
      "7937": 6259,
      "7a11": 6260,
      "4a66": 6261,
      "4a85": 6262,
      "0bfb": 6263,
      "6a02": 6264,
      "8101": 6265,
      "6b49": 6266,
      "38d2": 6267,
      "c5fc": 6268,
      "bf05": 6269,
      "af8d": 6270,
      "0ffe": 6271,
      "78c1": 6272,
      "afe6": 6273,
      "aaaa": 6274,
      "0da9": 6275,
      "d051": 6276,
      "5694": 6277,
      "65b1": 6278,
      "7083": 6279,
      "b817": 6280,
      "c6af": 6281,
      "0afb": 6282,
      "027b": 6283,
      "02e0": 6284,
      "514e": 6285,
      "7c58": 6286,
      "3924": 6287,
      "7a2a": 6288,
      "2ad2": 6289,
      "b18c": 6290,
      "7105": 6291,
      "5b07": 6292,
      "fb4f": 6293,
      "66f0": 6294,
      "3046": 6295,
      "204b": 6296,
      "e7fb": 6297,
      "0fd8": 6298,
      "7f21": 6299,
      "4732": 6300,
      "3392": 6301,
      "206c": 6302,
      "9053": 6303,
      "53c4": 6304,
      "c76e": 6305,
      "15b8": 6306,
      "575d": 6307,
      "66a4": 6308,
      "6f54": 6309,
      "7bcd": 6310,
      "86b4": 6311,
      "c805": 6312,
      "2c4f": 6313,
      "db77": 6314,
      "410d": 6315,
      "2b52": 6316,
      "1d44": 6317,
      "88d9": 6318,
      "a24f": 6319,
      "1023": 6320,
      "8751": 6321,
      "df1b": 6322,
      "2590": 6323,
      "70b4": 6324,
      "c76f": 6325,
      "ed27": 6326,
      "a890": 6327,
      "c2a3": 6328,
      "18cb": 6329,
      "dc51": 6330,
      "8943": 6331,
      "0e84": 6332,
      "be6d": 6333,
      "db3f": 6334,
      "11df": 6335,
      "31f0": 6336,
      "c603": 6337,
      "78fb": 6338,
      "1d09": 6339,
      "08fb": 6340,
      "e351": 6341,
      "3251": 6342,
      "9202": 6343,
      "9859": 6344,
      "0fde": 6345,
      "b079": 6346,
      "4f60": 6347,
      "0ff9": 6348,
      "54ca": 6349,
      "7b68": 6350,
      "daab": 6351,
      "353b": 6352,
      "d6de": 6353,
      "c6e9": 6354,
      "3568": 6355,
      "01f1": 6356,
      "181d": 6357,
      "fc7a": 6358,
      "7edc": 6359,
      "0e8a": 6360,
      "ee4f": 6361,
      "de05": 6362,
      "db52": 6363,
      "5561": 6364,
      "3164": 6365,
      "8602": 6366,
      "8624": 6367,
      "75df": 6368,
      "b2e4": 6369,
      "4ac6": 6370,
      "1516": 6371,
      "e2be": 6372,
      "7aea": 6373,
      "d1e4": 6374,
      "4dc6": 6375,
      "08a3": 6376,
      "5630": 6377,
      "9815": 6378,
      "bf57": 6379,
      "f722": 6380,
      "010e": 6381,
      "01e8": 6382,
      "bcc3": 6383,
      "4e33": 6384,
      "aa0e": 6385,
      "3ce7": 6386,
      "cc50": 6387,
      "5cdb": 6388,
      "0e89": 6389,
      "5a02": 6390,
      "1605": 6391,
      "3141": 6392,
      "78db": 6393,
      "1d7c": 6394,
      "734f": 6395,
      "0850": 6396,
      "c5f7": 6397,
      "5702": 6398,
      "57f1": 6399,
      "3dbc": 6400,
      "b751": 6401,
      "9449": 6402,
      "af81": 6403,
      "4d3a": 6404,
      "8ac9": 6405,
      "248c": 6406,
      "f4ef": 6407,
      "ef9a": 6408,
      "1db5": 6409,
      "852a": 6410,
      "576e": 6411,
      "2768": 6412,
      "0312": 6413,
      "2698": 6414,
      "5f59": 6415,
      "d7a7": 6416,
      "f010": 6417,
      "010c": 6418,
      "0a32": 6419,
      "8c05": 6420,
      "ecd8": 6421,
      "3ed1": 6422,
      "0b52": 6423,
      "5502": 6424,
      "f3f3": 6425,
      "fbbe": 6426,
      "1d7d": 6427,
      "9675": 6428,
      "987a": 6429,
      "2078": 6430,
      "3d05": 6431,
      "9f4e": 6432,
      "2f4c": 6433,
      "7f1b": 6434,
      "2016": 6435,
      "206a": 6436,
      "66eb": 6437,
      "8fea": 6438,
      "4dfd": 6439,
      "7a9d": 6440,
      "86df": 6441,
      "effe": 6442,
      "cd97": 6443,
      "8d25": 6444,
      "1b99": 6445,
      "9ca4": 6446,
      "3952": 6447,
      "7e20": 6448,
      "ee02": 6449,
      "cbd1": 6450,
      "e269": 6451,
      "a205": 6452,
      "0451": 6453,
      "0fd2": 6454,
      "2062": 6455,
      "ed22": 6456,
      "1d11": 6457,
      "55cc": 6458,
      "0799": 6459,
      "9e9a": 6460,
      "0fd5": 6461,
      "3dbe": 6462,
      "300f": 6463,
      "5407": 6464,
      "62a1": 6465,
      "7f52": 6466,
      "7f20": 6467,
      "9f16": 6468,
      "a802": 6469,
      "b33f": 6470,
      "cf50": 6471,
      "e7b5": 6472,
      "014d": 6473,
      "0160": 6474,
      "0265": 6475,
      "79b3": 6476,
      "19ba": 6477,
      "9eb9": 6478,
      "b9e7": 6479,
      "c905": 6480,
      "0ee8": 6481,
      "cafb": 6482,
      "7b1e": 6483,
      "f38c": 6484,
      "c501": 6485,
      "f451": 6486,
      "bd78": 6487,
      "0f0c": 6488,
      "5479": 6489,
      "10df": 6490,
      "201e": 6491,
      "8fe8": 6492,
      "1d92": 6493,
      "ddf3": 6494,
      "adc6": 6495,
      "348e": 6496,
      "1314": 6497,
      "7fb5": 6498,
      "cf52": 6499,
      "014f": 6500,
      "bcdf": 6501,
      "2905": 6502,
      "7e5a": 6503,
      "e907": 6504,
      "ca51": 6505,
      "0b54": 6506,
      "1adf": 6507,
      "3a01": 6508,
      "ba59": 6509,
      "8160": 6510,
      "f15a": 6511,
      "5640": 6512,
      "e206": 6513,
      "7502": 6514,
      "144c": 6515,
      "9f05": 6516,
      "70b6": 6517,
      "2055": 6518,
      "2037": 6519,
      "f512": 6520,
      "151d": 6521,
      "1d36": 6522,
      "573d": 6523,
      "7b98": 6524,
      "14a6": 6525,
      "b0af": 6526,
      "b267": 6527,
      "0106": 6528,
      "02ff": 6529,
      "18da": 6530,
      "6e7c": 6531,
      "5121": 6532,
      "5159": 6533,
      "4951": 6534,
      "fc5c": 6535,
      "dc5b": 6536,
      "e952": 6537,
      "7a1c": 6538,
      "7bf7": 6539,
      "bafb": 6540,
      "4151": 6541,
      "5b78": 6542,
      "88fb": 6543,
      "d206": 6544,
      "d7fb": 6545,
      "2f4d": 6546,
      "bfdf": 6547,
      "3fd2": 6548,
      "34d3": 6549,
      "2033": 6550,
      "2066": 6551,
      "5559": 6552,
      "4ac8": 6553,
      "200e": 6554,
      "ddfa": 6555,
      "c0e4": 6556,
      "551a": 6557,
      "ff52": 6558,
      "010d": 6559,
      "1823": 6560,
      "1c2d": 6561,
      "21ad": 6562,
      "9c2a": 6563,
      "f94f": 6564,
      "acd2": 6565,
      "9eb4": 6566,
      "7afb": 6567,
      "4aff": 6568,
      "de50": 6569,
      "cad0": 6570,
      "5b52": 6571,
      "9b05": 6572,
      "c242": 6573,
      "102a": 6574,
      "a501": 6575,
      "7406": 6576,
      "db61": 6577,
      "d74e": 6578,
      "2053": 6579,
      "2013": 6580,
      "7053": 6581,
      "4395": 6582,
      "3daf": 6583,
      "5565": 6584,
      "7805": 6585,
      "721d": 6586,
      "9805": 6587,
      "a360": 6588,
      "a4b3": 6589,
      "6e3c": 6590,
      "0c9f": 6591,
      "f9da": 6592,
      "dc5a": 6593,
      "99d0": 6594,
      "ccad": 6595,
      "9e1d": 6596,
      "7a19": 6597,
      "7a66": 6598,
      "1a53": 6599,
      "7bf3": 6600,
      "1150": 6601,
      "f105": 6602,
      "3b87": 6603,
      "e389": 6604,
      "327a": 6605,
      "c348": 6606,
      "d20a": 6607,
      "b601": 6608,
      "204c": 6609,
      "9dd2": 6610,
      "27fb": 6611,
      "4fd9": 6612,
      "0fd1": 6613,
      "b2e7": 6614,
      "8fe5": 6615,
      "4aa0": 6616,
      "580d": 6617,
      "57ab": 6618,
      "8812": 6619,
      "8864": 6620,
      "b25d": 6621,
      "b268": 6622,
      "d813": 6623,
      "7992": 6624,
      "2951": 6625,
      "dc05": 6626,
      "7eea": 6627,
      "8978": 6628,
      "5c87": 6629,
      "e951": 6630,
      "0b57": 6631,
      "4651": 6632,
      "d20b": 6633,
      "f5d4": 6634,
      "7405": 6635,
      "57d9": 6636,
      "5706": 6637,
      "d752": 6638,
      "1d99": 6639,
      "9ec0": 6640,
      "75ce": 6641,
      "9ff2": 6642,
      "3809": 6643,
      "649c": 6644,
      "6824": 6645,
      "a4d7": 6646,
      "b005": 6647,
      "6e50": 6648,
      "a905": 6649,
      "3c57": 6650,
      "fc53": 6651,
      "fe58": 6652,
      "8e5c": 6653,
      "2e67": 6654,
      "5b79": 6655,
      "f34e": 6656,
      "1dde": 6657,
      "1705": 6658,
      "17f5": 6659,
      "6d02": 6660,
      "8778": 6661,
      "ed01": 6662,
      "e402": 6663,
      "7f49": 6664,
      "2019": 6665,
      "1dcf": 6666,
      "f517": 6667,
      "ddfe": 6668,
      "93c3": 6669,
      "6291": 6670,
      "5d2a": 6671,
      "8065": 6672,
      "6ae5": 6673,
      "95a1": 6674,
      "d551": 6675,
      "e6b0": 6676,
      "edbd": 6677,
      "7c37": 6678,
      "cc05": 6679,
      "0e83": 6680,
      "eedf": 6681,
      "eaf7": 6682,
      "7b8a": 6683,
      "9adc": 6684,
      "fb51": 6685,
      "7822": 6686,
      "66f1": 6687,
      "d34e": 6688,
      "c205": 6689,
      "9201": 6690,
      "d203": 6691,
      "af4f": 6692,
      "344d": 6693,
      "60df": 6694,
      "542b": 6695,
      "af8c": 6696,
      "b2e3": 6697,
      "2009": 6698,
      "7a9f": 6699,
      "bd1d": 6700,
      "7d35": 6701,
      "553d": 6702,
      "d1c7": 6703,
      "62b0": 6704,
      "4495": 6705,
      "5724": 6706,
      "f8a5": 6707,
      "0243": 6708,
      "027a": 6709,
      "0256": 6710,
      "1c50": 6711,
      "5cb4": 6712,
      "7a65": 6713,
      "dedb": 6714,
      "a1f3": 6715,
      "410a": 6716,
      "c150": 6717,
      "56fc": 6718,
      "e87e": 6719,
      "c351": 6720,
      "384c": 6721,
      "207f": 6722,
      "ed02": 6723,
      "bddf": 6724,
      "afd2": 6725,
      "d0aa": 6726,
      "66e9": 6727,
      "4df2": 6728,
      "472d": 6729,
      "531d": 6730,
      "6bef": 6731,
      "7664": 6732,
      "bf52": 6733,
      "010f": 6734,
      "0a25": 6735,
      "0ae1": 6736,
      "05d3": 6737,
      "05d8": 6738,
      "bc25": 6739,
      "9905": 6740,
      "9ebd": 6741,
      "e94f": 6742,
      "0e74": 6743,
      "1a51": 6744,
      "fa4f": 6745,
      "f159": 6746,
      "713a": 6747,
      "3bb6": 6748,
      "6669": 6749,
      "b301": 6750,
      "b3fc": 6751,
      "c352": 6752,
      "95fb": 6753,
      "158c": 6754,
      "9d05": 6755,
      "a04e": 6756,
      "2034": 6757,
      "c764": 6758,
      "d45c": 6759,
      "38c5": 6760,
      "2f1d": 6761,
      "380c": 6762,
      "65a7": 6763,
      "7f10": 6764,
      "9005": 6765,
      "01e0": 6766,
      "196a": 6767,
      "7c05": 6768,
      "3926": 6769,
      "9e36": 6770,
      "0e85": 6771,
      "4afb": 6772,
      "8e29": 6773,
      "badf": 6774,
      "816c": 6775,
      "2b86": 6776,
      "7850": 6777,
      "ab39": 6778,
      "6601": 6779,
      "d305": 6780,
      "d66b": 6781,
      "b266": 6782,
      "4852": 6783,
      "3825": 6784,
      "4df5": 6785,
      "3751": 6786,
      "0ffc": 6787,
      "200d": 6788,
      "78cc": 6789,
      "f193": 6790,
      "a2e1": 6791,
      "22e2": 6792,
      "3750": 6793,
      "3727": 6794,
      "86b0": 6795,
      "8263": 6796,
      "8d63": 6797,
      "a3af": 6798,
      "c82f": 6799,
      "d80d": 6800,
      "7929": 6801,
      "791d": 6802,
      "bcc6": 6803,
      "aafb": 6804,
      "ac1c": 6805,
      "befb": 6806,
      "9a6d": 6807,
      "1107": 6808,
      "a37e": 6809,
      "32fb": 6810,
      "c2d2": 6811,
      "f242": 6812,
      "f5d7": 6813,
      "98df": 6814,
      "9505": 6815,
      "6d45": 6816,
      "4702": 6817,
      "944c": 6818,
      "2023": 6819,
      "af82": 6820,
      "78b0": 6821,
      "b2eb": 6822,
      "1aa4": 6823,
      "c531": 6824,
      "65e3": 6825,
      "d73c": 6826,
      "0fbb": 6827,
      "146c": 6828,
      "3f50": 6829,
      "5dfb": 6830,
      "63ed": 6831,
      "7007": 6832,
      "7f5a": 6833,
      "0107": 6834,
      "0184": 6835,
      "7990": 6836,
      "4248": 6837,
      "fc4e": 6838,
      "d95a": 6839,
      "8c74": 6840,
      "764e": 6841,
      "762e": 6842,
      "0350": 6843,
      "8e02": 6844,
      "6a70": 6845,
      "c6b6": 6846,
      "43f6": 6847,
      "23f8": 6848,
      "9205": 6849,
      "75f5": 6850,
      "7575": 6851,
      "b7fb": 6852,
      "203c": 6853,
      "4f63": 6854,
      "4d3c": 6855,
      "4df6": 6856,
      "1da3": 6857,
      "bae8": 6858,
      "9dc7": 6859,
      "ffa9": 6860,
      "6de9": 6861,
      "e0e2": 6862,
      "7815": 6863,
      "9813": 6864,
      "d7d5": 6865,
      "e4b9": 6866,
      "0151": 6867,
      "5130": 6868,
      "1925": 6869,
      "bc40": 6870,
      "ac8d": 6871,
      "cc4e": 6872,
      "9e51": 6873,
      "7a7b": 6874,
      "1a02": 6875,
      "fa7a": 6876,
      "5a6c": 6877,
      "ba05": 6878,
      "ba51": 6879,
      "3153": 6880,
      "6b44": 6881,
      "f38d": 6882,
      "4b50": 6883,
      "5605": 6884,
      "922c": 6885,
      "7252": 6886,
      "a74f": 6887,
      "4f91": 6888,
      "8fe7": 6889,
      "14eb": 6890,
      "1d38": 6891,
      "78c2": 6892,
      "3195": 6893,
      "472b": 6894,
      "5b11": 6895,
      "6dfb": 6896,
      "b262": 6897,
      "cbb7": 6898,
      "c6b9": 6899,
      "d450": 6900,
      "d837": 6901,
      "0152": 6902,
      "0156": 6903,
      "0a95": 6904,
      "0cf4": 6905,
      "bcc2": 6906,
      "9cd2": 6907,
      "59f4": 6908,
      "acfb": 6909,
      "cc54": 6910,
      "d94e": 6911,
      "b951": 6912,
      "b9be": 6913,
      "0ee3": 6914,
      "eed5": 6915,
      "8eb0": 6916,
      "5afc": 6917,
      "2b53": 6918,
      "1325": 6919,
      "f27e": 6920,
      "d208": 6921,
      "a605": 6922,
      "b87c": 6923,
      "58fb": 6924,
      "6d50": 6925,
      "7063": 6926,
      "c76a": 6927,
      "e2b8": 6928,
      "ea9a": 6929,
      "34e6": 6930,
      "c01e": 6931,
      "7bad": 6932,
      "bf6b": 6933,
      "258f": 6934,
      "3250": 6935,
      "575a": 6936,
      "6635": 6937,
      "c416": 6938,
      "df15": 6939,
      "efbd": 6940,
      "02b5": 6941,
      "1c92": 6942,
      "2181": 6943,
      "bc52": 6944,
      "9c51": 6945,
      "3c47": 6946,
      "3c5d": 6947,
      "3933": 6948,
      "ac50": 6949,
      "c952": 6950,
      "1e02": 6951,
      "1e7a": 6952,
      "0324": 6953,
      "de51": 6954,
      "be79": 6955,
      "0bfa": 6956,
      "5647": 6957,
      "56f4": 6958,
      "7359": 6959,
      "a383": 6960,
      "8870": 6961,
      "d675": 6962,
      "c353": 6963,
      "fd05": 6964,
      "fd48": 6965,
      "2d53": 6966,
      "1f02": 6967,
      "2054": 6968,
      "789c": 6969,
      "8fe0": 6970,
      "4fee": 6971,
      "70bd": 6972,
      "e399": 6973,
      "38b0": 6974,
      "6ffb": 6975,
      "65b0": 6976,
      "9466": 6977,
      "b30d": 6978,
      "010b": 6979,
      "01a4": 6980,
      "05f6": 6981,
      "79c4": 6982,
      "aadf": 6983,
      "3c35": 6984,
      "3929": 6985,
      "fcba": 6986,
      "fc56": 6987,
      "4c50": 6988,
      "d951": 6989,
      "e969": 6990,
      "0eea": 6991,
      "ee52": 6992,
      "de61": 6993,
      "2a4f": 6994,
      "db5b": 6995,
      "c045": 6996,
      "9a05": 6997,
      "9bd2": 6998,
      "13ff": 6999,
      "e3ff": 7000,
      "e84f": 7001,
      "12db": 7002,
      "f251": 7003,
      "96f3": 7004,
      "a2f6": 7005,
      "444f": 7006,
      "15d5": 7007,
      "d5df": 7008,
      "9046": 7009,
      "804b": 7010,
      "5f7a": 7011,
      "3451": 7012,
      "ef01": 7013,
      "339b": 7014,
      "5425": 7015,
      "248d": 7016,
      "53c0": 7017,
      "0b9c": 7018,
      "bd9c": 7019,
      "389c": 7020,
      "97b2": 7021,
      "b587": 7022,
      "0224": 7023,
      "1878": 7024,
      "18fe": 7025,
      "2151": 7026,
      "09df": 7027,
      "f9fb": 7028,
      "89ae": 7029,
      "9ed6": 7030,
      "7b19": 7031,
      "fa52": 7032,
      "3b4b": 7033,
      "0602": 7034,
      "8378": 7035,
      "e302": 7036,
      "88f2": 7037,
      "f84f": 7038,
      "b5df": 7039,
      "140a": 7040,
      "8d76": 7041,
      "cdff": 7042,
      "ef02": 7043,
      "a0f3": 7044,
      "604f": 7045,
      "7f46": 7046,
      "b4db": 7047,
      "bd32": 7048,
      "2006": 7049,
      "4aa9": 7050,
      "e2c1": 7051,
      "0396": 7052,
      "c099": 7053,
      "e051": 7054,
      "64e3": 7055,
      "8ff4": 7056,
      "1fc6": 7057,
      "6805": 7058,
      "97b0": 7059,
      "d207": 7060,
      "d78e": 7061,
      "f018": 7062,
      "f585": 7063,
      "024f": 7064,
      "18c5": 7065,
      "1c49": 7066,
      "1c36": 7067,
      "a949": 7068,
      "a9cf": 7069,
      "9c4a": 7070,
      "9c7c": 7071,
      "aa23": 7072,
      "f978": 7073,
      "ac05": 7074,
      "c978": 7075,
      "0e87": 7076,
      "7adb": 7077,
      "ec7d": 7078,
      "4ab9": 7079,
      "0bd6": 7080,
      "5359": 7081,
      "716e": 7082,
      "062f": 7083,
      "664f": 7084,
      "5653": 7085,
      "8850": 7086,
      "2852": 7087,
      "98fb": 7088,
      "ff0c": 7089,
      "2048": 7090,
      "f702": 7091,
      "c752": 7092,
      "e405": 7093,
      "26e8": 7094,
      "54cb": 7095,
      "52b1": 7096,
      "441d": 7097,
      "558d": 7098,
      "5695": 7099,
      "5bb0": 7100,
      "55a4": 7101,
      "6fb2": 7102,
      "769c": 7103,
      "880a": 7104,
      "8667": 7105,
      "87f7": 7106,
      "8711": 7107,
      "980c": 7108,
      "ad5f": 7109,
      "b450": 7110,
      "b72f": 7111,
      "cf51": 7112,
      "ef50": 7113,
      "e81d": 7114,
      "ff24": 7115,
      "1bd1": 7116,
      "2188": 7117,
      "bcd2": 7118,
      "bc61": 7119,
      "3c59": 7120,
      "597b": 7121,
      "ccd6": 7122,
      "4a77": 7123,
      "de5e": 7124,
      "3142": 7125,
      "837f": 7126,
      "d8d9": 7127,
      "d502": 7128,
      "75fb": 7129,
      "20d6": 7130,
      "9d02": 7131,
      "7ddf": 7132,
      "9078": 7133,
      "f402": 7134,
      "94d2": 7135,
      "3f49": 7136,
      "e2b9": 7137,
      "ffa0": 7138,
      "80ed": 7139,
      "0d8d": 7140,
      "6802": 7141,
      "a28f": 7142,
      "bffb": 7143,
      "c2d4": 7144,
      "d3ee": 7145,
      "f78a": 7146,
      "01a0": 7147,
      "0251": 7148,
      "024d": 7149,
      "0293": 7150,
      "79cd": 7151,
      "1902": 7152,
      "7c50": 7153,
      "3925": 7154,
      "fcc5": 7155,
      "acbf": 7156,
      "5ce0": 7157,
      "7a59": 7158,
      "4aba": 7159,
      "d101": 7160,
      "eb01": 7161,
      "064f": 7162,
      "733e": 7163,
      "087a": 7164,
      "324c": 7165,
      "d650": 7166,
      "a24e": 7167,
      "6851": 7168,
      "b505": 7169,
      "b5d2": 7170,
      "202b": 7171,
      "203a": 7172,
      "7050": 7173,
      "d7c1": 7174,
      "5535": 7175,
      "e5e2": 7176,
      "ad34": 7177,
      "f482": 7178,
      "3333": 7179,
      "bdfb": 7180,
      "fd65": 7181,
      "015b": 7182,
      "0cfc": 7183,
      "0c40": 7184,
      "7995": 7185,
      "bc62": 7186,
      "3cb3": 7187,
      "fc02": 7188,
      "dc55": 7189,
      "cc32": 7190,
      "9ee0": 7191,
      "fe50": 7192,
      "7a7f": 7193,
      "5e50": 7194,
      "da0d": 7195,
      "8adf": 7196,
      "b1d5": 7197,
      "a1f8": 7198,
      "31d2": 7199,
      "2b89": 7200,
      "3b51": 7201,
      "6353": 7202,
      "3348": 7203,
      "a350": 7204,
      "a8d2": 7205,
      "4542": 7206,
      "fdb6": 7207,
      "c58c": 7208,
      "f552": 7209,
      "edd5": 7210,
      "6f05": 7211,
      "70d6": 7212,
      "205d": 7213,
      "1dc2": 7214,
      "200c": 7215,
      "248f": 7216,
      "baeb": 7217,
      "b05a": 7218,
      "1df6": 7219,
      "04c4": 7220,
      "141d": 7221,
      "543b": 7222,
      "b112": 7223,
      "ff51": 7224,
      "023c": 7225,
      "1bf3": 7226,
      "69d2": 7227,
      "6982": 7228,
      "19b5": 7229,
      "bcc5": 7230,
      "4e45": 7231,
      "39d2": 7232,
      "fc0e": 7233,
      "cc53": 7234,
      "5cdd": 7235,
      "fe0c": 7236,
      "8e6a": 7237,
      "1a09": 7238,
      "db71": 7239,
      "7b21": 7240,
      "9afb": 7241,
      "8a65": 7242,
      "4136": 7243,
      "1d53": 7244,
      "062e": 7245,
      "26f1": 7246,
      "d601": 7247,
      "e84c": 7248,
      "951c": 7249,
      "35bc": 7250,
      "3701": 7251,
      "9047": 7252,
      "f442": 7253,
      "9fdf": 7254,
      "a7d2": 7255,
      "2f4e": 7256,
      "3397": 7257,
      "143c": 7258,
      "1d24": 7259,
      "8fe9": 7260,
      "248b": 7261,
      "9593": 7262,
      "0754": 7263,
      "2418": 7264,
      "3550": 7265,
      "47ea": 7266,
      "4db9": 7267,
      "6550": 7268,
      "63b5": 7269,
      "6785": 7270,
      "7d6c": 7271,
      "9726": 7272,
      "9f2f": 7273,
      "bd8d": 7274,
      "f3eb": 7275,
      "fd6a": 7276,
      "023e": 7277,
      "0213": 7278,
      "05fc": 7279,
      "0c61": 7280,
      "7942": 7281,
      "3920": 7282,
      "9ee6": 7283,
      "5cf2": 7284,
      "7a35": 7285,
      "768f": 7286,
      "6ad8": 7287,
      "5a28": 7288,
      "5320": 7289,
      "8a51": 7290,
      "4178": 7291,
      "9160": 7292,
      "43fb": 7293,
      "13d7": 7294,
      "d301": 7295,
      "b27b": 7296,
      "48fb": 7297,
      "2070": 7298,
      "14bc": 7299,
      "3d02": 7300,
      "b771": 7301,
      "d0fb": 7302,
      "2597": 7303,
      "5024": 7304,
      "9ec6": 7305,
      "1dfc": 7306,
      "ffaf": 7307,
      "a790": 7308,
      "0551": 7309,
      "17b9": 7310,
      "10b1": 7311,
      "4006": 7312,
      "800a": 7313,
      "b550": 7314,
      "c4d4": 7315,
      "f811": 7316,
      "f217": 7317,
      "025c": 7318,
      "1c8a": 7319,
      "1bfb": 7320,
      "1b53": 7321,
      "1ba0": 7322,
      "79fb": 7323,
      "7ce7": 7324,
      "9c3d": 7325,
      "2c50": 7326,
      "1e0a": 7327,
      "be52": 7328,
      "1621": 7329,
      "baf3": 7330,
      "4109": 7331,
      "410b": 7332,
      "fff2": 7333,
      "ab51": 7334,
      "6659": 7335,
      "668e": 7336,
      "88b6": 7337,
      "e205": 7338,
      "a251": 7339,
      "67fb": 7340,
      "57df": 7341,
      "b7f6": 7342,
      "47df": 7343,
      "a701": 7344,
      "2f4b": 7345,
      "df02": 7346,
      "542f": 7347,
      "2487": 7348,
      "5331": 7349,
      "e2c2": 7350,
      "0883": 7351,
      "56e0": 7352,
      "92c0": 7353,
      "38ca": 7354,
      "a5e8": 7355,
      "1ff9": 7356,
      "3f64": 7357,
      "2837": 7358,
      "2304": 7359,
      "4635": 7360,
      "97ee": 7361,
      "9f17": 7362,
      "b25f": 7363,
      "e550": 7364,
      "017b": 7365,
      "0276": 7366,
      "0278": 7367,
      "801e": 7368,
      "0c50": 7369,
      "0c77": 7370,
      "a9e5": 7371,
      "092a": 7372,
      "29a3": 7373,
      "8c42": 7374,
      "ce7b": 7375,
      "03fb": 7376,
      "03ac": 7377,
      "3e4f": 7378,
      "3e33": 7379,
      "5379": 7380,
      "f102": 7381,
      "5202": 7382,
      "fbd5": 7383,
      "9326": 7384,
      "88d6": 7385,
      "1205": 7386,
      "2251": 7387,
      "8578": 7388,
      "2074": 7389,
      "4fb6": 7390,
      "9401": 7391,
      "24d9": 7392,
      "205b": 7393,
      "94a3": 7394,
      "1518": 7395,
      "1513": 7396,
      "e2bd": 7397,
      "edc1": 7398,
      "3051": 7399,
      "b1c1": 7400,
      "95c2": 7401,
      "62bb": 7402,
      "5431": 7403,
      "7b12": 7404,
      "9002": 7405,
      "9f27": 7406,
      "bf20": 7407,
      "b264": 7408,
      "c227": 7409,
      "dbc8": 7410,
      "016c": 7411,
      "1821": 7412,
      "bc5b": 7413,
      "4e7b": 7414,
      "3923": 7415,
      "999a": 7416,
      "7e4f": 7417,
      "7ef1": 7418,
      "cc59": 7419,
      "9e45": 7420,
      "9e2b": 7421,
      "7a42": 7422,
      "03df": 7423,
      "3ee1": 7424,
      "be51": 7425,
      "6a51": 7426,
      "3177": 7427,
      "3b01": 7428,
      "fb02": 7429,
      "56ac": 7430,
      "63f4": 7431,
      "b34e": 7432,
      "3202": 7433,
      "e851": 7434,
      "f283": 7435,
      "754a": 7436,
      "20d2": 7437,
      "1442": 7438,
      "3d01": 7439,
      "544a": 7440,
      "1f05": 7441,
      "4f68": 7442,
      "248a": 7443,
      "788b": 7444,
      "1fee": 7445,
      "a053": 7446,
      "96c8": 7447,
      "7ba4": 7448,
      "2ba8": 7449,
      "1dd7": 7450,
      "53b5": 7451,
      "60b0": 7452,
      "7fc4": 7453,
      "7d88": 7454,
      "75b1": 7455,
      "e493": 7456,
      "ef5e": 7457,
      "fd88": 7458,
      "f50f": 7459,
      "0aff": 7460,
      "1c02": 7461,
      "1cf0": 7462,
      "19cd": 7463,
      "9c56": 7464,
      "3cb9": 7465,
      "5993": 7466,
      "dc02": 7467,
      "7e1c": 7468,
      "7edf": 7469,
      "c94e": 7470,
      "1d49": 7471,
      "063e": 7472,
      "7305": 7473,
      "f244": 7474,
      "65db": 7475,
      "a62d": 7476,
      "6874": 7477,
      "177a": 7478,
      "570b": 7479,
      "bd4f": 7480,
      "b0d8": 7481,
      "2067": 7482,
      "1dcb": 7483,
      "f518": 7484,
      "1d2e": 7485,
      "789d": 7486,
      "ed28": 7487,
      "1d10": 7488,
      "56c4": 7489,
      "af3a": 7490,
      "9030": 7491,
      "603a": 7492,
      "0768": 7493,
      "42be": 7494,
      "15b7": 7495,
      "2bb0": 7496,
      "8f2e": 7497,
      "977f": 7498,
      "b334": 7499,
      "01ac": 7500,
      "011e": 7501,
      "05d2": 7502,
      "6e30": 7503,
      "19bd": 7504,
      "7c6a": 7505,
      "4974": 7506,
      "f92b": 7507,
      "4c5e": 7508,
      "dcdf": 7509,
      "8979": 7510,
      "8913": 7511,
      "0e81": 7512,
      "ec05": 7513,
      "de65": 7514,
      "ca4f": 7515,
      "0b0e": 7516,
      "6a6f": 7517,
      "5af9": 7518,
      "3a70": 7519,
      "dad9": 7520,
      "b1fb": 7521,
      "a152": 7522,
      "9225": 7523,
      "68fd": 7524,
      "db6a": 7525,
      "37fc": 7526,
      "3fdf": 7527,
      "2036": 7528,
      "2012": 7529,
      "778d": 7530,
      "0fff": 7531,
      "905f": 7532,
      "4dfe": 7533,
      "b8ec": 7534,
      "929d": 7535,
      "5750": 7536,
      "5088": 7537,
      "7804": 7538,
      "ed21": 7539,
      "e3be": 7540,
      "1c9d": 7541,
      "6edf": 7542,
      "7955": 7543,
      "bc2d": 7544,
      "9cbd": 7545,
      "3c52": 7546,
      "392c": 7547,
      "ac7b": 7548,
      "ac61": 7549,
      "5cda": 7550,
      "de02": 7551,
      "ca6b": 7552,
      "db51": 7553,
      "7b08": 7554,
      "7b30": 7555,
      "a102": 7556,
      "c10f": 7557,
      "8bd7": 7558,
      "137a": 7559,
      "566c": 7560,
      "2353": 7561,
      "73fb": 7562,
      "861b": 7563,
      "12df": 7564,
      "f201": 7565,
      "f24f": 7566,
      "f22e": 7567,
      "4405": 7568,
      "07d9": 7569,
      "e505": 7570,
      "c8ff": 7571,
      "177b": 7572,
      "607a": 7573,
      "4dfc": 7574,
      "1d88": 7575,
      "c769": 7576,
      "c76c": 7577,
      "baed": 7578,
      "afe3": 7579,
      "148e": 7580,
      "6050": 7581,
      "4fad": 7582,
      "40e4": 7583,
      "56d3": 7584,
      "caac": 7585,
      "22ab": 7586,
      "53b4": 7587,
      "8693": 7588,
      "9fdd": 7589,
      "cffb": 7590,
      "0188": 7591,
      "01ad": 7592,
      "027f": 7593,
      "1bd7": 7594,
      "792a": 7595,
      "19df": 7596,
      "1919": 7597,
      "09eb": 7598,
      "3921": 7599,
      "2960": 7600,
      "fccf": 7601,
      "7e1f": 7602,
      "5ce3": 7603,
      "aed2": 7604,
      "ca4b": 7605,
      "8a52": 7606,
      "415c": 7607,
      "f342": 7608,
      "8b48": 7609,
      "8b75": 7610,
      "78d2": 7611,
      "06fd": 7612,
      "567a": 7613,
      "30df": 7614,
      "f501": 7615,
      "f8f5": 7616,
      "45d2": 7617,
      "384f": 7618,
      "20dc": 7619,
      "5708": 7620,
      "e706": 7621,
      "5442": 7622,
      "1d66": 7623,
      "9fb9": 7624,
      "94a9": 7625,
      "789b": 7626,
      "14f6": 7627,
      "f4ed": 7628,
      "bae7": 7629,
      "54c7": 7630,
      "7dc6": 7631,
      "1df0": 7632,
      "c593": 7633,
      "548d": 7634,
      "16c9": 7635,
      "b6dc": 7636,
      "0552": 7637,
      "1bc5": 7638,
      "3d0d": 7639,
      "5f2b": 7640,
      "6634": 7641,
      "922d": 7642,
      "b115": 7643,
      "c003": 7644,
      "d4b0": 7645,
      "e002": 7646,
      "f72b": 7647,
      "0153": 7648,
      "1c0c": 7649,
      "1b30": 7650,
      "1bb4": 7651,
      "79af": 7652,
      "21df": 7653,
      "2178": 7654,
      "5902": 7655,
      "494f": 7656,
      "7ef9": 7657,
      "b905": 7658,
      "5e7b": 7659,
      "6a01": 7660,
      "61fe": 7661,
      "53de": 7662,
      "ebf1": 7663,
      "138e": 7664,
      "93d2": 7665,
      "d366": 7666,
      "8642": 7667,
      "a252": 7668,
      "35fb": 7669,
      "85d3": 7670,
      "a7f1": 7671,
      "b2e5": 7672,
      "4d37": 7673,
      "151e": 7674,
      "26eb": 7675,
      "62e4": 7676,
      "14bb": 7677,
      "c597": 7678,
      "c051": 7679,
      "c3ce": 7680,
      "4052": 7681,
      "f0e8": 7682,
      "3d0f": 7683,
      "4007": 7684,
      "6005": 7685,
      "7bbf": 7686,
      "7832": 7687,
      "80b3": 7688,
      "a008": 7689,
      "c6ba": 7690,
      "d204": 7691,
      "0115": 7692,
      "02ca": 7693,
      "1824": 7694,
      "0c66": 7695,
      "a943": 7696,
      "2121": 7697,
      "49d2": 7698,
      "399f": 7699,
      "29d2": 7700,
      "6c4a": 7701,
      "7688": 7702,
      "7650": 7703,
      "2a51": 7704,
      "5afb": 7705,
      "8a01": 7706,
      "9150": 7707,
      "ab45": 7708,
      "884f": 7709,
      "d65e": 7710,
      "65ff": 7711,
      "968c": 7712,
      "58d2": 7713,
      "e58a": 7714,
      "07e0": 7715,
      "5551": 7716,
      "5550": 7717,
      "f51a": 7718,
      "14b2": 7719,
      "279a": 7720,
      "81eb": 7721,
      "12e2": 7722,
      "54a4": 7723,
      "97d0": 7724,
      "b551": 7725,
      "0a74": 7726,
      "0560": 7727,
      "7997": 7728,
      "9cac": 7729,
      "39db": 7730,
      "299a": 7731,
      "89d2": 7732,
      "e905": 7733,
      "7ad2": 7734,
      "0351": 7735,
      "8e05": 7736,
      "eafb": 7737,
      "2ebb": 7738,
      "dbde": 7739,
      "5589": 7740,
      "f34d": 7741,
      "4b02": 7742,
      "ab02": 7743,
      "2670": 7744,
      "d3fe": 7745,
      "8831": 7746,
      "f202": 7747,
      "9649": 7748,
      "b851": 7749,
      "17d2": 7750,
      "4d40": 7751,
      "cd43": 7752,
      "e0f0": 7753,
      "5427": 7754,
      "26ec": 7755,
      "f4ec": 7756,
      "7dcf": 7757,
      "7ae1": 7758,
      "552e": 7759,
      "a052": 7760,
      "bb90": 7761,
      "ab98": 7762,
      "81c9": 7763,
      "c5e1": 7764,
      "6032": 7765,
      "0750": 7766,
      "17ee": 7767,
      "7bc1": 7768,
      "0190": 7769,
      "0ab4": 7770,
      "0208": 7771,
      "0266": 7772,
      "056f": 7773,
      "18a0": 7774,
      "798f": 7775,
      "79ef": 7776,
      "496d": 7777,
      "fcce": 7778,
      "6c28": 7779,
      "89fe": 7780,
      "9ebf": 7781,
      "0ee2": 7782,
      "0322": 7783,
      "2e41": 7784,
      "6a05": 7785,
      "7bf0": 7786,
      "531b": 7787,
      "5381": 7788,
      "b14e": 7789,
      "1172": 7790,
      "1dda": 7791,
      "0851": 7792,
      "3352": 7793,
      "a34e": 7794,
      "3602": 7795,
      "a201": 7796,
      "82fb": 7797,
      "b251": 7798,
      "a852": 7799,
      "07f0": 7800,
      "c74e": 7801,
      "4dd2": 7802,
      "9f7e": 7803,
      "a0d9": 7804,
      "1d9b": 7805,
      "70b5": 7806,
      "70ba": 7807,
      "1493": 7808,
      "788f": 7809,
      "7f35": 7810,
      "8730": 7811,
      "93cf": 7812,
      "3dc2": 7813,
      "d883": 7814,
      "4d17": 7815,
      "1f25": 7816,
      "2f04": 7817,
      "3332": 7818,
      "7be3": 7819,
      "0119": 7820,
      "0113": 7821,
      "6e6f": 7822,
      "69fb": 7823,
      "7c82": 7824,
      "2952": 7825,
      "9969": 7826,
      "ce5b": 7827,
      "b9d2": 7828,
      "4a51": 7829,
      "eeb3": 7830,
      "be09": 7831,
      "be19": 7832,
      "ae3f": 7833,
      "ea52": 7834,
      "ea85": 7835,
      "ea37": 7836,
      "1650": 7837,
      "410c": 7838,
      "2529": 7839,
      "715b": 7840,
      "3bdb": 7841,
      "9b50": 7842,
      "666a": 7843,
      "9386": 7844,
      "868d": 7845,
      "f5d2": 7846,
      "9850": 7847,
      "507a": 7848,
      "ed05": 7849,
      "94df": 7850,
      "247e": 7851,
      "ef05": 7852,
      "d0fe": 7853,
      "f4e8": 7854,
      "70be": 7855,
      "1d1a": 7856,
      "9ec2": 7857,
      "54e9": 7858,
      "f2c1": 7859,
      "a03c": 7860,
      "cdc7": 7861,
      "60a7": 7862,
      "8513": 7863,
      "6553": 7864,
      "755c": 7865,
      "88b0": 7866,
      "8809": 7867,
      "e804": 7868,
      "0130": 7869,
      "1cd7": 7870,
      "0c18": 7871,
      "5156": 7872,
      "9c0b": 7873,
      "0987": 7874,
      "ce4f": 7875,
      "b9d0": 7876,
      "0eeb": 7877,
      "7a79": 7878,
      "7a37": 7879,
      "7619": 7880,
      "1ad2": 7881,
      "558c": 7882,
      "3a5b": 7883,
      "dad2": 7884,
      "da36": 7885,
      "2505": 7886,
      "c651": 7887,
      "d13f": 7888,
      "781b": 7889,
      "4351": 7890,
      "1d51": 7891,
      "2351": 7892,
      "1228": 7893,
      "c228": 7894,
      "d242": 7895,
      "7276": 7896,
      "684f": 7897,
      "0d50": 7898,
      "f7d2": 7899,
      "f703": 7900,
      "7d5a": 7901,
      "4f05": 7902,
      "70fd": 7903,
      "201c": 7904,
      "555d": 7905,
      "1de6": 7906,
      "0ff8": 7907,
      "14fd": 7908,
      "248e": 7909,
      "ef9b": 7910,
      "4ec7": 7911,
      "28b0": 7912,
      "9f92": 7913,
      "229c": 7914,
      "c392": 7915,
      "5aac": 7916,
      "15eb": 7917,
      "cb9a": 7918,
      "2a90": 7919,
      "3b98": 7920,
      "1550": 7921,
      "1d58": 7922,
      "2bc6": 7923,
      "2726": 7924,
      "255b": 7925,
      "6234": 7926,
      "7207": 7927,
      "a837": 7928,
      "e551": 7929,
      "f459": 7930,
      "05d6": 7931,
      "1cb7": 7932,
      "1b39": 7933,
      "0c88": 7934,
      "0c07": 7935,
      "a9a7": 7936,
      "a99f": 7937,
      "9cda": 7938,
      "3c5a": 7939,
      "3c86": 7940,
      "ac39": 7941,
      "4c3f": 7942,
      "6c0c": 7943,
      "7e3d": 7944,
      "9efb": 7945,
      "fe60": 7946,
      "7a6e": 7947,
      "6a32": 7948,
      "7b26": 7949,
      "1186": 7950,
      "f14e": 7951,
      "f15f": 7952,
      "bbac": 7953,
      "fbd0": 7954,
      "4bfb": 7955,
      "0625": 7956,
      "660d": 7957,
      "56fe": 7958,
      "2350": 7959,
      "6375": 7960,
      "0876": 7961,
      "e34e": 7962,
      "a3df": 7963,
      "f6fc": 7964,
      "fd52": 7965,
      "c801": 7966,
      "04df": 7967,
      "2045": 7968,
      "87bc": 7969,
      "d702": 7970,
      "ed50": 7971,
      "0f79": 7972,
      "5451": 7973,
      "54d3": 7974,
      "3f1c": 7975,
      "efdf": 7976,
      "1432": 7977,
      "4f5d": 7978,
      "7890": 7979,
      "1d3e": 7980,
      "1d97": 7981,
      "ddf4": 7982,
      "f6e0": 7983,
      "8051": 7984,
      "5df6": 7985,
      "5433": 7986,
      "6250": 7987,
      "6bcf": 7988,
      "669d": 7989,
      "61ab": 7990,
      "7d0d": 7991,
      "b6b0": 7992,
      "b7bf": 7993,
      "0a86": 7994,
      "0aab": 7995,
      "0503": 7996,
      "8013": 7997,
      "1c24": 7998,
      "6e42": 7999,
      "69ea": 8000,
      "7cfb": 8001,
      "bc60": 8002,
      "4efb": 8003,
      "9c34": 8004,
      "4cdf": 8005,
      "7e2c": 8006,
      "d902": 8007,
      "8cce": 8008,
      "cef5": 8009,
      "b9a9": 8010,
      "8e50": 8011,
      "fade": 8012,
      "ba4e": 8013,
      "4106": 8014,
      "e1fb": 8015,
      "257f": 8016,
      "6b50": 8017,
      "d105": 8018,
      "23d6": 8019,
      "2622": 8020,
      "b351": 8021,
      "86fb": 8022,
      "d684": 8023,
      "1251": 8024,
      "72ff": 8025,
      "e22a": 8026,
      "9631": 8027,
      "b2d6": 8028,
      "d8de": 8029,
      "ff40": 8030,
      "6ddf": 8031,
      "57bc": 8032,
      "9071": 8033,
      "ddd2": 8034,
      "2402": 8035,
      "101d": 8036,
      "25ae": 8037,
      "2004": 8038,
      "5598": 8039,
      "ddf1": 8040,
      "7f3e": 8041,
      "e6e1": 8042,
      "9d25": 8043,
      "94c5": 8044,
      "3d11": 8045,
      "1ffb": 8046,
      "30b4": 8047,
      "5db0": 8048,
      "5312": 8049,
      "6463": 8050,
      "87a5": 8051,
      "9be0": 8052,
      "b6bd": 8053,
      "c458": 8054,
      "d492": 8055,
      "f782": 8056,
      "0a2d": 8057,
      "0ae3": 8058,
      "694f": 8059,
      "79df": 8060,
      "7952": 8061,
      "790a": 8062,
      "7c32": 8063,
      "9cdf": 8064,
      "f9ff": 8065,
      "ac20": 8066,
      "dcb3": 8067,
      "89df": 8068,
      "5cd8": 8069,
      "ecdf": 8070,
      "ca03": 8071,
      "1a50": 8072,
      "166d": 8073,
      "a131": 8074,
      "d150": 8075,
      "78ff": 8076,
      "ab05": 8077,
      "6684": 8078,
      "2671": 8079,
      "b3fb": 8080,
      "d342": 8081,
      "e850": 8082,
      "65fb": 8083,
      "a609": 8084,
      "07da": 8085,
      "9d4f": 8086,
      "841b": 8087,
      "b2ea": 8088,
      "1d28": 8089,
      "5390": 8090,
      "7f33": 8091,
      "23ca": 8092,
      "c052": 8093,
      "8550": 8094,
      "9f1f": 8095,
      "9be1": 8096,
      "abe4": 8097,
      "b335": 8098,
      "c250": 8099,
      "c553": 8100,
      "020a": 8101,
      "1c04": 8102,
      "79b5": 8103,
      "9ceb": 8104,
      "424f": 8105,
      "299f": 8106,
      "992c": 8107,
      "8c50": 8108,
      "5cba": 8109,
      "5c54": 8110,
      "0edf": 8111,
      "0ee4": 8112,
      "7a51": 8113,
      "4a6a": 8114,
      "deb1": 8115,
      "de64": 8116,
      "caf4": 8117,
      "1a23": 8118,
      "7b7b": 8119,
      "1185": 8120,
      "916c": 8121,
      "cb07": 8122,
      "564b": 8123,
      "2653": 8124,
      "e378": 8125,
      "d62b": 8126,
      "6570": 8127,
      "96fb": 8128,
      "b8df": 8129,
      "fdd3": 8130,
      "0751": 8131,
      "5745": 8132,
      "1478": 8133,
      "7ddc": 8134,
      "e04d": 8135,
      "1d3b": 8136,
      "ed20": 8137,
      "1499": 8138,
      "ddf7": 8139,
      "1db1": 8140,
      "9f93": 8141,
      "7736": 8142,
      "a09c": 8143,
      "60e7": 8144,
      "129f": 8145,
      "45c7": 8146,
      "b037": 8147,
      "ebae": 8148,
      "3aeb": 8149,
      "0dfd": 8150,
      "03a8": 8151,
      "146b": 8152,
      "3637": 8153,
      "580a": 8154,
      "670f": 8155,
      "8f50": 8156,
      "8beb": 8157,
      "84b7": 8158,
      "84f1": 8159,
      "a004": 8160,
      "e8ba": 8161,
      "f450": 8162,
      "f3ef": 8163,
      "01df": 8164,
      "0125": 8165,
      "0128": 8166,
      "01f7": 8167,
      "1851": 8168,
      "1b2b": 8169,
      "79c9": 8170,
      "a9fc": 8171,
      "19b7": 8172,
      "2153": 8173,
      "213e": 8174,
      "4e20": 8175,
      "097a": 8176,
      "ac4a": 8177,
      "997e": 8178,
      "7e02": 8179,
      "ceaa": 8180,
      "cee2": 8181,
      "5ce1": 8182,
      "c947": 8183,
      "0302": 8184,
      "eaec": 8185,
      "5ab1": 8186,
      "5a30": 8187,
      "55f8": 8188,
      "55ac": 8189,
      "53f9": 8190,
      "5323": 8191,
      "5bdf": 8192,
      "086d": 8193,
      "3303": 8194,
      "b302": 8195,
      "3252": 8196,
      "d658": 8197,
      "a221": 8198,
      "9846": 8199,
      "f83b": 8200,
      "fd51": 8201,
      "ffdc": 8202,
      "17fb": 8203,
      "7d45": 8204,
      "5d50": 8205,
      "2f43": 8206,
      "6451": 8207,
      "5428": 8208,
      "1de5": 8209,
      "1de7": 8210,
      "31e6": 8211,
      "9f3d": 8212,
      "97c5": 8213,
      "17c5": 8214,
      "eff5": 8215,
      "8428": 8216,
      "d6c6": 8217,
      "aece": 8218,
      "2088": 8219,
      "2854": 8220,
      "58b0": 8221,
      "a7d7": 8222,
      "c25f": 8223,
      "d211": 8224,
      "69f5": 8225,
      "0ca8": 8226,
      "0cc9": 8227,
      "bcdc": 8228,
      "f99b": 8229,
      "dc5e": 8230,
      "7e3b": 8231,
      "9eea": 8232,
      "7656": 8233,
      "4a78": 8234,
      "4ab5": 8235,
      "03de": 8236,
      "ee50": 8237,
      "2e13": 8238,
      "5a0d": 8239,
      "5abd": 8240,
      "b16a": 8241,
      "a1df": 8242,
      "5bd4": 8243,
      "6b82": 8244,
      "f38f": 8245,
      "4bfa": 8246,
      "787e": 8247,
      "78d1": 8248,
      "26f8": 8249,
      "08d2": 8250,
      "83fa": 8251,
      "a3fb": 8252,
      "d651": 8253,
      "12d2": 8254,
      "c27d": 8255,
      "7251": 8256,
      "826a": 8257,
      "f879": 8258,
      "a8fb": 8259,
      "077a": 8260,
      "07d8": 8261,
      "154b": 8262,
      "207c": 8263,
      "a57c": 8264,
      "7d5b": 8265,
      "8d50": 8266,
      "8d74": 8267,
      "47fd": 8268,
      "3f42": 8269,
      "a0f5": 8270,
      "2515": 8271,
      "1d12": 8272,
      "7a96": 8273,
      "f592": 8274,
      "9f38": 8275,
      "6792": 8276,
      "92ce": 8277,
      "7d20": 8278,
      "e015": 8279,
      "7ffd": 8280,
      "ffa7": 8281,
      "5766": 8282,
      "606f": 8283,
      "b519": 8284,
      "a52a": 8285,
      "1dfb": 8286,
      "14d5": 8287,
      "45b9": 8288,
      "67a1": 8289,
      "7431": 8290,
      "9f0f": 8291,
      "95af": 8292,
      "d85d": 8293,
      "e807": 8294,
      "0126": 8295,
      "0ace": 8296,
      "02ab": 8297,
      "7921": 8298,
      "4ebb": 8299,
      "3c4f": 8300,
      "3cdf": 8301,
      "294f": 8302,
      "fe15": 8303,
      "eccf": 8304,
      "4a2d": 8305,
      "ee7b": 8306,
      "5570": 8307,
      "b102": 8308,
      "41f2": 8309,
      "8150": 8310,
      "8174": 8311,
      "78df": 8312,
      "786c": 8313,
      "eb7d": 8314,
      "5652": 8315,
      "2077": 8316,
      "a54e": 8317,
      "4d4d": 8318,
      "b04e": 8319,
      "7fde": 8320,
      "4ac0": 8321,
      "259a": 8322,
      "1d8e": 8323,
      "ed25": 8324,
      "14c5": 8325,
      "c1e6": 8326,
      "1df4": 8327,
      "873c": 8328,
      "1099": 8329,
      "0f81": 8330,
      "9a9f": 8331,
      "0488": 8332,
      "07a1": 8333,
      "1553": 8334,
      "1d5d": 8335,
      "2750": 8336,
      "3fc5": 8337,
      "6f51": 8338,
      "7750": 8339,
      "861f": 8340,
      "a313": 8341,
      "b71e": 8342,
      "cd88": 8343,
      "e3ee": 8344,
      "e8b0": 8345,
      "0172": 8346,
      "69b0": 8347,
      "097e": 8348,
      "0964": 8349,
      "f977": 8350,
      "fcf2": 8351,
      "fc60": 8352,
      "9edc": 8353,
      "5ce2": 8354,
      "0e50": 8355,
      "aef4": 8356,
      "2e6b": 8357,
      "da51": 8358,
      "8a02": 8359,
      "312d": 8360,
      "5bfb": 8361,
      "5689": 8362,
      "735e": 8363,
      "26f0": 8364,
      "08ac": 8365,
      "4620": 8366,
      "3351": 8367,
      "88d8": 8368,
      "4858": 8369,
      "951b": 8370,
      "674f": 8371,
      "174a": 8372,
      "144f": 8373,
      "7d7f": 8374,
      "edaa": 8375,
      "bd0c": 8376,
      "9fd6": 8377,
      "244f": 8378,
      "80fb": 8379,
      "cf05": 8380,
      "8fe6": 8381,
      "14f3": 8382,
      "4daf": 8383,
      "1d81": 8384,
      "ddfc": 8385,
      "5335": 8386,
      "9d9c": 8387,
      "86da": 8388,
      "a0e9": 8389,
      "e6d2": 8390,
      "96cf": 8391,
      "f0c0": 8392,
      "45c3": 8393,
      "c1bd": 8394,
      "aa90": 8395,
      "2257": 8396,
      "3fcb": 8397,
      "3336": 8398,
      "4bc1": 8399,
      "5bc6": 8400,
      "6b11": 8401,
      "7817": 8402,
      "7b1a": 8403,
      "7365": 8404,
      "880d": 8405,
      "808a": 8406,
      "a860": 8407,
      "ad6f": 8408,
      "c7a8": 8409,
      "e756": 8410,
      "ff50": 8411,
      "0138": 8412,
      "0cdf": 8413,
      "7953": 8414,
      "a9ed": 8415,
      "5903": 8416,
      "9950": 8417,
      "ce0c": 8418,
      "ce84": 8419,
      "0352": 8420,
      "0320": 8421,
      "8efb": 8422,
      "debc": 8423,
      "be45": 8424,
      "7b0e": 8425,
      "5327": 8426,
      "b174": 8427,
      "a17b": 8428,
      "4142": 8429,
      "1125": 8430,
      "811e": 8431,
      "4b54": 8432,
      "1ddf": 8433,
      "2302": 8434,
      "835e": 8435,
      "6255": 8436,
      "48d3": 8437,
      "9502": 8438,
      "fd02": 8439,
      "c5df": 8440,
      "27d2": 8441,
      "277a": 8442,
      "f4ff": 8443,
      "d4ff": 8444,
      "2035": 8445,
      "2061": 8446,
      "1dce": 8447,
      "9515": 8448,
      "14ea": 8449,
      "1d16": 8450,
      "78eb": 8451,
      "9f36": 8452,
      "f6ce": 8453,
      "7d32": 8454,
      "4a95": 8455,
      "7730": 8456,
      "90ed": 8457,
      "6dc9": 8458,
      "15e4": 8459,
      "b592": 8460,
      "829a": 8461,
      "bd94": 8462,
      "973d": 8463,
      "ef64": 8464,
      "17e3": 8465,
      "3f51": 8466,
      "3bb8": 8467,
      "5bb5": 8468,
      "63e9": 8469,
      "b80c": 8470,
      "eb1a": 8471,
      "e8a7": 8472,
      "0118": 8473,
      "6e8d": 8474,
      "69d8": 8475,
      "79b4": 8476,
      "19b4": 8477,
      "bc06": 8478,
      "bc63": 8479,
      "aa6a": 8480,
      "3c5c": 8481,
      "fcf1": 8482,
      "ac44": 8483,
      "dc56": 8484,
      "7e85": 8485,
      "d950": 8486,
      "9e6b": 8487,
      "fe52": 8488,
      "0e8b": 8489,
      "ded6": 8490,
      "de69": 8491,
      "2a5b": 8492,
      "ea65": 8493,
      "6a48": 8494,
      "5a7e": 8495,
      "3a02": 8496,
      "9a02": 8497,
      "fbdf": 8498,
      "fb7a": 8499,
      "4bf0": 8500,
      "abfb": 8501,
      "cb51": 8502,
      "9bbe": 8503,
      "93df": 8504,
      "922b": 8505,
      "1542": 8506,
      "856d": 8507,
      "0d06": 8508,
      "14aa": 8509,
      "140c": 8510,
      "90f6": 8511,
      "bd40": 8512,
      "940c": 8513,
      "ddff": 8514,
      "b0df": 8515,
      "baef": 8516,
      "533f": 8517,
      "14b9": 8518,
      "7d2c": 8519,
      "fde4": 8520,
      "55e8": 8521,
      "daa4": 8522,
      "2d33": 8523,
      "576a": 8524,
      "91b0": 8525,
      "82bd": 8526,
      "1d0d": 8527,
      "11a0": 8528,
      "3254": 8529,
      "4802": 8530,
      "7f2b": 8531,
      "afc4": 8532,
      "b416": 8533,
      "c4f8": 8534,
      "f434": 8535,
      "012e": 8536,
      "0133": 8537,
      "0117": 8538,
      "0193": 8539,
      "0a52": 8540,
      "0c53": 8541,
      "0cfd": 8542,
      "217b": 8543,
      "3cd5": 8544,
      "3c37": 8545,
      "59ef": 8546,
      "4904": 8547,
      "dc2b": 8548,
      "992d": 8549,
      "7e6b": 8550,
      "cea1": 8551,
      "ae55": 8552,
      "7b49": 8553,
      "3aba": 8554,
      "daf4": 8555,
      "da62": 8556,
      "534f": 8557,
      "b14a": 8558,
      "f1d3": 8559,
      "e11e": 8560,
      "25fb": 8561,
      "5288": 8562,
      "1d06": 8563,
      "6643": 8564,
      "632a": 8565,
      "2643": 8566,
      "127c": 8567,
      "f241": 8568,
      "157a": 8569,
      "3d4f": 8570,
      "8d79": 8571,
      "9044": 8572,
      "2d4f": 8573,
      "6f6d": 8574,
      "80ff": 8575,
      "8f02": 8576,
      "a04f": 8577,
      "7049": 8578,
      "f04f": 8579,
      "c52a": 8580,
      "4ac1": 8581,
      "4df9": 8582,
      "78e0": 8583,
      "9f35": 8584,
      "06dc": 8585,
      "86d2": 8586,
      "552a": 8587,
      "4a9b": 8588,
      "edcd": 8589,
      "08ef": 8590,
      "9faf": 8591,
      "b420": 8592,
      "e195": 8593,
      "40a2": 8594,
      "cfe8": 8595,
      "1fae": 8596,
      "20ba": 8597,
      "3430": 8598,
      "48a1": 8599,
      "61a8": 8600,
      "7bef": 8601,
      "73a0": 8602,
      "8230": 8603,
      "84f4": 8604,
      "a250": 8605,
      "b805": 8606,
      "d69c": 8607,
      "ffb1": 8608,
      "0ab5": 8609,
      "69bd": 8610,
      "1989": 8611,
      "9ca9": 8612,
      "9c60": 8613,
      "f912": 8614,
      "ac4f": 8615,
      "7eb2": 8616,
      "89ac": 8617,
      "b902": 8618,
      "1e79": 8619,
      "3eec": 8620,
      "5347": 8621,
      "4107": 8622,
      "11d2": 8623,
      "31df": 8624,
      "5b53": 8625,
      "2b79": 8626,
      "fb42": 8627,
      "4bf6": 8628,
      "9b79": 8629,
      "1d79": 8630,
      "0651": 8631,
      "237a": 8632,
      "b379": 8633,
      "b350": 8634,
      "86a9": 8635,
      "65fc": 8636,
      "e251": 8637,
      "9642": 8638,
      "b84b": 8639,
      "f8b6": 8640,
      "38ff": 8641,
      "3542": 8642,
      "357a": 8643,
      "c82a": 8644,
      "37fb": 8645,
      "9f0b": 8646,
      "af4e": 8647,
      "efbc": 8648,
      "a0aa": 8649,
      "d04e": 8650,
      "c442": 8651,
      "c4df": 8652,
      "778f": 8653,
      "5050": 8654,
      "0dc5": 8655,
      "2489": 8656,
      "a6df": 8657,
      "6d3f": 8658,
      "2531": 8659,
      "b05b": 8660,
      "55ca": 8661,
      "7f81": 8662,
      "9d3f": 8663,
      "55e0": 8664,
      "9f88": 8665,
      "14a8": 8666,
      "d3c0": 8667,
      "9f63": 8668,
      "602e": 8669,
      "11ea": 8670,
      "3de7": 8671,
      "c5cb": 8672,
      "4525": 8673,
      "7517": 8674,
      "9014": 8675,
      "7faf": 8676,
      "085d": 8677,
      "5bee": 8678,
      "6714": 8679,
      "68b4": 8680,
      "7552": 8681,
      "7d60": 8682,
      "8d66": 8683,
      "84f2": 8684,
      "9d8b": 8685,
      "a7a6": 8686,
      "c638": 8687,
      "e43c": 8688,
      "0a65": 8689,
      "020c": 8690,
      "19b9": 8691,
      "7c79": 8692,
      "7c0f": 8693,
      "4e50": 8694,
      "feb0": 8695,
      "fe68": 8696,
      "1e22": 8697,
      "7b42": 8698,
      "7b81": 8699,
      "7bd5": 8700,
      "5542": 8701,
      "554f": 8702,
      "9a4f": 8703,
      "a1d9": 8704,
      "314c": 8705,
      "312a": 8706,
      "2b76": 8707,
      "2b7f": 8708,
      "782c": 8709,
      "ab52": 8710,
      "4348": 8711,
      "6651": 8712,
      "b33e": 8713,
      "c3df": 8714,
      "7246": 8715,
      "6205": 8716,
      "b64e": 8717,
      "85fb": 8718,
      "9fd2": 8719,
      "a4df": 8720,
      "25b0": 8721,
      "7897": 8722,
      "789f": 8723,
      "baee": 8724,
      "54fe": 8725,
      "5ffc": 8726,
      "f198": 8727,
      "7aaf": 8728,
      "c03b": 8729,
      "6530": 8730,
      "a5e0": 8731,
      "b5c8": 8732,
      "9df3": 8733,
      "b2b0": 8734,
      "72ef": 8735,
      "748f": 8736,
      "ed17": 8737,
      "549e": 8738,
      "8750": 8739,
      "b22d": 8740,
      "f61f": 8741,
      "ff27": 8742,
      "01d5": 8743,
      "019b": 8744,
      "0255": 8745,
      "02fe": 8746,
      "801c": 8747,
      "0c71": 8748,
      "9cfb": 8749,
      "3c27": 8750,
      "597e": 8751,
      "098d": 8752,
      "ac1d": 8753,
      "992f": 8754,
      "7e5e": 8755,
      "7ef0": 8756,
      "ce8e": 8757,
      "b9c6": 8758,
      "3e47": 8759,
      "3ef7": 8760,
      "7b31": 8761,
      "5a51": 8762,
      "55d4": 8763,
      "3ad8": 8764,
      "3ada": 8765,
      "9152": 8766,
      "7103": 8767,
      "660c": 8768,
      "7326": 8769,
      "e38c": 8770,
      "a37b": 8771,
      "9342": 8772,
      "e602": 8773,
      "823e": 8774,
      "2853": 8775,
      "f5fb": 8776,
      "070a": 8777,
      "07d6": 8778,
      "0479": 8779,
      "77df": 8780,
      "4778": 8781,
      "9703": 8782,
      "f4d2": 8783,
      "8f43": 8784,
      "60fb": 8785,
      "1433": 8786,
      "609e": 8787,
      "0dcd": 8788,
      "1d82": 8789,
      "4aaa": 8790,
      "f6e4": 8791,
      "6428": 8792,
      "b73d": 8793,
      "fec7": 8794,
      "2421": 8795,
      "3039": 8796,
      "c5ec": 8797,
      "342b": 8798,
      "9b6b": 8799,
      "81b0": 8800,
      "1f52": 8801,
      "1085": 8802,
      "3360": 8803,
      "53a2": 8804,
      "549c": 8805,
      "9f50": 8806,
      "9362": 8807,
      "a635": 8808,
      "afb2": 8809,
      "bf50": 8810,
      "ebb0": 8811,
      "f002": 8812,
      "fd87": 8813,
      "012d": 8814,
      "0267": 8815,
      "1b95": 8816,
      "a9cc": 8817,
      "7c2d": 8818,
      "4e0d": 8819,
      "49df": 8820,
      "6c83": 8821,
      "99c4": 8822,
      "7e44": 8823,
      "0ee9": 8824,
      "ec0c": 8825,
      "03d8": 8826,
      "2a77": 8827,
      "2a04": 8828,
      "ca78": 8829,
      "6a53": 8830,
      "1afb": 8831,
      "7b1c": 8832,
      "fa45": 8833,
      "5a78": 8834,
      "55df": 8835,
      "bad5": 8836,
      "bab4": 8837,
      "b14f": 8838,
      "71d3": 8839,
      "c1fb": 8840,
      "5289": 8841,
      "3b42": 8842,
      "d1ff": 8843,
      "7841": 8844,
      "ab2a": 8845,
      "1dff": 8846,
      "1dd2": 8847,
      "26ac": 8848,
      "084d": 8849,
      "8646": 8850,
      "1279": 8851,
      "f24e": 8852,
      "f26c": 8853,
      "b846": 8854,
      "454f": 8855,
      "20d9": 8856,
      "6d51": 8857,
      "574d": 8858,
      "7751": 8859,
      "b74f": 8860,
      "b74e": 8861,
      "54bc": 8862,
      "af05": 8863,
      "df08": 8864,
      "5fde": 8865,
      "b44e": 8866,
      "f4fb": 8867,
      "4f67": 8868,
      "3395": 8869,
      "5426": 8870,
      "af8b": 8871,
      "5032": 8872,
      "ed29": 8873,
      "efe6": 8874,
      "bae6": 8875,
      "ddfd": 8876,
      "54fb": 8877,
      "5338": 8878,
      "7ac3": 8879,
      "7e98": 8880,
      "0399": 8881,
      "14b5": 8882,
      "9d96": 8883,
      "d1e1": 8884,
      "d733": 8885,
      "fb9f": 8886,
      "48c4": 8887,
      "5485": 8888,
      "9ff4": 8889,
      "df3b": 8890,
      "e521": 8891,
      "3ff7": 8892,
      "876b": 8893,
      "2457": 8894,
      "5720": 8895,
      "7556": 8896,
      "9dfb": 8897,
      "9fd5": 8898,
      "c835": 8899,
      "02c6": 8900,
      "029f": 8901,
      "69a0": 8902,
      "7902": 8903,
      "216c": 8904,
      "2150": 8905,
      "7c5c": 8906,
      "bc5c": 8907,
      "aad2": 8908,
      "3c56": 8909,
      "59e2": 8910,
      "094f": 8911,
      "f950": 8912,
      "6ceb": 8913,
      "99fb": 8914,
      "8977": 8915,
      "5cdc": 8916,
      "7a40": 8917,
      "8e7c": 8918,
      "5eaf": 8919,
      "6a67": 8920,
      "fa08": 8921,
      "bb4e": 8922,
      "316e": 8923,
      "c107": 8924,
      "c64f": 8925,
      "6602": 8926,
      "636d": 8927,
      "264f": 8928,
      "9305": 8929,
      "1202": 8930,
      "c27e": 8931,
      "922e": 8932,
      "a650": 8933,
      "223e": 8934,
      "228e": 8935,
      "a850": 8936,
      "6d43": 8937,
      "9446": 8938,
      "3478": 8939,
      "d442": 8940,
      "2596": 8941,
      "8d3a": 8942,
      "bd13": 8943,
      "1df3": 8944,
      "4fae": 8945,
      "14ba": 8946,
      "553c": 8947,
      "8ae5": 8948,
      "1d57": 8949,
      "33e2": 8950,
      "7f1f": 8951,
      "769e": 8952,
      "8f04": 8953,
      "8006": 8954,
      "92a6": 8955,
      "b3ef": 8956,
      "b5a1": 8957,
      "d810": 8958,
      "e6db": 8959,
      "e1a7": 8960,
      "0aad": 8961,
      "0c2e": 8962,
      "7951": 8963,
      "bc05": 8964,
      "9c72": 8965,
      "9c2b": 8966,
      "3c5f": 8967,
      "4905": 8968,
      "39fb": 8969,
      "f9ce": 8970,
      "fcea": 8971,
      "99df": 8972,
      "9951": 8973,
      "7e81": 8974,
      "7e8d": 8975,
      "d901": 8976,
      "89f3": 8977,
      "fea2": 8978,
      "be2a": 8979,
      "1aff": 8980,
      "1661": 8981,
      "53fd": 8982,
      "b107": 8983,
      "4bdf": 8984,
      "ebf9": 8985,
      "666d": 8986,
      "934b": 8987,
      "8651": 8988,
      "d605": 8989,
      "d2df": 8990,
      "6529": 8991,
      "b605": 8992,
      "f509": 8993,
      "a8df": 8994,
      "d84f": 8995,
      "c542": 8996,
      "e7d2": 8997,
      "4f46": 8998,
      "d742": 8999,
      "90db": 9000,
      "b047": 9001,
      "e44f": 9002,
      "2059": 9003,
      "1de1": 9004,
      "8fe4": 9005,
      "2524": 9006,
      "ed23": 9007,
      "efe1": 9008,
      "7dcd": 9009,
      "1dbe": 9010,
      "7ae6": 9011,
      "fa9f": 9012,
      "40c6": 9013,
      "d7ce": 9014,
      "e538": 9015,
      "60e8": 9016,
      "9ac5": 9017,
      "10a0": 9018,
      "8da6": 9019,
      "efad": 9020,
      "aacd": 9021,
      "1750": 9022,
      "1414": 9023,
      "4d61": 9024,
      "53e9": 9025,
      "55bb": 9026,
      "7002": 9027,
      "7bea": 9028,
      "7f5f": 9029,
      "83a1": 9030,
      "93e5": 9031,
      "af51": 9032,
      "afba": 9033,
      "c758": 9034,
      "014b": 9035,
      "0192": 9036,
      "0284": 9037,
      "02b0": 9038,
      "1871": 9039,
      "18a4": 9040,
      "1c94": 9041,
      "a94f": 9042,
      "2156": 9043,
      "aa52": 9044,
      "3cb0": 9045,
      "09e5": 9046,
      "f902": 9047,
      "dcf8": 9048,
      "994f": 9049,
      "7e04": 9050,
      "893a": 9051,
      "8991": 9052,
      "8c51": 9053,
      "ce50": 9054,
      "9ee3": 9055,
      "c951": 9056,
      "fe88": 9057,
      "fe44": 9058,
      "0e88": 9059,
      "ec4c": 9060,
      "76fb": 9061,
      "1e83": 9062,
      "0327": 9063,
      "2e3c": 9064,
      "1a6f": 9065,
      "5a50": 9066,
      "3a46": 9067,
      "53f5": 9068,
      "5343": 9069,
      "410f": 9070,
      "8159": 9071,
      "f3fc": 9072,
      "2b51": 9073,
      "3b50": 9074,
      "fbfb": 9075,
      "43f1": 9076,
      "438b": 9077,
      "735c": 9078,
      "837e": 9079,
      "93f1": 9080,
      "c2a9": 9081,
      "3644": 9082,
      "a2ff": 9083,
      "62bc": 9084,
      "624e": 9085,
      "b242": 9086,
      "6850": 9087,
      "20f4": 9088,
      "9dd8": 9089,
      "7d02": 9090,
      "4dff": 9091,
      "bd52": 9092,
      "0f1b": 9093,
      "9f4f": 9094,
      "9f49": 9095,
      "3452": 9096,
      "d043": 9097,
      "d47e": 9098,
      "d441": 9099,
      "c41c": 9100,
      "8452": 9101,
      "4d38": 9102,
      "1d15": 9103,
      "56e2": 9104,
      "a531": 9105,
      "4b99": 9106,
      "21b8": 9107,
      "3050": 9108,
      "5dc3": 9109,
      "2ac4": 9110,
      "2b67": 9111,
      "702e": 9112,
      "e023": 9113,
      "f1c9": 9114,
      "42b2": 9115,
      "0413": 9116,
      "26a2": 9117,
      "38b8": 9118,
      "680e": 9119,
      "6368": 9120,
      "600e": 9121,
      "88ae": 9122,
      "c6b2": 9123,
      "f816": 9124,
      "f00c": 9125,
      "0176": 9126,
      "0148": 9127,
      "0170": 9128,
      "0285": 9129,
      "0cda": 9130,
      "7919": 9131,
      "7c12": 9132,
      "4e02": 9133,
      "4ee3": 9134,
      "9c6e": 9135,
      "9c27": 9136,
      "aa88": 9137,
      "accd": 9138,
      "2c52": 9139,
      "6c7b": 9140,
      "99f9": 9141,
      "8951": 9142,
      "8cfd": 9143,
      "8c67": 9144,
      "9e4a": 9145,
      "0e82": 9146,
      "76f8": 9147,
      "03f4": 9148,
      "ee51": 9149,
      "de17": 9150,
      "ca55": 9151,
      "ea6a": 9152,
      "2e7c": 9153,
      "7b88": 9154,
      "fa05": 9155,
      "fa65": 9156,
      "8a31": 9157,
      "b176": 9158,
      "a186": 9159,
      "1151": 9160,
      "e1d2": 9161,
      "ab3c": 9162,
      "4350": 9163,
      "0622": 9164,
      "66f4": 9165,
      "7361": 9166,
      "8305": 9167,
      "8872": 9168,
      "9283": 9169,
      "a28e": 9170,
      "a28a": 9171,
      "626a": 9172,
      "4849": 9173,
      "9508": 9174,
      "581c": 9175,
      "858e": 9176,
      "207d": 9177,
      "5776": 9178,
      "f70b": 9179,
      "7d50": 9180,
      "77fe": 9181,
      "cd52": 9182,
      "10f3": 9183,
      "6f02": 9184,
      "5fd6": 9185,
      "b405": 9186,
      "7ec0": 9187,
      "1428": 9188,
      "142a": 9189,
      "5015": 9190,
      "2484": 9191,
      "1dac": 9192,
      "9f3b": 9193,
      "1db8": 9194,
      "6790": 9195,
      "da96": 9196,
      "ff8e": 9197,
      "eb60": 9198,
      "719a": 9199,
      "b79e": 9200,
      "fdc4": 9201,
      "3536": 9202,
      "c42a": 9203,
      "0806": 9204,
      "07af": 9205,
      "22d4": 9206,
      "3082": 9207,
      "30ba": 9208,
      "53ed": 9209,
      "5437": 9210,
      "6707": 9211,
      "6719": 9212,
      "7551": 9213,
      "7bed": 9214,
      "84fb": 9215,
      "8007": 9216,
      "a007": 9217,
      "c439": 9218,
      "ff54": 9219,
      "01f3": 9220,
      "0198": 9221,
      "0ac4": 9222,
      "0273": 9223,
      "054f": 9224,
      "6e51": 9225,
      "797f": 9226,
      "a95d": 9227,
      "3907": 9228,
      "fcff": 9229,
      "2c5a": 9230,
      "7e62": 9231,
      "ce17": 9232,
      "5c42": 9233,
      "e91b": 9234,
      "7a77": 9235,
      "ec28": 9236,
      "1e42": 9237,
      "1e58": 9238,
      "0377": 9239,
      "3eda": 9240,
      "deb4": 9241,
      "ea4f": 9242,
      "c073": 9243,
      "532e": 9244,
      "ba72": 9245,
      "a1f4": 9246,
      "417a": 9247,
      "1177": 9248,
      "cb73": 9249,
      "6374": 9250,
      "e831": 9251,
      "c20e": 9252,
      "f277": 9253,
      "f6fe": 9254,
      "6228": 9255,
      "fd4e": 9256,
      "c505": 9257,
      "04dc": 9258,
      "9d52": 9259,
      "4ddf": 9260,
      "97fe": 9261,
      "edf5": 9262,
      "107b": 9263,
      "04b3": 9264,
      "4d35": 9265,
      "4d36": 9266,
      "14e3": 9267,
      "1d91": 9268,
      "c1e8": 9269,
      "bd16": 9270,
      "7aaa": 9271,
      "56e8": 9272,
      "7b9c": 9273,
      "2793": 9274,
      "8090": 9275,
      "d2e4": 9276,
      "ee97": 9277,
      "10af": 9278,
      "d530": 9279,
      "20a8": 9280,
      "98e5": 9281,
      "90a7": 9282,
      "dd18": 9283,
      "d517": 9284,
      "5ba4": 9285,
      "1410": 9286,
      "1714": 9287,
      "16ab": 9288,
      "15a8": 9289,
      "482f": 9290,
      "425f": 9291,
      "5360": 9292,
      "545e": 9293,
      "54b8": 9294,
      "63b0": 9295,
      "7311": 9296,
      "8754": 9297,
      "94fb": 9298,
      "945b": 9299,
      "a805": 9300,
      "ad8f": 9301,
      "d0bd": 9302,
      "f71e": 9303,
      "0122": 9304,
      "7987": 9305,
      "51dc": 9306,
      "bc5e": 9307,
      "4e1a": 9308,
      "4931": 9309,
      "6c79": 9310,
      "dc52": 9311,
      "8c23": 9312,
      "ec73": 9313,
      "7653": 9314,
      "1e18": 9315,
      "5e27": 9316,
      "5e10": 9317,
      "2e57": 9318,
      "fafb": 9319,
      "164f": 9320,
      "3a8e": 9321,
      "9a50": 9322,
      "da34": 9323,
      "536e": 9324,
      "5363": 9325,
      "a125": 9326,
      "bb56": 9327,
      "3133": 9328,
      "2577": 9329,
      "8b30": 9330,
      "9b51": 9331,
      "43f0": 9332,
      "1dd3": 9333,
      "667e": 9334,
      "631b": 9335,
      "9339": 9336,
      "324f": 9337,
      "f233": 9338,
      "f6fb": 9339,
      "3603": 9340,
      "e20b": 9341,
      "8279": 9342,
      "226d": 9343,
      "b261": 9344,
      "98d2": 9345,
      "fd7a": 9346,
      "0dde": 9347,
      "271c": 9348,
      "c705": 9349,
      "b7d2": 9350,
      "8d43": 9351,
      "bd50": 9352,
      "9f09": 9353,
      "bf4c": 9354,
      "340c": 9355,
      "1f4f": 9356,
      "cf4f": 9357,
      "f6d2": 9358,
      "203f": 9359,
      "1d29": 9360,
      "501d": 9361,
      "14f9": 9362,
      "1d8a": 9363,
      "3788": 9364,
      "8052": 9365,
      "aaae": 9366,
      "1feb": 9367,
      "fd3f": 9368,
      "3021": 9369,
      "d1e0": 9370,
      "fecb": 9371,
      "12c4": 9372,
      "1a9c": 9373,
      "24c3": 9374,
      "d2cb": 9375,
      "3f3a": 9376,
      "902b": 9377,
      "71ee": 9378,
      "61ec": 9379,
      "42e6": 9380,
      "a5c5": 9381,
      "2aee": 9382,
      "0496": 9383,
      "2774": 9384,
      "475b": 9385,
      "4263": 9386,
      "5217": 9387,
      "76b2": 9388,
      "83a7": 9389,
      "9bbf": 9390,
      "94d5": 9391,
      "abc1": 9392,
      "a089": 9393,
      "b304": 9394,
      "c6b7": 9395,
      "0109": 9396,
      "69dc": 9397,
      "7908": 9398,
      "79f9": 9399,
      "7911": 9400,
      "7c4b": 9401,
      "7c45": 9402,
      "5985": 9403,
      "0952": 9404,
      "2954": 9405,
      "fc3d": 9406,
      "ac6c": 9407,
      "acc5": 9408,
      "6c66": 9409,
      "8ca0": 9410,
      "7a4f": 9411,
      "76fa": 9412,
      "1efb": 9413,
      "4a61": 9414,
      "de4e": 9415,
      "1a4a": 9416,
      "1a14": 9417,
      "6151": 9418,
      "1651": 9419,
      "55d8": 9420,
      "9a38": 9421,
      "f350": 9422,
      "fb26": 9423,
      "8b45": 9424,
      "d151": 9425,
      "d16b": 9426,
      "ab8c": 9427,
      "9b3b": 9428,
      "ebfb": 9429,
      "1d48": 9430,
      "1d45": 9431,
      "6650": 9432,
      "2387": 9433,
      "6343": 9434,
      "2677": 9435,
      "a303": 9436,
      "a30a": 9437,
      "a825": 9438,
      "6752": 9439,
      "9dd9": 9440,
      "14d8": 9441,
      "edd2": 9442,
      "944f": 9443,
      "bf4f": 9444,
      "f0de": 9445,
      "c405": 9446,
      "a446": 9447,
      "0ba6": 9448,
      "af6b": 9449,
      "7dc1": 9450,
      "f534": 9451,
      "7051": 9452,
      "773a": 9453,
      "08e3": 9454,
      "24ae": 9455,
      "16e7": 9456,
      "0f63": 9457,
      "dd25": 9458,
      "dd26": 9459,
      "069b": 9460,
      "06af": 9461,
      "1d21": 9462,
      "16af": 9463,
      "2dfb": 9464,
      "2630": 9465,
      "57e9": 9466,
      "71a6": 9467,
      "8450": 9468,
      "9418": 9469,
      "9f2b": 9470,
      "d814": 9471,
      "e5ba": 9472,
      "ff53": 9473,
      "ffc1": 9474,
      "0263": 9475,
      "18fd": 9476,
      "1cb6": 9477,
      "1c98": 9478,
      "1cc2": 9479,
      "1b0c": 9480,
      "1b90": 9481,
      "0c59": 9482,
      "0cd5": 9483,
      "790d": 9484,
      "19b8": 9485,
      "3c61": 9486,
      "f951": 9487,
      "fc5b": 9488,
      "ac37": 9489,
      "9990": 9490,
      "7e40": 9491,
      "cc7c": 9492,
      "cc2a": 9493,
      "8973": 9494,
      "feee": 9495,
      "767b": 9496,
      "5e02": 9497,
      "ae18": 9498,
      "2e3a": 9499,
      "2eeb": 9500,
      "550a": 9501,
      "4152": 9502,
      "413b": 9503,
      "91df": 9504,
      "2546": 9505,
      "71dc": 9506,
      "5b3f": 9507,
      "f3dd": 9508,
      "fb2a": 9509,
      "8b59": 9510,
      "78fa": 9511,
      "7828": 9512,
      "cbd2": 9513,
      "eb39": 9514,
      "63db": 9515,
      "e8d0": 9516,
      "c27b": 9517,
      "e2a9": 9518,
      "9650": 9519,
      "b678": 9520,
      "f571": 9521,
      "f82d": 9522,
      "d850": 9523,
      "ffd8": 9524,
      "15f4": 9525,
      "a542": 9526,
      "0d4c": 9527,
      "e75c": 9528,
      "f759": 9529,
      "8d7c": 9530,
      "a773": 9531,
      "2f4a": 9532,
      "cf1b": 9533,
      "cfdc": 9534,
      "555b": 9535,
      "6091": 9536,
      "26e9": 9537,
      "1dab": 9538,
      "6053": 9539,
      "ff87": 9540,
      "86d7": 9541,
      "7b64": 9542,
      "1738": 9543,
      "2395": 9544,
      "af35": 9545,
      "dec4": 9546,
      "92bb": 9547,
      "076f": 9548,
      "f889": 9549,
      "15bb": 9550,
      "1f5e": 9551,
      "5453": 9552,
      "569c": 9553,
      "58b8": 9554,
      "68a7": 9555,
      "7803": 9556,
      "826f": 9557,
      "9212": 9558,
      "97af": 9559,
      "a3a8": 9560,
      "a6b7": 9561,
      "a5b4": 9562,
      "b2ad": 9563,
      "b0b9": 9564,
      "ff2b": 9565,
      "014a": 9566,
      "0168": 9567,
      "0199": 9568,
      "01cc": 9569,
      "0a36": 9570,
      "18d2": 9571,
      "1ba2": 9572,
      "a960": 9573,
      "1953": 9574,
      "210f": 9575,
      "2134": 9576,
      "3c45": 9577,
      "5926": 9578,
      "5932": 9579,
      "59cb": 9580,
      "09fb": 9581,
      "4998": 9582,
      "acd7": 9583,
      "9edb": 9584,
      "b916": 9585,
      "7a7e": 9586,
      "7a6f": 9587,
      "eefd": 9588,
      "5e45": 9589,
      "6153": 9590,
      "5575": 9591,
      "ba86": 9592,
      "41d2": 9593,
      "4186": 9594,
      "9135": 9595,
      "bbff": 9596,
      "312e": 9597,
      "c170": 9598,
      "c1d5": 9599,
      "3b54": 9600,
      "fb1e": 9601,
      "ebf5": 9602,
      "6688": 9603,
      "a35d": 9604,
      "9229": 9605,
      "6588": 9606,
      "360c": 9607,
      "3606": 9608,
      "e246": 9609,
      "9602": 9610,
      "f86e": 9611,
      "75fe": 9612,
      "7d1b": 9613,
      "d708": 9614,
      "8df5": 9615,
      "9752": 9616,
      "946e": 9617,
      "dfd2": 9618,
      "6049": 9619,
      "b44d": 9620,
      "455f": 9621,
      "36df": 9622,
      "14cc": 9623,
      "cf35": 9624,
      "54e7": 9625,
      "6056": 9626,
      "34e2": 9627,
      "24e6": 9628,
      "ba9b": 9629,
      "c4e1": 9630,
      "0d27": 9631,
      "8aed": 9632,
      "92b0": 9633,
      "b2be": 9634,
      "6faf": 9635,
      "d762": 9636,
      "04fb": 9637,
      "1bcc": 9638,
      "2615": 9639,
      "45b0": 9640,
      "48b0": 9641,
      "4b12": 9642,
      "53bd": 9643,
      "541e": 9644,
      "64fb": 9645,
      "7490": 9646,
      "71ad": 9647,
      "94f6": 9648,
      "af07": 9649,
      "bdb1": 9650,
      "e4fb": 9651,
      "0a5b": 9652,
      "183d": 9653,
      "1c75": 9654,
      "6e91": 9655,
      "794e": 9656,
      "a952": 9657,
      "a9b2": 9658,
      "bcb7": 9659,
      "aa8a": 9660,
      "5907": 9661,
      "39f1": 9662,
      "f989": 9663,
      "7e43": 9664,
      "cc4d": 9665,
      "8c76": 9666,
      "c937": 9667,
      "7a27": 9668,
      "3e51": 9669,
      "3e50": 9670,
      "de6a": 9671,
      "be04": 9672,
      "ea72": 9673,
      "7b1b": 9674,
      "7b3f": 9675,
      "fa26": 9676,
      "9a04": 9677,
      "537d": 9678,
      "25b6": 9679,
      "4b7b": 9680,
      "1302": 9681,
      "1352": 9682,
      "1d0c": 9683,
      "735d": 9684,
      "263e": 9685,
      "8352": 9686,
      "8679": 9687,
      "867d": 9688,
      "c269": 9689,
      "f604": 9690,
      "62fb": 9691,
      "28fb": 9692,
      "28d4": 9693,
      "f57a": 9694,
      "f545": 9695,
      "9831": 9696,
      "756a": 9697,
      "0d08": 9698,
      "e705": 9699,
      "774a": 9700,
      "b743": 9701,
      "37d2": 9702,
      "0f7a": 9703,
      "8044": 9704,
      "cf03": 9705,
      "1dea": 9706,
      "dfeb": 9707,
      "1d85": 9708,
      "6d3d": 9709,
      "7f3c": 9710,
      "bde3": 9711,
      "6051": 9712,
      "7ae3": 9713,
      "5522": 9714,
      "55e4": 9715,
      "eb63": 9716,
      "12c9": 9717,
      "f790": 9718,
      "2d35": 9719,
      "8dc4": 9720,
      "6ff3": 9721,
      "2b90": 9722,
      "c486": 9723,
      "60ab": 9724,
      "b895": 9725,
      "7baf": 9726,
      "daed": 9727,
      "23a2": 9728,
      "263d": 9729,
      "3256": 9730,
      "4d8f": 9731,
      "541d": 9732,
      "5587": 9733,
      "5be2": 9734,
      "7dfb": 9735,
      "94b4": 9736,
      "a6b0": 9737,
      "a550": 9738,
      "a3ef": 9739,
      "c4fb": 9740,
      "d330": 9741,
      "05e2": 9742,
      "1cfc": 9743,
      "1c69": 9744,
      "79bc": 9745,
      "793c": 9746,
      "7cc5": 9747,
      "9cfa": 9748,
      "2c54": 9749,
      "8c52": 9750,
      "ced6": 9751,
      "ce81": 9752,
      "9ed5": 9753,
      "9e04": 9754,
      "5cd2": 9755,
      "5cde": 9756,
      "7ad1": 9757,
      "7a33": 9758,
      "7a1f": 9759,
      "1eb1": 9760,
      "5efb": 9761,
      "ae0f": 9762,
      "1a7e": 9763,
      "5a7b": 9764,
      "558e": 9765,
      "9a2c": 9766,
      "a178": 9767,
      "2583": 9768,
      "5b3c": 9769,
      "f372": 9770,
      "d136": 9771,
      "78f3": 9772,
      "1d4e": 9773,
      "7352": 9774,
      "634f": 9775,
      "832d": 9776,
      "927b": 9777,
      "f248": 9778,
      "e688": 9779,
      "624f": 9780,
      "626b": 9781,
      "456e": 9782,
      "d820": 9783,
      "c8fb": 9784,
      "6d53": 9785,
      "14db": 9786,
      "7d55": 9787,
      "3779": 9788,
      "9f40": 9789,
      "a742": 9790,
      "2d02": 9791,
      "ad4e": 9792,
      "10fa": 9793,
      "24de": 9794,
      "5f75": 9795,
      "c406": 9796,
      "529f": 9797,
      "28e8": 9798,
      "36dc": 9799,
      "1b6c": 9800,
      "3ac4": 9801,
      "f591": 9802,
      "11b9": 9803,
      "fa9c": 9804,
      "a3c5": 9805,
      "0f8b": 9806,
      "9de7": 9807,
      "30eb": 9808,
      "b4c6": 9809,
      "8517": 9810,
      "df66": 9811,
      "d19a": 9812,
      "4ae5": 9813,
      "351d": 9814,
      "0802": 9815,
      "03bb": 9816,
      "1bc6": 9817,
      "4fb8": 9818,
      "680c": 9819,
      "9f5b": 9820,
      "a490": 9821,
      "af13": 9822,
      "b337": 9823,
      "f431": 9824,
      "0166": 9825,
      "0137": 9826,
      "0134": 9827,
      "019c": 9828,
      "02ac": 9829,
      "05ab": 9830,
      "18bd": 9831,
      "6eb4": 9832,
      "6ec8": 9833,
      "69df": 9834,
      "6972": 9835,
      "0c6a": 9836,
      "0cef": 9837,
      "79d6": 9838,
      "796c": 9839,
      "7c59": 9840,
      "4e05": 9841,
      "4e7a": 9842,
      "3cfb": 9843,
      "290a": 9844,
      "fcee": 9845,
      "4c52": 9846,
      "dcce": 9847,
      "99f6": 9848,
      "cc34": 9849,
      "89ca": 9850,
      "8c4f": 9851,
      "8c83": 9852,
      "3e6b": 9853,
      "1a86": 9854,
      "7bd2": 9855,
      "5a73": 9856,
      "1670": 9857,
      "538e": 9858,
      "ba27": 9859,
      "254d": 9860,
      "5253": 9861,
      "6b42": 9862,
      "9bfc": 9863,
      "13fc": 9864,
      "1d5c": 9865,
      "837b": 9866,
      "83db": 9867,
      "e33c": 9868,
      "b3f1": 9869,
      "1253": 9870,
      "123e": 9871,
      "2225": 9872,
      "3822": 9873,
      "fddf": 9874,
      "7d7a": 9875,
      "4d77": 9876,
      "9f70": 9877,
      "6f7c": 9878,
      "8f05": 9879,
      "8f42": 9880,
      "7f4f": 9881,
      "1de3": 9882,
      "4f51": 9883,
      "14e6": 9884,
      "1da7": 9885,
      "6d35": 9886,
      "6d32": 9887,
      "b09e": 9888,
      "b050": 9889,
      "d79f": 9890,
      "1dfd": 9891,
      "1db2": 9892,
      "f5ee": 9893,
      "aaab": 9894,
      "5521": 9895,
      "fde8": 9896,
      "bdcd": 9897,
      "a0ea": 9898,
      "63c9": 9899,
      "b794": 9900,
      "d4c7": 9901,
      "cecc": 9902,
      "5b65": 9903,
      "e797": 9904,
      "403c": 9905,
      "a19a": 9906,
      "b515": 9907,
      "bd2c": 9908,
      "b4a9": 9909,
      "17e0": 9910,
      "2330": 9911,
      "356f": 9912,
      "5562": 9913,
      "53e2": 9914,
      "545d": 9915,
      "6316": 9916,
      "7fba": 9917,
      "76a1": 9918,
      "7f2e": 9919,
      "74bd": 9920,
      "9707": 9921,
      "9307": 9922,
      "a71f": 9923,
      "a66f": 9924,
      "d4b3": 9925,
      "ef1f": 9926,
      "0145": 9927,
      "0123": 9928,
      "016f": 9929,
      "1bff": 9930,
      "1b51": 9931,
      "7979": 9932,
      "79fe": 9933,
      "a926": 9934,
      "210d": 9935,
      "9c1c": 9936,
      "9cb5": 9937,
      "aa02": 9938,
      "596a": 9939,
      "0906": 9940,
      "09f7": 9941,
      "4968": 9942,
      "ac2b": 9943,
      "2c7a": 9944,
      "6c09": 9945,
      "7efd": 9946,
      "7e50": 9947,
      "d9f4": 9948,
      "89b3": 9949,
      "e92f": 9950,
      "0e79": 9951,
      "1e69": 9952,
      "def2": 9953,
      "de60": 9954,
      "2a52": 9955,
      "5e6b": 9956,
      "ea43": 9957,
      "ea23": 9958,
      "2ee2": 9959,
      "0b2e": 9960,
      "0b07": 9961,
      "db7d": 9962,
      "7b28": 9963,
      "7b84": 9964,
      "3adb": 9965,
      "9a3a": 9966,
      "da6a": 9967,
      "532d": 9968,
      "a1dc": 9969,
      "a122": 9970,
      "91a9": 9971,
      "bb4b": 9972,
      "25aa": 9973,
      "7179": 9974,
      "3b04": 9975,
      "4b48": 9976,
      "56bc": 9977,
      "6342": 9978,
      "634e": 9979,
      "2685": 9980,
      "e350": 9981,
      "334a": 9982,
      "c350": 9983,
      "c2df": 9984,
      "c2dc": 9985,
      "9223": 9986,
      "f2fa": 9987,
      "72aa": 9988,
      "6276": 9989,
      "82fa": 9990,
      "b64f": 9991,
      "100e": 9992,
      "100a": 9993,
      "9851": 9994,
      "a851": 9995,
      "fd1c": 9996,
      "681b": 9997,
      "4479": 9998,
      "50f8": 9999,
      "04d3": 10000,
      "9402": 10001,
      "b07f": 10002,
      "cf41": 10003,
      "a472": 10004,
      "50c4": 10005,
      "51e2": 10006,
      "14b8": 10007,
      "da9e": 10008,
      "4a93": 10009,
      "a598": 10010,
      "a034": 10011,
      "c399": 10012,
      "21bc": 10013,
      "c0a8": 10014,
      "2d9d": 10015,
      "b397": 10016,
      "db90": 10017,
      "2fea": 10018,
      "7df4": 10019,
      "0f64": 10020,
      "adfc": 10021,
      "edfc": 10022,
      "30a5": 10023,
      "0314": 10024,
      "0468": 10025,
      "0756": 10026,
      "1d56": 10027,
      "2450": 10028,
      "240d": 10029,
      "481f": 10030,
      "6810": 10031,
      "67a8": 10032,
      "75a7": 10033,
      "949c": 10034,
      "a72d": 10035,
      "a8a4": 10036,
      "e8b7": 10037,
      "f634": 10038,
      "f284": 10039,
      "0127": 10040,
      "01b0": 10041,
      "01b2": 10042,
      "01e2": 10043,
      "0223": 10044,
      "02d4": 10045,
      "1c68": 10046,
      "69e1": 10047,
      "79f1": 10048,
      "794d": 10049,
      "510c": 10050,
      "a9ec": 10051,
      "fcfb": 10052,
      "4cb9": 10053,
      "4c36": 10054,
      "4cc6": 10055,
      "7efb": 10056,
      "7e5c": 10057,
      "7e68": 10058,
      "8982": 10059,
      "9e05": 10060,
      "9e49": 10061,
      "5c02": 10062,
[...]
