[PAD]
[SEP]
[CLS]
[UNK]
[MASK]
0
1
2
3
4
5
6
7
8
9
a
b
c
d
e
f
##0
##4
##7
##e
##6
##b
##a
##8
##f
##5
##3
##2
##c
##9
##1
##d
##00
000
0000
##01
01
##ff
##02
##80
##04
##22
##08
##06
##03
##21
##a9
##41
##91
##05
##76
##fe
##0c
##0a
##0e
##31
##ac
##73
##f5
##4c
##0b
##88
##0d
##07
##47
##a1
02
##48
##0f
##09
##61
##83
##e1
21
##71
##dc
##51
##81
##d1
##f1
##b1
##36
##4e
##46
##2e
0a
##45
##f6
##db
##4a
##96
##75
##26
##25
##43
##23
##c1
##4b
##d6
##49
##86
##d3
##29
##de
##b6
##2c
##d5
##fa
##f3
fff
##8c
##d9
##fc
##85
##7e
##8e
##b5
##7c
##ae
##f9
ffff
##89
##bc
##be
##a6
##a5
##79
03
##a3
##b3
05
41
##b9
0001
##f0
##87
##27
##d7
fe
##f7
##2a
76
##c6
##da
##c5
022
##fb
##95
##ce
##3e
##42
##9e
##4d
##8a
##8b
##35
45
31
##fd
##2b
15
f5
0101
0e
##2d
2e
##44
19
##20
##66
##bb
##cc
61
##77
##8d
##33
080
25
##99
65
##4f
16
##7a
11
6e
##ba
4e
##40
##dd
71
080a
51
##c3
801
18
e1
001
0108
1e
f1
##c9
##28
81
d1
3e
##65
c1
##6e
ae
75
a1
ee
0220
b1
##aa
ce
91
##7b
0100
##f8
35
9e
##93
55
de
e5
ac
##70
be
5e
##f2
7e
c5
b5
85
95
36
a5
d5
8e
4c
06
f6
##ab
##39
##7d
29
##3c
96
66
##82
46
##f4
09
86
0c
ff
e6
26
b6
56
d6
88
6a
2c
a6
c6
##72
c3
63
6b
44
53
006
##ad
1c
12
##78
304
49
a9
39
d3
##bd
f04
79
5c
13
43
93
23
1a
69
d9
59
e9
e3
##74
6c
f9
99
a3
89
##001
73
33
3c
c9
b9
f3
bc
2a
b3
8c
ec
dc
cc
83
##a8
fc
9c
7c
22
##2f
3a
##24
04
17
0b
4a
##d0
14
a91
1b
db
fd
fa
08
##b4
##000
7b
07
##8f
87
##84
0d
##7f
4b
a914
3d
8010
5a
6d
a8
9a
fb
5b
7a
c7
3b
ba
eb
8a
8b
##b0
9b
da
bb
##a0
2b
ca
cb
aa
ab
27
ea
f040
4d
0121
e2
1d
37
##df
##b8
77
##a2
57
32
##d2
2d
47
a7
f7
d7
62
67
cd
ed
b7
72
8018
##af
ad
8d
5d
97
52
##d4
002
bd
e7
##b2
dd
##a4
68
9d
d2
b4
##d8
a2
##a7
7d
82
0f
##b7
##bf
42
df
f2
0019
76a9
1976
1f
##730
88ac
92
b2
c2
bf
48
4f
74
af
6f
38
64
28
cf
78
##32
2f
b8
5f
c8
9f
1801
58
7f
98
ef
##c0
8f
3f
##830
34
4402
3044
4730
e8
2102
f8
01f5
d8
2103
##c8
54
a4
d4
f4
94
24
##215
c4
##cf
##c2
##c7
##30
e4
##c4
##cd
84
##ca
##cb
2100
0200
##3b
011
##3d
##50
4502
0221
1541
##3a
4830
##38
3045
##34
180
##37
##90
004
##9a
##9b
501
##98
##e2
##9d
100
00b
##3f
##92
##94
##9f
00f
##9c
##97
##62
##e0
##53
##55
##59
##63
##67
##52
##6d
##ee
##e3
##5a
2001
##5f
##5c
##54
202
##e6
##070
##69
1215
##58
00d
##56
##60
##eb
201
##57
204
0002
##e4
##5e
##e5
##e9
##6a
1001
00
##dc3
##e8
##6f
##ed
##ea
##5b
##5d
##ef
906
00c
##64
##68
206
##6c
0a9
00e
00a
##e7
##6b
203
##ec
205
##002
006a
6a47
696
008
003
##0f0
200
006b
10c
1241
ff02
6b48
##312
021
c0c
009
207
323
0017
0014
f03
ac00
0a1
5dc3
0105
0500
181
2900
##220
223
1600
##803
866
##0fe
303
0068
636
746
005
d000
031
##221
106
3629
##080
0ac
101
70b
70e
70d
70c
##718
226
4c6
141
709
17a9
726
104
##022
010a
feff
708
b01
6f6
70a
222
##952
3db
bb6
091
0300
401
3b6
171
706
5010
007
##0ff
014c
404
ff1
14c
4fa
40e
c0c0
##470
1a1
696e
411
036
5018
491
676
405
406
736
##2d0
504
##f70
c0b
##dd0
##c18
0400
102
##8c0
409
403
0016
a08
0ff
##874
##612
146
40b
##b18
ff3
14e
##618
10e
747
70f
40c
ffe
c76
0a90
402
##512
400
145
##d12
##bc0
40d
0370
149
14b
fe1
##f12
##f72
f043
081
126
##c12
##893
143
##418
408
0025
0020
40a
1802
##12
0e1
##412
##518
c3e
##f5d
##888
4312
6d6
227
##f18
##b12
##712
f600
e86
223a
148
dff
##8ee
00fd
f3e
1805
0170
##75d
d01
7186
10b
3a1
2e1
##d32
4a1
00ff
##756
147
##d50
ff5
##51a
##212
04c
14a
0005
f5b4
##610
##d18
646
04b
186
bce
4c5
901
a01
b4f6
ac6
##42f
ffc
df5
##c10
391
##318
##d1a
ff6
5ff
##210
0118
##ddf
##812
##887
##310
185
##d74
0247
##3c0
10a
##c1a
##870
10d
343
4e1
407
##510
##83d
b08
##b10
ac5
##47b
2803
##218
6c6
##990
049
##316
1e1
108
##810
##003
105
##d10
##42d
3e1
04e
0125
##61a
##8c3
##77d
5fe
333
c91
4ce
fa1
##b1a
##b50
##c90
125
##2ec
##750
191
##b5d
##a34
32c
626
20b
##4d2
6000
2a1
##22e
##35d
373
208
d29
##61c
002a
2520
##836
302
ca1
ace
c06
##272
1a6
4a5
##410
##752
5221
db6
##d70
109
##4d4
f0e
##004
1a5
##8a2
##8e8
ff9
1a9
##8e0
##950
20e
##710
80c
##839
085
701
##818
##1a
666
050a
##f1a
##c1c
c01
1ac
##832
##890
40f
##75f
##c1b
##31a
0570
f01
##516
##f74
##d92
5a1
048
012a
7ff
0de
##c1e
##18
##770
##8c7
##440
309
e01
##83a
8e1
20a
##8cc
ee1
0f6
##d38
80e
4ac
##8ca
##dc8
##8a0
##c11
##616
##21a
20c
20d
##897
80d
##444
045
##ccc
aa1
1ae
##804
##428
##076
##833
306
##27b
##fdf
50e
7d6
7a9
##c30
0aa8
9e1
5e1
6e1
##8a8
6a1
##837
##f10
103
##b16
##614
5c5
##9ec
808
##c32
##a39
##95c
##10
##420
686
##8df
##424
f03e
ae1
705
##889
04a
##21e
d03
##43d
ce1
301
0022
##fcd
4a6
##2a0
d04
##f50
##805
##dd4
##89a
##cc0
7600
##808
066
##4df
##f82
ea1
##c16
##ab8
0c5
625
##8c8
##877
##784
##95a
9a1
##091
809
d91
604
5a6
e91
##8bd
ba1
f0d
225
086
685
5fa
##88d
##073
##872
##41a
2208
c0d
c0e
##809
##c3d
891
##8e2
046
b4c
be1
725
12c
de1
f05
##619
##b90
##8b0
##ccf
##b17
##75c
485
##71a
##214
526
##350
fac
7a1
##c1d
##88f
3a5
##074
##222
d3e
##80e
4ff
209
ba5
##c13
##b34
ffa
##d7f
591
##0f5
##b13
##7b0
c08
##8b8
##89e
c09
f91
##2b0
##4f8
##956
##72f
##216
##da0
##7ee
##b1e
##835
##650
##8ad
##8e3
##b5c
##930
fa9
##d53
##270
##d16
791
##61e
##fb0
902
4a9
7ac
##514
##932
##8b2
##f77
##61b
##513
326
##bc7
##c1f
##81a
##d1b
80b
601
c03
##da8
##2af
##d1e
7e1
##f24
##7c0
##9e2
291
605
##8a4
576
##838
##88b
##bce
##c14
##886
0800
##d13
##51e
##8bb
##d14
##b32
##4d8
60b
##c3a
503
##31e
##9ee
##834
4ae
##7a8
##8dd
##bb0
##88e
##7df
166
##213
##b14
4fe
d05
##a33
425
##b1b
9ff
##2e2
##892
f06
703
efe
##d11
##8ec
2db
##8ba
##c3c
1ff
##615
c0a
##9ef
##ccd
e0d
##517
##d5c
##d1c
##511
d0b
##f7f
##957
##d97
##fd0
##b1c
##89f
##b11
##4dd
##88c
##51b
##4d0
##44f
##87f
##4f4
##954
##c3f
##d78
##c38
##51c
##da2
##71b
##8ab
##80d
##898
##8cd
606
##b5b
da1
##8d0
325
##7ab
##bee
##93c
##b53
##d3d
##895
##d7a
e05
6b6
f0b
0ce
00bf
7ae
##793
##2d2
##274
##c15
##c17
##519
##ba8
##883
##a32
##f3d
##774
##8d2
691
##c3b
445
##736
2ac
##dc0
##c39
486
991
##713
a84b
##b52
436
904
e04
##882
cff
376
66e
##8e9
129
##dcd
876
##cc8
803
cd6
##8ce
6a6
d96
##b3d
24c
704
##c9c
d06
##9ea
##515
d45
##21c
8a1
##73d
##953
54c
2ff
##8d8
804
##d54
##772
908
##d7d
##2b2
01fe
5c6
##472
06e
e0c
c02
2a6
##d90
##b58
##f90
d08
e03
506
##ab0
##fb7
3a22
##83b
##8a7
##00e
##885
##42b
3c5
eac
7c5
dc5
##fd2
##7e2
##dc1
##8c4
##611
##8c5
7a6
bff
##d72
##95f
##8b7
##b3e
d0e
776
##7b8
905
##958
##7cc
##8bf
a03
##d9e
##fdd
b76
60d
##219
##b56
##ba0
##753
f08
123
0062
##00c
1fe
##fb8
##dd2
##f1c
##8ef
##8e5
c85
a0e
##7c6
##790
afe
##c94
8ff
##f2f
##c98
e25
##c37
##87a
##7a7
cce
##be5
##79a
##777
##83f
##75e
b0b
305
##9ed
##89b
##f34
b91
9fe
##8e6
##aa2
##8af
b0d
5ac
##4f2
##c9d
##b39
c05
##bea
##b3a
##cc9
##8d4
b05
##cc2
603
fed0
##d30
##8c2
##fba
##cc7
##211
##d15
eff
##7ed
a06
##2a2
##51d
##8ed
0fe
3ff
##9e8
##c9f
##75a
##d33
##41d
0c6
##b30
##51f
##b5a
##9eb
##a37
1c5
446
##fd8
##613
##878
9a9
##f16
##2e0
##ab2
80a
##b3b
##2a8
##8b4
##fbf
30b
5a9
##95b
##7d0
##d19
##7a2
623
536
a05
##715
##bec
##cc3
da9
805
ba9
##b9a
##f7b
##c19
2a5
5de
6ff
##aa8
505
##352
##ad2
##dc9
d0d
fae
##c34
##8ea
fa6
##87d
##31c
##881
c04
f0c
##d39
##d9c
##b9c
##8e4
##8aa
##7e9
##be2
9ac
##a3b
##ba2
3a6
b04
##899
##f7a
##d52
##617
##8c9
##d95
##9e7
##653
##88a
##87b
##b3c
643
##83e
##390
10f
##a3e
545
##c9b
##b94
##b9e
702
6c5
##754
1d6
##95e
##b9f
609
##d5b
##b5e
5b6
196
##8cb
a0b
2a9
##dd8
e23
##7b7
##7a0
1b6
e09
##f7d
##8c6
ab6
##c93
##31b
##724
cfe
##8eb
##21b
4000
##beb
##f30
##884
##41b
##fbb
a2c
##0a9
903
60c
##f3b
##27d
aa9
##d9b
##d3a
##bab
##bb7
##c92
##758
##d3b
53ae
366
2fe
##9e0
aeff
##9e3
##bad
4f6
##d58
##cca
e02
396
276
e0e
##2e4
##7cb
##dc7
##072
a0a
##7e5
##ccb
##83c
##416
##bb2
##baf
##9e6
##7c7
##1b
##414
62c
b85
##fc0
##2ea
##79e
b48
##7e6
##80c
##bc8
b0e
##794
##7c8
##f1e
##cc4
2f6
549
##aaf
##fce
e26
##f1d
##93d
##755
a04
##b15
845
##711
645
##955
##b1f
##005
##8cf
##f32
##ba4
336
525
##938
50c
##816
##bbd
##61d
##dce
##716
b03
##dc2
##d3e
##7ef
9a5
##35c
fa5
1c6
##79f
9063
##b1d
##f8f
##d9d
3a9
##41e
##89c
b46
50b
##7cd
63e
##d1d
##89d
dfe
e0b
176
##21f
5ae
##a38
##f93
##61f
b0c
60e
##dcc
##732
##d17
##77a
0147
90c
6e76
##f78
##d55
edb
##9e5
##b59
##bcd
##9e9
##b54
##73e
2c5
##d1f
976
5ce
##bbb
##80b
##ddd
fdff
909
a02
##939
##7d8
##759
90e
386
##c9a
1060
##b19
802
##284
076
##27a
##80f
345
##d35
##bbf
##7e4
##894
##d9a
a0d
745
##d9f
##b5f
##d57
##b33
##f11
##008
##bc2
##a30
##bcf
##a35
##39c
##2e3
d0c
##ad0
##dcb
##d3f
##fbd
b02
d4c
608
6952
245
836
ea9
##8e7
94c
##f84
8a9
##bcb
2c22
##798
##78f
##b57
f85
786
6fe
##be4
##228
##c97
##7e3
22c
##7d4
##7e0
##959
c96
##d77
346
##2ad
##d94
e76
##77f
f02
246
476
##7ad
d09
##d5d
f09
##65c
##a3d
4b6
bf6
##3cd
##b55
236
##2bb
7a5
##b98
502
aa5
b0a
##411
##dcf
##217
##bb8
##7bf
##fd4
cf6
##d3c
##2ee
##b93
af6
##d5a
##353
##ba7
3dbc
8fe
##f14
##d5f
##bef
13e
6a5
##d5e
##7d2
3ac
a0c
ca9
385
fd6
##d93
##b9b
##807
##314
945
##739
##311
985
429
136
##be6
##82f
b09
285
##81c
##394
90b
6de
##792
e2c
##757
##b37
cc6
60a
e08
30c
ea5
##d34
##fcf
##bb4
54e
##f5c
##fc7
##bca
aff
##fb2
e06
b86
6ac
##bba
2251
##999
##be3
##2ed
a3e
508
e6e
3ce
##7e7
##7eb
296
0700
##aad
90d
##d98
##abf
44b
30e
##413
##dca
##aa0
3c6
##f19
ca5
##7ec
d76
096
b6e
##3c7
d25
##2e6
##d59
0b6
fc5
##3c8
##bdf
##bc4
##7c9
50d
##d56
##778
546
##bc5
##1e
##9e4
24e
##bc9
##795
bfe
8de
##415
##2dd
e85
##f3a
##3cf
##da4
##7c5
c86
94e
da5
##4a8
##1c
ece
##fb4
##4a2
##31f
5a5
##7aa
dac
64b
##f9c
0402
52c
##77b
bae
##41c
##b38
##dc5
30d
a76
##f9e
##28f
##fc3
##419
da6
d0a
8c6
##b95
b06
##417
##359
5db
a46
34c
##93b
##bc6
##7bd
##be7
825
806
796
##992
##d7b
248
602
##dc6
##2d4
##2e7
5f6
f46
2d6
##11
dc6
##7a4
##aa4
20f
64c
##357
596
f26
##2ba
##797
##be0
##b35
##35a
5120
##f1f
0070
bc5
ade
05d0
##d37
##358
##2b4
##81b
##f17
##be8
fde
##734
##16
466
##f9a
##7cf
585
f76
##75b
##79b
##79d
966
6a9
d85
885
##71e
##dc4
ff01
e45
##7e8
##ab7
##1d
##a3f
a25
0218
3fe
##be9
cc5
##daf
##81e
##7ea
1000
aac
##7b4
##7b2
##b3f
##2bd
##2ab
##f1b
1de
23e
f0a
##b92
##bc3
##7ca
##2b7
f6e
dd6
##35f
##f37
##33d
##a3a
##f94
##f38
90a
##f3f
##4a4
##41f
43e
426
8db
##71c
##714
##b97
50a
##79c
d02
##f13
c4c
2de
##2ef
##817
cac
##80a
##282
##99f
a26
f4c
##2b8
785
46e
f96
00fe
8ac
##313
##224
##7c2
##3ca
##aa7
1ce
##2df
##bed
##f35
##f92
74c
##bd0
a86
##da7
##93a
##3cb
##aaa
e4c
##d99
72c
##7ce
0db
dce
a49
##baa
##bcc
##73f
b25
##3c4
8ae
7fe
##937
4db
eae
266
##abd
cdb
9c5
##27f
##737
##73a
53e
7b6
9b6
##2e5
##b99
##934
##21d
9c6
8f6
e3e
##39b
##317
fdb
##814
308
f4b
##95d
44c
##22d
f25
##824
26e
##35b
222c
10ce
e66
##7c4
##71d
7de
8d6
##356
96e
fce
##994
##2bf
8ce
##f3c
##333
c4e
f4e
a85
##3c2
9d6
##7c3
##735
##007
56e
##2d8
7db
##f9b
##b9d
##f3e
df6
##39d
##330
ea6
##2e8
##99a
e0a
648
##315
0a31
1f6
##738
84c
a09
3d6
f86
##00a
##815
ddb
##47a
##f39
##4ae
0048
##993
7ce
1f00
e29
c45
##2a4
ca6
a4e
043
##73c
##31d
##813
##dad
##806
##2e9
##f15
cde
##73b
c66
2ce
ed6
##2a7
729
##daa
##2aa
a4c
3ae
509
d2c
##799
aa6
a6e
b36
##fcc
548
##f53
##354
b45
##733
##f52
0204
##bd8
649
a45
##f33
7c6
bac
##65a
925
##bd2
##7af
##f57
b010
##14
##009
##071
a4b
54b
83e
2b6
##39a
629
##717
dae
##811
##332
84e
9ce
2ae
##35e
f66
##81f
9f6
##93f
##dab
cae
d86
##398
d23
##fc9
6db
##a3c
##22c
##319
##f51
##ab4
##998
##f98
2c6
a96
8a5
723
##997
e4e
f2c
##f9d
a36
586
##19
b2c
ba6
fc6
##81d
3f6
d6e
dde
##229
##33b
9a6
4d6
##71f
496
826
##22f
36e
8c5
b26
##477
c46
a23
##397
ec5
d4b
##355
529
74b
adb
##719
e96
ede
##2eb
92c
e46
bdb
0d6
##99d
24b
##aab
##4a3
d26
c25
##f54
9de
##075
##478
f45
##277
##392
##f97
##223
bd6
ad6
##fc6
bc6
##fcb
##654
##652
fb6
286
93e
82c
523
c4b
ef6
eb6
##65d
5d6
##47c
##adf
73e
949
c26
7f6
f36
##819
##99b
bde
##33a
d4e
33e
e4b
f48
##227
e36
3de
##bd4
##ad4
##f95
##4a7
74e
1803
##4ab
f23
##ad8
749
##334
b3e
8a6
846
4de
##4a6
##fc8
926
34b
##fc2
9ae
##17
a29
86e
##f5a
c36
1db
b4e
566
d46
84b
44e
##fc5
##278
42c
30a
936
##f9f
886
543
##13
##fca
d36
##65b
##39f
##fc4
##99c
c2c
##f5e
b4b
##33f
##f5f
946
64e
9db
3232
##22b
##4a5
##657
6ae
##226
##475
34e
##655
##47f
aae
423
ec6
8b6
c6e
##077
923
##078
d66
cb6
##65f
349
##474
b96
##47e
##65e
b66
##15
##479
##337
329
996
a66
c0f
6ce
896
##47d
0600
##225
##471
##006
986
##07b
748
743
##4af
229
##22a
b29
##f58
c48
##338
##079
94b
448
##658
848
##07a
##1f
b23
0248
##339
##f59
##4ad
c29
c23
##659
##4a0
d48
afa
##00f
##f55
##656
0148
##f56
##f99
e49
d43
249
a84a
f43
929
##07d
348
0208
4c69
849
829
80f
449
9fa
948
a48
##f5b
f29
e48
efa
##00d
##07f
4002
##33c
2fa
##00b
5000
##07e
243
9062
823
b49
##4aa
d49
443
##07c
f49
ce96
60f
a43
30f
8601
d0f0
b43
0103
c49
6fa
9001
c43
843
1fa
8fa
0abb
3030
bfa
0004
943
e43
cfa
1008
dfa
e0f
0fa
f0f
3fa
0047
7fa
1009
50f
b000
6a01
0303
454a
0a15
1716
d0f
9064
0a00
a0f
1002
3220
90f
491f
b0f
0b00
f549
##a84
05b4
2000
1b00
7575
62d0
b404
##a8f
0018
00a0
00b8
9301
fe20
f031
0dd0
0a4f
2a02
fbc0
2e32
a086
5041
0ac7
ff03
011a
0c00
0801
7800
8700
0112
f046
0d00
0919
0900
b6db
0302
2e31
1880
0318
7422
c0b6
2cb0
a002
0132
01a0
1804
1040
0af1
10c8
7022
6e74
0032
636b
1818
1c00
a84c
3022
0144
2215
2022
1a40
02ff
7478
20fe
fd00
0a02
0003
bf88
2801
7b00
01fd
2500
3b63
c893
00c0
024c
2200
1800
6574
f3e8
e3e1
05e2
1300
0f00
7465
e1f3
1101
4104
08f0
0270
0202
f525
0470
d300
df75
319b
0008
e200
1826
bb66
0141
f001
3199
4fa8
3130
0e00
4faa
2202
a001
1400
022a
8070
6401
0010
0a8c
347b
0150
a220
6f72
012e
3230
020a
2f70
0180
1100
01f0
fdfd
ff3c
9400
1004
6b00
0045
0a0f
0114
6d69
0162
0a3d
004e
100f
0a3b
1e00
0063
312e
3128
ec03
4400
c070
e000
f049
2544
8668
05e0
10e7
18c0
02cf
034c
1825
4070
2e20
226d
7400
8011
7264
fd0a
e756
4cf0
2a01
7b22
10ff
0a4d
3a20
4500
036f
004c
0104
2a0e
1401
0ffa
4fa9
a849
1200
6174
319a
c100
3800
e869
2274
1501
dff7
09f0
2a34
2605
000c
0340
6303
7365
0023
87d1
1901
000f
616e
6578
0090
00fc
6e20
6c61
0ad3
aa00
fe00
7ddf
6172
0011
a3c0
7263
3b62
b2ec
008a
6f6e
ff19
7874
6821
7469
0af0
0145
53f9
1018
204c
001d
3d05
4990
00f0
bb65
742f
0080
0a87
201e
00d2
88db
05d3
e567
1025
3e01
636f
0404
1806
6963
4201
6b22
9e20
6572
1c01
f77d
6169
001c
8a00
616d
fc00
706c
1a00
5718
2261
4d48
db04
4a01
2262
ac80
1d01
0140
0d01
2270
e1f6
d900
6100
8702
e900
200c
f631
0122
0102
6220
008b
b081
227d
3120
3d00
6765
2231
4900
0201
2e01
4e01
c70e
1500
0bf0
226f
6f70
02f0
f13e
4601
f13c
024e
20f0
6d74
db00
5e01
c70a
3d03
1a15
014e
0501
1003
c70c
b159
db69
342e
0a6d
3d01
0a42
2700
d6f0
3112
a100
866c
0f83
2d32
4316
767e
5201
40e1
e300
0a0d
0a55
e1eb
3132
6700
4012
05e9
00ed
0304
00fb
0a08
7273
1700
0cf0
2a21
0adf
ff09
ae01
044c
632d
6272
3231
e944
08ee
7d68
3a01
202e
204e
6801
0802
6c65
382e
0301
0320
550a
eeff
00a8
2800
1d00
b201
3094
1900
2c18
6dfc
0250
4ed0
0237
1848
e100
0718
3234
0a2e
52ae
2301
011c
f555
4c00
cd01
d700
054c
6800
00d7
1807
db81
675f
f5af
2004
da00
2070
0518
3138
2012
0df0
ac62
7261
05ba
2020
4752
5c07
0f6a
cf01
d2f0
901a
3201
6df8
10f0
3200
2002
010c
034e
2e34
4101
df01
c911
1840
0307
0adb
0ef0
6861
b500
011d
0401
8c48
c19d
e600
6368
2322
3b61
09ae
2300
7466
3431
116a
d100
08dc
315a
1874
6f6d
6003
00d8
440d
8301
7000
4fa7
96c1
00b5
b001
0a53
aed6
6dfa
ed00
f301
01b8
d0fe
0a6f
00e2
2101
d6c1
a012
9061
2400
3d22
2d00
3238
a301
0901
7574
dc01
00fa
00d9
0065
81ee
0049
2064
b300
182c
00e3
9844
55aa
2003
58c0
0110
3d75
0d31
3810
743d
dd01
2c00
00e0
fdfe
2d38
4096
3601
00e1
2016
a90d
2afe
3b60
6d00
5620
0035
d001
6e3b
3100
a901
2600
5a01
bb64
d400
2a2e
1b01
0280
6e00
ce01
6461
662d
0215
0116
372c
00da
14f0
79c8
09d3
7461
0064
2078
50e9
f401
02fe
fa20
4057
927b
3000
204a
5601
d327
5fa4
ae05
0ad2
322e
064c
ca00
084c
af8a
4100
0a5f
2079
d301
ac02
f9be
d200
25f0
daff
1601
0091
0418
fd01
6561
006d
1c05
e2fe
0083
5618
2048
180b
0601
6e73
0ff0
e86c
b4d9
5d01
fa74
6522
00df
df8e
1b05
6300
c3e2
00d0
3912
044e
f57c
05d2
530b
0d25
5ff1
7970
c501
2052
0169
4680
a422
ff22
2a41
08d9
2031
00cf
6573
ac40
9d02
2010
5d00
c074
2061
ae00
c002
04d4
207d
0021
fe40
002e
2802
2032
beb4
6374
2041
0012
0a0b
2f00
e2f0
2008
0212
0aa4
4e00
2a00
00f9
2030
f180
7c42
0839
f13a
2018
5e00
de00
11f0
200a
4d43
e0ff
6e67
7718
ffe6
2072
202f
440b
00cd
200e
32cd
6c49
2068
1140
4001
3600
3198
4121
de05
ff72
8d50
5800
d01e
1701
8a47
bafa
a208
00ae
f201
054a
76ff
3032
3b00
f700
70f0
201a
4904
2e00
bf00
0a4c
2051
205d
d3e9
f101
d101
2042
43de
3400
db01
d405
105f
003a
00ce
0576
e400
2063
d4d2
866f
0a0e
00ad
a601
2069
009d
1026
2005
207e
7065
8b48
2028
2006
2050
842d
00ee
4540
f5fe
0a32
40f0
00db
0a07
0612
7265
d1f0
2074
6201
3131
00c2
a0f0
f527
e101
2034
8000
fe1e
e2a3
cfcd
18ff
1402
b800
7a9a
2071
7668
12f0
03f0
0009
0088
8187
032c
fea0
9100
d800
5400
620d
e6ff
00b1
9800
bb00
6e01
094c
b4cf
180f
ca1b
5100
e001
f0e8
203a
206e
b8e8
5200
01e2
b080
00b0
4a61
00c8
01c0
8701
8d00
2038
96a7
0d92
21c0
867a
1301
1043
2021
5f40
2062
88e0
d4a1
683d
2a61
9021
3a00
0c01
ec01
f52c
205c
2019
9a39
ff00
d501
2210
a376
cdd4
c901
c76b
2401
928d
2066
e0fe
c069
e93c
2054
8784
7479
7464
7080
39d4
055f
2b00
2014
d3f0
2077
68ca
4298
4080
201c
2043
7269
a781
21c1
200b
2049
02b8
2065
0804
204d
b301
e8c3
2d20
1b86
200f
2040
1c2a
203e
dab8
3233
2015
00e9
00a6
1af0
c800
8c00
2c03
a1a9
7069
0117
6365
074c
7f00
2046
b401
43c5
e301
302e
2562
0809
0de2
2035
00ca
3900
1718
202d
00d3
206c
7ff5
2011
1201
eb43
a201
206a
6a00
3cb4
fe88
0350
4600
2013
ae04
2007
3139
2009
00be
201b
e0f0
205a
d3fe
6761
13f0
0040
05d1
0085
cd00
4102
203d
0087
2025
d7f0
01f4
18f0
207f
6f75
1005
12fe
1a01
2d7f
0e01
7300
9401
206d
2017
0031
2039
204f
2047
2023
6163
2036
206f
203c
205e
61da
03b8
f900
3300
2055
0abc
bd01
3e00
2024
b101
2076
2060
0490
c76a
2220
c769
0152
a101
206b
00c3
2067
2056
02a0
bf80
00dd
0904
7472
2037
054e
203b
202c
a401
004a
2057
000a
0a20
11dc
2053
4800
f535
2026
4d00
0069
2058
207a
0210
205b
b501
200d
a000
f582
2a81
2075
3500
2073
0216
4a00
201f
ba5d
0f18
202a
a300
0a01
2901
00de
fc01
2044
00ac
d601
2027
014a
7370
205f
d29e
000d
202b
5970
00d5
207b
5a00
a380
4200
e401
000e
00e8
652e
dc00
2033
00a9
00d1
0d12
3a12
c001
000b
1c29
fe01
6170
cf00
8245
ea00
ec00
1810
2059
2029
7286
00ea
db82
4f00
201d
002c
5fa3
f139
8800
8300
3137
c300
0887
8d01
008d
8713
64fd
d202
0a58
6665
0130
0922
4c80
3c00
00b4
207c
203f
0e12
372e
d701
0119
2045
2501
6c00
204b
df00
6441
08c3
ddc8
d5f0
1b2a
e801
1f12
6500
1080
009e
3f00
0701
00dc
2601
f901
c201
2e2b
cc01
9501
7559
8980
3610
0077
ac01
2729
00e6
436f
2c2c
2e2a
e501
0380
7088
7e01
c302
16f0
00f3
00cc
e201
c000
4300
5f00
1e01
00e5
03fe
e701
c401
d401
ad01
9c00
00f6
0403
0b4c
3133
0034
5500
ac5b
8400
14f8
9e00
f200
8001
4418
02fa
0089
0086
6901
00f8
0a57
0084
bc00
4c01
0f80
0075
f601
00d6
001a
1f01
00f4
7200
00c1
bd00
3035
b701
00f7
fa31
1271
00d4
00c5
7002
a905
04f0
c801
fef0
1c02
fa00
9101
7061
211a
7708
f408
bbce
0a12
0a7c
00f2
00a3
6d61
87f4
00c4
6200
0670
4700
3700
7098
6900
4501
00a5
3936
c601
00b2
0f01
ee01
0a83
656c
0618
0348
7500
8401
00a4
fb01
0098
9201
6600
9801
7473
a200
9901
5b80
9e02
c200
00ec
0e4c
66fd
332e
144c
357b
d901
af00
9601
ca01
f000
0a79
a600
00a2
00bb
8501
9701
a900
0240
de01
2f01
0a82
ed04
00aa
02c0
9000
4801
1412
b801
013a
7700
181b
6908
5900
9700
2120
d002
d201
fb00
00f5
8600
9e80
746f
e800
fa01
bc01
0a9d
b200
0afe
001e
fe80
00c9
2a13
009a
0082
d801
b601
0c4c
066c
5b00
00b6
00b9
0165
8101
7201
0235
009c
00e7
be01
8b01
00c7
0a56
00bc
00a1
3480
00bd
d600
0120
1809
022e
f701
ba01
101b
6f00
0a93
0b01
9900
1270
003c
1405
00f1
ea01
c680
4b00
a501
0205
ba80
0422
3240
00e4
5600
021f
7322
c900
8201
008c
0a14
2080
a800
2201
e901
d500
00eb
009f
af20
8900
0305
15f0
f5cc
2222
2804
1b18
5b01
5c00
2920
0143
f400
7680
7900
8002
6601
3101
0094
1048
1844
8100
0a1a
00c6
1404
0006
c780
af01
5300
406c
5001
3d02
0050
8200
5401
0129
4e70
0acd
9b01
8a01
00b3
1012
00ab
9b00
9e01
0111
f501
0512
00b7
00ba
0f82
1712
1010
9300
0a89
003e
0480
4b01
1480
7e00
0b18
400c
0a5c
866a
1563
2e40
5802
d00c
8500
00af
0092
0704
6e65
5501
8f01
064e
0081
4f01
a801
6400
7213
3801
a500
c600
fe60
7366
8202
3301
aa01
0322
0007
3d80
cced
5472
f801
9c01
9200
0096
6d01
7d01
3980
0405
ab01
0a70
be02
9a00
5700
35e3
5301
083a
270a
8b00
726f
ef00
8901
5c01
a70e
8c01
b600
5f01
6101
8e00
0a74
2aa1
04b8
e680
a701
402a
8e01
3134
081f
5101
ee00
9500
1f18
4302
ef01
0099
0a1f
9600
da01
00cb
2da0
c101
961c
e712
c701
2701
bb01
00a7
b900
9a01
01c8
f956
0a2d
0093
ed01
aa80
8f00
f480
7501
a202
04a9
7090
f543
0d4c
0060
b902
48a2
8801
016e
3f01
4401
2550
a700
9f00
676f
0770
c301
fa80
6563
e601
ba00
0033
023b
005a
b901
6f63
eb01
005e
6301
3333
0030
016f
6f01
9d01
9f01
6501
427d
3401
cc00
7401
7100
6001
008f
a400
7e02
7412
00ef
bcee
7a00
3c01
2680
001f
c4fa
e500
1418
aca0
25a0
8c45
6102
3001
01e0
0a95
656e
0097
6202
4701
6c01
6f6f
b400
c400
ca80
4d01
70fe
0adc
4042
70e0
0054
8004
bf01
1425
c700
1403
0ab2
f800
676c
7301
7363
b700
6f67
0095
7701
7601
3901
2c01
1860
f100
6701
008e
560a
9b80
2e67
2d01
6680
bd02
4702
0308
1264
4301
0a18
7801
3501
d302
10cd
3080
f300
9680
0f31
0015
1808
0a47
40fe
0232
cb01
0109
0a92
ab00
f0d7
7001
a614
0066
570a
3a5b
bce3
7901
7a01
c500
5901
736f
0a3c
7c00
7072
7b01
101a
4b80
4180
9580
3738
0a0c
ce00
70b0
0044
01d0
427e
5701
ae80
ff80
5780
7f01
9d00
7551
6e80
7c01
9880
cb00
3b01
1877
06e5
2b01
eb00
1a1e
3530
f008
6508
009b
104c
5f80
9c80
7b02
dd00
17f0
520b
6465
404c
251a
3701
5801
7b80
04ff
08fe
f500
d452
70d0
126f
8780
4c41
6973
010d
2e63
70a8
7101
019b
0ada
70e8
b100
1a80
ad00
47b5
70f8
21f0
0024
f780
7d00
0115
0028
70a0
6f74
0aba
0aac
df54
6372
d04e
fffd
0add
9380
025a
e700
0041
70c8
5280
db80
40ff
5cff
c102
87a7
2780
0a04
e202
eb17
352e
93a1
3dbd
be00
df53
3f80
fee2
6280
6b01
4f80
740a
732e
2e10
4902
0c02
6f34
017a
002d
013e
f593
e280
ee80
2f12
0de0
0226
6f6c
4d02
005c
6967
8302
8aff
70c0
4403
0042
19f0
ff04
18a0
d502
7a20
3e80
1b02
70d8
0385
140c
2708
f580
cc80
1027
ace0
8280
4901
004d
0a77
3837
6c76
7f80
0408
03ff
0039
414c
074e
9602
180e
7202
ce20
68ff
18c7
df56
ba70
8d80
0a11
3339
3380
02ce
4088
4d44
0274
1408
c3d6
fe02
6261
6164
7508
2e02
890e
7302
6808
706f
0a84
c502
1824
4c48
2e80
d2fe
96ce
7c80
392e
3563
1312
1813
c402
006c
f880
5fe6
cc02
09e2
0918
ca02
0bbe
70fb
3136
084e
6c2e
05b8
6aa3
4004
7373
8f80
3236
e502
8680
5102
70ff
709c
0e31
1710
d380
7074
0a0a
5680
80d1
2232
70b8
1a4c
0450
5ff7
b3cc
62a0
0037
0329
1410
b102
01fa
0245
0ab0
70d2
a980
bb80
1322
0076
140e
c202
c602
031e
0c04
1c25
14e4
003b
059c
ea80
6c9e
180a
14d6
44a9
d280
2541
6e61
03b6
25c2
03a3
442c
7c52
3580
02e2
0a54
3135
2df0
0036
14ce
3a80
0a96
0344
0053
ac03
7780
0073
003d
1b25
709f
bd80
c743
0504
4173
41a6
1c80
0052
db88
31f0
df55
2c20
440c
0312
8502
1440
6880
2e0a
4ad2
d180
fa02
1473
6708
2244
80c7
70fa
0166
0a4e
01b0
0026
708e
fee0
9080
7e80
866b
0f4c
0296
14c5
7274
0074
02ee
1273
0038
9502
14df
7050
12a9
22f0
4140
1495
124c
6480
d9f0
8662
7802
c2d7
0ad4
001b
d72f
4003
146a
d402
6579
1817
bb02
0ae4
6d2f
05c8
0067
b680
0c18
0013
927a
0a35
1409
51ff
05e6
0027
9cbb
3330
a780
ac20
4044
a602
70f5
7809
1ef0
04d3
1475
80e1
04a8
6cdb
180c
9180
9202
01ee
0a23
48cc
1261
300a
2ac1
da71
4090
8661
1c12
4c02
6464
082e
d8f0
0058
32cc
8402
1470
141b
4e80
0a86
0222
005d
0206
140f
0a24
0046
fb2e
6865
828a
0870
70db
007e
df8d
006e
1019
0a1c
05f0
08de
0061
f803
6767
0072
6970
7840
d29d
f0f0
106a
1406
77e6
e402
4a02
d102
05de
01d9
02f3
140b
007a
2522
02f7
c3dc
1864
d60e
1218
08ff
70b4
406b
70ce
0262
6f68
8667
114c
002f
0310
2242
e180
70de
2302
1318
d010
4e20
e5f0
3612
5004
6b12
b002
0051
0efe
1cf0
9102
70aa
024d
020c
a412
0a85
0f12
1618
1812
6619
0604
ab80
4041
01c7
70e2
1422
1c45
14d3
d812
027b
2170
e6f0
70be
70e4
43b3
eb0f
70f9
1602
007b
01fc
1bf0
4f02
0897
40d0
f151
1816
002b
4612
01d3
032e
006f
40f8
3502
8f1d
4110
0325
03d0
8c20
d969
70af
1407
362e
1006
0650
32af
021a
9a02
3c2f
d1fe
db74
f280
0078
70bb
a9f9
0a48
6620
41fe
70bd
bcf3
8664
f0fe
0808
0214
2e54
0a4a
0029
0a5d
1088
1902
5202
05d4
e980
d702
cf02
565c
8102
7402
0812
01ac
7443
0448
d031
3402
1522
031d
a28c
7a02
02fb
61b6
0c4e
c768
7253
a180
7902
7602
25b2
8a80
7408
70ef
01a8
0e70
02f4
7562
8b80
70c1
185c
2e30
f080
70e5
360a
1426
181f
5d26
024a
2ae1
70b1
004f
0902
02a8
fff5
0e02
0b48
3432
a424
04fe
8087
70e7
70ee
0e80
e532
6964
7092
d29c
4f66
0a37
c802
4ef0
70da
d602
82f0
1b66
1980
70b9
ee02
70a6
330a
bd7e
1262
482d
0fff
41f0
0324
fed3
8665
ef5d
410c
1811
3433
6802
14e3
6b89
70b3
4a80
ed80
031a
3902
0079
c3b4
70df
e512
4602
030a
7091
5cfe
4112
0880
32e1
a880
9802
634f
0a71
3322
03fa
072c
6567
7082
e39c
0a7a
c902
06f0
030d
a070
7099
3158
3237
708c
eefa
7102
70f4
0a27
3780
8012
1866
e399
9a89
70ba
faf0
70f1
db70
6a02
1288
1493
fe10
70d7
0ae7
7086
005f
858c
70c7
708d
a902
40b8
5265
4163
1889
40c0
e580
3332
31fe
3338
70a1
2a68
29f0
70c6
70e6
0254
46c0
40a8
1814
004b
6173
7502
02f6
8b02
094e
03e2
7083
3e02
5c18
70bf
de02
dc02
b380
6df4
70b6
1416
df80
fd78
f170
e6de
70e3
1180
70b2
c3d0
70c2
7087
7084
143a
40b0
e102
18cc
8902
70ec
ae02
020d
fe50
9c02
7a6d
1274
ad0d
141a
70cf
1489
9302
7572
14cf
2f80
9002
3c02
70b5
c618
4465
b502
0136
70c3
32d0
2521
140d
536d
70e9
0602
dd80
3280
8e21
6002
70a7
4fc3
8147
e070
7081
0056
7d80
ad02
9780
1512
6f80
0a68
14bc
8602
14cc
f070
403a
4e02
9f02
709a
ac60
9402
7089
1d02
10cc
40a0
e002
320a
1102
3737
540a
3202
fff2
70dc
bcff
7097
0a5b
2c07
70d9
b802
0138
0043
6470
7a33
70bc
cdfe
70ca
709e
40c8
870e
70d1
0246
7096
fffe
70f7
bceb
6b65
70d5
164c
035c
1df0
7180
40e0
1488
3a02
710a
7222
97f8
cf80
1445
1263
f621
100c
70a2
ce59
0407
01f8
8e80
2d02
d29f
8e06
70cc
1a02
9a0c
0146
70fd
c240
fbc7
a802
7094
5980
70cd
f04c
664c
6552
8802
70c9
0057
8787
6e02
c731
0225
e982
556e
2086
ee63
1854
3913
3a0a
df02
fd80
410b
1888
1e02
1870
70b7
3c22
7160
2108
8310
181d
da80
c3e8
0288
0b04
6502
ff07
02f8
7b18
ff87
0b80
190c
0071
a08d
ce4a
1c40
14a4
08fa
021c
18ac
1502
04b5
656a
ad75
7470
4d7a
01ff
c3bd
003f
7070
0128
70e1
05fe
1f04
610a
d902
9f80
1dda
027a
70ad
3302
14fe
25e6
2c44
0311
0c80
6874
427c
ff12
1265
6f0a
3190
3e14
04c0
40e8
708a
226e
7095
6608
70fc
78ec
f5ba
e1c7
e21e
70a3
144a
162c
70cb
0550
1f02
c702
189a
9988
1d12
709d
3070
4d12
0a91
1414
5da6
70a4
70d3
70f3
3702
18e0
09fe
9902
40b9
a402
6fcd
41f4
1ff0
007c
08d8
a2f0
feb0
026e
25a3
489e
5969
70c4
2502
340a
3939
223e
95a2
10b9
70a5
7f02
4280
5002
4d80
86a4
f702
2e39
db02
6c69
3802
0803
b2f0
df4f
32f0
70d6
2d76
4089
03c0
70c5
1066
2380
0a8d
0a38
020e
0224
0a80
708b
c380
6070
0af4
023a
ac10
ded1
031f
6927
1dd0
646c
ea02
6363
f502
0d04
1d80
9214
9a80
70dd
5502
7b20
7380
14ff
2263
acc0
01ef
70f2
b202
d802
c3ea
a680
3b02
5c03
646f
14c8
051a
2280
3034
0241
406a
01f3
6a20
0203
b517
e123
70d4
d2a0
007f
b6fd
14dd
df57
4b18
70a9
18e2
f07d
f372
9480
70ed
708f
6602
7ba1
70f6
8c46
32fb
c0cf
a42c
015a
10fe
ce02
b46d
0aab
3680
70ae
f1cd
d1ad
5f02
0a50
18bd
1202
5080
9718
1b80
4098
c880
de80
2c78
0a51
0260
fff0
134c
5880
b702
1302
0107
0986
2d74
f932
10c7
4c0c
5140
8e02
402e
0276
7093
0712
250b
14f2
8666
1013
70ac
6380
4145
0810
7194
c793
ba02
0c44
b59f
0502
96af
0277
3002
0134
b402
864e
6402
146f
4380
1f80
0cff
434f
68df
fa40
ed02
4444
709b
7f77
a67b
025e
70ea
45ff
4cc9
7702
5fe7
70ab
d13c
0d80
1381
4117
a102
c393
9c7f
4d08
1e80
3531
1bff
1417
4780
feb2
7085
0ae2
5702
3b34
6cb4
02f5
02e0
6e3e
0afa
3235
1450
25f3
3880
a502
149c
0aa6
8c02
1411
5a02
0314
1038
2880
e8f0
70eb
e780
e405
9388
142e
5e02
626b
2402
112e
6302
0a99
0236
e602
696f
414f
ffe8
fb02
8580
fea3
a3f0
8d02
4a72
742d
21e3
ffa9
67fd
6f73
0b4e
f3ee
2ef0
005b
ec9c
1222
af66
c0f0
ac30
3602
0a43
ea10
9b02
03ee
0ace
ab3d
0326
7c02
4a20
23f0
031c
af80
bc02
8663
0c08
d480
030c
154c
208d
4188
ac88
3210
3434
1820
4018
0a16
5302
142c
0059
4802
1413
8097
1448
0319
0e04
413a
37f0
6780
0e4e
7280
7580
5580
2b02
a302
184c
02f9
427f
58ee
420f
403d
8704
ef80
0488
400b
ff06
4712
25b0
cb02
3312
701e
14fa
e802
d01a
143b
8a02
af02
5380
400d
3e0a
f902
0acc
2e18
023e
021d
0ad9
a196
9702
fd02
0c12
3e3c
b181
0a88
1adb
0548
0a46
6e72
0c03
3832
e902
aa02
bc80
598d
dd02
7075
4c43
6c02
edff
da02
141e
180d
c0f4
1469
b018
025c
036e
6b88
41ec
1208
1429
14ee
0a2f
40d8
a6d6
b9f0
1428
0a22
2e04
c7b5
4a5c
f64d
2a80
147e
99af
4cad
a480
f4a4
8380
31e6
1007
4016
0ab8
6472
e702
d75d
6cc2
12d2
0290
0c73
0c28
1702
f3fe
d780
4113
1070
0f02
0c07
410e
bf02
0818
05d9
3910
ffb5
1108
4980
6d02
6deb
0292
f859
8913
015e
8c7a
14e2
1a20
c7f6
d974
b602
0a8f
e8f1
141d
4005
4c1a
6835
3102
262c
14a2
6b02
12ae
5d07
f680
3e20
0252
06b8
02b4
653d
bb63
2d31
4e18
252b
08b8
82ae
9688
2e37
0a9e
9307
18c1
414e
3025
0223
427b
3a31
2ef7
1a88
0321
9003
ab02
02ed
0323
401e
33d1
4196
1380
5c02
007d
2088
0a65
6876
eb02
0750
3f02
793d
1244
07f0
18e3
3122
c3cf
0780
d071
715d
7480
0731
8287
32d3
fe12
012d
8ca9
b504
2902
f002
6a65
c980
1443
05d6
2203
144e
0d02
783d
f980
6a2e
7aef
c68e
ff32
6d65
1b81
0680
18a8
f602
2e71
6666
1ec4
0f04
1496
e302
08e9
79fe
4202
e352
8d95
fec0
b302
0123
0279
0848
73fe
14db
0a97
6d20
0e4a
4c22
7368
a702
0365
e833
9cff
0a6a
593e
0af3
032a
7b23
5d32
ad97
1823
04ee
cd02
0970
c0a3
0266
3335
cb80
0a62
8880
4b02
e918
d739
0aea
0e46
aa50
20b1
3537
08da
0980
1268
14c1
7558
fc02
ff5e
2386
3336
fe55
1680
d810
14a3
72e1
b5e3
f302
02d0
401a
0055
1890
0d4a
4c89
14c0
3e3a
41bb
0e08
7ac6
6974
616c
0cdf
ef02
0412
ce80
084a
0aef
cd18
10cb
acf0
0b02
01f2
183f
3883
a280
6b80
7c0a
9faf
1423
0106
eb80
02c8
6203
ee20
4a17
f588
a46b
4940
4a15
07b8
5402
880d
04e2
2602
4cdf
3938
756e
0a39
97c6
840e
1780
1439
e829
410d
174c
5fe8
2980
eb8c
40c2
8f02
1a12
4cae
7861
0362
1419
b280
0258
b880
41c0
be80
1640
500e
0249
0271
04df
3004
24f0
d980
140a
092e
4c90
4549
4ff0
ec02
0238
41eb
0a75
022c
1015
0702
41e8
5c50
2e17
400e
02d9
9081
02cc
02b0
1d50
7d02
9aba
ff0f
1a4f
b480
5602
3437
4e90
cccc
c8fe
0afb
4155
18fe
1482
0a2a
4c08
0bfe
5e1c
02ef
f202
e112
3021
4fe5
a203
8616
2e35
fa9c
2805
a240
b00e
1477
a423
1415
fa10
85f0
640a
0ead
5c88
0217
dff6
58f5
6e22
2f02
4c40
4d70
143d
5902
b980
fe62
f102
405d
4119
ffee
3535
7b0d
1886
02a5
7369
6252
4f44
3174
ba06
fee6
0e88
0e0b
80f0
1468
2412
8180
0a1e
7d2c
7980
0388
038e
1171
1a04
1a18
6d10
14f1
12a6
4c12
f1c6
0a41
445c
3772
0a8a
310a
7243
4020
181a
2c02
9903
5b02
801a
5e50
80c2
0309
14de
4a3e
0156
2c0a
3180
6798
fe70
517b
b489
ff05
4580
a407
7555
9c90
417b
164f
02ea
f402
040c
0124
5910
028a
0330
ac0e
131b
3839
4118
072e
10bd
3eac
0131
01e8
6831
0e05
0a28
e003
b0b0
0648
3935
019e
6f02
ac0d
4065
f13f
0299
b528
4010
a080
14be
b180
fe41
18d7
149f
1819
a3fe
b6ff
2cb4
4007
0219
4195
4154
abe1
25b3
6702
9090
43db
4176
03a8
778e
6265
8077
f505
41f5
14b2
0ad0
ad80
3334
f893
5ae8
1b1a
0d0a
9d1a
b09c
1a6d
cc11
0213
0209
1103
1912
16cf
310c
e01e
ff1e
b2fe
18ab
4880
14ba
75fe
68de
be53
0477
0b5b
2783
fea2
0d70
1494
3af0
4170
0443
3718
6a80
2e11
f802
4106
3b80
6a04
c072
1150
6580
db67
6240
14a8
6902
1303
1474
e31a
b009
1304
549f
1462
5dbf
6270
4158
2516
bbdc
4034
8e10
4122
7d18
02cd
0a03
0126
1492
fef5
7808
01d8
18b6
4ad3
0a78
f380
0b50
404e
7a18
f519
da88
306b
e880
5d02
6423
0253
5dec
0d4e
400a
0e1a
ac50
d089
3a40
1212
0d18
182a
4103
6e36
4009
029d
142d
3505
a005
0580
c0c3
b33e
1479
c3ca
8a23
4123
146c
4040
80ca
f906
8712
f5f0
4c2a
5c5c
0505
41e2
5321
3a48
16c4
d680
a3e6
4c30
8080
14d5
c180
0ac4
1280
cbf7
a3f1
0372
418c
d69a
1497
a9c2
ac70
d61a
1203
c012
d080
6362
ebdc
08a6
0a98
404a
c3e1
10c6
871b
db2e
baf4
4116
2f74
3239
404b
e874
0546
1476
06fe
033e
0a1d
b0f0
7552
63be
c08e
5954
0c5a
4c9d
324a
0562
4252
4bff
f73e
3632
9ef0
145d
0e43
2418
e239
2551
4008
2702
145c
4c5a
0410
0a3a
406f
504e
60bb
bcfe
21fe
01d1
16e5
1d20
0230
c280
035d
0a5e
0805
3e1b
1466
8888
149a
1851
14e8
cd80
f0b0
084f
1432
f554
8112
0446
0f42
c3cd
b3fe
014d
32ce
3c74
fee4
146e
4182
0ac5
54ae
1435
c580
4805
e310
0228
f566
1508
bf12
ff5d
2d62
035e
60fa
05e1
ab68
ad12
0708
6308
5a80
0912
b013
fe52
8d06
2846
1bb7
0e61
0211
104a
66a8
143c
1827
4064
1467
6d22
14b5
021e
b10e
036d
41d2
ff10
08c8
3834
c09a
1453
41ff
4e6f
3838
c58d
18b0
0366
1430
0c4a
1472
1629
2e60
0469
1204
6a0c
01c5
f079
8212
626f
1431
2226
022d
033a
ff18
0f5d
3736
14f4
1e12
0c48
e380
9e40
82b3
40fc
f193
3043
1256
581c
145b
c3df
89ee
ff0d
fe90
412a
7468
2264
411f
14d0
5933
1831
4172
3e38
d89a
6897
ac98
1458
246c
3ca0
4149
010e
026d
16da
14dc
9173
7018
ecdb
67ab
28f0
ac1b
4d40
1438
2e38
1d4a
02e8
ccbc
4ea2
2706
5555
08c0
4028
01d2
0e50
14a1
afa5
14ef
1011
860e
25a8
1830
1c04
3539
5260
438d
0c09
0a69
d4fe
035a
1022
d60d
fe81
1434
651a
01fb
05e3
b780
4fc0
1014
96b0
02ec
1cfe
a603
cbdb
390e
1454
14ca
0aff
c76c
1478
04a3
79fa
1089
ef07
166a
2260
40cf
e812
4630
c857
4050
d012
04d0
26f0
2580
1518
d318
f288
14c7
094a
9373
4077
73a9
40b4
080e
13f2
d30c
0748
e24e
4105
48d1
c8c0
d1f2
4087
e38a
1420
653a
024b
1437
65be
0361
5131
7f87
3435
021b
82b0
5aae
18d3
0a19
04c8
407b
481e
c080
4e10
403b
419e
c0b9
6088
3932
14f6
1451
9280
037a
1487
595c
0cdd
40db
743a
4198
01be
09d1
0188
96fe
146d
0e30
14b8
6004
14bb
f312
3533
02d8
01d6
419a
4c3e
1449
416c
1465
5243
3d0f
901e
f6b2
141c
4cc6
4cfe
501d
8450
1d9c
0282
ff0e
0ade
4131
2fdf
0c20
d30e
4037
0376
023c
14b0
085e
100b
58c7
434c
c224
0b52
12ff
3010
02f1
1455
8a93
a41d
fb80
cfe2
f188
9d80
034a
407a
2480
1457
ca12
049a
0298
14c9
01e6
4114
0605
7308
68a6
8c80
898f
3031
c3b1
b00c
450d
ff88
41ba
6f22
03bc
1484
55b5
148d
3430
7aec
12ca
4150
30f0
020b
182b
07ae
1436
c8f0
1a1a
4c18
e13a
5928
214b
71da
3d0a
6d70
9a29
4a04
3260
c157
0cd0
144f
4c21
3630
1490
ff3b
5949
1c3a
4151
c3c5
0ac1
1552
0172
c099
cb12
afe0
16b9
dc03
fe1a
ff3e
0485
843d
14e5
20f2
82af
0ccf
1205
1441
4616
08f4
0ae8
91ed
4f4f
ac90
02fc
c480
a0fe
194c
148e
ff60
1570
4048
93ff
03c9
149b
0c1c
40af
624f
0850
86fe
8b05
b481
3a30
0c11
0578
5b16
1421
3410
0ff9
ff08
4032
2b80
5be5
1837
dffe
1444
14ab
40cd
0b2e
149d
048d
4c85
aa8c
8c90
fff6
182e
10c9
410f
062d
c888
686f
e204
58c1
7258
ff4f
10c1
2c3f
6817
0610
7a80
1d4c
a8b3
3631
1219
626c
f6a2
d880
5c0b
0ee2
acd0
1e18
c409
08e2
14ae
4023
ddff
145e
40e2
030e
7e4a
0cdc
e20c
4115
fcba
2e36
0dfa
ffcc
1424
2a5e
ff0b
6d80
e54f
033d
14d8
94d6
1c03
41c1
0c0e
4019
c3e6
976a
c3bc
b288
27f0
4c0b
4215
52ff
40e5
e3fe
091e
02c2
55c6
4060
0ce2
02d7
4128
070a
6520
4190
2e33
8b13
3532
401b
4e88
acb0
0816
1688
60f0
3310
411e
02ba
f13b
05e4
4ea0
ff73
e671
16ae
409c
03d4
d31e
07fe
02f2
03c8
68ba
f5e3
41df
1024
ac08
102a
f203
02fd
1c1c
6cff
f925
3ef0
013c
081e
080c
4191
2e8d
4e76
0dd3
03a0
6b62
e67e
6bb0
14a0
5121
4038
22fe
7880
23b8
2f03
029f
34d4
bcf6
4025
61ce
0268
40b1
99b0
96be
4b9c
037e
0a76
cf0e
a6f0
746e
64ff
b08c
8851
1498
142a
6244
0c2e
ed71
4c1b
897a
0acf
f9ed
0306
4143
ece6
78ee
e088
ce4d
6334
9f36
40b7
df1a
01f6
d6b0
18d0
e10e
eea8
4152
908c
fef3
10a3
b872
4a03
4045
7554
40ae
0e2e
a8f1
149e
20eb
ba12
4171
418b
026f
3710
4109
41b9
d06a
411a
b0fe
a49b
792c
640b
a428
0b70
3c5e
4021
aef4
3c80
1ebb
4015
086c
9493
8df5
1ae3
e303
debc
33f0
c084
e6ca
deff
4cd0
10ac
407c
4b0c
147a
6fce
144b
2c5c
6007
0c52
2d33
0234
dc80
d740
0a21
5180
7e55
a003
2d80
0345
ff0c
7204
0abe
4181
43ff
c0fe
400f
0278
fed2
0e48
52ed
7003
76a3
ffba
02d3
f512
40bf
c47b
0315
14ed
4c4a
8726
f4d4
82b1
1483
0b12
4b4c
ac12
b088
3731
0261
ad47
4ad0
9303
02ca
0c05
1e4c
2747
7333
5d2c
8017
d150
14fb
3f04
5c2c
5433
cd1a
7553
7516
e0d5
4a12
142f
9af9
145f
4e50
4078
1460
5070
41a0
b070
3110
4053
16a2
685d
35a2
f01c
7e81
081a
f560
f418
143f
c3c9
1b32
4a60
03eb
e3f0
e052
0ffe
4af0
4137
ed91
9a13
091a
0a52
0e06
c4e6
5688
a3f8
7016
d6fe
6a87
141f
4ae0
f5d8
1442
7a70
1433
14da
c3c6
10fa
62d3
4095
0154
f7a1
14e9
14cd
14ac
012c
efb3
4108
4c33
6510
58b1
0242
0251
fe0e
1a17
2ed0
40f3
3a1e
415a
4189
14c2
62f0
0ca6
4c13
fc12
4c0e
33a7
4031
1bfe
6cc3
6e44
f530
45fe
7120
224c
e34b
4130
c3a9
acb8
3930
14ad
3b18
4cff
43f0
14b3
81a7
0cfe
e0db
41dc
9a12
1cbd
5e80
0a59
77ee
7e76
0a9c
0386
10c5
eebf
c3ad
a3c3
1118
121a
bb11
a7f9
9070
4ee1
8f50
2db2
448a
ff1a
b2b2
abf5
41c9
dc2a
11ea
100e
237c
3933
43b0
fafa
181e
a0e2
2c0b
0756
3836
13d3
6543
f2bd
4445
b80c
362c
af73
1f50
4412
41d1
0e16
ff5b
cc4c
4187
eca8
b20e
dc8f
144d
b80b
3d70
4178
401c
5c80
78c8
e803
43f6
af19
8930
5104
c9d2
0908
6304
ac74
f3f0
0231
4791
7c57
1875
7a82
14fd
10df
c3c4
f283
94eb
6c54
0c1a
4043
4c66
02a3
a7cb
6564
c64c
c0c4
a9f2
6f88
a3fc
dbf6
02a2
40a1
d6b8
0e10
0ae5
4014
6fd0
1331
3835
f709
0ac6
6612
6fd2
c3ab
0f24
6888
b51a
8de0
7cff
406d
02bc
6040
0e42
7e30
4d41
3636
1272
f2b0
025b
b6cc
f407
51e3
403f
4414
cd20
705c
dd11
14eb
3037
5b64
7445
5a67
4c03
dcef
4183
14e7
ca53
ce1c
4126
414b
9b21
41f8
817d
0346
0263
1a13
1485
0888
625a
b3f0
0369
c3af
3f4b
384c
4a69
2504
e828
3830
41c3
405c
d0e0
0272
6080
0142
0822
3b2d
e01b
1966
46a9
1711
2577
0338
3d06
41b0
f5e1
5ed0
409a
3572
d3ff
ff2c
40a2
142b
4011
faff
2c88
070c
4470
18dc
417d
591d
748c
d288
4b7c
40d1
3653
403c
d0b1
0374
c0ae
41c6
0420
02c6
40e7
6b21
ae10
145a
02a4
02ac
c088
41a2
9672
304f
3496
4c2e
03bb
ce37
04fa
10b8
dc0e
029c
c3b7
41aa
3039
0b3a
4688
b18d
b65b
cca0
f958
01c9
415f
0b1a
146b
04dd
9f88
0ac8
e56b
a083
0a10
5504
f912
80fe
ff0a
0510
0e34
0c10
405e
69af
7c29
9512
0332
6180
1456
6605
7af7
4e14
89e8
a032
ff2e
45ed
e4fe
0207
4017
0316
cc08
6980
22f4
ecd0
30f9
05a5
414a
1c4c
32a0
361c
0a2c
0e3d
4161
41e0
d070
10b1
40be
40df
c20e
4079
8b10
ce91
0cce
02e6
4c6e
f075
4407
f003
f232
5463
0f2c
0e18
ecc5
2dba
ac21
0c0c
10ca
8f93
1afe
3538
3633
ab13
4022
10c0
03bd
4006
a812
6394
b599
401d
fe26
0e40
afd1
1b4c
0cdb
100a
4c88
16d0
0cd1
129e
0190
9a81
d325
1d79
6c18
5d80
4ca3
7922
3033
4074
4027
2f18
a832
415c
1491
4a88
ffb0
4c4c
4cf3
2b18
7b90
1427
bbf3
02eb
d1f5
1704
0a8b
0e0c
d0e5
3066
2cf0
5c25
7735
4c62
170a
8003
9c12
4eb0
14af
b004
4081
01bc
4107
4ae2
defe
8ced
89ea
b20a
f6ae
b580
cf6e
c3de
4082
01f9
ff53
54fe
c3d7
148c
416d
41be
4c79
0b5c
4df7
d091
1a03
417a
14e6
b5fe
f935
4058
41a5
2818
7bd0
2bf0
0890
418f
4c54
ffdf
edd1
1446
0e0e
02d4
1452
711b
0395
088e
6361
0a44
3064
403e
4a18
4035
3a7b
0aa7
f6cb
f5f6
6d41
14f3
e488
730a
5488
f42c
4179
3212
9736
2180
756d
6018
4030
9394
14c6
0487
c3b8
402d
f4d8
02d6
02df
62be
c512
11af
cf1a
7e6b
040a
02a1
3ce2
ac7e
c063
6818
803a
41d0
14fc
2ea6
a580
41d3
f40e
63dc
ba91
41ed
6c6f
e027
e5c5
c3ce
25c0
41c4
412f
819b
8c3d
dafe
4a86
9bb9
0ad5
148f
14bf
41da
4e22
0948
fea1
863c
14e0
6dfb
1d04
02c9
ffac
019c
0289
1604
4085
b88c
40d2
027f
f04f
84a8
030f
fec1
efe3
d0b0
14d2
ef76
409b
14cb
af24
c3c3
7ca8
4c4d
5a1c
2156
d912
0cc0
350d
1f4c
1067
40f2
2312
a5f3
68fd
f465
4303
a488
0d1c
d4f0
514e
6e63
bd10
0a05
388d
410a
404f
e559
0a66
e188
66e6
4c0d
6df9
3272
a2fe
7dff
cd61
1499
458f
c5cd
a010
9e14
f20e
c3d9
fade
f7bb
5219
3dff
3a32
c3d4
6236
4330
0334
2af0
457a
ae86
acd6
6b34
fefe
4162
02da
ab5f
3211
b982
e603
bb0d
de2e
760c
40ce
6aaf
04d8
407f
5f90
561a
b5ed
d2ff
4052
4c26
fe82
dd23
4132
2a4c
0227
14c4
120e
da64
fe87
4147
fe11
148a
2c70
c3bb
46f0
4a58
ffc8
122e
7e60
182f
264b
1a4e
f67f
0244
4111
df94
c3b0
417e
48a4
6a18
40a5
414d
2a9e
05f5
015c
4063
09fa
f8ff
fa7c
c809
5ff4
09e0
c3db
ff15
402c
fe71
14ec
d874
0608
8092
bce8
2256
0a6e
0b2c
2212
93f2
e004
02b3
254e
8794
2db0
ff27
032d
4a09
4775
c1d3
4029
3a1b
55f0
a346
1104
fb9f
4059
ac18
3934
0275
9cdc
f779
4051
41e5
18c8
4054
3534
0efa
8dc8
0522
5bea
1459
025f
adbe
3036
0328
41ca
14a5
a067
54c0
029e
cd4f
409e
46fe
41ae
930a
f999
94c5
326b
c422
039d
4091
f4b3
4218
042e
effe
ff16
40ee
4204
dbfe
39f0
04be
e38f
3436
0ad6
3d0c
700f
04e0
416e
29cc
41fc
a7a6
e443
3aa9
d310
7044
40fd
04a6
1016
df5d
e67d
22e2
1580
e599
c3a8
e480
18c4
544e
022f
0a4b
11fe
8d79
bbb2
d3e3
5c58
41d5
4046
3739
5787
9fee
0185
72af
d284
ffe5
b28c
fe30
4935
04b1
f572
6d0a
0a94
2895
035f
14c3
01bb
1e54
cc23
3a27
413e
147d
0597
ffe7
115b
4c31
af09
3a1a
e9ba
b9c0
4ea3
10f3
2ee0
2447
b1c4
0358
4036
4185
4c05
c3b3
c812
1461
610f
08ad
89ec
1a0a
4192
bc0e
40bb
1020
e11b
fc80
ff3f
4099
836c
4c0f
a8f0
15fe
fed5
023d
3931
181c
763a
10a0
4c24
fa50
8a1a
41b6
1486
c3ac
4167
ecaf
4186
2c3c
9e95
ff97
682f
4f12
14a7
07f4
3a13
dc1f
f489
89f3
c3da
ff33
57db
14b9
b82a
10bc
de55
40dd
413c
416a
1a1b
6fcf
4898
0c9e
0269
1bb6
3a35
027c
14b1
fafe
a312
8b18
e59a
c3c7
4165
02e1
fed1
decb
120c
1254
1aff
41e6
bd4d
a887
3e7f
c3ba
408f
02be
e012
411b
3afe
018b
0ac0
7b2f
91df
9310
53b3
feb3
402b
4168
0d8a
4c28
34f0
4257
ff8f
0f08
4138
4b50
7b71
02d5
3106
40ef
3438
ff2b
1a08
0910
1471
4a10
e6fe
6310
1255
b0d6
80b4
1248
4148
a088
a1e1
3038
50f0
8088
40ab
42ff
407d
8bec
7214
ff24
8ff0
0198
4c50
02ae
0256
ecba
411c
82fe
4e1a
811a
ee88
75ca
ed47
c112
9fff
303a
0560
29c1
ddfe
0b10
8cbd
1447
7292
0a9a
3304
0c31
440e
ff59
41ee
1861
c4f0
0313
a9cd
3833
40c7
062c
2304
027e
10c3
c3e4
302c
6110
d470
5218
034b
ee08
14b7
0257
412d
d40e
1708
f347
14e1
3c8a
14f5
0841
40c1
80f2
6ea7
2da4
61c1
09a0
c3c0
0d45
4024
f012
e8cd
7cde
2f4c
330d
e11d
cc0c
4c10
cf12
0182
5205
40ed
0273
8089
a4fe
4c3d
0ccd
9aff
14aa
8945
eaf0
b748
fd88
09b8
0882
5031
10ee
12fa
d821
41cb
ff3d
1a58
a209
a018
3ced
adc3
cdf4
ffd0
c3c1
a7fe
2e12
9896
6c80
161a
9565
4c0a
40fb
1f1a
23ef
13fa
7d97
4ce9
e60e
627b
41b3
ff91
b6dd
14f9
61f0
24ce
05f2
03fb
4141
4049
41ce
51d0
4cca
14a6
c750
ed53
81ff
2c30
25a2
148b
a503
f688
35c2
7d9a
8512
ff9c
b5fa
5b7b
40aa
0950
c03a
3337
fe53
d7cc
b818
6b3b
750a
14b4
b13b
409d
be0c
40cb
41cc
4047
ff50
d850
0e5c
c3bf
3c95
4690
4068
29ef
5b94
d212
e897
11e2
f21f
2992
4033
dc12
9604
bae6
20a1
8af1
0489
dfc7
10e0
4062
40f5
183b
40b6
b29c
e5d0
14d4
20c8
412e
ef98
79ff
8803
4055
0c70
1788
fe36
f581
6469
4ac5
1612
016d
14a9
4ca9
41a8
0a26
41c2
4153
0281
1a4a
bdb1
8870
418d
46f2
fe92
850e
1145
40e4
96c8
66cc
4cb6
06fc
0a6b
2245
408a
3cc1
405b
02ad
3439
107b
9abf
41a7
4d24
ff7f
c347
b6ed
b812
fe96
4157
4c3c
4621
7910
7e10
e2ca
3732
82b2
14f7
80a3
c3b5
330e
02d1
72f0
4133
c3e5
fede
4026
5a40
40d4
085f
ff40
d3f1
cc6a
60be
7c18
ffd6
41a4
e080
405f
028d
4c68
c3be
4c55
1750
9d4a
4eba
1822
0336
b6fe
ff6f
1b45
fdcb
919a
dd21
4066
edbd
0e28
184b
413b
40ad
109f
1588
4184
407e
1b29
c3c2
126a
1464
01a2
402f
3cb6
4d71
0287
6d79
ff4b
1c10
03b0
191e
41e4
6112
0389
138d
7695
6222
9357
147f
92fe
ff13
a272
1e75
3508
6a69
1030
2ee2
18b2
408e
541d
d612
2e70
0ec8
9312
095e
df12
03a2
143e
4013
ff31
4159
419b
4988
ef12
0286
23f7
104e
d967
40b5
41af
f54d
416b
a303
2f04
f212
3634
14ea
1bfa
41fd
fb7b
1930
4c09
4120
ce0a
db05
7118
0df3
ab0d
4160
41de
1c32
6c73
01ba
7768
01d7
247c
c77a
ae03
9e84
404d
3cd7
3204
02dc
af88
0d1a
acad
d410
4061
0a7b
4488
401f
ff21
4097
acff
10ab
4f5d
010b
3639
029a
0f50
18b8
dd9b
02e4
147b
0e62
40ca
110e
4039
d580
8312
700a
25ab
48d9
40d5
f112
e503
36b2
c3e7
52db
0707
6fd1
408d
540b
0ef5
ff5f
ffa4
4a40
40ac
1064
4687
03fd
6286
4f4e
4e98
a710
41c7
c3aa
41a9
b312
090a
685c
de12
d179
f2fe
44ae
14d9
c011
1166
0481
11f9
95e5
7360
af1f
0337
ea88
6048
01a4
fe03
89cb
ff6b
40d7
4a13
d833
74ff
0176
390f
1a0e
40ba
f330
d11a
d118
4eb2
ffd3
01c2
0295
79f0
bcdf
715c
7cc5
5fe9
536e
a403
2508
9412
4ed2
40b2
8768
0333
1112
0710
10af
3831
f72f
014f
406e
1b04
405a
0e1e
8368
1c18
e14f
fe73
1af4
c204
6923
1228
3df0
8818
0283
072b
4084
5036
4135
920e
9698
35a0
8096
f531
4c70
4ac0
b6f0
0e78
ff75
4c4b
c581
f1fe
1463
4a37
f4f6
7ccf
0c41
02aa
a6e8
4318
30fb
ff79
68fe
5c4a
a32e
7d43
c004
ce56
0b4a
1850
6092
8480
408b
1e10
d004
f40c
6403
04b7
0c75
570c
5536
cb8f
4c6d
a712
0e21
c3e3
ffc1
418e
7110
0cbe
ff58
25b4
40ea
ac04
14d7
27be
c436
417c
9e0e
0b08
697e
94ed
fe18
db43
40c5
02b1
4e53
d6ab
1608
7710
114e
012f
40d9
082b
160a
e321
c586
ff17
0b88
d34e
161b
696d
07ef
6215
d47d
4071
f3fa
0267
0f1e
02c4
25c7
fec4
4086
40f9
4c23
1a2c
40f6
b971
41f3
5c7a
0971
b8fe
f5d3
47be
6560
ffc2
4075
d712
b308
408c
57f7
1220
4372
fec8
160e
4c1e
7f41
2d0b
e688
9858
14d1
f0ee
9d6d
20ff
af9c
4c5c
c3d5
2eab
c765
0898
ed8c
02a6
0259
5206
41ab
4193
4c82
4142
ed12
117c
6422
02e7
41fa
3409
147c
4072
e00c
cefe
6e88
ce12
0353
9318
028c
9aca
e431
cd12
101f
a107
f812
f8fe
c312
7908
c8d1
fa1b
ac87
16fe
038a
5a65
ffc6
606c
1829
4c6b
7725
a0ae
11e9
01a1
2ed3
4139
41d7
990e
2455
3730
415b
8f83
dc54
fe3d
4c72
81d4
7e85
7f1c
c018
bad0
0aed
64be
a6ac
5fc9
4156
ffef
1090
cdce
4f50
032f
432d
4305
9fb7
7665
c3cb
e2d3
1887
a112
1250
b88b
8084
571b
80da
5118
a1f0
6e03
4094
0393
14bd
10ae
f612
a6fe
6167
c5fe
72dd
b106
c067
1e4a
0ec0
03ea
9f12
41cd
3d31
3bf0
220a
0b1b
125a
ff20
0e60
02e9
ef96
4c51
ffd1
c2f0
e25c
ff6e
3734
c3f0
2978
a278
41f7
a912
3bff
acd5
f303
83f0
82ff
dfbf
5005
fe83
089f
4164
41ea
1308
1918
7493
e8e8
264e
6988
16a8
296a
f058
412b
2c80
77fe
0aca
40d6
2e24
c3cc
8288
42f0
0e22
04b0
0d50
80bf
413d
1a46
40fa
3c1e
4146
3a18
5110
3536
40f1
0243
2c13
ff76
040b
66f0
0508
b836
9c21
40c3
9712
40c9
779a
4174
e870
439d
40da
a1fe
4610
214c
fffb
05da
31dd
c81a
1a26
101d
971a
0229
6fcc
4ca1
c712
6650
4c61
48a0
900a
ff1f
6812
03f2
236a
2c41
6946
9fe0
ffd8
a2b5
235b
0cb7
ffd5
0d03
0dfe
9320
b3a7
0d2d
0331
411d
6250
daf0
0e4d
c1fe
2204
4c52
40cc
060d
0eee
3ccc
0255
01e5
f5df
40e3
6661
f988
3888
0293
05e8
0840
c02e
0e14
40dc
0265
10c4
1a06
ff83
0ac3
93d3
0466
6d88
41b1
12ea
2c08
ac99
f95c
0a06
9812
d950
1a22
0414
9650
3261
577e
3638
0744
5fa1
10f5
fff3
085a
f957
234c
e7f0
02b2
40a6
10bb
0f88
13ee
58be
4069
1e26
4ccb
f507
7afb
6207
02d2
4ec0
4175
bed6
c61c
025d
8106
7c4c
ff48
688c
f5f8
40a4
fea6
0194
40eb
ff23
ea42
549a
0ad7
855f
0360
afaa
4197
3363
41dd
6630
9276
604c
415d
109a
185f
43b6
ffe0
e640
0e0a
b888
5139
58ff
41d6
40a3
9d12
027d
c3d8
40f4
aa1a
2618
530a
5848
0856
6788
40a9
193b
40bd
1e08
4e47
630a
ff9d
5203
c2fe
ffb3
04a0
3e10
415e
2dff
79b9
f018
05c0
bb18
fb12
a818
b136
c75d
8a12
030b
4c64
1230
9a93
af1a
d04a
02a9
ac36
6a08
4873
ff2f
48f2
091c
0fdd
c148
5788
c00f
cf5d
da12
02dd
14b6
049d
c2b8
f51c
4a6e
67c7
fbfe
dc40
8724
76f0
0d48
8994
41cf
5d1a
8d12
aef6
013d
8812
2318
6595
a588
160c
4cd2
409f
024f
6231
40e9
0ae3
ac96
cdd9
af0e
3d18
4cea
e212
ea05
b5ff
0c88
3735
fec2
7888
5388
1910
f610
6e69
3331
1069
25af
6d6d
40a7
fa0e
01d4
020f
82b4
102e
d051
2483
4c5b
085c
1210
3118
f9fe
feb5
c4f9
1481
2c10
9a4a
db12
fe0d
7a08
ffcd
981d
d90b
d830
4124
ca87
56f0
4c59
1054
8e12
4083
0ca9
8c2c
12ac
c3e9
a612
01e4
4888
1c08
416f
124e
2273
bdb5
975d
c588
a4f6
b112
7f5d
0c0b
02c5
41bf
40b3
c3dd
a922
753f
db03
1b10
2930
0afd
3ea8
c94b
dc09
3822
0d1e
0ad1
9675
3c7b
04c6
d005
b550
970e
eb12
5aa5
3510
72e6
ffc5
a1f1
ce53
8ece
2786
0e1c
5c44
f27d
5c70
4c3a
05df
d50e
96ff
131a
ade5
d21e
6189
ff7b
db87
10c2
4177
0ce0
53ff
10e2
8703
9b76
c488
41e1
81ab
0ecb
0e2b
3254
dd12
fee3
40c4
8e17
41b2
7190
1a5c
6822
ffeb
8912
7930
04c2
6a3b
6e6f
151e
4a45
880e
0233
031b
0a72
1a70
ffe2
7539
f03b
6e18
59b7
bf7c
03d1
d0d1
ec80
c536
b82e
54ff
fd6f
f32e
312c
a888
f00e
02e3
b0db
9d0e
0ab5
0e67
02b7
2c4f
9351
c3e0
8612
03c2
559e
06c8
b012
41f6
6157
c3b9
ff28
41d8
ff8d
5a68
b9ef
6ab2
037f
e288
4073
650a
629c
59ff
e251
fe16
412c
419c
02bd
fe76
7988
20f1
1729
8f7e
418a
1240
1e88
3594
7318
4144
4134
476b
c8ad
7b12
75ee
8660
ff9b
324c
413f
4c87
6836
7d21
4093
41c5
0297
0a17
463e
ca06
9612
10ba
c01a
0d2e
ae38
18f9
d29b
41b8
4c38
d00e
0565
78b2
4056
0941
6e64
8f30
2c89
f267
6805
ff67
56db
bc12
41fb
abb3
7657
4812
8418
4136
3635
ae12
4c53
c3ae
cd65
f176
0e71
25f1
b40e
5aa3
80c3
f03c
0c6a
02b5
1843
eca4
3841
bd18
20bb
c0da
4cda
40c6
647a
bce9
1a56
1017
ac22
0354
fea5
9010
2b32
4125
038f
40f7
750e
4e71
d112
484e
e3e0
f5ff
6122
3206
bcf0
8486
6bff
e8ff
1881
a98e
9a7a
f412
c604
be12
1821
6f64
4a3d
0b0c
f336
ee12
05fa
173a
bbd2
15ff
d05e
f305
fa12
ff61
01cd
f509
acfe
ffc7
bbb5
7f0c
ac1e
6f5d
fe61
04f2
efff
151f
7f18
ff9e
fe09
4ec3
0dcd
a774
35f0
5988
eeac
dac4
91a2
2640
9dff
8618
cc10
4ad9
fb4a
9b12
1859
0352
6a14
0705
034d
25b5
ea12
10ad
d4ff
6a66
0349
e01a
5021
24f3
d043
041a
061e
c684
e203
2fff
2512
cc12
6439
17d3
63fd
2e4c
9f09
b305
5f11
0382
3b59
0a81
9e12
7078
03cd
3305
540e
7304
aaa2
0355
f3ff
2252
1f5d
e508
2aff
ba88
8196
9d0d
0291
b5f0
e912
fbff
9b50
088f
ffbd
026c
d1e1
542a
03d8
4c7c
91f0
e3a1
36f0
ffa8
d90d
2e72
41f1
18bc
8b08
3cab
5403
51c0
05ee
4a49
04b9
41c8
4c5f
1a98
05ad
0e87
1d10
4c35
2489
1083
4c77
419f
49fe
9c88
02c1
5b07
ef18
66e7
992a
e653
f550
dbb5
0f4e
db8f
7420
e299
2657
82e4
03dc
9e88
03f8
ff93
0a45
aca8
e23a
07e2
cf18
ffbb
41e3
1d13
ff36
1a19
0af8
4076
02ab
440a
ff41
b188
1a5e
ffea
ce1a
04db
ab67
8750
3e88
96d2
5424
18e4
08fb
4814
d58e
01de
94a3
f6b7
6263
0ea0
c3b6
2d8b
4169
2f47
41b5
e513
c912
3c50
ae0e
4c6c
3b9a
be96
e359
885c
ff86
0c3e
07fa
d0ae
312d
1b9b
b412
08dd
cbac
60d8
d886
02c3
1a65
ac78
44f0
fec3
d6ff
40ec
d35d
4cc5
9110
fef9
f514
a817
1e46
2c4c
4bfe
1068
59ea
37ab
c00b
fbbd
f6db
7009
5af0
1216
80e8
029b
034f
ce88
5588
0de6
6bd6
010f
9fb6
feb4
41a3
b7b7
cd22
b14f
1b0e
0815
e75d
20af
def0
3e4a
ff54
3191
55ab
7320
2788
6f2b
ffad
3a88
a31a
8321
e412
fe21
a5d9
fef2
4cdc
ec1b
a01a
1050
0773
2a4a
5308
4c06
8715
41e9
274c
2216
02b6
8988
1e59
07b3
ab12
4588
96b2
2c7b
25a6
e21a
9f30
08b5
c876
6e40
7212
6566
41d4
3604
b05e
41ac
7ab3
2ff0
5614
41b4
722c
d30d
ad14
1852
0716
6336
fe22
3116
d9fe
fad6
4e7d
6c93
bb14
c3c8
41f2
fba3
25f2
4480
e87f
b2d0
fea4
c3d3
9bb6
01f7
7ab1
5305
a4f0
d7ee
2784
08f2
039a
08db
f5db
513a
98ff
f81a
8436
ff56
4e12
51c5
a8a5
57a1
0e8d
4cb3
ffda
aa13
f4fe
4a22
0d22
02c7
db41
022b
8f4b
bc11
9c79
5480
1e28
6810
a1d2
bc1c
7688
cd53
4ced
e80d
0173
46f8
ace8
0160
8412
bf18
d312
5256
7788
4e72
e051
41ad
1550
132e
9abc
10d4
80d5
03ae
8571
a718
033c
2093
1847
4caa
4c17
ae13
7995
ffc9
3c16
a805
2377
1754
ccfe
0ee6
80a8
0ab3
c4fe
135d
25fe
3588
03be
41d9
5503
5286
0f74
5312
3188
ff1c
1aba
1a0d
02b9
6275
9980
0bdd
5c12
0434
01ad
1c49
1723
ff37
07b0
0379
ffb2
8d1f
6f62
46c2
3f05
67fa
485c
cd88
5e88
6012
6205
0347
8b56
05a1
b85a
0294
24a2
0ae0
fff7
b30c
3733
feb6
cc6e
4f17
fffa
7794
0928
dc1d
77ff
4c19
fe4d
3073
68c2
8b2e
32e2
4c7f
2519
41bc
6408
fe93
85ff
a212
2529
8c12
1a45
2a1a
0e64
8d32
fd13
a181
b10c
2f08
b912
03ac
bb88
1e29
7220
03c5
dcad
f95a
0c72
bf5d
6fd3
191a
026a
0284
4199
a925
ff68
7822
564e
fe65
c288
c710
2904
12e2
1a60
e00e
49bb
702c
0399
1a6a
7ccd
cd36
4127
a288
1276
0a5a
9304
b8ff
3218
f086
0c50
0455
77b0
1c06
4fb1
4cbb
129a
d737
fabe
ffca
f8ec
6f38
1e04
d6d0
04eb
910e
ff4d
3d92
a5fe
0155
03da
9e68
184a
03fc
2a05
d021
f35d
11f6
8c62
4194
3637
1d88
071c
bcd9
127a
1842
5a05
e2ff
02e5
c3fe
bcf5
9112
fa1a
4793
8103
f4a7
0eb8
d960
92db
4ccd
ff2d
3688
0264
4f18
5220
ff77
ff69
3f18
4c56
ed57
d11e
fa0d
d188
0e90
125c
3f51
e836
4c04
0b56
f712
6eff
bc4e
ff66
52c5
1041
13fe
cb23
18c6
93fe
fe2e
dc9e
4f88
5a10
03c7
5d50
e872
ff52
0f1a
a5f0
3c88
e09b
3478
2988
2a90
1a21
a4e2
4b88
4a53
4092
765f
8b0e
0158
43a5
ff78
a8fe
3a10
ed1a
55ff
d7fe
0c16
4cb8
0ab1
0aee
0590
feaa
0a7e
a150
4cd8
0bfa
c412
0285
ffbe
3e1a
41bd
4cb9
48df
04cd
7619
6632
564f
0dd2
c988
0498
728e
cd60
2b31
4e21
39d9
f087
ec94
7077
4641
1266
1094
40e6
b712
9a88
01ea
b988
94ab
0239
9d4b
244c
012b
93b1
20fa
49ff
0378
ba20
090e
4a5b
4a1b
03a9
4c07
ff1d
5c6e
d072
e218
ff7c
40d3
121c
188c
ffc0
03e0
260e
049e
419d
ff62
f081
ff89
0c1b
ff4e
6212
10f6
175d
0cb8
f515
2e88
9a18
fe7a
2372
f518
4c44
f2f0
ac9b
0a33
2843
6435
e5eb
5b18
b210
01dc
20aa
bfff
fd12
017d
7550
ff9f
0a34
25f6
c56b
6371
40de
095c
ffdb
4a07
0ab6
2e89
05a8
15e6
f185
caff
1650
2509
ffde
6103
1815
0135
cbb0
3574
3dfe
d329
620b
5d05
6335
0317
17ff
4c42
8d88
04bd
2f0a
e5c3
bcea
1878
1224
f75d
e6cc
02bf
a57b
ffa5
0397
895a
fea8
25a4
bf36
02a7
3288
0af9
5408
ff8c
1654
10a2
481b
d80e
fe0c
1c2e
11e5
f136
f850
875d
04a2
7d87
4c1c
f2fd
4c6a
18a9
011b
4cf1
1a54
028b
013b
2d11
0e2a
b35d
4c4f
f918
5318
6f7f
04d2
8f12
1ad8
4c97
1e1a
ec12
2e22
ba13
4af5
1908
254c
3252
8221
90fe
ac28
4cc0
01df
1504
1f9d
5a88
0eff
f403
3937
c08d
fa88
195c
c1dc
fef8
52f0
121e
0c1e
a512
0341
72ec
10ea
e470
128f
99de
baff
ee10
155d
4205
1dcd
ff74
0ad8
0e3a
8b36
7444
8f52
c90e
0a8e
1845
40bc
9ab8
20e2
039f
7d32
659c
417f
0cfa
03ef
ff81
ffcb
706b
95c0
09d0
b0ff
630e
9012
72bb
8005
bc4d
19fe
ff6d
609f
6d6e
5b68
92f0
20ee
038d
af5d
fe95
ac58
2288
0a29
9efe
62ba
db09
7208
b671
d80f
e2d2
0bb8
011e
fe13
1849
c390
0f5c
fff1
5bfd
6a12
fe72
ffb1
a3e1
7d88
497d
6a8e
033b
23ff
cf88
2510
7e68
0377
86f0
3a87
c214
4a0e
41e7
feac
fe85
4c8f
10d0
06e2
3488
02bb
ffa0
3107
8304
38a3
fdd5
aefe
d31a
4807
01a9
1a10
2517
46d8
475d
03de
d304
061a
1670
5bff
2e1a
6634
1e4e
b75d
04c9
01b4
07ff
a9f0
41db
0632
2e73
73b4
3ee5
6c56
bd12
5e43
1a0c
6512
040f
4caf
87f0
51d2
ec88
4cc2
4c9b
0b1c
e205
e04e
44b9
6c6c
7d54
ecf1
ff70
fe98
ff11
be6b
9f05
1891
d524
735d
3918
fec6
0588
e0b1
65fd
5a1b
04f8
68d1
5012
3d0e
1835
6388
5a0e
1b12
8b1a
1828
ae36
1fdf
1753
ff85
474e
c953
561b
0868
ffb7
4c91
a841
7d0a
04e8
495b
c20c
2350
df4c
1081
9620
4c60
58dd
4788
45d4
0392
655e
1eb3
8bfe
aa88
4c9a
03df
01a5
c66f
4ab2
2488
db1a
620a
d350
e074
340e
1221
216e
7ae7
8094
575d
9a0e
6a1a
0514
cd69
e1c2
a8a4
1f10
6430
68a2
5c08
0660
c006
4cc1
cd6e
03e3
b3c6
9892
6437
ed18
1e0f
b8ae
5769
61fe
2a12
3a19
0342
124a
a305
1a50
e68f
160f
ace6
151a
0381
18ca
d512
fe74
7cdd
0e27
45f4
5487
4dff
46a8
ffdc
b736
c036
e7ee
126d
03a6
0e76
036b
1388
ffa7
6339
d888
af2c
20f8
6930
4a16
fe77
cf40
50ff
ff8b
5288
aa12
5b50
53f0
0367
cc05
e271
3e06
8b24
036a
315d
ff14
e007
46e1
4067
45e6
ffd9
38ff
dd1a
028e
0cd6
950a
17fe
435d
4c1f
ff7a
81fe
c0e9
6dff
7288
03cb
f388
2bff
34fe
7c50
9529
4e4f
6889
65a4
bb12
1899
01dd
b4f0
5014
809f
1a78
0be2
dc2c
1988
266a
0d1b
b5d0
ffe4
acc4
2ec0
eedf
cc1a
08a8
98f0
256c
3229
7c09
10a4
2563
ff49
73ff
3250
f0ff
15d0
be1a
375d
0356
9207
a80d
e978
0db0
6830
4890
fbbf
93db
3e18
44b6
03b1
4166
1841
4cce
d3f5
2eb6
4ca8
2b12
fff9
6d14
016a
de53
3b0e
0373
d9ec
0beb
6960
89f0
0c46
186f
4216
275d
9065
fa70
d53e
0ab4
614c
7188
c0b1
71e8
01ca
0179
e505
105c
c96d
b318
a808
e604
2ca0
0b0e
cc88
9912
2c0f
8277
065a
2188
d336
ff90
7b0e
f488
faa8
2e08
543a
3076
89e9
94fe
0d3c
0ecd
6474
3ed5
4ab1
1e5c
7b77
3005
5420
ac1c
8410
ffbc
23fe
5d0a
15c6
bc0d
ffc3
a8d1
0e52
8b03
4a71
4cef
b6e3
41a1
88fe
d388
41ef
fe05
07c0
b021
fe32
1a48
de0c
2091
da0e
685f
d209
7c12
3164
db0d
29dc
ab08
6a5c
275c
b284
240c
ec10
4cd3
ff35
0359
a188
1305
09ee
186e
45c2
4ea1
ffa2
fe08
4efb
9554
c0b5
d91c
0351
7512
095a
5412
845a
b2d4
0e03
1098
51de
0c90
16f1
1a71
63f0
0497
cb10
20f5
342c
5dfe
0af6
1dc8
10cf
2efe
04ae
135f
ff7d
6448
f055
12aa
4821
48f0
4c9f
c2ff
440f
2a04
e612
7108
a809
62e0
868b
d588
23b9
b688
83fe
4558
0ce3
6c77
b8f0
0178
0e5f
3f08
8b06
12f8
ace7
ba18
bcfc
0b7a
1916
c009
ffb4
6625
f4ad
0e74
3a50
2888
164a
8a88
b4fe
4c65
f86a
050c
7920
5ca2
4cd5
040d
d09e
e454
d8cc
0b14
2f7f
10f4
f5ac
4ca5
05d8
624a
1188
088d
4c67
fc62
9b18
8904
c3d2
0eae
9e21
d20b
04ea
2408
2518
dad6
0387
97ff
ffe1
3222
033f
bc54
fe6c
d90e
bdff
6d44
af12
9b1c
2b08
108b
023f
2921
7621
ff64
26e3
c804
ff29
d7ff
043a
032b
4ed3
7812
1cff
cc24
ee2c
1865
0916
6322
1f9a
4cde
8e50
fa39
4c4e
3264
fffc
9d10
8188
3412
ff1b
1074
0e20
1368
32a2
ff57
03e8
a103
930e
6332
0390
b512
4931
1052
c3b2
2308
e285
d436
0b7c
3774
a788
38f0
2238
6526
ba05
dea9
5505
ac1a
0431
0866
4129
0113
4da8
faa4
4c2f
0814
4ccc
6870
1217
e6c1
f3cd
25ff
02cb
0796
3ebd
4c6f
0edf
2b04
9016
9262
592e
4c5e
fd0e
611c
d378
fb04
10fd
4421
4c58
075d
eea3
c9fe
cea2
504d
110b
c9ff
1aac
8dfb
d8fe
136c
ffc4
ceca
ffd7
9f06
4c14
0d08
9cbe
08a4
34ff
225c
2718
16a9
6405
ff3a
f965
6912
5815
4c7a
9405
21e8
15dd
1a7a
baf6
0f70
0a25
775d
01c1
9088
0153
0ae6
ff99
290a
1099
cbcb
87ff
0398
ff5a
1d18
02de
7818
82fb
3012
6536
4996
c5ff
239e
3262
1120
4818
1eff
43f2
b7ff
6c39
1e03
cffe
10dd
1663
1ebc
57fd
19ff
6166
130e
1af2
01da
3008
10f9
1c1a
e388
d088
7a12
44ab
ffed
1afa
03b7
56a8
081b
4cdd
2250
4346
066e
070f
ff5c
5fe1
e3bc
cb88
655a
3922
f539
fa05
ff51
379a
08e0
91ff
6421
3eea
165c
4ee0
e5fe
9212
4212
4c11
9624
f9f0
a7ff
ff34
8009
2e21
49f0
c612
162e
081c
0493
3d12
0187
4e44
026b
fc0e
4b34
02af
4ce6
1ac4
f07b
bf2d
688f
e6cd
c896
8b12
ffb8
1a2e
da6c
0edb
2e28
5b88
0c9d
5a75
43d9
0364
1097
0806
3104
ade2
b212
cdff
100d
b889
c2a0
df88
3518
ff6c
960e
6076
fe3f
90f0
7ecb
8020
5c4c
b1ff
c523
11d3
1ec6
29f1
075c
05ff
1c6c
5418
b670
1f9b
0e47
1839
a903
f61c
b21e
539e
eb04
016c
db36
028f
fe3a
6846
03d6
0aaf
f006
02db
f70e
3669
0e6f
b588
7705
2f50
03b9
18fc
0339
8f21
4525
6d1a
c2fb
9205
4671
760d
ae88
1868
10e9
ca0d
3d93
60fe
4c2b
0905
3788
194e
b612
bd7d
41f9
a3f3
10bf
6938
652f
3a08
4f72
adfe
9321
bcfa
3f12
ca5c
61c6
a136
0149
8136
4ce7
6451
222a
599f
3c32
e403
6653
1a84
1a09
ac38
03dd
0368
314c
a393
f6f0
e972
3f88
4c74
29a3
ffd4
fe51
d24a
f510
e8fe
ba10
f532
8e59
bc84
11a3
20a2
10dc
1671
2909
646d
8104
4cb0
011f
fec5
ebfe
9e15
db90
0ea8
bb55
c9f0
f536
0357
6588
1028
74d2
15aa
321a
87c0
01ec
04ce
3cf9
67ff
4c46
5c47
1ac9
ff65
0127
18a3
45c0
3e5f
4bc7
fe06
1af8
0eb7
03d3
d018
6210
529a
c686
0e79
5612
feb1
364c
07e9
2604
03ce
b90e
ccff
4912
be10
39ec
f10c
80ff
4b10
0375
6466
bce0
25b7
6318
ff96
2118
fef4
3f50
9488
ffcf
fee8
0e8f
7036
2612
7cee
d718
4d88
0f05
2cff
10f2
017e
8171
db96
6410
41b7
3318
7418
0f2e
d650
0b16
a654
4a48
cd21
3eff
670e
3170
1af9
bcfd
fe15
4a1a
542b
6e14
5188
0e54
fde8
fe04
0ccc
e216
881f
b430
9a10
5e21
dd2e
3088
522e
2e50
7ec2
03bf
fcff
811d
4cf9
0efb
96b1
c653
017c
9681
4660
4518
6418
761e
4c49
b48b
c8ff
12b8
c388
6436
120a
732f
7aaf
723d
faf4
d909
9e1a
fe4e
dbee
fe84
ac32
455a
9bff
dc21
10d1
587a
1257
fa18
2f5d
4333
b81f
8bb3
fe86
1846
9403
68a3
1096
072d
6428
dc1a
0bee
cb0e
2b4c
f7ff
5712
0a30
f954
fe0a
d007
e312
a105
3281
0cd5
b460
731c
1833
1a16
cc18
03ba
6135
2ddb
fe68
3a43
1ae0
4620
5a21
6d50
fff4
4aad
0ed0
5c0e
f7ab
987e
bffe
7430
5f12
e034
0651
370a
4c34
db39
facf
68ce
2eff
2c04
63ce
dbf0
18f4
e588
befe
c09d
b403
462e
4c96
132c
ca24
f9bb
9c54
fecc
f703
f966
10a8
0f10
3c12
3812
fed4
7782
73f0
08d0
8336
21f3
d832
ffbf
0181
c722
fef6
4c76
f5a8
80ad
c00e
49fa
be0e
0525
5c10
0ec4
a8a2
d204
dc14
f73f
4c57
bd31
6877
5e40
4fff
7ac9
a513
cad2
6a0e
4c94
0e41
2d05
9034
500c
3dfd
0394
ff47
6599
f6ff
6b26
4ce3
4451
2a88
4b40
04e9
a28b
9e06
0c5c
ffdd
03aa
fee1
1a53
bf0e
b250
4dc0
63ff
9605
a536
a016
1e0a
30b0
3418
e1fe
d434
c726
3b5a
5268
453a
1e0e
87bb
4c45
041d
4514
0e29
4948
b906
6005
01c4
ee1a
32c7
4cb1
2d88
03ca
a59d
3512
cf36
08b3
fe44
a0ff
bf3a
ce40
c0ff
2e0e
62dd
6d04
1950
3a0e
beb0
4a96
e0c6
f52a
9ee3
4cc4
16ee
4c63
ac07
fcfe
6146
4ce2
ff8e
6887
fd1a
04c3
6188
2305
21b2
bcf2
ff98
6433
82db
68d2
a803
b94b
108a
cfff
1236
0afc
1a28
6518
4a0d
cf06
4c16
c1ff
ed88
1e22
0ec2
1213
250e
c7a8
044a
5c1a
5445
3e4c
017b
a382
037c
8118
2f21
6c12
df10
1aa3
0f48
fedb
4ee2
1a14
10b0
8dbc
ff26
a236
fe25
9050
e7f2
39ff
2e16
f052
3f5d
7deb
1856
950e
5887
270e
f09f
2ed2
b367
cb18
4a50
3ff0
5003
08b0
352c
4543
8111
fff8
cd10
fabb
45e3
fa1d
0335
6ef0
ff71
78ce
4c9e
8c44
48ff
e223
57ff
01b6
ecb6
b304
cb20
20e0
1efe
ac0c
2918
ff95
2ed6
dea0
3007
a711
4a06
a7c8
2cfa
ebc2
6803
8950
b518
8788
841e
4e40
b1d3
4c20
bc4a
31f3
0ef1
5404
10a1
97ec
0f4a
264c
7d9d
8110
ff42
5303
fe7f
1c65
0c35
9ab9
688d
8d64
68bb
ace5
036c
d305
3205
4c3b
a31e
d106
72c7
4b12
835d
3e0c
c636
5b73
1884
01f1
7588
5162
039e
3b8f
4918
71fe
474a
5f94
d016
34a6
1867
121b
f955
e8a2
737b
68a0
8afe
03cc
ad03
bd0e
4810
fef7
60d2
635d
0184
e6e8
497b
12af
4910
dd7d
b32e
fe42
1ab9
f5e5
2910
135c
0161
4ecb
045e
03ec
2e0b
67de
44ff
f050
940e
12f2
ed5b
0663
0183
45f0
494f
185a
71f0
6028
4c2c
0e15
6813
6331
e45e
4c8b
c80e
03ed
038c
035b
8204
4a1e
4841
fb18
3fea
0eb6
0e5a
04c7
cd50
2a1f
12c8
224e
21ea
fe54
4ceb
03a4
6d49
b67a
f22e
31ff
0e44
03ad
51f2
a16e
1b2b
c821
08c7
7cfd
2258
18e8
0ecf
d036
0189
b1f0
1a38
de36
4f52
8836
0164
1e49
3303
0a40
9e53
e008
244d
f91a
ffec
6288
2da3
7035
64f0
e54d
a8a1
0e5e
f291
ffd2
4c78
5aff
820e
31a2
6d86
103a
fe43
9818
80f7
3a6d
a2c0
ad36
0e3b
3b0a
1095
ffa3
188e
2e29
43a9
0e72
c1ac
d236
d5ec
7ad1
0e65
1bf5
d20c
7d15
0e56
07ed
c0b3
ffaf
3eda
4c36
8203
631a
0e53
055e
c967
ac43
5654
dfe6
3046
0384
ce36
490e
4288
8740
6177
3c0b
f04b
43fb
10b7
72c4
11f7
0423
6218
25ca
03a1
95ff
706e
101e
4c71
5cf0
1087
4c1d
4a5e
680c
2405
509d
12e6
3a33
9dd8
a452
4b5b
4ccf
56ff
e70e
f205
aa18
1a96
7912
5708
7d0e
3b5c
4aa0
57d4
c218
0d0e
10db
2127
acd8
fb88
c10e
57e5
8c4a
18a7
354c
2bf2
bc4b
dbff
5a1a
fedc
6562
16bd
ac64
6553
f34d
0788
ae54
965d
20d1
5c69
50aa
4718
06ba
0e3e
ff63
0133
a1a8
48fd
2b48
dd36
e087
d136
7618
111a
5e9a
501a
03e4
a0b1
e888
f56b
345f
04dc
9d0c
9dfe
8504
4a05
9aa5
159a
c932
0903
5479
3161
a688
ada5
48fe
7e09
9013
5119
184e
6506
9636
fed7
c404
830e
e865
f268
ffce
e4f0
98fe
e250
a007
3078
0688
0e55
beff
5907
b488
f922
dd88
b21a
22e3
8820
0e17
1275
5215
0e32
1e83
b418
c7b4
ff4a
d70e
6312
5d88
bcd1
5f18
4405
eee0
1dff
3722
f2fb
540c
03f7
ab49
acc8
3d88
6478
7918
4c32
4c15
f2ff
8718
0ae1
d412
d734
0abf
6532
6e07
18e1
c188
ee94
e305
f95b
fd77
d050
9e05
4452
0e4f
a153
08f8
0343
d10c
681c
94d8
6a88
4f0c
a01e
ffe3
0b6d
ef90
fe63
6488
c4ff
b536
5999
5b1b
dc1c
1206
77f0
1a8e
7538
6570
535d
6264
9ffe
6c22
04f3
fee5
ab16
1977
ee40
04d7
871a
062e
664f
ec1d
9018
888f
0f0c
a4b2
981e
fe8f
4a55
2b94
e1f0
3a60
6950
480e
d6ca
47a1
5244
dfff
760e
2485
783a
fea7
6e10
7e04
89de
91fe
a8c8
5f5d
3988
ff38
061c
2c4e
b866
a80e
fe97
0e2d
5b48
1253
175c
f010
38bd
4ca0
06c0
c212
2de8
88f0
4aff
04bb
31d0
9f5d
5c75
78f0
f068
a221
0ec9
fe59
eee2
0b93
0c51
ff25
e9fe
0168
c377
a988
ac5a
1ad2
4410
c316
03f4
33fe
b677
ef92
fe4c
653c
a308
1a6e
fefb
126e
a75d
ba41
1078
2104
ceff
5645
d2d3
489f
04a7
bcc1
ac54
3be6
c6ff
1892
6412
fe49
6705
ad0e
374c
54e1
c788
fe8e
4ff7
4cbf
5cd9
6a33
781a
0ee8
309a
5603
1ab5
72ff
4250
6631
d788
482a
0f46
108c
1e27
c6fe
4c3f
0cee
7604
3e22
bd4e
58fe
7ffe
7374
eb05
7240
5968
2ee6
8588
8105
0c7e
ec18
feba
6638
2e55
4e52
2388
590c
b309
675d
6569
224b
344c
fe14
1a32
a145
2b7b
0cf1
b50e
166f
3a65
a7e9
060a
6816
aa0e
10de
bbff
2ea8
0acb
6118
50f4
32e0
06ff
6e12
87fe
d030
8fff
ff46
9805
fe2a
5609
1648
8e18
05a9
1ed7
2673
7804
d54e
7904
4a08
e721
97f0
1110
69cc
9609
8a0e
1ae2
c6f9
6233
11b0
03b5
59fa
104d
ac16
7773
f02e
f436
12a2
01c3
7650
2e45
eecd
1065
650e
23d7
f0fa
59f0
21ff
d54d
ca85
1e70
1528
980e
fe24
0e92
f905
a205
480b
049f
7c10
d320
2f6a
0edd
4a76
3a8d
54e6
6bc4
5f88
04e1
0421
0499
2387
ff94
fee9
f503
32da
a6ff
04bc
059e
e518
3a04
0aae
5820
800e
6890
2218
e349
0e11
2848
2e05
0159
6d12
fdc9
a025
551a
faf2
4c98
3cff
3e4f
aab0
2306
7e12
bbf9
4618
52b0
f54f
4c83
d8ff
4d37
fe33
9ec0
2cf9
80f1
9b5d
1c0e
4a6a
a8e2
7608
ffab
a2ff
0383
4c29
8c0e
274a
3b5d
1a81
bf50
6535
0851
fe23
3d87
7522
2b88
1a75
fe9e
d05b
10f1
fec9
0e38
ad9e
ff44
e76a
a232
03e6
eefe
ca7c
037d
0e83
c6f6
b395
8b5d
c40d
0e8a
6910
2d12
7e88
3a6c
c5a4
1107
5818
9588
5212
7004
080d
0d07
eea9
1e9f
4e06
1e53
0e6b
0e8e
1e0b
dc3e
284c
4cd6
3513
6b16
833b
ad88
960a
093a
6364
1a05
fac9
e010
2688
3bad
c9c5
25fa
8e36
4b47
050e
bc0a
65f0
ff45
3961
b19e
f818
08f1
11fa
dd51
da93
0832
5b12
a1ff
aad6
efb8
8c47
0fe2
24e2
7488
10d3
18be
4504
dadb
65de
2ab0
c12e
6af0
a310
1077
ecff
4751
6132
04e3
0e75
30bb
89ff
688b
e41a
3727
196e
9e11
ee36
e11a
186d
052e
db23
0e23
9188
6235
040e
643d
61be
5e10
db5d
2511
85fe
1b08
9436
0452
2112
e0e9
63ef
5105
b84a
043c
0c1f
ee34
3952
07ee
0e96
e1f5
220e
bb0e
0b1e
a004
4ce8
f38d
fec7
4e08
955a
6688
7b88
62ff
acf3
4ae1
1287
1aec
5d7d
62ed
9c08
1ffe
0706
b936
0728
aafe
ffe9
4c8a
a106
7afe
22ff
235d
cd58
3461
0506
1a5b
2098
4ca2
20b0
1770
04d6
84a9
10e3
0e84
0ac9
ba5e
fe28
be3d
0e51
294c
e6ad
6965
86af
0834
4ab5
13cb
3aff
0ee4
cd6c
1390
3618
a4ff
da55
83ff
3da3
5a62
2475
78bd
808d
8f5d
9503
2970
27ff
2a2c
9457
f8a8
f929
1c4e
be1c
18b4
c1e4
d510
fe45
6aff
4b0b
6161
2253
0f14
0ce1
0e7a
ac72
7375
3d04
18fa
e221
9f0e
f51a
6640
2254
0d16
4cb7
7279
5bd8
5634
0c91
1a62
1505
4c7d
ea1e
4bc8
8014
c17a
0476
c952
6745
6d6c
73f1
0f5a
2090
b845
a336
6718
f30e
4a87
d208
1934
16fa
0614
94f0
f08b
de0f
e8fa
03e1
f2ea
96f0
9639
ff6a
0e66
c90f
e208
8236
b34e
dcfe
60ff
544c
b0ae
1a6f
af36
2c32
fef1
2406
7bff
c6f0
48a1
92ad
9836
4377
fe19
1605
9926
75ff
a910
d988
4a21
541a
7b0f
10da
9f16
f747
01e3
2ee8
685e
ffb9
04e5
25c4
bafe
cc54
36d7
12a8
03d2
1ab8
086f
0e33
0363
87cb
71ff
4c8d
fe1d
10f8
8f18
bbfe
750f
e046
723a
4e23
3404
1a85
6134
7310
8d10
fd7a
0c3d
b718
ef94
8e11
e4a6
0e37
170e
3765
5e84
7f88
1b88
f463
049c
ab10
48b1
74fe
2ffb
0b1d
0d21
20ae
c4a5
ed0e
d818
6139
bcf9
db24
fba5
6208
1ae6
fd05
9a5f
46ff
7007
58b9
b06b
080f
4240
ae18
6b6c
eb18
a505
bf32
b764
4cc8
8ecc
d28b
0396
c0d4
f54a
4ac1
300e
c85d
38fe
77dd
4e5c
2266
2ea0
e50f
6843
2f0e
db1e
faf9
fa60
45c1
2e64
bc28
666d
a0ad
ae71
be50
03e9
de27
e867
a90a
7654
6462
fe78
fd31
a911
fa06
5a69
eb88
9788
7f49
592d
9ab2
20a8
051d
fed8
04c5
682e
c632
0174
e9f0
7388
7712
5e03
4a4c
ab1e
840c
ab18
99ff
5ffc
2c1a
d1ff
4eff
ff4c
333f
7e1d
24fe
ffae
dc05
51f0
fe8d
7012
ec07
2f90
6c88
1a1f
8ad2
ea21
f62e
ef88
e855
5a12
bf07
fe91
bc36
acac
03e5
0e07
abff
ac5c
65ff
8d05
0371
03db
1e60
bf87
6259
71ea
21a3
ea36
fe07
2796
feb9
63a9
4aa2
0468
edb7
0486
0d10
48b0
ebf0
16e2
d606
f083
e021
d22f
9ff1
5812
1e40
16be
4c47
9af6
4c84
04cf
59cc
ba36
e770
7b08
be6d
6082
4cf5
ff2a
4a0c
2f88
ff55
770e
ac13
150e
535c
d221
e80f
5208
d404
0be4
6872
080b
1ec7
4582
1c88
7a06
09c7
0ba3
1610
3018
22c9
189c
bb5d
9dd1
045a
f00f
4f3c
164e
6431
4ce0
d032
26a7
5e20
3c63
78ff
07e5
de70
4c7b
6b18
f5ce
4828
4a25
627d
9de6
484d
533d
0a64
cfb1
2ea9
12e0
7a32
cfb0
ff82
0e86
5e18
d6ee
3e35
6a10
68b7
e418
be71
9cbf
083e
4615
6cf0
422e
8710
5c3a
a1af
3a09
6404
185b
3e6a
1a1c
1245
c676
d0f1
a405
21d6
bb26
dc52
dd6f
0f0e
4be7
8e41
0c0a
e50e
0cd7
1a23
0a36
04fb
fecf
19e6
a510
03f9
720a
3f0c
f521
bff0
4605
1348
f559
28ff
feee
6590
49fd
1ad1
57f0
eb14
0139
9b05
a408
5340
e1ff
1a76
a388
b421
1148
a595
9f40
3d1a
c304
1296
54f0
ff39
8eff
c090
1317
6961
c7ff
a2db
8624
bc03
54e9
f05e
1e0c
eafe
d2a6
5353
c7fe
7b10
1d06
4750
d274
9888
e2d0
ef50
6279
fb0e
4dd0
5a20
1897
4ce4
65f3
d84a
5dff
4cec
7e0e
4c81
0603
e850
2d50
0e2c
fdcd
e005
1904
6505
b5ba
9cfe
6e41
f287
1603
4855
4c2d
1f21
05d7
b60e
b203
c336
0eb4
79da
bd88
fe94
9c22
521f
1f5c
7410
03b2
5550
af9e
3a71
3712
76a0
de1e
e350
fe56
6165
5fff
db40
acba
f236
0ee3
c234
ba87
97fe
10d2
491b
5515
4cf7
ff9a
82a9
1a9f
4c25
219e
4e4b
6850
07f8
7a88
ffaa
b9ec
018c
4e05
510e
81e4
2407
7b4e
4a5a
0167
ae4c
ef21
ea9c
0e85
259d
6804
e7b0
bced
285c
08cd
461b
227e
dbb3
4859
fecb
c1f0
49d2
a70d
01ab
013f
fc88
c834
fd32
108f
047a
fc1a
2d4c
0157
1b0c
1c0c
9bfe
8d0e
01d5
0807
a3ff
5705
5ace
01cc
1e14
db50
51fe
3361
fe7d
0e2f
fdae
1084
4c8c
f6df
134e
4e69
26a8
8f0e
a10e
5903
9a50
4e74
4388
038b
1a2a
9421
1aa2
cfce
3c66
6e7f
5ea7
0eeb
9603
8405
6065
0ea2
c189
b128
7e93
124f
183d
224a
106e
6b10
3e08
c3eb
3bfc
3208
b406
5849
947e
446d
0a09
a616
1a07
66cd
ff43
9eff
7ef8
b71a
1a31
5c5f
c484
08ba
6b4c
af57
0e6d
f9ff
9238
0b5a
dc18
4640
b492
f921
eebd
4208
7f10
c810
7b04
4c27
4ce5
1d48
7612
89eb
99fe
d81a
0a1b
371d
03d9
07c8
ac4a
1853
a318
b882
624c
1a9b
eb50
0ef2
0ae9
44a2
7216
0e7c
4e42
acf8
460c
1ac0
935d
c196
29b5
1231
2712
20bf
f218
feb8
622e
3e0e
f0e7
1e16
a245
0f16
111c
66ff
7d10
fe5f
4ca6
bb0c
522d
8730
6138
1f46
7820
21c8
0e58
d91a
3e15
1622
6485
fe29
3388
8721
9d8d
64a7
8389
4cb2
3550
f21a
688e
9afe
b40d
1370
83f8
f788
eb5e
b204
056e
1a79
f7fe
6760
0bbd
c985
5f6d
0f1c
1a87
101c
8b88
8127
3068
3450
12a7
fcc7
03f6
1278
9121
015f
62fe
6ffd
3522
51fd
6463
bccf
de04
fafb
5950
2f73
6ba7
1af3
6162
0e26
7141
6d43
5e48
f405
3162
e20e
20f4
09cf
4e13
1a86
1aee
6a70
c236
f0c5
c736
0c14
4274
2f10
bf3b
03c1
3963
fe4f
8dc3
e4a2
3e40
1a64
9c20
3662
4423
1e2e
af0d
0b22
ac0a
8c63
a4f4
fd0d
0d36
107a
172c
b8a9
bf37
11d0
0475
2e61
3c29
cd2a
56e9
01ce
e158
2808
65b6
b606
7a54
4ddf
b150
bf68
db16
de88
a10f
825b
f804
4e0e
327b
6dfe
edcc
7667
dc8b
6fbb
a104
6b28
d98e
ec0c
7aad
04ca
1af1
f7fd
1a36
1d29
8711
2e5e
c688
b887
3e59
03af
6bf0
a70f
fe3c
712d
2224
f04d
a048
9610
1e05
6094
bce1
192d
092f
bc5f
a9fa
b909
bc41
0aa9
affe
8ae2
ea66
7518
13ff
8305
44d9
cf0d
ee18
2c12
f9f8
530e
43fe
dd22
3507
d321
f01e
cef0
ecfe
7fff
9e41
a5df
b604
d255
343e
eaff
9d88
e88d
ee06
80e5
5088
5512
8e04
03c6
b7f5
719d
0e94
2a18
4843
ac1d
0e63
9721
e29b
3904
bd0c
a435
55c8
06c9
7b2e
4b0e
2230
e631
8393
ce0e
0a73
6b5d
3248
7241
3a34
f50e
b69e
e0d7
a1f2
4944
bf0c
1acb
0e36
3a14
5468
5671
3b12
c87d
1d7c
a2f3
a5e0
605d
6432
4d54
18a4
e20d
9703
7627
ccc1
3fff
5ae2
5279
3655
b8f2
920d
3861
03f3
c6da
cf03
190e
985a
10a6
4f74
c63d
f20a
055a
e7fe
248a
89fe
682d
6e71
e69e
d306
8ad0
b708
4cc7
a81a
7152
cb85
2774
4ea7
3efe
e3ff
8990
04aa
a9ff
7af1
ac9c
36fe
a243
2265
69f0
8c8c
1a90
1f72
ac8c
10b5
1af5
1a97
fe58
2991
72e0
9ff0
af08
981a
cb1a
576d
1de2
3f10
1896
2608
0821
1082
5a50
659b
b118
fcf0
f93b
23db
4853
ffa6
e018
b8b3
726d
cf5c
95f0
20bd
06ee
6434
6d18
ff7e
3da0
8d1b
ee0f
f063
d32e
5c87
0eea
e7ff
03cf
5ee0
c908
cbfd
0811
8505
62f7
184d
1c70
fc36
0e99
a006
bf1a
474f
3848
4e3d
db25
872e
5421
c0f8
e81a
6559
4987
7aff
7d5d
dfce
d8db
c8bc
1105
9203
bb36
f6e0
7218
0496
0ebe
13b8
3c4c
dcff
1885
5c3b
12d1
6e13
5d3a
3c36
4b5d
bb54
3ef2
1c0b
4c95
24ff
01eb
6c1e
686e
1e4f
071a
0eca
51c4
11db
6a03
2fa3
61ff
a441
a1df
2c61
a362
4cf8
06fb
890c
73d5
60c7
39f2
18a2
6795
69f3
0b5d
a24a
7476
8218
68d0
0ee7
492e
780e
3cf0
4870
3818
9b10
187c
36ae
3af1
e788
0391
fe2d
115c
8688
9b0d
87cc
9ef3
3965
b810
4dcc
b5c0
1a8b
18b3
1e0d
be6c
87b0
d505
aefd
1a59
4404
8318
ee45
c5f0
aa37
fe5a
2234
18ee
1c1b
7f73
5a18
f577
4cb5
167d
f53d
67fe
127e
04a1
ab88
b0e3
4d18
633e
0515
3b1e
4dd2
5eff
8729
5a91
0ee0
0a3e
d97c
82ab
0988
4304
0bc8
a011
a7e2
eb5d
6366
5f04
4fe7
221e
b19f
01e9
0409
f736
4905
12ee
cc7f
8c49
5405
1987
5112
7d33
9179
b01a
5b10
f131
0d5c
a38c
feaf
06fa
6663
945a
3a0c
1838
ce9d
799a
b805
e6eb
21a0
ad70
8f36
0e93
7276
2756
8f88
e916
4cd4
7454
2404
1afc
aa21
2db6
fe31
68e6
24c7
4cee
443c
6f18
98ad
7534
89fb
f088
2233
51f7
c40b
261a
03e7
8cff
a8ff
6875
4608
93f0
aa36
048e
be88
5e04
abfe
ac68
ee05
e9eb
68f0
0b68
1510
0e5b
8a03
320e
ce50
0aa3
0e7e
df82
df36
7b50
f3ae
780b
4508
4a7c
4e67
240a
1a41
9450
06c1
0415
0ee5
ee43
6768
5d9c
81c8
e25f
b95a
df93
d34a
594c
0f6e
95fe
6e21
3405
2c31
e348
1a11
9305
72e2
534f
bc05
20d0
29c3
d629
c72c
d23e
0507
8095
2382
5c5e
0932
9e36
ac59
6a50
10a5
03a5
6537
7c0c
4a3a
fedd
7af0
3eab
4c8e
18d5
64cf
c7c9
aa4a
5b5d
108d
1a73
1a95
4ac8
3566
d5ff
d9e7
04c4
f0f5
0195
6130
c3ff
6a37
01e7
212e
51b1
f331
ca22
10be
f916
1aa8
4e73
6104
a406
7475
1310
1ebf
45d0
dc36
4cf2
cc0e
940c
acea
f7de
84f0
0526
2e03
2c37
f6fe
504f
f596
1a51
e241
a436
4cf6
a4d3
043e
7e52
9a36
0a49
6721
e22e
5540
ce2a
8525
68bd
fe64
75f0
1ada
a22d
feb7
e1a3
5563
908a
6bee
8b50
cdc1
b58f
941a
4836
20ad
6f10
6922
c3d1
be7a
a30f
5843
9f7b
123a
64c2
b175
e90e
8220
0906
cafe
4742
4a3b
d1b5
5531
439b
25b6
e334
8a36
25bb
20ea
a2d8
0e68
81d6
bc2e
4a57
d715
e988
fca8
5a66
0edc
2908
f1ff
1af6
b738
f50b
c14d
3020
16bc
a865
af18
4a36
e4a4
45d2
b1fe
d9ff
5117
d5fe
16ff
6234
0538
0151
6c26
5d16
ee16
3509
9905
8850
2760
5a33
19bd
d48c
5c92
e263
22fa
ae40
b036
fed9
2205
1f88
0e0d
52bc
9d50
8790
6873
3a52
08a2
1e20
7706
e3e5
253b
ee50
6a0d
cd14
0327
ef0e
2436
f028
8605
1d69
ff84
ca88
8dff
f31a
152e
3e09
5022
716e
652a
ac31
486f
03a7
0852
d30f
12bb
97ed
355d
485a
6440
79ec
a418
5473
5761
5222
4576
fbf7
f718
baf0
51ae
e3d9
bf34
2e90
334c
2750
59ec
a7ab
eb09
1748
0e1b
196a
2812
51a2
39fe
3403
3ef5
fe5d
3eed
da6e
a186
8c36
5f75
2223
0dee
9a54
7415
d13e
6bfe
5307
3d1b
3863
c836
0e6e
e105
4a44
e0c5
f5d9
dc22
ff8a
487e
1548
1632
8efe
8e0e
4c99
4cb4
7f0e
0a67
6131
f016
0ed3
e9f2
8040
0c63
aaf0
03f1
0e6c
8936
931a
1627
1a4d
b610
107c
0e24
a3bf
9cfb
33ff
4710
7870
f603
1ade
d017
fe4b
746d
a2c6
3362
4c37
d41a
acd4
21b0
03c3
18ae
84ff
3b58
4c39
5944
504c
4c5d
5e1a
50b0
a210
01b2
0e45
855a
dc87
60f1
bd1a
a6dc
20e1
fefc
7edd
f4f0
68a4
0e8b
2edc
534c
f0ed
1325
7b31
b05b
0186
2b0e
4f22
6847
736d
3c18
7671
7efb
d488
1a27
460e
08e8
5306
4c93
1ea8
68cf
eac6
e091
0ea7
789f
82ba
04b3
e60d
7af4
c7a2
25a5
2b6f
b81a
b4c9
e718
a88b
4a38
30ff
1616
b8cb
0e9f
c010
e35d
3e12
ac61
ccba
0b96
b436
c62d
6511
a8bf
5c05
faf3
6a71
c21c
049b
45f2
1139
a9d2
6aeb
865f
ef1a
e05d
ac48
1c4d
9c25
9043
4e6a
fad1
f636
a021
ef53
c110
8bff
808e
3516
935a
0ba8
4cfa
8709
8a83
9cee
f11a
8562
4ca7
060c
54ca
e804
f872
e2ea
47d0
3108
9e27
3a39
fc08
a919
a00d
d9df
fa21
96e5
c9cc
6669
03d5
b746
a35d
7112
4e79
090c
4aa3
63a5
2833
3105
66fe
fc05
335d
0e3c
a09b
580e
7e50
fa1e
05a4
ce3d
ace9
641b
1eee
ef03
9f2e
6848
e610
8807
1efa
b289
126b
0865
4c92
1b3c
039b
df79
a2a0
111b
03c4
da1a
bf0d
e510
460d
44fe
7747
865c
0ebb
b8b5
46b4
4a6f
d8c9
bf67
65da
3704
b01e
4a1c
77c2
5672
0e9a
04fd
7bf0
9b88
19ec
7503
ff30
c31a
544f
d621
6204
90ff
c10b
82fa
97d0
2c9d
bbc3
1170
f90e
efe8
1295
0dc0
924a
048a
0191
350c
1252
88cc
ac4e
4852
8c06
dc4b
f4ff
9ee2
d033
c096
1d0a
f4e0
0e0f
ac2e
60f3
760b
a10a
7f54
fe5e
81e3
56b6
2b9e
6c1b
3b23
74de
702e
114a
b1a9
ac4c
1a66
0577
6476
e9db
11a0
104b
30f2
2ef2
8b97
9e87
7f12
2ef3
6e04
4cbe
7b5d
0e6a
b64a
e8fd
51a9
8aac
4cfb
fa79
68d3
1898
0eb0
8720
18cf
155c
703a
1d23
10e8
7675
81f0
5ede
c585
69ff
3306
ef0a
0f68
1cc0
9f10
ac8e
23c9
b9a8
7511
6efe
29fe
82fc
0fe4
6624
78bc
2e82
6109
5571
fe79
390d
8918
29ff
86c4
521a
526c
5874
3564
f70b
5d21
8c1a
d59b
6c21
0606
ea76
9665
5710
9b1a
dc32
4ee3
c05a
9b1e
c440
053a
0f93
1a77
056a
fbd3
7122
2106
7250
f50d
6845
7653
9505
6239
0545
c310
2e53
ae8b
ef06
8a18
25ce
26b2
7987
34da
31a6
297d
1209
1717
f0ae
3d10
9f18
aaff
1c1e
2d1a
8510
fe89
82ea
015d
4ed1
5063
4a52
20d6
2410
4311
c4d3
1a68
542f
c139
d083
2ea3
8df7
9208
0e7b
1a69
123c
73de
6f60
2110
8efb
742e
4ad4
3c0a
fe69
fdd7
1c55
9850
e58b
acbc
634c
2e58
fae3
4cab
2e52
4e84
9536
c0d1
cd0e
6f59
e214
0eb2
1ae7
4572
f6a4
8cb9
c00a
36ea
3f0b
e432
bf39
ac3c
4afe
e2f3
d164
4cd9
8c31
fb09
1e52
ce81
6724
1d6a
b39b
0ece
48c4
26ff
fedf
35fd
a32c
fd4f
c2fa
3611
8615
ad2c
20c0
0884
62e8
0af5
a9fe
1093
1d5c
8613
a703
9308
6853
2671
8ca0
b816
93ad
a036
da95
48c0
61a2
18a6
520e
04ab
c26c
5661
4e0c
1214
9f3b
e41b
4cbc
bbcd
d572
26fb
0e13
19d8
1ac8
0ec3
c8f2
3866
041c
3a4c
37ff
4e82
f10e
fb05
2327
8ffe
f1b3
7711
5e28
8282
2121
5508
06c5
04fc
da36
3950
26fd
db10
bf60
89e7
ac09
484f
445f
5805
b205
a0aa
1903
2af6
5f43
8c88
c820
ea16
fe7e
07e1
5f49
f310
feca
fe75
e9ff
7210
b17c
3ea4
0c13
209e
4cc3
1ad7
ffa1
2d08
7b5b
0ca8
10e5
1fff
041b
280e
1d0e
68ea
1ab0
ce99
e7b7
f557
f3f4
9936
3b10
29b3
5108
0ec6
fd36
5b47
b788
3684
eb60
361a
6b2d
2ffe
4c7e
ff92
fefa
4ef1
fe17
f05b
18ea
150c
28ee
a8a0
4587
cbff
1e76
ae53
08ca
53da
17c1
faef
cdc0
f3dd
1ea2
da7c
68b9
9f04
f3f2
94ff
a48a
a74c
74f0
6140
fbbe
f021
d9ca
087f
f8bb
983d
f005
b904
9704
9e10
f0d1
0a63
cf0a
1290
2d18
6116
ac82
5a9d
86ca
92e1
8dfe
8404
0440
3350
4441
464a
3709
c936
484c
f2fa
e2e3
10fc
3804
ebba
048b
06cd
4bf0
bafd
6276
98ee
d251
6420
8b53
26c1
cb5d
3014
0eef
4ce1
f73d
6878
f0b3
08ab
57c0
3670
99f0
d34c
1a0f
c5ed
0cd3
5cf5
b44e
48a5
0d52
c0b2
5912
6819
5afe
b7fe
eb3b
11f3
c20b
4650
2097
b347
9af0
122b
4a33
efcf
ffb6
5c0a
b822
5de9
e14c
f21b
7e9a
5cb3
0192
3687
1a7b
e841
e118
81d5
4c73
e9a1
83b1
6d40
0863
c718
1079
911a
56e2
f8ee
6e1e
6533
ac51
3820
5449
5452
4876
d2e7
d06f
6b9f
5888
b474
fd09
35ff
f60e
630b
f01a
d985
accc
1974
e264
4cfd
e24c
e0c8
b760
3e04
3665
f608
0d46
e736
2ef4
0482
5310
26fe
39f8
c80f
fe4a
7504
123d
c518
2996
1c54
11e1
2e74
a087
0714
1ad0
9b33
f888
7474
891a
66e9
8f68
0eb9
ac26
7e53
1606
bef9
a20e
acec
bf35
03b4
9671
d6a8
fe38
2e87
dc88
b003
11ff
6f14
8531
5245
7950
4261
11ac
7f26
2d72
b808
2587
4a77
ac56
c41a
688a
014b
fd26
5ccc
1116
ac0f
a527
a6d2
430f
f32f
9c71
961e
253e
113b
5471
093e
cc09
5722
6253
761d
1281
ab6f
5889
6c11
0698
04f1
070d
0c32
18c2
6539
91ce
36ff
0e9b
8121
474d
4ed9
ba86
9803
5eda
ca18
7890
afff
be0d
837a
1660
48ba
0e89
9710
c111
0e35
8d1e
c3a1
e522
04ac
5422
bf38
4e26
4331
dc5d
df18
3c3d
eb36
52e2
a90e
91ad
8fb8
5e12
8144
a2cf
0dff
322c
deec
605e
d503
667b
e50d
770c
7eff
bd21
1a3a
4310
6815
8509
5a90
b071
d458
1970
f118
3125
f16f
ee15
782c
5a96
03ab
bb76
680d
f71a
ee96
a816
2e84
7404
93af
6503
c60e
2b06
e40e
1e50
304c
5a77
c45d
0c2c
12db
e608
34d3
6662
ea18
ce5f
9118
04f5
acf4
186c
2d1c
01bd
d1d6
0d2b
243a
6b04
0ef6
6fa0
265d
8356
f413
5ad9
5918
c50b
2540
d10e
e910
e298
d418
046e
feef
4a7a
0a9b
4503
acda
1207
bc10
fe39
a218
09b3
de18
3b04
bd11
cf10
12b2
2e48
4ab0
1905
29f6
8388
b350
0e82
8549
2c17
9f1a
ac05
bce2
fe0b
565d
9c1a
e70d
01aa
8d36
0607
5d4d
0e91
0e4b
9e48
0690
9b0e
222f
f250
1ea4
bad5
32fe
f004
5a08
4570
cde6
b8b4
b8a3
6d60
7295
684a
782f
1e41
177e
ac49
1aaf
4c75
1ad6
0454
bf57
1f2d
681a
3e05
1673
b11c
2370
1d25
3fdf
3cf3
13c0
4804
700e
7ea1
9d18
ceba
bd36
a00c
3e41
faf1
b261
63e3
113c
ec36
e936
548f
2e86
4eb3
5a17
5efe
7205
0933
aee5
0ec7
1259
0483
9036
3966
483b
6352
b2a4
0ed5
42db
8421
5c1b
7312
8e88
3962
a450
b80e
fe46
7e9d
e905
10eb
1e15
9422
5750
531e
ada2
4e19
7257
be41
441b
126c
edfe
0df9
6232
6fe5
3587
9808
690b
ef36
aebb
ed65
0a6c
95f6
0af2
57dc
20df
18ce
2e62
684f
44b4
0eaa
aca2
0c0d
5af5
2642
c01c
0cec
38c8
7698
fa45
eafa
7256
2919
5adf
68eb
8652
03b3
86ff
a38a
7236
e036
f66d
4cfc
2278
63a2
b922
2b29
5c71
6c41
c71a
1985
3eb0
eec2
2912
4abc
7844
10ef
c4b7
0e98
6ebe
18d1
042a
907f
25a1
10ed
adc2
d95a
82f4
1ac6
b603
f43b
82d9
189b
1dac
4e03
b218
4a29
fd46
5728
8365
5cc0
1b2e
222e
6e0e
c1a7
ee04
09c0
49a2
0858
f1b6
0b05
803d
12ad
47ff
84fe
7a67
dcf0
20b5
c516
cd1b
d231
68bf
1d1a
85cd
6266
7670
d48e
f9ec
b2a2
06a8
dde1
90b1
2303
1e1c
9007
fc18
f782
db0e
171a
d110
0729
7f9a
1e42
bc18
d7f7
640e
e8f9
d2d2
c593
6340
208b
a0a5
900c
2505
73a8
1b5d
b8e3
11e0
2c2d
045f
2cf5
120d
9b2e
a4e1
0ef7
63d8
f8b3
0ecc
7c88
db4a
4aa8
1596
dd1b
3c70
ddb0
64a8
a8ef
8131
ee3b
9117
0c34
51d4
9983
7309
0b36
075e
03f5
5bf0
221a
77b8
9f51
4d46
3761
0e77
64fe
1c09
20dc
b40c
eac9
9368
8610
acf2
6565
ac83
d3d0
10e6
3890
443e
1a3e
a936
eaf8
f411
3a07
3671
78f2
76e6
3e6b
6a23
6050
5b69
25b1
cf21
d21c
ee49
1e19
f226
25cf
4603
e233
5cce
a373
0876
27ad
a610
925a
60db
fb1a
01e1
0e95
075a
9a21
55c4
90c4
e9a9
4b20
5ebe
1abc
3c44
baf9
a261
3e53
69cb
425a
871f
4d82
6341
6f12
6120
902d
b24a
b8e1
d0ff
4eb4
5103
c487
0e7d
7a40
cd31
e80e
01ed
be08
bef2
b846
4455
ad18
4d4c
6f09
c44a
11a2
394c
fe8a
80ee
e458
8e69
5410
afce
b83a
211e
febf
2eb0
9e76
1dfe
e4e1
df9e
a6a1
68b8
c02a
840d
1a52
c5d1
751b
2111
6148
1655
6e32
76de
25b8
4eb9
6333
6e81
0c76
9ac9
62b0
a1e2
b7a3
2e6d
0d88
bd0d
f013
3941
7704
8f05
3b1a
c830
5194
4324
666f
c30e
8d20
21fa
e206
fd16
3a45
7cd1
fb86
fe7c
16fb
5e67
72a8
860c
600e
b388
5227
e5ff
4379
0666
8028
49ae
a2e1
4a94
2620
330c
c850
fc1e
d1d7
fd08
1628
7431
6985
0eba
a60e
0ee9
9b42
470a
c14e
d63f
5879
6e5c
ce29
43df
7569
1a9e
5760
c6e9
0ed8
d21a
e270
7862
f3bb
5d18
39af
6674
962e
ab36
d287
4869
2588
4ee6
9d30
5c09
6438
d5ba
16c8
9cbd
fa7d
ce71
a692
4a4e
5891
2135
0e49
6125
fb0a
e66e
c428
4575
7810
1a25
0655
5f05
13e2
c987
602e
2914
5f10
1a5a
0467
de89
4d87
0463
0eb3
9288
75a4
6c20
db07
0fe5
fe35
c56f
6635
0721
ef10
1e45
4a0b
fb0f
4422
305c
1659
3b50
db92
ba28
282e
d826
1aa4
835a
018a
037b
cb98
24ef
e570
50c3
121f
5804
420e
1621
cc36
ba5f
5087
128c
d710
f3f1
ba0e
c818
174e
4590
ee03
89e6
937e
0bb3
4efe
4e27
c1c3
b9ff
04c1
1a47
1a3f
ac14
b803
db18
1299
d331
57c1
b608
d6c6
52d3
01b3
3103
7566
1a94
30ce
2715
d22b
fe37
1ed6
7f86
4850
6c9c
9997
fa7a
3c90
c7df
d131
44fa
16a3
598a
1c66
4cdb
1855
ad1d
ab2d
ac94
0521
acef
9005
2109
09ff
545d
a226
129c
4e0d
ccf0
272b
1d70
4505
a1cd
f061
7e2b
7ede
d50d
1f8e
2a66
af10
1e71
8550
603a
6a6d
d784
53b6
0e1f
5acf
131e
66bb
adff
1062
086e
d688
b740
4dc9
1e48
c021
5240
4249
12c5
dbc2
e281
1876
c062
c0e2
4a54
0ef9
8a50
4512
20c1
8b5c
2ec4
f103
1858
ac6e
ac2d
04de
04e7
90a1
6c0e
78fe
1fc7
bc1a
fcd8
3006
cdb0
62e2
68e5
f6eb
b9fe
e497
7e71
560e
43e5
1f4a
5316
0193
1556
f909
4b27
b623
0891
98d9
5f35
3172
b828
162d
96aa
6a2a
2ad7
cf32
e152
dc5e
909f
2809
88be
12cb
8ac6
7803
c838
fed6
6f0d
7d94
0c96
a942
52f2
6238
30fe
3227
4a2d
ddac
659a
350e
d20a
7450
7006
fd71
6516
c410
c31b
0e7f
0846
a82e
f56c
4a41
1b4e
94de
1a83
5d12
545f
565b
9e18
58f0
d93e
1a3b
5e0a
1928
0622
d9a4
163d
4661
5c64
01b5
bec2
e8f7
8021
7bb2
18d8
6416
18a1
0e25
290e
1873
120f
0e19
4867
3365
e495
0e9c
32c1
b31a
0e39
32ff
6871
874f
c9b5
0e97
0c06
dc0f
5a73
8518
8415
1a44
5e05
20a3
c51b
3eb4
ceb5
5490
018e
9e0d
e342
acee
7def
b6c9
5c04
775e
cd90
018d
c2f6
2e13
3aca
18bb
76e2
9bf0
ac44
dd13
1a8d
a918
e291
a5ff
dc2d
c803
3321
3c48
b510
b8e6
2dfa
20e5
20f7
a9e7
71e3
3bf8
03d7
7ac1
4704
644b
20b6
ac9f
230e
317a
f54e
9309
2081
6618
2f39
fe9a
4cd1
4d61
d171
1e1e
7f37
e24a
c918
a398
6598
1a2b
3c21
c7d8
7127
e02e
5493
a3e8
3126
bc1e
6610
1e87
4e04
d16d
1a74
9e7f
a986
38da
b016
08e6
18dd
5870
8160
1d09
06d8
fd87
87a0
b705
08e5
a58b
d6ba
c524
ee11
9fa8
4e87
b087
65fe
2b05
5d4a
4a14
07df
771b
2906
1a8f
c21e
2151
d22e
9181
469c
454e
eeb2
4272
cf3a
0efd
d962
b410
ae2e
5d08
afcf
4542
3d0b
68a1
1aab
b61a
1abe
9f23
ac29
f04a
77a8
fd72
511b
5c74
7039
1ab7
4cba
15a8
4aba
e708
795f
51e6
2b5d
8d09
2f09
8ecb
3a46
b405
371a
3650
37a4
821c
cd0d
6387
1a67
4fe8
febb
c6d1
bcc5
8af6
4829
895f
cf3d
4607
4aa6
ca1a
5df0
e076
f105
103e
60a4
e1cd
0445
9ddc
19ba
ad8e
a00b
fe7b
6edb
1e84
98e1
0197
2b17
5c38
e6ba
b215
511a
6a24
ade1
c020
fa36
0f49
7d6f
3265
051c
d14e
1346
6350
e809
9ed0
5b71
3408
ac6d
5210
87df
99ec
2e77
8150
f2b6
f90d
4510
fb08
2e1c
a11a
fea9
4206
7008
610e
eb8b
1a6c
fb5d
a00f
7634
6550
b3ff
4a11
a215
fe34
1f0b
2237
654c
5509
3864
d857
1d1c
0e5d
550e
6842
a058
accf
050f
04d1
3b88
7f45
b105
b6e8
12b5
8de1
1ae9
febe
4826
04af
7815
e114
f6dd
23c6
accd
154e
3b2e
480f
77ad
444c
08f3
595f
2eb7
7620
642e
512c
3ed7
5d4c
b973
20b2
16b5
a58f
fe9b
95b6
99d8
780a
0a7d
cf0f
3764
ca3f
2e19
04f4
eb0e
ba32
730e
f704
0911
fe9d
3661
ee32
3308
d203
bdbb
3a21
37e9
d218
e663
99a8
fa4b
5241
7426
3463
09e8
19fa
ee0e
eaea
0e8c
0609
43f3
62da
61ac
dda1
295a
bb50
0c87
8452
1732
fd9d
6136
4e3b
aec3
d2da
f80c
79cf
4dcd
2e51
9bfa
9236
821a
e215
bce6
9606
c86b
6edf
ab77
1b73
c403
80d8
3a5d
0435
1ec5
b40a
67b8
aca5
29f3
2b7c
636e
743e
ce51
a904
fa2b
139a
acfd
a97b
f171
c130
4b1b
e2aa
9678
3ca2
7203
6230
a118
1d08
08a0
feea
3d42
80de
183a
3266
1d1b
275a
ac81
49fb
325c
80a2
780d
07ea
1314
6534
be43
b408
940d
620e
ac7b
2cb8
482e
79c0
cca5
0566
13c9
fe5c
0e09
8403
2e76
757f
1294
68ec
f098
671b
1bd7
6493
517c
9918
609d
7838
2089
2571
7e48
4a46
0e1d
acdb
ba7d
f0e5
267a
7a50
630c
6375
dd18
08a1
6604
2287
187b
d73d
ac73
f605
1246
4889
0eac
12da
ee14
1277
c8af
c671
c361
099a
0171
039c
05b5
3ee4
7d05
4a39
9c18
b41a
ac79
fa1f
0e9e
18de
e85b
b046
2b5c
6bca
b903
225d
1ad4
389a
c318
5905
cbfe
d243
6447
ac76
874d
1a3d
fe6b
c18b
c503
3cd1
9dd0
8133
b20c
618e
2d23
2591
4cf4
7cfe
4a78
6258
6f50
8c18
4ea9
7463
107e
a621
1a1d
558e
5c22
ad05
1258
39a2
4a32
01cb
7011
94f4
530f
53d4
e304
1282
975c
7106
a309
6636
584c
5c39
7d50
fe47
b263
6909
04bf
4bbb
01ae
188a
8621
10b2
a2c3
6e2a
c1e6
9e50
e4ff
564c
4d4e
3241
f721
04f7
d1b1
bb2c
5461
c016
5db6
4e30
d121
9b3a
0eb1
fa0a
dd0e
6ccc
0bb1
4a43
cbe5
852e
7530
c708
4887
e938
5c2e
b62d
2da2
961a
1941
12c1
690f
2138
68f8
3d53
0ec1
acdd
e2b1
8057
e3ee
d210
424c
20b4
1d32
ac06
cf2c
a96f
16ad
1d22
350a
69de
6c03
904a
4e4d
375c
5cda
6287
605c
08a7
221c
ac52
1a7f
334a
20e8
9336
6e50
ac24
fb07
1658
48b5
3263
0137
b2ff
3eb2
9908
e23c
f483
880b
5908
b11a
8df0
5013
8ff1
0e3f
af9a
5ef0
18da
7c03
ac57
162b
aced
20c7
db0c
96a1
9638
23f2
20ac
bf1c
3e03
eeeb
3556
4c86
6633
62b2
b832
1938
4d05
5f6e
0ba7
87e0
a790
a636
7d4d
351c
67e4
0a60
c504
ef16
7a90
46a3
e759
c406
091b
7259
67f0
73c0
9008
370e
2c50
0c1d
d371
c203
2842
8758
2e5c
790f
4a51
6fff
eb1a
0c4d
5fac
e2ef
1609
49b6
d014
c040
3f1a
4d10
0b31
f240
0484
8457
6607
1f0e
6f29
0432
fe2b
af13
6591
c763
2b34
a807
eb9a
64b5
9618
5431
2da8
c33a
daa1
18b7
015b
6108
08e1
6481
cd95
0aad
9105
faa5
acb1
3f09
ac55
296f
9410
3e7b
c506
13a2
f561
4694
7996
5d03
d081
9a32
b81e
e704
12f5
afd8
3c05
063a
4a28
4b2a
b23b
4e43
2272
5824
624e
6dfd
5510
15ad
680a
11c2
6664
d0b2
7816
2625
c704
a5d8
b92e
1a9c
c02f
79dd
6844
04b4
ac65
488d
b8f1
5c13
019d
7017
bb15
ea52
2e83
4553
63bd
2083
160d
92f4
831a
66b6
a9f8
4a4f
9518
0917
c0a2
e0c9
4adf
fe3b
4a2e
5747
a06c
4617
5228
7baf
a810
2e44
567c
494c
191c
a36e
7e21
4214
e47f
bc88
2bfe
47a8
455b
554d
7207
2ba8
3e71
fa3d
2e2c
5b06
e7ae
66e3
89f1
4ac4
a7d8
20cc
5fce
b9e5
a30e
d20d
fe5b
3a2f
b84c
6b1f
d24e
125f
61e0
6639
f8da
f618
5bf9
e444
8d42
1238
4e31
bb67
1516
8a37
8821
d763
e5f3
ba54
17c8
6b9c
6577
1687
b48c
4e07
786d
c5b0
a91a
a235
6556
d82d
febc
f7ac
f0b8
019f
4e4c
1aa6
0ea3
f6dc
4cac
5327
5a63
9f7a
a222
9e72
c01e
4511
9bc6
48c2
fe6f
d913
f740
1917
fe57
1184
acd9
09bf
44c0
38b2
4411
fd53
360e
424e
20bc
567e
b208
01c6
ee6b
acf9
ae15
dc30
88ff
dc35
bf08
166d
93e5
05fd
26f7
61a8
c118
4ac2
98fd
04ba
7424
c136
c69f
04cb
5e11
fc0a
5a76
ee13
fefd
817a
eef2
1b21
5930
b92f
12e5
549e
68e8
3908
0494
6338
1a61
df0c
584d
e85f
558b
d205
ae42
2ca4
4361
4847
df60
e132
d936
2246
fe1b
5056
21bb
464c
da0f
060f
6637
12c7
ee07
85a0
830f
ed9e
5694
cf3b
d093
ad1a
b108
48c5
0db8
0c3f
1ac2
04ad
b709
ac23
0b4d
5a07
240e
d450
3364
4d13
0eab
6237
c91a
3e66
3520
dd9a
aba8
a582
238a
8240
528f
5c61
1ab1
04d5
7206
7d04
6330
12b3
6f4b
d618
f1bc
cc78
0746
18b5
600c
6305
7974
bd9d
8d97
f508
f5ec
1382
0d87
4731
4803
851a
9955
ee60
2ec5
e136
1afb
fc81
8216
66dd
12eb
01b1
2e6f
d2f7
0cc8
9d54
ee71
acfa
1a6b
1aea
12f4
6814
1e2f
12dc
cdf0
1283
ab31
3050
3870
bce7
f5fb
ac0b
c68f
9cfa
ab0e
1e1d
f4a2
5150
ee0d
603d
7b6a
feab
2b28
d8ee
3809
5172
a793
f708
20d7
0b8a
72fe
7f20
b8a8
8ad1
8fdc
aceb
4b52
feae
4b7f
5783
d43e
06be
ad4f
b763
dddb
623a
5f5e
683a
ae50
189d
a5a0
04f9
df76
45f6
8cfe
18bf
120b
5d28
ad9b
a3bd
8903
3f9e
8c0b
017f
b821
c0a6
b040
4f5c
4e83
4cd7
e6db
9a2a
e19e
445b
fe99
12ab
710b
9cae
10e4
b26d
3591
f706
d2db
7451
4ca4
fd91
df62
4930
480a
565f
eb06
77a6
5497
a879
bf49
109e
5195
6671
74db
1615
960d
1ad3
a304
e818
aa19
a574
2bd1
c0e8
de0e
5c42
e91b
5217
5142
9c0e
381b
6f5f
8e0d
20d9
2c5f
0b32
096b
187a
2eb2
0163
1aed
9375
87de
385c
e750
9103
04f6
ab09
04b6
c0d8
fecd
c105
dd14
04ef
0555
57f4
9810
cb84
ab46
320c
bdfe
5cdb
fa22
4d0e
7605
c60d
68e9
fbca
7635
c879
9733
ee4f
7a1e
f00c
81e6
e68e
c8f3
2eae
acfc
5cf3
73d9
3c72
e2bc
e8ee
a61a
fa9e
a0c2
8ca4
806a
3a53
5ab0
fd19
e12d
30c4
395c
2e26
811e
da05
5f4f
1857
d918
3cfe
29ee
ce57
0a7f
6b05
6e5b
acbb
fa15
184f
d009
0e9d
8488
e4d2
308d
7721
a228
7405
be54
1c22
7709
87c6
1971
c210
6b41
ca05
311a
2ec7
610c
c0c6
aa14
945d
99c7
1092
4314
447f
3ee9
4b22
c40e
1690
b1f2
d9a6
b104
cb39
327a
ba37
1320
174a
4e6b
7068
ce18
645c
45e2
e587
6513
76b6
5284
ef3b
1883
7175
10d8
20fc
7805
2a50
9187
8325
6fde
15e2
c57e
4e6c
9c45
39eb
c51a
165e
056d
3287
0e73
656d
3e3b
0827
1269
b516
b91a
22e7
f81b
3dbf
b454
76b2
12fb
6c4b
f787
eae0
e150
c7f0
468b
3705
0ea6
08a9
8a82
20f3
add0
050d
2599
341a
3d5c
d07b
8351
682c
6c10
6337
1aae
9a03
63a1
f2fc
6160
ce78
e022
4ed4
2623
b3b1
0dd1
9b09
aff0
17e5
4561
2cdf
2da6
0914
4e1b
7a65
ac25
464e
f318
ae0d
f3df
ca50
151b
5522
4604
21c6
63fe
680e
98df
8efa
76fe
0828
bb07
5c19
8921
2af9
ca13
d45a
11fd
cb0d
c3ec
10b6
d910
9161
43f7
93b8
6353
f5a1
044b
0820
5f7b
209d
1834
48da
6f21
fb10
ee56
0671
6269
eb87
c008
3854
8d3e
a811
f5cd
d919
c031
65a6
7270
cb13
7940
29de
6840
fdbc
0503
8745
9a05
4238
942d
3f21
9916
f805
764f
be22
881a
0509
3e81
08b6
12e4
f1e5
fabd
194a
56e0
9510
cd3f
612d
277f
7b8b
6596
3342
20d8
1e35
d60c
38ca
4b3d
aed7
3c0e
bd28
5b1c
92b0
a50f
6c51
581a
634e
128b
6951
046c
648f
ac41
800c
9755
979f
f56a
4ae4
533f
f8b8
4609
d181
8707
1d0d
a725
8253
3c10
a79b
ccde
3561
72d1
502f
a8dd
f122
2321
faba
afe6
9e03
9ae1
4ac3
b311
2e4a
f816
5608
2d21
1260
e63d
53fe
7a04
4b1a
4bb4
2de7
8f64
2b42
3465
f432
585d
1ad5
1a0b
bc75
c572
9705
1357
7372
681b
0196
0bff
ddf0
a518
3edf
774f
0491
e07a
b29e
927e
5252
b7fc
3842
7859
486b
fd18
9ea2
1232
514c
c258
18cb
28fe
526a
3253
4506
8e3e
1233
48b2
86f3
4862
af1e
cd98
1871
9625
b457
048f
facd
1ce9
32d2
019a
1a8a
1e11
edb8
da5f
199e
257b
acbe
2a08
0519
4e60
1e21
a608
bcf8
5209
1076
d653
ed17
551b
973e
b7f0
aef0
e636
1915
0c5e
c140
592f
2dfe
b11d
d324
3019
1e6a
ebff
f4a1
0aa1
0c66
8140
c5f5
5b8c
24e3
380e
2e2e
d58a
3ff1
9921
1aa7
ac4d
4a83
fdf0
5d31
cfd1
1085
68af
a8a7
18df
bc09
1894
6c4a
4b08
72fc
c4a7
aca4
2a10
1acf
2450
74da
5106
df0e
4655
47fd
1a39
4a70
a804
7c04
de14
f1e4
a63d
e071
9e08
ad4e
6903
59af
733d
2e92
f63e
208c
267d
6a21
a605
4844
c094
3178
1ce7
1d3c
44b7
4266
48ab
d836
acdf
a5c8
7bfe
62a1
7eed
7031
cb82
659e
866e
21b3
aa25
de1b
faa1
7777
cbea
21b8
4b48
273f
5e0b
12de
7267
6262
088a
8ef0
47f0
3763
1091
6009
21b9
7b3e
3f0e
5d10
3f4c
4a34
6187
1284
7a6f
570e
653e
0896
d664
e91a
523d
62bb
a3c4
dd5e
7dfb
8764
acb9
127b
6e09
bb53
8ec9
86c0
5341
4b60
0433
251b
6809
cc90
f47d
7aa1
5c54
9621
20ca
be18
471b
6ee0
7879
1a5f
245a
be09
b73d
ee61
2a70
fa62
d090
63a8
ecf0
d749
0855
4e6e
9627
f208
5443
6962
042f
d196
682a
d20f
3fa2
31a5
bc43
7b87
071d
7ceb
814a
4642
b743
5d87
e22b
3166
4ec5
d78b
b4ff
22c4
d8b5
2e6a
eda3
489a
e536
5406
082a
3307
6137
4b4f
6c74
331e
a5b5
e231
5e90
fa08
3d09
0b53
e95b
0ed7
9813
1990
a10d
290b
1a34
621a
a97a
aa03
ac5e
195a
4ed6
1a49
4b73
4a90
1ff8
10fb
ac3d
0ee1
f206
5732
92ff
84ca
210a
0e57
e440
cc03
2085
1a99
702f
18ec
0efc
ba2a
6722
d084
4287
1f08
736e
10d9
d398
aca1
83b0
08be
da18
0ebf
192e
5154
3df2
da52
083f
e8e3
d041
183e
3807
1921
ea06
6496
701a
2db3
043d
5e8b
5c31
33ed
fb0b
3ecf
3087
9ba0
cf54
8ca2
4e63
3940
b9f9
c443
8760
62ad
1923
73b3
f244
625e
6859
12df
3ed2
3605
fb03
3ebc
1882
600a
1f0c
24a8
4708
2e15
8887
37f5
0ef4
4e09
85ba
7c08
cf2e
ac3a
2348
550f
524c
373d
f017
21f1
ba50
2db5
644c
018f
2c79
12c0
c8b0
d708
c303
122f
364f
5b4a
b0dd
f10a
0175
a404
0eb5
721a
134a
b587
0b6e
1350
15ca
0ed1
09a7
1032
065e
1ac7
0d94
9f3d
093d
18aa
b877
12d9
172e
1fc0
ee24
0d76
1341
d271
1a7e
1fee
b70e
f84f
f430
4872
dc65
8f63
15e3
0e81
e618
1ac5
9bac
1f28
2850
2d66
5736
fee7
51e0
b5e2
260c
109b
ea1a
53d1
eb40
04a4
4e62
e00d
acb6
0ede
4ab6
0860
6376
1afd
e039
54d2
a394
5dea
5c3c
652c
1ab2
9887
6008
1906
816a
93c1
bcd7
8b4c
7af9
5c85
5b03
67b5
10d5
c0f1
f544
8e3d
f5e7
930c
bb06
111e
fa16
1d16
66ef
cc32
4e64
bb4f
fd65
4e0a
fa94
96a4
e32f
7d90
8508
be77
6399
905a
5fdd
cc95
705e
6d90
f586
165a
498f
4a56
6d11
f229
7d2b
5a1e
bb90
ae75
be70
2c3b
feec
cc29
9d23
dff0
473c
4e93
0c36
4e11
b338
0ea4
16c0
45d3
49c7
04e6
1f3f
21c2
63db
2976
c7de
633b
9ee1
6d64
82c7
21c7
8809
3ec5
528b
c1be
251e
7b1b
875a
b817
2e5d
6369
281a
facc
3313
1895
8708
016b
1e78
b122
ea53
189e
af21
7960
3063
e710
3e5c
76db
8130
991d
5b21
f304
04d9
c421
2efa
0b07
772e
f0c0
2d4a
c96f
edef
97b2
b008
15d2
ac95
506e
30ee
9221
c40f
d1f3
1b0a
7387
526b
165b
c152
63f6
c8ef
9ca2
3e25
6351
39c7
47d1
1a9d
4813
fa77
f03a
b3ec
45d5
a531
e336
2610
322d
7cf0
4ad6
6271
1aaa
b804
e51a
2835
6c05
1c5d
4cbd
d674
6a4c
1b30
fe0f
f128
6e1f
0836
4e9f
e421
6486
dc31
0da8
25f9
2383
a008
5a71
01a3
3a0b
5e4c
641a
c950
d80d
3ef8
c321
6381
fbf0
1edb
ca75
8090
8514
fab0
4879
0fc8
4822
4782
18ba
108e
a732
d75c
b7c0
0d49
7275
07a8
2c9f
6b50
31e9
3608
4a4a
a19d
ec2a
5a23
0c9f
0411
187f
c50e
ed21
0406
0bac
ab29
7fd8
4af2
8b0b
7785
b7fa
66e8
82ef
b74b
5c78
a204
e253
dde9
9ba2
f9b0
97e1
fa14
ea5b
0444
abaa
59df
5c68
633d
c10c
3495
08eb
5aa0
7e77
e705
255c
1e30
2b2e
6f1a
9bab
7567
9987
33df
df6d
6f57
ee23
2f87
9bdb
1b50
d435
9d92
a217
0e69
0b7b
9b08
0bc0
a414
c65a
4ad1
ac3f
1914
60b1
08d2
b870
c222
2ef1
ecb7
445e
cba0
a9c9
974d
5929
ed36
a497
24ae
fad0
20d3
6918
3466
6f3d
ac2c
f4e2
64e4
62d2
e9c4
68d5
1b5c
b503
1aca
08b2
914e
e30d
0d5e
218d
315c
b80d
59cf
1ac3
ce10
b910
aedf
c92d
1a5d
7e18
5ce2
d508
eb0b
1316
18c5
5e06
d9a5
e207
18e9
6ee6
a293
1a42
12be
1c5c
9b28
7727
2c1c
d905
337d
960f
4809
13ef
4ea8
b189
d639
8af0
340c
5a5f
1a33
1aa9
ec0e
9c2e
3e52
4a42
e0d1
4a35
527f
1620
1f2c
5518
4ee8
81f2
06fd
8cf0
186a
a88f
8808
e1e4
06d9
54f6
aa28
3c57
09ab
5a22
5bdf
9d1e
45d1
71a8
e605
bfd6
be36
0c8f
6273
2528
1643
5b22
3061
5358
865a
c279
0199
8d21
1efd
de63
20ab
2db9
5543
c1f8
f585
2a87
4b05
6211
ac7a
46fa
37f3
3255
65e4
08bf
f09a
9b3e
235c
e576
f8d7
fd1c
4637
5322
dc77
276a
1560
3b87
680f
b890
2107
ae21
1323
c57a
7610
8934
8604
ea29
94b5
19de
c1ec
c4c6
f350
bca8
c6ad
d01c
4f3d
0617
1c14
05dc
044f
99e1
6f04
5c14
deb1
262e
ec21
dfef
1abf
2e0f
7f05
980d
52a5
242e
d4c5
a618
1a2f
abfa
9ddd
c00d
5e61
1caf
59dc
c61b
0a2b
c197
574b
f5da
6cfc
1ee0
3ea6
f9b3
12b0
8217
7121
7a72
6da2
b621
5c4e
5b04
f606
3b0f
265c
5f5c
fc7e
b84e
5fd0
4e8e
1efb
c115
b696
1e25
d34d
ca0e
c8b9
8db7
f88e
4d84
c050
db3d
870c
5bae
214e
915a
c0e1
acaa
bd66
211d
cb05
eaa1
5204
ac15
0ed9
b156
fc87
de10
2da1
fac0
d707
bf66
48ef
22fb
7df0
da5c
700b
ebef
1862
cb71
f121
b586
29ab
2648
6e9a
f8f0
235a
4c9c
d797
20fb
2d5c
16f3
c603
a8fc
0f22
4210
c905
b51e
9950
05a7
3e8c
867e
432e
2f69
edb0
25a7
eef0
8a45
68a5
54a9
a76c
21c4
31e2
a508
22db
1237
8fd0
b8bb
8a28
22d3
089e
f571
59ac
5ce4
7352
aa79
1f92
91fa
f972
6990
2168
042c
6d6f
24f4
3165
f52e
48c6
689f
a8b4
a6ae
07cd
377d
dc6d
db3e
ac89
6df0
186b
631f
c418
96b8
9204
c610
df32
bf2e
20a5
643e
a098
09ef
0ef3
858b
999d
1ee3
6260
56a9
4af3
3452
1bbb
21ee
6621
fe6e
2e5b
2087
e61c
16de
d20e
560c
07da
2731
6712
8650
a83d
f00a
1652
810a
12f1
1f3d
2939
547c
d413
61f7
710e
33b8
3462
1703
cb09
42fe
5f57
6f5c
9418
3d55
b62a
d69f
db0a
fa8b
5bfe
b50a
9521
7aba
332c
3451
131c
b151
1a82
fa71
2614
efa2
355c
acd7
ca10
20e6
2e4d
a1b3
e103
55da
122d
fa03
1c72
2ea2
3b05
c205
2f07
775f
12b1
0ed6
ef1c
659f
5ced
c816
ae0a
08a3
32f3
e406
f071
55f5
506f
fe1c
7769
1c62
0956
1dd4
3e0b
6209
12b7
3470
f337
f5bf
de7c
4a6d
a9ed
ac1f
f31f
cb36
f506
0ed2
250c
49a1
7bb1
431c
0e59
1e6b
720f
20be
f43a
58df
5174
1e61
4a82
221b
b27f
abb6
dd7a
1d6f
c2af
2ec6
4ae3
951a
ce0f
9821
20a6
57cd
a8ee
fd92
6107
69fc
20e9
3464
fe27
f42e
689e
5489
443d
57ae
20d4
1e95
4408
6905
04da
4b21
0f87
04ed
ac17
b809
6cfb
3c3e
fe8b
1e34
8254
5885
78a7
1321
4f2d
c82e
ad9f
96de
cf0b
7f08
1f6a
65d4
3596
bd13
4254
232e
337b
4b61
1ae4
c814
acf1
ac46
5e93
fa78
4d4d
048c
51d3
a68d
2b0c
0f21
a014
4bea
0ab9
e090
57aa
b89b
5676
f3be
9a04
ea04
7409
8f87
e252
2514
accb
c350
fe8c
76ef
1a91
0413
8f74
662f
b236
ae1a
481f
acc2
1e2b
252f
7123
c553
e0f2
3708
52b9
d521
8c05
170c
9aa2
d104
585a
0472
750c
abad
bb1a
165d
8016
f036
e020
6710
c88b
d9ee
68e1
fc50
e64a
1ad9
649b
75b4
e557
f421
7a10
5304
e2f1
5847
efe1
8eef
f067
a495
54ba
58af
f7e3
1abb
4a85
e8f8
266f
251f
e210
3c04
9509
7113
83ea
d5ee
5873
6178
e1a8
3a05
4a64
ac37
fb19
e3ad
6dd7
20a0
dd78
0d0c
2f79
5559
486d
0962
4521
b509
fd7c
1acd
507a
e104
8399
8910
1ecd
bb16
730c
57fa
045b
9fe8
4aaa
4ea5
3a1c
aa08
790e
5430
bd3b
be95
c04e
2650
3075
4564
154a
d1c4
8b0d
d721
aae9
2f3d
76d7
7ef0
aa0d
7765
01db
e121
3ec4
7054
9b03
b721
9e22
1e3d
fc1b
6af3
b921
18d4
e0f1
f2eb
0542
febd
7582
cecc
5a82
c032
606e
66da
cd05
6c08
aa11
1774
61eb
1d05
7a28
3213
7156
1eb6
9eba
e90d
b783
fe67
1e23
b77c
3862
4ab8
76ad
5f21
a9e8
fd54
3209
5b1a
a287
9f48
12dd
ed9f
c9c3
b72e
f48e
af37
5ba1
5d1e
acc7
acd2
a51a
982e
4516
cd72
2f31
4ae9
22ca
5390
661a
dda2
457c
6d28
7bea
1e4b
5e07
105b
80b5
487b
cd15
215b
0492
235f
b73c
6546
0c8c
597e
90f6
cfba
ae79
ac85
5350
0727
08b7
621c
0ed4
18f8
acfb
785e
d1b7
4308
f8bf
bd09
4eab
804f
b81b
5689
b9b1
72de
c35c
be90
b58e
8308
5a60
5478
fb3c
bf3c
b30e
f749
f950
2105
25f7
b576
6348
d9a8
4a6c
17c0
e921
9c4d
0eda
b507
d6ac
e032
84a3
0eaf
11a9
4ee4
1f05
8494
8c9b
b50c
1342
4b42
43ee
575c
19c0
4203
b950
f60d
2aea
c005
e134
1a72
444f
a31d
49fc
cd6a
60ea
be87
f61a
f53f
12c9
7bcf
2c77
cd09
042b
becf
48e8
693c
6e52
bf21
90d2
e1f4
d189
bcfb
4adb
a05d
1e99
a691
3808
3892
3f30
1189
1d8c
482c
2096
f3b3
b4b0
4ab7
2ede
91f9
55c0
129f
bbee
6603
c62e
c391
b303
431a
d54a
d972
2fa6
78b7
dc90
3eb1
b103
b50d
f308
691f
7cce
ae1e
3ee0
576e
6087
548b
31fa
10b4
ac34
31f1
6105
6181
b97d
6869
a024
351a
b33d
1e3f
0854
487f
3163
0c7a
4df0
a21e
ebab
de03
5309
503a
f504
515a
a72e
6406
7e11
957e
431b
6806
6d2e
c0cc
4260
d609
1a29
1193
7c7f
5f4c
c87e
5cbf
ec40
1eb8
a909
4a4b
4f0a
7730
1ee2
067e
303b
18eb
6e7e
4ef7
593a
8538
474c
d2c6
9220
1e09
d504
05f7
1cfa
dd07
125e
2abd
ab5d
aa38
e6b5
97fa
20cd
c322
1f13
f895
1c20
f286
461a
1e7a
27a1
1ae8
6ecf
b1ac
8bf0
6f0e
4868
f7e7
0862
d0a6
4816
4e35
cd08
d151
a121
060e
574c
213b
1bb3
12c4
889f
f410
10d6
f0b2
a053
80f3
f58d
d034
1ef2
0ca2
6f5e
e2fa
6720
3f1d
5bab
0d51
4d5c
252e
66de
3652
c1a0
8e1a
5890
19a0
4eb8
62ca
831e
e11c
637c
8761
0715
fad9
caf0
ea08
8977
6f4f
f8db
691b
2efd
eee7
f9b1
4d76
38cd
765b
6370
fb21
24fa
9059
5b13
788f
8d18
0eed
8b14
3151
6704
5c3f
4b09
640f
9bd9
c0ca
2bea
3eba
9a17
78aa
d93f
56fe
d097
48bb
de7a
8e03
2269
3419
bed1
f306
c921
679d
554c
a50e
31d8
2545
4622
df08
54fb
e40d
d4e6
f069
3d3d
e816
a163
360d
cca1
f810
2183
713c
7751
68f7
824c
f2d9
bb6e
c716
fbe6
3698
7a07
1075
9d3d
06c4
3cdd
bb6f
8ab0
a80f
acb5
0c84
830d
a7f0
8957
0ebc
b179
de50
8f8d
e232
516e
1776
aa05
dfa1
640c
34f9
efe5
900e
66d0
dc20
ba27
2704
5ca8
b7e1
18cd
5387
5b49
6e1b
3203
42d2
6e45
2a27
4e9e
5fa5
e7db
161e
cd04
2e41
25ea
20ba
aac1
bc72
fa2e
a0f9
c738
e7c4
053e
1613
71a6
12fd
1e17
7350
b306
71f3
b277
c705
ea03
c886
4ebc
e1fc
3ec9
7406
1f1e
5d70
6886
b51d
3b43
ad4a
f513
1731
4a1f
882c
c22e
4eda
39de
fae0
7192
d190
7943
12c6
c486
707e
45c3
5a3b
e6b2
7c05
7e20
481a
310d
65ed
6e3a
a3af
323d
05bf
f59d
6e05
57b3
9c93
4a2a
5287
6d68
8aad
a695
1249
b4af
d15b
0895
c819
c04c
641c
4320
48e1
6860
01a7
13ad
878b
bb03
591a
48cf
537a
0889
f558
8507
cb21
8e0a
ba22
c089
3a37
fd56
a8e5
b1f6
63d0
7c36
12cf
1229
dc16
d90a
f987
fa13
79ea
fb16
a285
2094
50fb
fcb2
cf6d
8def
a882
c29c
9c87
99e2
5e53
b605
73ac
d613
1c59
799c
b83d
1879
8fe1
4dfb
7a2f
d25d
6692
2df1
42ed
7440
c16d
dfd1
b206
687f
430e
e32e
8a05
ac66
8c1e
6206
d3e7
2629
8ebb
4a63
b0ba
5e08
4a47
2e07
93a3
1267
7db3
1756
6bd0
870a
3f3d
387b
5953
d008
e410
e14d
ce05
6306
9a85
508a
eeee
aca7
588a
b87e
daee
ae06
e523
20d2
de82
48ad
671a
164d
89b2
2d30
575e
6479
9fb0
8165
3721
ab6b
45a2
3edc
3a42
103d
589b
f523
3e5a
2092
231c
3003
ae87
d1a3
9e71
b8bc
18f2
d105
1a7d
942e
fdee
1893
f753
233e
5776
4932
e9b2
fb36
061d
fd5c
eeaf
6c4e
e74e
23e5
e2a8
de3d
2621
8949
0ba4
580c
5474
8d1a
f022
96a2
096e
8072
20c5
4e33
4920
6f8d
aec5
5627
c706
3216
6419
19dd
fc89
24b1
0f63
1c3b
27f5
b722
b8d9
8c53
7d7d
9e5f
5aa1
ada9
6c04
37cf
ac8f
6378
9fb9
eed8
b5b2
0c33
0776
0838
1a89
7b0a
5cd6
625c
aec2
220c
0599
190f
0d33
b470
0cf7
d704
b121
5590
b8d7
a493
18c9
4e92
d9cb
46e3
ac2a
7376
4ac9
5290
a540
619e
868f
7cdc
7cb3
48f3
660e
bc47
ebd1
f765
a8e1
1358
2710
eab0
ab1a
f359
0aa0
fe48
6e3d
7104
c1e3
c0db
4f86
b486
06d6
7513
09c4
43a3
2a6b
12ec
29e2
4614
a8bb
7119
c50c
d308
08e3
1251
8705
5250
c022
fc04
d316
db45
0f40
9a1a
bae5
568d
3071
4ac7
5224
0c2a
a679
a850
e316
05b7
2ec2
aee4
fd48
eed7
3920
ca09
9708
ac53
4a98
fd07
46e8
0417
4abd
b8e4
60b0
991a
a77b
37d9
4f08
9f60
680b
873d
96e1
632e
2458
2ee3
a509
09c8
1286
5c4d
6133
eea2
d441
c09e
2211
3c4b
72d3
d126
ec8f
2248
f064
b618
909d
539c
b33f
f998
7adb
aee6
ac7c
7287
9d0a
c7e2
ee21
b30f
4a92
d971
99da
0d40
2d0e
fa53
cf11
e805
fe2c
1cb6
f936
d467
8bc3
c752
76fc
0925
230c
7bbd
87d4
9210
faa2
0ef8
0eec
eae5
e0f3
6be4
ac45
8822
c52a
9693
8f04
6021
25cb
1681
ba0d
c052
8d31
a078
b7bd
0177
d686
ac6c
17c7
527c
fe66
ab22
ac67
3813
86bf
a3db
acca
160b
8f0c
62c0
5008
8128
93f5
45a6
6504
644a
073d
5b05
06e6
e78f
4e17
c0de
8006
1a30
3e60
ac3e
f30c
8155
a54a
1046
0ba0
1f1c
2ab7
a872
1ab3
5762
10d7
37f7
2853
d250
3a3d
e71a
1a4b
e742
2268
9c50
561e
7e3d
9229
48d5
683c
f836
86d2
790a
8d2f
f204
cfd5
365c
acae
6642
4bd7
2aaa
fddf
b826
6ba0
2b51
4567
d671
07f2
cfb9
5264
effd
8050
8b90
9440
6920
5c62
52c1
2b1a
fe2f
b351
870f
7787
2d0c
6fc7
0453
f4bc
9ce6
1617
63b4
2fdc
8811
3175
682b
b85f
5082
ee65
3562
05e5
fd06
aa61
2d6a
3ec6
da03
921a
45fd
863f
8738
2206
e779
5b30
6fb8
6121
d822
dad0
20b9
8f1a
310b
dc07
68c0
af82
ed83
e404
615a
1169
182d
aa1e
26c4
6342
9136
2c40
c771
5231
3a95
2687
c605
f343
fde1
ea31
4e7b
501e
80ea
486e
1952
133d
2956
642b
4322
8c03
efe7
12bd
055d
319f
3af4
4ad7
1ec0
da1e
3d30
0ea1
c508
8521
a690
9df0
861a
f58c
5904
be19
7b06
a831
726b
6ab8
c805
b431
a21a
488b
8e45
d6b5
2cf4
441a
c1fd
128d
7e2c
067b
5c21
485d
d0bb
5e27
d3e1
f34c
20cf
4a93
fd3d
b432
4350
ec1a
fad4
1e57
4a7b
681d
48be
d9e9
bc83
68bc
d86e
c2bf
658f
c573
0843
4ba6
bb2e
ca08
6c6d
3065
da10
761a
7005
d71d
ee29
6c4c
b20d
208f
44d0
4357
baa8
4678
31c3
c444
555c
e245
dc56
a268
e318
e7a3
f44d
2490
62a2
2e69
510a
c245
4e5b
2403
776f
e8df
1981
eec6
17f6
f095
eea5
7dbc
c106
4406
b96d
8a2e
6740
c0bc
85e1
d539
8205
1f57
483a
6d39
5691
48a3
b819
28eb
2ed8
2622
56bb
cc0d
4460
347a
62ab
a00e
c2d0
4f07
a360
847a
ad54
187e
cf17
7a9f
9074
acc5
df3d
0987
b270
e1c5
9377
f245
c88f
d750
d40b
921c
3ed9
28b1
8736
3a2e
c80d
e106
845c
1948
ed50
25f4
16aa
b5cd
d5c6
6d91
782e
b04a
0616
12bf
3751
c1f6
6c82
6f40
d5ea
5cd8
4afb
5a61
9d4c
8fd3
f461
1a3c
23ca
5ed9
e807
230f
ab9b
a3f7
20de
8260
6609
4f6a
1e06
1247
470d
c405
3766
edc1
3d08
4d09
b245
127f
4a75
bf09
2ed4
3ec7
552e
7b2a
5506
cc87
2b58
89ed
9ad8
c8a0
b76b
54ee
9228
9906
0831
efac
b806
f50c
59fe
0551
1ea3
fa4a
a23f
fe9f
3eb8
dc63
4b9f
a657
bbc7
06b0
0960
947a
870d
05be
7544
6bb7
1114
9640
daf3
227a
eea0
5f0e
3a67
a8b0
4ec8
62c4
8546
c787
6fc1
4539
ce90
2b22
e098
4a3f
7f3d
d2ee
0c54
485b
4a7d
b253
af5f
620f
1adf
a7a2
d3b1
b723
01bf
629e
249e
a109
5604
6328
0f37
1832
e30e
5a03
42f8
bb21
c770
76a2
65e9
acde
c6f1
7d29
fdd0
6a76
0d09
341b
692e
597b
9a2e
2116
963b
87a1
a40e
836d
476e
051e
53dc
3041
84d1
23a6
bff9
3844
04b2
1234
e521
acdc
a521
155e
6528
73d2
9528
9568
79dc
eac0
1d21
524f
87d0
9f9c
ea0d
6c38
d41e
e892
2e23
3048
fd21
4b28
cd76
da50
1352
2ebb
5e9e
8008
c51c
f88a
f5c6
123b
c957
2e3d
d60b
5d19
01b7
3e96
6d4c
80e9
08c4
1f11
5cc7
6114
987a
80b0
1ab6
b42c
48fb
e61a
cc5c
20a9
907c
0926
7d06
ab60
ce0c
d5af
127c
fae1
fa87
f528
8a04
4770
9004
d71a
5f1e
ac4f
1adc
3092
554f
0d84
06bb
69fe
87d7
9ed2
0946
e670
ec0f
a035
5094
0af7
c3a5
e79a
8503
930d
4ac6
4945
129d
5d55
601a
3968
afe5
7dbb
4bd0
2ab3
28a8
2e79
a651
23ab
990d
d805
1a35
fb3e
33de
0d06
e408
3d39
5409
e0f7
7f1a
1c75
4e4a
4b6d
a43f
ec30
c0be
d00b
4f76
3e31
c5ae
5624
6823
3ae0
0976
8749
3245
cffa
9a52
29b0
7b05
3a11
2523
f82e
d536
7242
da99
2553
1ec8
9d03
04cc
9d05
a29a
635e
7997
0c45
99d0
3750
781c
9809
a3a4
ac6a
fc21
f70d
8e1d
18d2
b544
1ce2
7b58
45c8
7e66
85a4
9d09
a736
e992
e9b1
dcc8
4507
3ec8
ee78
2ed5
4e65
51dd
eedc
bb04
696c
2b10
f591
460f
0c8b
4b87
b028
47cc
3141
1e32
f126
2c0e
c6bc
37fe
125d
61ee
a976
0d0d
a04e
b0a0
faa7
7a0f
8b84
3e11
1d5a
7629
93da
e387
7720
7128
c186
8e08
b8c1
bfe9
fa33
6866
055c
7929
3706
05d5
4a24
b918
6832
fe9c
2e42
c532
b5ce
a3a3
fcdc
720e
b0c8
e3de
efe6
75b1
62b3
cda3
582c
5ffe
121d
21f9
21a6
756b
7b72
8dae
10f7
c35d
260f
dda8
e27a
d687
8d17
110c
1e2c
da06
2810
ac9e
d5f9
e6b7
209c
eff0
20f9
b00d
ba03
7843
7ffa
bbc0
cf13
cd7c
3beb
981c
a313
f132
5e3a
2e1e
3915
20a7
4545
09b1
a3a0
feda
10e1
d887
01a6
820d
6f25
a110
ace1
0819
f863
b70d
059d
1f70
3907
f829
de1c
231a
e632
3974
cc2e
5de6
089b
317e
a504
8b22
7dc9
2586
3ae1
8161
6c09
2f05
1b64
d02e
68ed
7a05
3663
209a
a2c5
56c3
feed
b162
911b
a6f8
8905
508d
e3be
dc2e
aa15
307a
488e
6f58
a1fb
05ea
6221
3664
6b7b
50b6
94a4
c308
5a87
9f08
e540
b90d
9f6d
329c
18ef
2e5f
56ba
10ec
480c
eef5
ee3d
5a0a
904e
edfb
5a5c
3221
6530
367b
b60d
ab20
df21
0c60
443a
5145
9637
4a0f
af0f
7f5a
ac2b
a251
3666
1aad
0ba5
cd0b
dcf5
4b51
801e
7775
1669
7fe1
16b0
de31
b927
20c3
3490
07cf
2ef9
4b44
4891
5448
6ef2
1242
abf0
7df4
7f11
ac9a
9c0d
c746
47fe
2f2c
dd6c
1646
3583
9a38
4e2f
9ea6
2f96
2c4a
685b
4808
6078
ac86
1279
d705
890d
a3f6
b0ec
e21b
ba17
c859
979c
aba4
5ef4
d343
321e
5d40
e04c
642d
7f53
aa09
c831
45c6
3029
62c9
d809
df1c
aa16
45db
17fa
c91e
a8ba
ba7e
d09d
9550
b60c
e368
19e2
4755
de65
5cb4
291c
745f
80c6
5e1b
6458
e236
0ea9
7178
de07
d448
3b6d
1c52
b0a7
cb6d
0bec
5b17
65a2
35c1
8770
4583
d90f
d709
bdde
a15b
95a1
9558
6323
f0d9
6fe0
bdd8
95a5
705a
de1a
18a5
be04
ecad
e0e3
3ae2
c87f
4703
f808
4dd7
1d2d
5045
6862
529d
8516
167b
2c35
c978
169d
c53e
46bc
0fdf
73c8
a216
8590
1c0d
e289
e4a8
4e45
42d7
2815
cd32
fd03
136a
62e4
215c
171e
345a
bf6b
6b17
01cf
4e85
b7f8
d2a9
9fdf
7177
0b46
caf1
5e71
e6bf
590e
837b
9be1
378d
f0ea
1a57
b397
16bf
f624
aa97
f0a8
815f
f6d3
cc2c
3af5
2b0d
5791
af05
6f51
e7a2
5828
6774
82e2
2e0c
93df
df0f
721c
6407
f06d
d989
efa8
b1eb
4845
391a
e77a
ef5c
f578
9631
6a0a
e26e
f4e3
3d16
f394
f587
5eac
ecc1
301a
461d
9f15
a182
385a
57fe
3c39
45f7
2ee4
2a4e
9c7a
7a45
cae1
a49a
d804
310e
190d
6457
ca9e
e739
2c06
c609
5fe5
e669
d5a8
2296
4259
905e
6a5b
5c16
190a
1edd
b109
de8d
72c2
3e70
0722
3475
771a
8179
8178
0b77
280c
7616
5be1
6079
b444
ac8d
0cd2
b6c1
4427
5331
f8f9
0c38
2d70
2dc0
721d
eb10
f8a1
983a
d33a
4e32
71a2
1b49
701c
c228
1545
124d
32c0
9a3a
ac75
4908
8be1
8b87
e2fb
ac97
e8af
455c
e28d
ce1f
7d1a
89f2
cd2b
77bd
a836
3caf
47ac
a290
9dbc
c11a
9e0a
b505
f99e
8d87
d831
7046
0c6e
9bee
750d
5605
f43e
ae3b
6b74
fe6a
d5b0
69b4
594b
cfd3
3850
c88d
257e
5687
ace4
6e7c
b6de
58c4
a821
1acc
122a
38df
4835
48e7
661b
b52b
6b32
c225
8efd
8427
d91e
166e
01b9
a9d0
fc56
0d72
8816
abaf
d518
812e
6c28
df0d
7f3f
c81e
19a2
1e5a
39db
1fac
5be2
de3a
63da
5372
da4e
1aeb
0fee
20fd
5832
d149
deee
0dbb
e810
2ed7
3da1
4f53
4d7d
f579
c84f
0872
8817
4251
a15f
be7b
0464
399b
6192
1c50
c0f2
4ef2
1b09
843e
6542
acd3
2c23
c0e3
1211
2470
319e
1eb0
e15a
1e64
acb3
4820
32b6
4a66
7f03
1911
55b0
8e71
2bb5
8409
4e1d
c0d7
8606
c6b6
5f63
383d
894e
ae1b
6095
1cf4
7cd3
4854
e079
167a
9182
260a
104f
f090
810e
23ac
fc5a
c1e8
4d2e
2be9
1e51
d1df
b2e7
2598
7105
3a0f
7a21
4789
1e13
94a5
a594
7a5f
5c9f
8636
f910
a99c
12d6
1a43
1a24
aacd
a7e1
f599
6bae
18e5
5417
118f
eeca
5a04
544a
22c3
9d68
939a
130c
f9b7
9b4c
09ed
4ea4
55c1
68be
7f76
5b66
ed06
af03
1feb
473d
d7e4
d170
1e6c
3e48
291a
4ef3
3edd
73b0
5b77
ddd6
9231
9cf0
fd4a
20e3
faee
36b0
1aa5
3c08
7233
35d6
95f5
c9f9
ec8d
20ce
123e
38b0
21ad
05dd
3ede
ceeb
3f48
1c5e
20f6
86e2
378a
5369
62e9
ce21
b5ef
6327
3b74
2d28
c666
98a0
fda8
be42
1d64
91e1
10aa
dd62
9430
e878
210e
e257
1aa0
4e66
cc70
a943
89d5
5066
2416
2aa7
c62c
3928
3ffe
f66b
a40a
dffb
2e68
1e66
2a22
72b2
6356
75e6
7efe
d351
5c40
a265
d8e3
3c42
4b7b
775c
a773
210d
1ecc
3e47
863d
a3a9
d245
2095
cf0c
2082
b0d2
a84e
ea0e
24c6
c221
60ba
7223
3504
5f64
b7fd
5ef3
3609
e68a
3865
c832
6eb0
5e2c
4f46
6a22
496d
f391
6da8
b2a8
eeb0
0bf6
b7d5
380f
6277
a2e3
c21a
ca2d
e2b5
6248
7914
2670
c3a4
5e1f
a30c
b664
cfb4
31b5
2e91
5148
5161
109d
60aa
b232
183c
4f5f
e009
feeb
c903
7a85
635b
2309
9925
bbf0
62de
8173
5b46
2fe2
d4bb
49c3
7383
623e
3a38
4ab3
643c
ed6d
cefd
ceb2
c420
1e43
aa04
2e1f
49d0
ac63
61bc
a97f
9645
a847
1913
12cc
cd70
794e
fd04
c8d5
5c9c
0cc5
657b
090d
b336
b91e
9bcd
3efd
757d
9ca4
1d2e
3f4a
4f33
7510
b957
de0a
4832
0823
3b08
f821
e461
643a
7e0c
9507
1f4e
1dc0
6f53
15d8
6ec2
523f
65b5
b0c5
db21
12ba
742b
c319
d3fa
4a31
6509
4e61
ce34
b22e
d42d
d71b
1106
f5d1
4d04
c0eb
c465
d223
fcc3
ca45
5f8a
f3e5
1ae5
c05d
6c3b
0c56
3274
fece
63b0
f90c
eb07
2787
9d04
482b
3c37
4619
7d12
594e
3c09
10b3
c898
163e
187d
aba0
b8c5
c2da
549c
0dc8
1fcc
8f1b
2905
4740
129b
0f58
889a
af50
f6f8
dbf1
1d6e
2172
ee9e
de66
aca6
45b0
f575
1175
6a81
12f3
1aa1
473e
5c1f
3283
604a
0cd9
1309
4b53
762c
7674
4e15
484b
9e85
3472
8734
b8c0
b616
331a
9b53
4e3f
91ba
b6af
b30a
acbf
1a93
4d60
d88f
e7eb
d608
b442
48f4
1021
1292
9c60
c1bf
2c6a
0c5b
5c17
975a
31b0
5c4b
db0f
685a
6219
a0a0
df07
e03a
d49f
62ee
e354
a908
1b70
3b31
c916
7807
800d
0bd7
1ace
7453
0c93
c52c
0878
6d08
77be
6409
4262
383a
9910
17a8
4e2e
63cc
3821
6411
71b0
07de
5803
2b1b
fdd2
746c
071e
573d
6cf8
53e8
8956
f57a
1243
52fe
c31c
5e2e
8e22
cb41
0990
1682
1ec1
48d2
58d2
cec8
ac2f
a321
57a0
0c22
f0d4
525f
60e2
4490
087a
b46f
25ae
5e09
1de0
f31e
2ec8
4eb5
719a
f10d
f159
cb7b
4e3a
fa04
72fa
540d
4954
e390
1ee6
2d04
62e3
641f
253d
13ce
582f
0ec5
0557
7c21
ca21
2e14
4d39
8886
300d
d610
f153
bf4c
dca2
4866
c80a
fd10
5c96
5c52
f885
772c
d0cc
fbec
376a
fae8
9f03
20c9
5ad0
c151
7a09
62cc
3d64
0907
8603
0c64
c965
f96e
1cee
c877
5187
ac84
f604
230b
8f2d
fa32
2eea
1676
8dc1
6587
8ca5
fa43
91fb
04ec
d7b0
d939
21a8
65ec
c531
5376
1f22
6a13
caeb
47df
f5cb
be64
442a
2ad9
5dc0
6cc7
940f
bcdd
f20d
4f05
a8a8
a8f5
1f54
693b
f5b5
23c5
6df7
3e1c
6ac0
d31f
0f3e
188d
6756
c170
ab2a
6367
9e3d
6709
245c
64ae
f5b8
993e
1d14
a620
6c0b
a36d
6fc3
c894
51c7
f110
6047
18e6
bf3d
e47a
2150
9133
e6f7
12d3
3016
1a37
765d
9e60
0c40
a921
9931
cb45
5ff0
1235
a443
b82f
0531
7109
1af7
2a06
8306
6f66
50fa
ee8f
1033
62d1
2f3e
6354
8719
16e7
2276
e2d1
0859
5052
1872
7669
d692
4209
b1f1
4875
2b66
d47e
6e79
e4d1
9d65
29b9
2cfe
4245
f8f6
b417
8c0a
6a91
8f5a
0b90
7417
dee4
6321
bc3e
9c36
d03d
6228
2e66
7506
3570
4bfb
48d7
582e
6d4a
6f07
540f
8732
935c
b4dd
824f
5a19
2872
0aaa
6bf8
6c25
7b21
3011
31ee
e12e
cab1
083b
21b1
8d25
dd6b
6fa5
6f56
783f
ee52
96f2
5979
48d3
6763
42ce
de71
0861
6d0c
8156
17b5
1d0c
4bcb
6581
1ea7
c0ba
57c7
1625
940b
62d4
6b86
fa4f
de06
4389
e42e
dc4d
3a74
1029
d95e
b129
ac71
0683
c6b0
0777
df95
ee41
5349
4892
12f7
2b87
f91e
c125
569e
7cbc
fa81
4f2f
b392
3ed0
bf0a
5437
607f
842e
686c
c424
12d7
32f8
2668
f406
c29e
3f33
4ea6
f3a2
07a5
7746
4d5f
ac5f
2663
821e
07b2
fb11
de21
8f03
08d4
cbad
951d
f5d6
2c1f
9d52
4e9d
ad76
8208
d213
b4f9
62a4
f7bf
11f5
cf2a
e0e2
cd28
09f2
c721
68b6
0baf
2f1a
46a0
fa61
dafb
720c
acc3
d8c0
c1c8
9170
263e
ab03
5703
df5f
96bf
4207
7f0b
557b
acb4
cab5
550c
c5e3
b62e
4f1a
eed0
b381
4b04
c1f1
af2d
431e
478f
c897
2128
2552
9696
486a
5778
fc19
3ecb
69a8
5a2c
2f42
2b9a
2dc2
c1eb
4b70
04a5
041f
f009
7684
4532
5959
7b5f
fcc0
6186
f622
2b4a
6468
252c
f150
a1f5
7246
c0ee
2b33
5ad4
cf50
f5a2
d60f
3090
e479
b941
e4ed
3895
48bf
71de
c909
aa59
e6ed
bf30
520a
b81d
cb5a
5152
997d
a30d
a3ce
7ffd
4db8
6b98
63c2
9897
b33b
16db
260d
9b07
d406
7dce
45d9
4344
f70a
0bb0
08ea
2d10
d078
f522
f908
fa2d
9a7e
f209
0de3
cd1d
d7d4
3286
8407
0a9f
4e1c
7f6e
25ba
2b2c
d206
9249
ceaf
8c04
6fb5
65b0
4e94
9697
5b91
e05c
f6a8
271a
6359
dccf
1add
b908
900d
aa87
ba67
ec87
4a89
4f4c
4ae8
7353
da33
d187
cddb
9616
71d4
acb7
62c8
189f
853b
2b52
ee51
f3f9
c41e
7154
6cfe
8744
fb0d
a0b8
fd55
4696
208e
3428
7713
95b2
9a91
2c54
b026
4824
c65f
51c3
626a
9fe3
dae8
4416
4bb6
9bbc
20cb
5253
65a7
3b55
21a2
8dd9
48b6
6ddd
f562
6571
d12e
f6c7
53ef
cae4
c0f7
d619
a64c
5987
bdf0
68fa
741f
6531
ad06
8754
b0be
2c1d
dc10
194f
cd03
1d6c
335c
4638
045c
ebeb
3a28
ba2e
0dcc
2eb4
c32f
fd42
4bd1
a085
0754
2fd3
2e57
4ed8
a609
befd
0931
321c
8804
65bf
18b9
4ada
636d
24a5
794a
b891
c8c6
b6ae
5de8
77ba
c20d
d487
efaf
1ee4
3e4d
6bd8
4787
9d36
ef67
2310
b7bf
f56f
e6d2
ccab
da87
d70d
3fcb
e4a3
fb35
2c0c
fa29
eaae
e6c7
9345
1e96
ba15
60af
1d76
093f
b905
b7f6
6ed0
9829
f032
6750
a214
4523
2606
a8c1
2871
5c55
1fef
f6e3
9f1f
ac6f
4566
1b48
18ed
e0c1
1023
3150
2ea5
c2dc
805d
bd64
1514
1e90
0495
6487
f52d
1e85
2ad5
22d1
4b2c
0760
52d0
eb3e
61e8
25d8
c682
fb06
ebc7
0fd9
c0e4
502e
f4f7
dc5b
12d0
21b5
711a
d7fa
0813
6ffe
0d38
7606
a740
fa65
fd50
f517
31f2
7e87
170b
a111
6ca8
8a60
e2ee
e62e
12b6
2f6b
f26b
773b
993d
c41f
211b
4ec6
368c
9322
12e3
38f7
37e2
db2f
c0e7
241a
2144
8c8f
4e1e
8039
6343
72f6
9be2
6e2e
1e77
08df
350b
8ba3
84d6
18f5
4abb
6f61
13e4
4ec2
f37f
2fe1
7db0
18f7
b508
530c
9a45
7a03
aa07
8d41
aeb8
a1a2
eec5
ccb0
488a
cd3a
c8f4
20a4
aa67
1f90
8f10
bb1c
3e2b
1ef3
a55b
506d
6ba8
88ee
d006
61c8
7905
237b
d0fb
7c17
df05
c0e0
b0aa
641e
55fe
958f
fa6c
6615
6bb2
c8a8
d18f
4409
0b72
9a96
bc90
c107
5ce9
ae9e
75df
fcb4
48ae
2f26
a40c
5f70
9211
130a
fc09
7c40
db51
236f
1e65
ee42
bedd
1c46
5207
b4c7
6b2c
17d7
046a
d535
96f3
570d
54df
9816
f28f
ba9e
3d9e
8d9b
16cd
18f6
3ee2
f6a1
b703
f81c
dcae
3da9
bf65
a927
a0e1
8109
0c47
3a4a
7f0a
d409
393b
f358
1291
4ffd
4b68
17b8
6558
168b
c1f5
fa0b
f3b1
905f
a43b
f790
f92b
c05c
1511
3ec0
5a4c
5297
11c8
6e87
2f48
1042
a2b0
5f0f
185e
7a3e
df14
fad3
f7f0
22a2
871e
e6cf
1e1b
d892
557d
426b
9e2e
e996
2b03
d24b
83c7
f87c
68c7
cebd
e5c1
230d
23c3
ecb8
a78e
0646
fcec
4d1e
a750
d153
c76f
52c2
3c1b
f516
d1c9
9218
2a64
afa0
1699
49d1
3b86
c8f9
20ed
62c7
e954
7e0d
7e2f
2db1
21a7
5ec7
d40f
f45a
188f
16d7
3e32
0cde
b691
bd4f
c0fa
1943
d9dc
fb4e
b814
65cf
816e
b30d
6d03
aa45
9a1e
436d
5c15
7153
d3c7
c54c
d607
1f03
d12b
fa1c
306d
b005
8530
2721
81e8
212f
455e
e5a8
b831
2a5c
77ed
9316
e8d8
360c
2241
7722
d2d5
80ec
b636
2409
a49d
12cd
88a3
3a36
2f6e
4573
1503
65ae
5c33
5a28
adfb
f2f2
1deb
188b
2316
9b3c
5441
fae2
622f
a341
a3a8
61d0
281c
4390
6538
99a2
87ac
6893
ce08
de41
e093
4b66
9c65
c550
63d2
421c
1709
cf05
763d
2ef5
49dd
ad2d
f065
a4b7
2887
b6b2
da77
7ec5
869e
6c5b
0fc0
4e54
323f
4e16
18af
422c
c8c5
0ebd
c521
6a27
2abb
3d28
236e
d816
de26
4aeb
5fad
b710
d003
3adc
34c0
0966
0516
841a
a2d2
dd35
76b0
6111
c184
1324
db06
08b1
a25d
e47c
e327
7fd3
0739
6a28
7248
f828
8fa7
d9e6
e1ea
992e
7868
e066
4d50
e228
2e6e
9e04
4b03
ba45
2b19
9f55
1ed8
3e4b
c505
f705
1964
580a
a73d
687c
4a62
0611
32b2
647c
a586
0cf2
b38a
4ae7
9fba
5170
3e2a
fa56
514b
8134
7303
1da0
7edc
b67d
9904
e706
fc14
5ba9
27fe
bdd6
54d8
2826
4563
5e22
a9e1
d0dc
346e
0886
ee0c
a6ab
c207
1a92
0ea5
a1dc
8528
f671
d340
dd75
e099
5a35
793f
a22e
a814
659d
3a17
4a9e
4f5a
4a8a
3964
05a2
66c0
9de1
9425
651d
2a03
ccd4
2c34
3ad8
dd3d
7640
9ba3
423a
8439
48ed
bde1
6453
1d3d
96c5
1706
1a63
d990
89d9
f376
3420
973d
e4a5
450a
31e8
0d75
5b0c
5ff6
52c3
8132
c0a8
50a2
0f1d
9314
21fc
1951
95d9
632a
125b
2f32
679e
8f3b
4e8d
5e0e
a587
2492
4aa4
397b
93bd
4705
7209
1b1e
0aa2
4eb6
c187
66aa
702d
a41e
b246
d466
7b57
8f3d
2709
c029
643b
e128
d9a3
48f1
686d
c7c0
b8f7
dff3
626e
7021
ef34
2efb
5b0f
5270
5e3b
fac7
2990
65a8
b6a2
c681
4d69
ee6e
bf05
b896
226c
773d
e18d
be05
13c8
4abf
ca39
81c2
3805
57d6
7244
50d1
6ccd
36c3
660a
6344
3849
c051
ece4
53fc
dc04
052d
97b3
0f17
19c8
16e3
5572
6864
dfeb
cccb
ee4d
1ae1
9b6b
b929
1726
f41a
1e9e
ee2d
6b87
0c58
4b5c
cbe0
f80d
de4e
070e
8b75
7316
0da2
4578
3ead
2e1d
b4c5
190b
3ab3
aa69
53f1
a7bc
eacc
63eb
4966
12a1
1b82
4da6
ad0b
12c3
e11e
9165
cd2f
bae8
1a2d
ebd9
347d
5893
98a8
3506
2dda
0f52
50fe
c8fd
78c2
c808
fa24
8a9b
0428
5cc4
89ef
99d7
885a
393e
7c62
a2e0
dc0d
2df3
6868
1c16
58a0
b31e
21d0
3e87
b387
aaa8
069e
dcb8
c0c7
4856
df97
7632
9e97
e821
d403
a0e9
e234
3e34
6afa
2209
a828
bd87
1132
3540
0dde
dfd6
9ec9
3cc6
8209
8053
5050
1e58
d1a2
1ec9
d09f
cd06
0fb4
5007
f11e
6ee2
5528
f633
08c5
db13
2149
3e9c
ceed
20b7
e025
fd7b
2e78
eb44
0f60
ad16
ee3c
4b24
28bd
e957
b178
469e
bfb5
1d1e
f73b
c156
9961
6515
6c9a
88ad
6e0b
0d20
d40c
bea2
dc2f
b70c
cd16
ee31
c82d
d407
296b
2f3b
6f1c
66be
8049
7024
0d3a
7715
d90c
bca0
0d05
5e87
fada
6d75
1869
4a5d
3d6c
c45c
08e4
1f3e
4e95
7e8a
853a
7c0e
706a
31ad
6396
531a
2707
61ca
39df
08c1
cb44
90e1
27df
fc25
cfc4
edc8
ae84
3565
e589
7144
a20d
3406
10a9
5378
1344
9a07
1d40
6841
d75b
cdbb
0bbb
6932
b3c8
4585
4e5d
4631
63fb
7317
bb10
f8cd
addb
0fa9
ed3b
18f1
bae0
1509
3622
66e0
f11d
8781
cc1d
dbb0
1ee8
e50c
446e
ad57
e16c
0b8b
e20b
ed09
68dd
5e25
1c0a
80e4
450e
d38a
dfd7
105a
eda8
111d
75be
7a0c
5ccb
5507
5578
acb2
60ae
9c05
f316
f529
4b4e
46d0
6c0c
d2e8
5529
b50f
bc22
98f7
fe6d
524b
30bf
3d20
1ab4
f55b
f30a
20b3
6450
4e46
de32
2b70
f9b2
62d5
30da
6afb
dfd3
af06
605b
5295
2e0d
b1fd
edd7
4874
5807
9195
e98d
eb0d
585e
07d0
ae90
64b2
5440
81dd
3642
3a7f
470c
e045
5b15
f5c3
4a0a
c773
ce19
b87f
c10d
dead
5cf7
87f6
2f77
6226
d416
2ee1
4387
4a84
4e55
1836
de28
62a6
bdd9
9443
2a16
16ce
4f03
1b6d
6db2
2c05
64b7
b8bf
5c8d
230a
d840
542e
da56
9c92
1fe2
3057
e433
08ed
dc15
efb0
1b4a
95e1
a5fb
0621
9d21
7823
1a55
546e
37ed
b8ba
470e
c8db
1e1f
44a6
7e8b
8ecd
5b4c
924d
4833
0564
2ed1
65eb
4970
3840
98ab
c2ef
32c9
c434
48b8
68d4
c307
a9fc
da26
5242
bf4d
d4cb
7487
1b9c
5c0f
5777
1eb4
3e21
b1d6
c5b9
0c71
7b09
770a
e436
580d
2e2f
c15f
9cc6
0bfc
77d3
bf03
cf6f
cf07
cdcf
113a
4b4a
5c34
4ec7
4b0d
8d04
d052
4253
a266
b658
0ab7
5638
1c84
fcda
6dde
5cf2
7876
4ffe
3348
4aa1
5aba
5b0e
bb68
4b99
45f1
d107
e3d8
985b
47c0
ac19
c806
d1c2
3521
6673
32f1
2d0d
d7bd
e2a2
76c4
611e
b130
5521
9f73
6a16
1298
6d53
7f50
3e7d
de7d
49de
6c0d
380a
6955
c39b
4ff3
c2b7
21bd
19a8
acf5
d240
5a39
5c37
c8b2
ef14
1f0a
2c16
4732
16cc
e55e
f9d3
f51b
2e95
46af
4454
21cf
25b9
b62b
9e29
1b40
3e1e
0c53
545c
60a6
dbf5
488c
170f
e61e
5621
dd0b
66bc
5c76
a02e
3ed3
2ad3
0720
8dd1
56e3
ad74
dd32
da32
a270
3e36
634a
b025
0f92
2ec1
3621
1306
59fb
d7bb
20e7
2fbb
dd10
d617
a131
6b0e
0f81
9230
7b1e
f58f
334e
c709
674c
9490
ec11
aece
4f0e
076e
9d6e
bd1f
81c7
5c43
dcf1
5a31
54db
6057
5450
ac39
b0ad
5aa4
2ea1
650d
5144
1285
ab05
2099
b10d
2a52
0479
1e5e
097a
740d
08cf
1619
619a
6c70
0458
4fe2
28ef
8ec7
0909
1ee7
b781
e417
0bd6
aa9a
c5d7
1c87
5cb8
4653
e51e
4581
e6c5
d605
99fd
60c0
ca94
2656
fd61
2f1e
210c
6628
15fa
4e86
e110
884f
fa28
48a6
bc53
c2cc
07d8
2b2a
620c
6863
31ae
1529
8d26
6849
0883
68a7
a264
7358
08d3
6f0f
90cf
d314
7221
df7a
3ef9
d7d5
c242
f404
86e3
c61a
3ef7
9532
4ad5
d86f
072f
2b90
ee0a
a697
c8fb
c407
a6ef
0f98
f59a
1e56
5ece
6377
7b2d
4fe6
1639
d807
f553
5a16
6de0
c53a
4d7e
6726
c828
ac11
0b60
13d9
2239
7063
a250
32b0
2187
ee54
9a0d
e487
15c8
d1c7
9ecb
9b65
d6a6
e3c1
4a91
dd5d
05bb
6e43
3f03
80cc
d952
f5be
5e70
5821
c85b
51d5
6491
f35c
e92d
833e
6467
c02d
f4a0
b322
320f
6d30
e1b5
6046
8ba0
a1d7
09d2
2084
543e
daa2
1164
3e90
49b9
4ed5
4ec9
1eac
8153
d92e
0b06
d45c
f0a4
d80a
fa75
5f53
e211
f80e
f59e
8561
720b
520d
df50
cdba
2e96
beef
9f28
b03a
177d
f1f0
803e
5c67
de25
454c
390a
747a
ade0
7772
9dc6
ccca
8303
7860
d7c4
6190
7053
3689
bb96
3c5c
161c
9608
4909
c66b
43a8
cca4
aa5e
2619
15a1
f34f
4d3a
f50f
1158
7103
5ad6
749e
088c
f5fd
7594
be25
1f09
2d1e
7953
b8c2
9ef1
44a4
87eb
710d
913b
a687
3268
176a
0877
5ca1
19ee
19e3
298b
66ca
d33e
13a8
4858
324d
6703
0853
ea65
a8c0
ebc4
26fa
e325
281b
6c3d
21a9
8268
687b
2ec9
1b37
6824
f1cb
f115
5b2d
8207
3c1a
dfdf
b844
1121
4a19
7e78
1c07
4b3c
dea3
fd45
ba1a
8fc2
e7a0
2a8d
20db
0d32
4b30
4d2c
527e
b766
f328
974b
4851
90a8
dc93
e27f
6113
8907
8b04
9b0f
272c
0fa1
18d9
12fc
bafb
e70f
46e0
2d41
9f49
6360
226a
fa9f
f8b4
87e1
b71b
c71b
055b
31ef
1e55
340b
82ce
a870
09a8
8c3e
adfd
07d1
68f4
2a19
2221
8b0a
974a
1f2e
d421
b863
71a5
4707
f20b
b84f
3487
e1d9
3547
790c
f976
8d22
c0e5
54ab
f833
4509
c587
b8ad
b715
710f
c153
acd1
654a
6867
f2ec
8113
485f
8f65
3dc1
aaa7
fe3e
d108
bc21
7cb0
7bf3
d2f9
2f2d
1fea
a253
7c1a
b813
f33d
a68f
fb4d
4d4a
b243
3e16
6314
ca0b
8c6f
29e8
48f5
8fdd
16ab
89d4
b090
bc49
dcd6
b487
5ce0
dfb0
3e50
552a
fb8d
8a16
f34a
7aa6
4db0
934d
624b
cd45
1fa8
cf52
fa38
0c42
5bd7
f2bc
ee90
1ca0
3387
7c3e
1b6e
cc50
7f7f
c00c
7631
f63b
3c56
12e9
b64d
e46a
4bdf
f104
5ae0
163b
5190
29fa
634d
13fc
102c
ba1e
06b9
c90c
236c
a432
713d
5ef5
9e16
e899
efbc
5a6d
833a
4b91
5011
b911
63e4
4ef4
5a6b
b6e5
2e47
3ecd
e308
6d46
7d40
b321
7a42
ed76
6455
b898
fb53
bc0f
4f21
bf84
71b2
bef0
3b2f
7196
9e4b
083c
28bb
b8df
93d5
2d90
87ef
d215
eeb5
95d5
d2c4
8716
65cd
3eb7
d361
44a0
d8d4
16e9
73fb
dd0d
c761
cc5b
3193
96c4
87d6
72a1
5d85
8d5c
fdc2
66c5
c606
db57
29df
498e
7745
dc70
5047
2911
2167
c378
4bd9
2421
507e
68cc
bf4b
7f40
a43e
522c
a41a
063e
4abe
6d52
16eb
ac42
432b
82ac
e13f
587d
18b1
b726
c4e9
adf0
1bc0
5810
c103
cce7
e584
1e7c
1cb8
edde
c027
6494
1c15
421b
fd5d
b9d5
5d0e
54fa
ef68
cba8
1e68
ba21
3c62
0d37
d119
e53f
4340
62f5
1ac1
9662
3a3e
722e
de4f
d42e
ae4d
96f7
face
e16d
d182
3eb9
954d
6a2c
6490
047b
3e65
bb25
20d5
648d
364d
12bc
b7da
4860
cf35
2aca
28b2
8882
9953
be2f
7d47
5b52
c5ac
456a
637e
047e
c89e
6e89
7e5c
d921
641d
6ea4
829a
1333
52b7
b13f
6f4c
c84e
b290
0511
e51b
ee28
3a24
ef2e
04e4
db6f
246e
12e8
48c7
561f
2eb3
fbb1
9670
dd08
4f7e
5e1d
a260
a29f
0b58
ab90
4eef
813e
a52e
7324
1df6
f496
d732
f12f
d14d
ce22
2627
ad62
254d
8ec5
e890
e416
106f
6020
083d
bea8
6cfa
3803
6317
2594
6bdf
89b3
4ad8
1eea
324f
bd91
a7ee
553d
3e19
8fe5
0619
4e37
7133
b57f
56b4
ec05
fb27
f5c0
9530
7acd
e4a7
f953
6c2f
0817
1037
cc64
51e2
1e07
9e24
a575
8607
f40d
891c
9990
c4dc
1031
5dc1
4632
7907
18ad
770f
5720
503d
4a3c
26a9
5c59
c890
797d
990b
cf16
4903
93ae
bcab
ca69
0ce8
87cd
6347
a90b
f72e
b850
a80b
4eec
2271
7b4a
d0c9
b777
1ea1
a549
8747
7a7f
626d
c777
d51a
8533
6eec
7507
ad87
3ba2
868a
9b41
7fd2
21ac
e159
b170
8b0f
2cee
2f1c
ac93
6128
611a
cee0
dc41
ed43
6a1f
5453
8c50
9711
752e
b110
fe1f
57a8
be03
5bd9
9b90
bed3
5c06
e276
491a
7fbf
7607
61c0
acab
9ddb
c003
737a
2f44
2214
2219
7750
4ecd
b374
ec85
8d85
dfbb
5442
3062
ab6d
2db4
d232
2eed
61b1
f3f7
e209
2e4f
86b7
aa27
8250
2284
5fb7
880a
81fa
35e9
a50d
349b
8170
ee95
c637
8d24
9271
275b
780f
0aeb
1520
ee89
5343
1cfd
d906
6cd9
2236
4dc1
c1f2
63df
9944
c7ae
1fe3
2aaf
0532
2e27
0c85
a9a0
640d
b865
9aaf
cd7b
31c2
65f2
7b40
e91c
7837
922e
9009
05a6
5631
7732
dd34
9b9d
ac3b
f5a5
615c
4e5f
660c
4349
eb08
b8fa
17b0
635c
951e
9895
1e93
3e8e
c57b
0ca0
fcaa
d4a2
3e2f
ec4e
67b3
9ff2
8176
2f4d
7661
2ec3
8d5b
9a3e
c80c
aeb4
4343
3c4a
6d0e
07d2
e952
ae57
2b0a
2ff2
a1c3
956e
1cfb
5cc5
ea07
7e22
2a45
b4fc
c1b0
d3ac
d970
f2d7
7421
77df
616f
1e74
fd69
e625
3905
caac
970f
8f07
4857
2fe8
9f6b
c80b
ae3d
f03d
636a
d06d
e09e
4ffc
753a
5ed3
ec0d
a119
5658
c2b2
284d
b867
dd6d
5076
7ab4
3eae
d646
8e1c
097d
569f
8045
d132
9e28
bee7
3903
d995
01af
16c5
b307
b051
771e
99eb
fb9c
ea87
ad45
9f50
06d0
06a7
ccb5
270c
1073
1baa
3d1e
cb30
e2e6
3121
150d
2e09
bc40
62d9
2a43
391b
25aa
2942
9a40
8408
daaa
1636
bf0b
9f21
7acf
3052
a889
c652
4d21
d4d1
4964
b419
3ea0
0b76
9f07
3e13
e0a2
8492
3c73
5aa9
1d07
4222
dedd
c8a1
227f
4f7d
7de9
0936
fded
3711
a567
b893
1692
8406
9ac0
2de4
1e3b
08b9
7a11
1f32
a7a0
d22d
aea6
7e0f
a590
a6bf
d30a
5454
3e45
75ef
a38b
f09e
cca9
8349
7d4b
6424
795c
f61d
e1b9
e01c
12a0
0461
9828
9734
4ece
5afb
c028
c455
e4b0
3d1c
1698
e10a
46b8
d634
a705
ed2a
191b
5223
fad2
53d7
2781
ed05
dd82
495a
1546
7707
ea99
7b3a
fc28
c206
2440
7d78
7f5f
ddc1
d55b
7742
fd58
359f
830c
fda6
87b1
4838
633f
e9ee
c527
860a
3d4c
a46e
b252
98d4
0676
9a5a
9bce
9227
2547
e672
f915
1b1b
8952
7a94
48aa
6ed3
d133
de5f
d603
9222
7edf
4a1d
b0fa
6ea8
5c23
cc22
1b14
198f
f907
1c38
9130
23d4
248c
1e6e
ce3e
5623
42d9
b0c4
22a8
380b
c73d
4e8c
f64a
8dd7
481d
5c1c
12b4
3b98
480d
b521
73ab
e237
1f69
4e59
1c4f
3a4d
24af
1b16
2f5c
4fca
a54e
1d6d
82df
450b
8b21
2487
cc21
851b
1ed0
3eaa
850c
6f7a
9611
725c
f05c
e6e3
bd9a
4eaa
55ee
65dc
7b26
9a0b
71b1
9104
55ea
95d6
f34e
a2fa
4241
1645
225f
a2c9
4a26
4a23
a0d7
f56e
5c27
c907
482f
98c5
c007
fccb
613a
ce0d
72a6
a07f
1ee5
3579
7a71
f251
2be7
711c
be37
44d3
e306
ce16
8690
48de
605a
2ea4
7c45
2b23
5040
487a
632c
6926
f4dc
c0d2
de16
575a
52b6
2f83
b851
4950
7b5a
988b
c510
1ee1
eee5
5e73
ccd5
4f71
ea50
bd39
16c7
0921
aa10
cc3c
55db
f446
161f
651c
9387
3a69
a767
fead
3552
ad8f
5a30
c30d
9cf8
b650
df2f
a1ae
ac7f
87fd
1239
4aa5
461c
5d5c
b99a
aa0f
a44e
1674
66d9
c250
0703
1651
398d
3787
7966
788b
c8c3
f894
55a0
54e8
300c
bbdf
7140
ee35
1227
fba8
15cb
2e06
f9a8
cdef
8869
63c8
c075
2e6c
9e3e
a907
599a
7aa8
61f2
b93e
4f87
38f6
28d7
1647
1e31
1df5
ed2f
26e2
d31d
fc37
1631
6ec9
3207
4884
3543
4d83
6829
746b
6297
fb6d
0c21
49a8
ed4d
a206
4849
740e
3fcc
5808
4e48
8506
dbae
0f32
98d2
9e75
7b81
4f4a
3da8
7642
d761
f615
20b8
3c15
300b
af1c
4592
163a
6a25
13c3
6706
5429
240b
6fdf
1a8c
6936
9ba1
791c
9aeb
1513
19e0
2b1c
fc10
b11e
de83
bb28
ed68
ac8a
862e
afef
fa6d
7b19
f2a2
2506
1634
115f
fd25
9881
a2a8
b807
ccad
07f7
62ce
48dd
9f9e
bd14
15b0
c1c0
a661
fc07
c7f5
8e1e
5ce6
3f6d
16f2
ebfa
3daf
df90
e99f
3584
26af
0d28
7a87
cbf0
208a
9fe4
e6ee
8810
6e66
2773
4d0b
985f
d2a8
214a
f5aa
0c77
073c
1ecb
e54c
23da
3a23
b8f4
5b6e
7f7d
1eb5
da8a
df8b
b2e0
716b
4348
7d75
5016
796f
b87b
c07a
09c6
b60a
3df3
c093
fa68
be0a
baa9
ef40
840a
747b
7497
371b
328a
7459
a3f4
b9fd
5b7d
3ba1
311b
db08
774b
7d08
2f64
d868
c356
fab7
5ed1
7d48
d0b3
2a35
421a
780c
165f
d37d
23b0
0937
fb28
4270
1942
29e0
87ad
3603
f3d5
2fc7
58b8
7906
c8fa
b027
bdea
5f15
f311
2d43
d08e
1225
3716
7268
c03d
472e
a789
2469
7a59
2cea
0d54
3219
6caa
fca1
7170
ac77
0cf9
6a40
7a0b
a03a
fc11
f332
76b3
390b
79fd
bbf5
ea72
e240
c871
bc6b
ac33
08d1
e65c
16ca
e1fb
36da
363b
3921
3f5c
48b7
5770
6147
f0b1
c86e
5628
9407
704c
eaa0
4ade
8bfb
2a5f
ee5b
deed
b2bf
e2f5
6254
805f
6e42
c176
0790
e999
4e28
51af
ac27
9924
c729
5ac6
2c1b
4472
4d30
6e53
a822
3b4c
1d52
e77f
6171
7eb6
93e1
3bfe
ad21
48fc
5c53
abec
86ab
2876
20c2
33e3
72ba
169e
29a0
3cb7
a233
3484
b8ed
11d6
818b
663d
e642
ec82
f20c
c0d3
0b63
4a30
35e4
7bdb
67fb
5274
e578
b6a3
d99e
e246
e77c
7f21
fac6
2811
16e1
d23a
c150
3ca1
e88f
fbe5
320d
8d63
dee6
d9b8
8722
3827
1c30
a14f
8042
e031
b4bb
e2bf
e187
3e51
8942
2a4f
fb31
50ec
0837
d803
0534
f56d
9e81
559c
44e9
1223
7219
8e29
aa0a
efbe
21bc
2c48
d70c
12e7
c50a
ad82
4a59
243f
0d14
6216
4e36
20c4
90be
7b6d
a8c7
2edb
f675
1705
5b36
ad04
a0ef
fc58
127d
f650
81d7
8671
6379
93bb
da11
5455
5085
516f
b029
48a7
89ae
ec78
fa86
a40d
cace
f5a4
4e4e
e116
ce09
872d
7dfe
23c0
e419
a187
a5ee
3703
af79
0d19
eecb
0623
9c85
ea6f
4dc3
8885
6e56
1e6d
f696
3d6b
9111
068a
6a29
590d
d408
3613
2e7a
e909
c037
2f53
78c7
4ebf
3e72
2f63
b1df
2a48
cf63
2938
eb53
7626
7728
176e
9957
9163
7498
1506
4edf
acbd
e973
cc79
8a21
d03a
05f8
9586
6cbb
984e
54c3
a06e
5863
48ee
81a2
ba90
1d74
cab2
f6c8
3442
fc63
95c2
4bac
ca6c
c36f
d99f
eb77
fa97
af77
1e8a
2c0d
49c0
54c1
12d8
b022
cc13
ce4c
8e40
06c2
8d08
0d11
8444
12f9
fa54
649f
17e2
9216
fc41
8d0d
31b2
5efb
08f9
fd5b
2583
6b45
ec5b
7495
875c
6ed4
7b7b
5d41
6b58
68c4
af3d
cb11
f887
f611
1644
66c8
b74f
276f
7c1c
2ed9
e13d
3576
f607
c677
7028
bf69
2e9f
1eda
442e
d11c
3b40
7eb0
54ac
e268
426e
1ccc
451b
5bec
ce87
0ca7
ab0b
be16
62e7
45e5
6f37
5413
a2d0
cec6
cd81
8048
df1b
05a0
ae22
0ce5
38e4
3177
6a78
a90f
3379
fccf
3e58
4636
5c36
fc40
64f4
9022
1e82
8120
4370
ba64
2837
f5de
1936
3a16
3c11
eddd
6e5f
5592
1379
33aa
afe7
3c38
2e43
3ee6
9250
243c
c121
12d5
c208
536a
76f6
ae69
d9e1
c65b
05f3
de6a
084d
a31b
6507
ee68
853d
4af1
7a4c
c0a0
22d0
87e8
f551
75fd
d244
773f
9511
88de
1f34
69ef
68cb
1122
6edc
6efc
75de
4f75
4b54
8f90
d073
8142
75f8
5b6c
4883
52dd
8ba8
c8d0
c8ea
fd97
3e1f
7913
336a
1b46
50bc
90af
3e3e
2631
a6aa
5a43
3422
c01b
ee53
12f6
dcfa
e4fd
80ae
f628
220d
df09
1668
e50b
6b81
4d86
4d6e
395a
f7cd
c18c
ee86
55dd
c728
cd4a
df87
1aef
e256
af60
c7ed
31a8
1c33
d787
fc55
583b
93c7
9ede
d68f
5704
b858
2f68
b8b0
f04e
48e5
917f
964a
840b
53ce
f011
e09f
e2bb
116e
e1de
0b54
bf10
2e2d
6541
163f
511c
1e2d
4dfc
295c
48a8
e65d
be29
0942
a9cb
5f8c
725f
980c
ed1c
fdc7
5ca9
3c60
c437
879e
21be
4e0f
6c0f
af25
485e
90c1
761b
bba4
8908
cc26
d74d
3c3f
73cb
11c0
fcc5
d2fa
0f4f
6010
d233
ae5e
4ae5
603e
5f38
9909
f3f5
7f04
8f75
60e6
a0dd
5997
fcbe
9350
911e
de90
be5b
d238
f8a3
a10c
4a68
c715
98b5
e2b4
f5c5
0b87
f751
9032
4f6f
6142
ba09
52fa
244a
66e2
a653
61e9
1653
397e
0b78
5de7
449e
231e
efc0
533a
f173
3e95
df28
c0fb
695a
6715
2eb1
eed1
be38
66c1
4ba3
48ce
b80f
e933
645a
73e9
399f
a874
b615
f417
1146
2603
4448
39f9
834a
48c8
63d4
fb0c
4f16
a8e3
3e6e
c59e
e7e1
7d28
52b4
dc99
d207
f24a
e0ee
e717
7694
374f
514f
ac7d
8572
a307
48bc
cf09
3455
779f
6119
b630
7a4b
af7e
7aea
f270
3ea2
68f5
7403
c408
a4ec
741c
999c
39f1
bd05
d296
c291
1b52
57bb
72ae
49a9
6a1c
6838
72e4
8890
f0f7
ad52
6925
a2be
cfe5
5bad
de5d
a64a
7a0e
6820
5c60
19ac
a13c
ce67
432a
fa7b
6d05
a01c
5a53
2793
27ec
235e
3d7b
c833
69f2
cf2d
c845
d43a
97df
bd19
0687
2869
6f9c
7228
a122
de87
3851
48ec
4bc5
fa3b
31b3
2e3e
7c20
fac3
607d
9e4f
e69a
26cb
3370
ba81
62fd
c0df
fcef
521b
7b16
744f
7b30
aea1
cf62
92e4
ba08
ca03
370b
525b
112f
3e37
c1c4
1c0f
3c5a
a05f
d096
6521
3e7a
697a
e26d
9499
1ede
c509
13a7
4aae
706d
6483
f155
de92
52f3
6054
8899
cd3d
8651
6b06
327c
4f28
a496
43cf
793a
8806
bb57
bf9d
5c91
5d45
4f23
2832
a072
d28f
e8ad
b1a2
7903
1d28
4acc
6852
0c68
2e7b
dc08
1dbe
8107
81b4
5931
c873
b02e
1524
aefb
383e
8d78
eeb9
e677
c910
80d4
8c6c
649e
cac7
25ac
4a27
0fac
bd7f
4e41
8162
e507
2705
3e17
5c32
d994
b506
a4a1
809e
dc55
0f1f
209f
2362
1b11
d7df
89bd
62d7
bdd7
c8b1
9848
ef28
f422
9058
9d9c
c3f2
9ab1
474b
9f87
c0d5
b463
2966
2b1e
6417
64a0
f947
f538
7111
d908
288e
8f78
b310
b6b0
43b1
ab04
48c3
960b
0c57
541f
63c0
faa0
453e
1649
8129
9541
9731
cceb
19c3
f111
b63b
49d5
0db1
68fb
223b
b233
64a2
77e3
f711
24ee
d43c
7282
3144
2e7e
65d0
bf06
d75f
7b03
877f
bf90
1992
b5b0
a6ee
6730
2e59
8706
48f7
3421
66e5
0969
1614
3c13
c8e8
6e08
4831
e26c
9485
61d5
4e9b
de69
5aa6
451a
4652
5c73
6c8d
0b0d
666c
d111
9123
f442
94e6
bde4
7b9c
8470
157c
4e49
3a7d
0bb9
ee1e
7e1a
18e7
277b
77ec
963c
7921
a306
7a22
5757
fae5
ed10
45cc
1e9a
b577
62a3
ed0c
5809
4eaf
a71a
157b
064b
6896
8553
af4c
84d7
80d6
2d16
4d53
b56b
5693
fc06
3292
e2e2
213c
de4a
e30b
e2da
7ab0
59a7
d84d
a8d2
d228
696b
ecea
f487
e808
156f
1925
61e5
e621
df45
4893
b5d6
3c64
c940
8206
796c
d673
f919
1587
c6bd
5b70
8d61
d291
75ce
08ae
8fad
f511
0543
612a
1a7c
0f9b
1abd
6e0a
b16d
e5ac
52d9
98de
2431
e45b
475c
7615
a9e3
ebca
acf7
f9ba
970d
2257
52e8
0dd4
9f90
ac92
ef3d
e006
55f2
a026
f598
9923
284a
5a6c
7041
173b
f58e
12e1
cf23
48e6
b892
d834
250a
4eeb
d1f1
d309
151c
67a8
b007
2ee5
faa9
6c6e
fa11
6597
cb87
facb
723e
293a
f109
9a5d
4232
2fb2
69e3
ab11
623d
60e3
8c5d
5669
1c39
631b
9f54
aee1
dedf
4f2a
ea63
c883
be97
092b
93c9
3bb3
3826
2ce2
1f9c
21c5
811c
8608
4341
4b25
4ec4
4acb
f4cd
0d59
2b07
68c3
6f3f
afc5
f661
109c
6f93
a815
da3c
0523
d12a
8e7e
6b03
6061
30a2
e73d
2122
1cd4
484a
6f8b
6c50
c5e6
447c
8440
3efb
9e70
ac8b
0b29
b878
71a0
9eb1
06e1
8640
924c
c241
cf46
6414
f837
d103
1c44
fa09
4842
804c
1ef4
f1b9
c5c0
467f
d636
832a
2d1b
3d8b
9de9
4307
43a2
3309
830b
4b8d
4865
1d59
3943
0462
8055
3e0d
7541
d911
bffd
edbb
4db2
2e8b
195b
e60c
b687
a94c
392a
65f1
1694
1ead
798c
438f
3c9e
834d
f741
bd48
2235
1ebd
1e3a
3ec1
2816
f698
3b22
bb4a
aa4f
78c0
49d9
7c82
7ab9
e91d
16b8
220b
27ac
e016
eac1
50b8
2770
ed5d
460a
0b09
f449
80c8
12d4
489c
981b
cf3c
1542
4e91
ae43
ee7d
f6b0
cf45
3187
3160
f5c1
d165
6a45
17da
9787
a275
3270
5128
b167
5b31
f6a5
c6bb
77e5
fb1c
4d47
bf45
cf41
cd1e
cf51
1626
b570
2f60
3c47
0f0a
5d65
5c1e
f594
062f
964c
d987
0759
7419
878f
2c46
274e
adf5
dd31
fa9a
07cc
6e62
6cd3
a28e
5f28
1c17
4878
7278
b7ca
1eef
753d
be32
950c
d389
b928
583d
8805
db3c
6687
d0fa
3ebf
ce17
1f8f
321b
b8bd
3d44
9a9e
f4df
edf0
f24d
4823
a0d6
4219
c11e
0643
3a03
6f6a
68e7
a65d
0b74
631c
a390
4541
9a26
1da2
32ad
2e46
9d2e
2a37
5272
8428
4e39
da07
2746
9343
628e
a0a8
6b39
2e65
e30c
4af7
68d7
cf87
5e15
efed
d092
5c99
3c2c
7846
676e
7c5b
d109
c4f1
f565
26b4
0787
fa6b
4885
8ccc
800b
b07b
a7f6
7e1b
af97
b5d5
fa0c
8db9
34b6
8c10
8717
467c
3c91
2f4f
e0b0
909b
e7a7
fb90
1126
5ca0
e9dc
d065
4716
6b1e
673a
e39a
53a2
4d51
c026
b29a
0539
f5bb
2add
caba
6913
e8ce
65b2
3e2c
39a3
e04d
1c53
0f8f
47b0
73ad
92d7
a31f
1156
5e44
2975
3247
3f87
d40d
9e19
162a
56d2
d94e
9d40
6042
2616
553a
a8d9
35ac
5831
6397
d2e4
65a0
639a
8b1b
6afe
b41e
4ec1
83ad
ca29
1f89
6426
9f25
4b63
2968
c811
130d
4a2c
88c5
6592
c114
75e4
0d44
b316
c35f
3eec
85c0
2c33
f11b
0a13
20c6
fab6
90ed
cd4c
ef09
ae17
0766
e832
c0fc
2bc9
37c0
600f
8777
4e75
4e7e
9a20
ee1b
6006
b2df
16ac
fcee
19f1
a982
cad5
df61
2969
4332
9044
1f33
e07b
f79c
9b4f
b742
3875
8dec
0778
f8dd
1307
c0bd
2a6a
6f30
607a
2ea7
7521
b9ce
07fb
64a9
1b60
d959
eab2
c13b
2637
670f
1590
f568
ee2e
a99e
0c55
1fec
7617
d130
32fa
946d
b222
816f
436e
4b11
6a32
b7e0
fb14
15d3
b552
329b
0b9e
762e
d533
3c03
670b
a044
22c8
baeb
d235
c232
873e
2152
1e62
6c40
5276
bcef
6b3e
0524
1187
43c6
5247
dddc
5a11
22bb
260b
9709
97ca
8231
bb0f
7d22
0669
6013
0b69
edee
910d
b926
68da
ca6a
7733
89b0
9049
b41b
5ad1
7ddb
4dbb
7ba7
8cd7
6746
e473
5c66
953e
d50a
5396
1c4a
d3d8
4b07
1743
6828
726e
4dcf
e52d
f344
08fc
5745
c015
5032
0bba
3a3a
168c
b165
ee19
c8ed
1986
b19c
e6b1
799e
f3a3
12ef
fd98
b60f
1d17
75f3
53bb
3a78
240d
b7e3
217f
6ee5
6a09
6a6b
123f
2c66
4806
6c1a
192b
6196
f1a1
9c03
6d06
7c3a
49f9
e87e
9e79
d6e0
5237
3fcd
be82
6b70
49e1
28b5
e23b
0993
8d3d
0692
0cb4
5c0c
f7fb
a806
2e56
2ee9
61e2
ae08
468e
5cde
8dfc
e74f
2ccd
bc30
1e69
1d46
6475
8182
8116
964d
e645
3a70
68a8
9225
b8a0
0a3f
6ea6
a18b
de33
a3b0
4b46
bb05
d825
afb0
c416
623b
21ca
f361
5015
073f
5fdf
713a
ee9f
3a56
6ec0
1e67
a16b
d69e
382c
f76c
8022
2e81
6a77
9206
c060
ea54
1611
78bb
b734
3b32
18d6
1e86
da2f
b0e4
d6ec
3953
a192
dcd1
a2a5
7d6a
0aec
49b0
8bf8
9445
7f66
37a8
ce54
c82a
2368
7bcb
9444
a971
17b3
c703
ee44
de0d
7eca
a6a9
8387
8a09
cf22
c0ef
b89c
e4a0
7557
3623
a53b
af87
1929
ae45
eea1
309e
4993
0552
76a5
1d4f
b8f3
7014
380c
add8
2153
ee25
79d2
5df6
0b13
4b3b
6c30
11a8
75fa
723b
822a
a8df
61e3
3e6c
cee5
2a09
df20
823e
f820
b38d
046d
6de3
eaee
5938
b8ee
1ecf
c625
6386
1cdb
cc8d
b7a1
528d
cd2e
dfb1
af4b
5653
d83d
6e0f
2b09
a0ac
9837
3927
bf48
6957
7c15
12a5
9928
8a75
92a8
16f6
8ed0
48f8
3823
7c6b
e4bd
b659
3c82
c9b0
872a
684e
2277
e6ef
7792
c74e
84bf
283c
bb39
26c7
2c71
430a
8fa9
52cd
8f11
cf30
2ead
9b04
7057
f00b
5cfd
2243
87d5
b8d2
c8cd
d14f
3ed4
de72
4bb3
34fa
6454
a23d
4d1b
61f5
91c3
9581
8af4
a96d
3753
4b3e
edc3
35fb
4985
d9bd
6d87
cd41
9b3d
450f
063d
cc2a
4afa
277c
740b
0d77
5cba
fa82
bfb1
dc66
c4bb
0d15
a350
b0bd
32d8
f22f
555d
b8fd
f269
bfa0
1dc7
4d35
6576
5143
d5fd
8e9a
aa31
8f09
a295
c23b
e0f5
fac1
d0c1
f7a8
f0a2
5232
0416
4811
8210
3e29
bee1
124b
8a20
487d
f51e
a1fa
a607
b946
7d09
52e4
6fbf
851e
769e
3c49
c90d
3a15
508b
d7aa
f80f
f15e
beda
1297
5626
c306
eb70
aa2d
1332
c470
3a77
4f20
4dc7
fda7
863a
c6ac
8a0d
5035
16b4
85b0
6941
32d1
2fe5
eae4
acc9
aaa0
eddf
4e9a
7a68
241c
e815
65dd
c6be
545a
cc6d
76dd
498c
3c28
6aec
08ef
642f
2569
81b6
72dc
50c5
089a
34a2
5714
4ed7
5a2f
c1f3
2644
6d0d
724d
6b64
23fa
5723
d7fd
4919
3a5c
6066
e050
4f92
644f
e806
1926
e39e
cd49
d0ed
d10b
d587
f63a
b635
601c
2e75
5721
ad8c
e72a
2a1e
83e5
b83c
bf23
9cc8
b80a
1624
eb03
6e16
de19
7fb0
833d
e33f
05b1
2e49
655c
7e08
7c87
ee97
b1b9
6645
932e
a3a5
95ae
662b
43ab
3244
dffc
e011
c08c
b76d
34af
d2e0
f570
c120
be06
c621
b7ae
d283
b84d
5f07
f44a
9750
b221
3e26
3606
88d9
670d
d0a2
2d5b
9c32
e52c
e53d
7271
1c34
4aa7
6bcc
7a31
bad9
be1e
aae5
8481
f0f6
bec1
0c86
5061
b85c
c616
76cf
9c16
6bd7
bb08
9758
a2df
457f
16fd
b345
106d
d4bd
1fa2
3091
6658
a31c
a415
76f1
16b6
4351
a8ac
a11c
0c29
a9bc
a9cc
13b1
59a9
5857
6d1b
7ba9
1061
2a1d
4759
99ee
501f
6e17
225a
a069
e0ae
593b
afc0
e2e8
311d
197c
18fb
c116
acce
8909
3ad9
5d8a
df86
f09b
4639
a20c
ace3
4ab4
7537
f321
4e3e
b5ee
fc4e
6851
7819
1eb1
ca25
df06
e04a
e0cf
8332
f52b
e24f
f2f9
4f6e
64d0
c082
2fb0
a8c2
e64d
2645
d907
62b7
7193
db4c
b820
1ffa
68cd
1e94
75d7
354e
06a2
99f2
c9ad
4846
4ff1
c650
6e30
304a
9822
ee87
699e
1e2a
acaf
0f90
68e3
7211
eaf1
77b9
be6e
290f
6987
8249
22ab
e2ad
1558
5e3f
46c8
5ab1
9b36
9ba6
86ce
9cf5
ea45
a7b3
a86d
4837
ab9a
dc1e
f356
3a61
8ae6
1f16
1521
d13a
3740
6241
e7de
fd63
eec9
950d
63e1
7c0b
42f1
f3e6
7125
8172
e5c6
a543
b8cd
19f7
ce4e
3d83
6df2
9409
891f
4aef
1c6e
15e9
dbfd
cb08
e731
136d
4613
ae5c
ce04
ce8c
85c3
39c4
d8bc
726a
cd6b
50be
6db0
da0d
e2d9
ef32
1ef6
a9ad
9c40
a851
f8ac
8e1f
433d
9714
bdcd
dbed
aea9
a161
3ab1
da0b
a721
9c52
2aee
1734
acf6
6651
4649
ad0a
2ae5
079a
23bc
8307
4b4d
a82d
3db0
054d
f15c
7737
eb5c
956a
a6bb
5917
dbe5
f93d
a92e
5c5d
2ce9
563c
870b
6492
7824
80a1
6217
f8af
f00d
61e4
1eb7
0642
5cb2
0bfb
087e
8b07
3256
2ee7
4efa
3eaf
83c9
9c4a
f207
8083
91a8
36f9
ed22
169b
dcde
3a59
c456
92cf
d00d
5336
434e
590b
b7e8
ef54
d522
3909
ab0a
4ef9
de47
2903
128a
49be
46e6
f23c
24dd
887f
163c
81e9
c1a2
26c0
d9ae
dc2b
4231
6b56
6e35
a1e0
263a
7828
0768
d36d
aea2
ee5f
a389
837e
0447
ead3
6ff0
6837
234a
2a29
5a0d
424a
7ac3
904c
e4cf
7f8f
75ad
c309
5f16
6b5c
bf16
0572
3ea9
3762
f710
75e7
917b
cbfa
b03b
fbb8
2c2e
c0b0
f477
aca9
6b2e
0b44
8b4f
20dd
9a6b
d509
e734
16ba
16c2
4e7f
be9c
0620
faec
4b69
f8ba
b6dc
694f
9ad5
4728
8d40
cc5e
7fe9
8f9c
ddcc
16c9
6b76
33b7
8bfd
5458
22b0
64aa
941b
45b2
c578
3a58
0c67
745d
e517
4599
1c9e
fd2d
6f05
7299
78ca
c1ee
c0c8
567f
a6c8
fa41
48f9
804b
a0cc
90b4
07b7
a091
211c
aedd
09de
2f35
7f9b
16e8
1e38
2948
6060
f755
8086
2570
a128
6c75
b04b
2c67
b87a
51da
95ca
fb87
f72a
4b6c
9219
f8df
b5d7
ebbe
12ce
f2c0
b8cc
d8e8
f77f
aee0
ce39
fdec
08cc
3777
ee83
e9f6
1787
5447
54c7
1de4
4be3
c8e5
ed9d
2582
1e47
e67f
b849
3059
30b2
fa6e
7117
9687
b342
3729
9015
2a6e
f8cc
8cab
6311
cf39
cc40
2777
c8ee
cdaa
df3a
9ee8
ded5
36f6
3c8d
7a75
ab28
909a
05ca
e528
263d
6b7f
ef05
e2c5
f29f
fbc8
be0b
5e78
2c21
fc9e
e7fb
c04a
94a8
5ebf
894d
af04
5fd7
c0aa
8763
9053
bfa4
8f7b
363d
0c27
5851
7a66
4667
3353
db37
31a3
315e
c132
2378
fa0f
dfac
4d93
f2b7
ed20
f24f
4f0f
cfc1
9c94
e50a
dc7f
c9e0
d128
5ef1
4e57
cec1
ad25
7ac0
e2b0
c53d
d628
52f1
5030
122c
741a
be2a
a04a
d85b
e475
7603
c146
e687
f364
6ebd
18f3
5385
5a8c
ab2e
a42e
08cb
3e33
8728
4fd7
325e
22cb
9d6b
6316
4e78
560b
f8f3
50cc
283d
d315
e72f
be99
8f0b
0fa8
77e4
9519
ddd0
df9b
19d0
eef6
f6d6
fca0
cb4c
2e85
ee6d
86ad
d67a
fc2f
ba89
d0b5
e41e
fd99
f53c
8976
ed23
fa98
9c6f
4894
5317
17bb
fad5
4b29
cd24
27a2
7bc6
b44f
5054
f0c9
aaed
3baf
795a
94d0
5c9e
4bb5
b7be
c85f
d439
f5a6
2785
384a
086a
243d
2615
6077
f5c7
63a6
0465
1f5a
6d55
7bd4
c95c
d21d
f8d0
ee0b
c69e
30de
54a8
d925
999e
4b2e
285d
b257
0830
2114
7536
75e0
9c75
a283
782d
fa5e
80f6
173d
27b6
4db3
fd3e
2e93
304d
23fb
e331
5d2e
3015
84af
9806
3ee3
cdd2
7e97
63f4
79a6
d0d0
6b9a
7a30
29ca
7bda
344a
80d7
229e
3b5b
c887
7528
a162
1c77
ec08
ea78
7d03
af07
345c
f26d
f4b9
9172
5707
78fb
b024
0f9c
1071
a140
a158
49db
7978
bb0a
6660
8897
9699
930b
7066
5766
7865
34e2
a738
0b21
e8fb
3017
151d
212d
29a1
a62a
8ca6
1058
465c
fb70
b287
0f56
f547
a6a6
4df4
4ee7
3cae
ad40
646b
32cf
4a99
606a
4bec
45ca
71dd
510b
d1d2
dbbe
50c2
5bcf
a1aa
2ceb
3f1b
21d9
eee6
a5ce
49f1
ea0b
0c19
2952
82e0
7687
e54b
5682
d604
2fec
0713
67a2
7357
f21e
3e85
be2e
8971
af45
54a2
5640
dc7b
fcb1
5bd5
2dac
38b5
5ab2
965a
1635
63c6
d3aa
a3f5
3707
d782
5df8
64ef
647b
8b34
6e2d
9ec2
669e
a6a0
0425
8f8e
d4b0
0fd0
3b5e
4e77
d191
ae4a
3351
9bb5
43ef
af3a
9e8a
8536
63b7
6fb9
2f52
3793
7be2
8753
6f4e
5c6c
bf1e
1ef7
be4f
5eba
6622
af4f
c66d
5939
8da8
1efc
f1c4
6f4a
1c13
6be2
86c9
ab21
80d2
4886
98dd
25e8
3eb5
d57d
7321
c864
5a84
2eb8
9209
c0d9
806d
2217
4dd4
600d
0c43
3468
3251
fa5b
15b9
8eb0
9922
87fa
5763
4f98
091d
ac6b
3c5b
b667
18c3
455f
115a
6b47
f211
6db4
a7c5
254a
9122
d56a
3a0d
fab2
3d21
10a7
8911
2ac7
502a
1ce3
68c9
d27a
16e6
d903
e94d
5092
e8e7
5171
c104
3bb6
babc
175e
2478
cc1f
612e
4646
fbc9
218c
0558
66b3
a2f4
b8b1
fa90
601e
84b5
3440
bfdf
f072
2131
d532
f924
dcce
96e0
ebb8
b3a6
0bbc
c86f
0dc1
0473
dc57
ac35
6aa5
1c28
b750
d1d3
ce45
2a0b
6245
4f73
bb6d
5fef
3ce0
28d4
6fbd
5342
e935
dae1
2228
0d90
5fcb
73be
a704
cd2d
e7df
8e3c
cd07
970c
808a
e040
fa63
a04f
8d16
6e84
7583
be76
a576
f67d
0867
e092
f545
7543
55d7
e53e
e56c
d391
08d5
7b70
e275
c442
7839
51c1
6b75
ea7c
b011
931e
a83a
d37b
5a7e
c06f
9048
c22d
918f
b622
4a2f
a4fb
5c72
5f39
7fc0
45e7
9c78
4bf3
7291
e709
0668
52ad
c07e
113d
6384
fcdf
a8a6
f8de
08c2
53fd
074f
4b83
c0bf
802e
26e7
5c82
8cf6
1049
459e
51bd
c38f
79d8
f387
2d4e
9ace
089d
62ea
eb1d
51a8
9323
e328
ec4f
7a2e
fa69
81b9
fca2
5a74
5b76
c40a
80b1
f02d
b88d
edc7
77dc
cf26
5428
314a
8587
fdf2
f96b
df6e
1ef1
c109
3a81
5de5
b958
d2d4
62e1
3f4e
d00a
f811
c1ab
6a0b
1f48
4896
4f27
4b90
d10d
9508
d56b
fab3
92d6
74b0
0893
3f16
4413
f61e
f1ac
cd40
1b1c
5bce
baad
a506
c9c1
8f08
5abf
3407
77a2
6eb7
96df
8844
1b0b
bd42
e741
98bb
c89a
5ea4
a5f1
ca36
3429
d51b
f8eb
778d
526f
161d
9171
5ec8
7e4f
dbfb
b8b6
6355
dbc7
51c6
1ea6
95bb
3cd5
8c23
8379
fb50
eeda
c54e
a90c
3b09
086b
1922
9154
e904
9bc1
6825
e190
2c87
6c06
c76d
da19
bfe5
8755
d9e3
1c99
d9bb
abae
7871
3d60
05f1
e529
e019
2a55
af67
e428
eeb4
a672
fa76
87bf
7cf5
b70a
e23e
19a9
1168
be81
0b11
0fb8
1d1d
fbf1
9fd3
3668
4f3a
fc0c
9cd3
aa2e
23e0
c4bd
381a
15b8
61e7
a12e
350f
a470
1661
498d
c725
085d
4864
6459
fbcd
a50c
0451
dabe
971e
5193
857a
6a1e
6d13
cb16
2c27
fa8c
bb4e
c8f6
8f49
9a53
c0f5
63de
fb2f
e238
e679
1d4e
9d0b
504a
2854
46ef
48c9
5aa2
a81f
0b28
c8b3
1714
d760
dfa8
5f3d
5dcf
bf2f
3146
e694
c30b
3c06
adf2
f563
b32d
dda9
c8a5
90f3
b416
150a
e553
b56d
59a3
6d83
fb96
0cca
681e
1931
4436
832d
a8b6
d028
eec3
7ea2
b5af
66a2
46a4
3972
5c84
a708
e7f3
e6e5
6892
6fd8
8756
bf77
d175
b7bb
7a63
1d78
23c8
ed97
76dc
3152
1637
6a06
5c2d
2342
e24b
2d87
171b
e0b3
613c
16a6
1e8c
a2b3
a859
0f3d
7587
ee4e
a9ae
50a0
7bce
f63c
b64c
5670
6a79
9b87
f8dc
0fef
611d
0943
8979
6fbc
ddbf
6290
ed32
15e4
ce0b
e6d4
b640
c7dd
9df7
e2c7
4839
6153
302f
5073
b89d
71b7
06ad
eb4e
7911
153a
e676
8331
e8d3
676d
5fe0
7b68
2ebe
dc51
cd29
4fe1
24b2
e0fa
261c
3e8d
32d9
7d20
83e3
e80c
3b66
3414
810d
5e66
93cc
77a9
6773
8228
f90a
4dd6
1c60
7867
b23c
e79f
7609
1130
e5b4
7ee0
88a9
49d8
fc48
9c84
1b2c
1d96
48dc
5042
5a55
6022
72b0
bc3c
e611
05db
35fe
4d06
307c
b81c
e79e
3e68
9540
6307
0c17
d51e
f832
1691
6655
9615
bfc3
c2a8
d31c
16a0
472d
cd26
12c2
27e2
b3c7
cfca
21d7
ec27
3f61
5ad2
57e7
064a
2728
20e4
08ce
9131
39d5
4af6
68f1
f2d0
7132
d134
5e60
44f3
8d77
cc15
fd7d
c542
8e2c
6bb6
bc2d
5283
d44a
ac69
2856
30c3
8655
c807
3e9d
8646
8925
cf28
8d1d
1ed5
ca65
d716
27dc
4d03
8b58
3d0d
3491
e875
32b7
c353
2eee
6e77
590a
774c
670a
9bc0
c079
a12b
e506
5b09
c03b
f809
1c7f
590f
4a7f
fa89
bff3
d614
45d7
1b4f
c781
6de5
c2eb
df74
ee3e
f68a
6a98
4e25
a1f8
22f1
0bf9
6e1c
902f
24c0
345b
6c19
ad50
2576
f3f6
62bc
247a
b35f
bc45
9b0c
6449
2f43
c8d3
6315
9c30
11b8
a97d
f90f
f341
8c07
578b
dd05
ce13
3c53
754c
bb73
644e
522f
31a0
2e9e
1ed2
6904
99b8
9a2d
2a53
2da7
3889
7073
7514
b949
af8c
784d
cfc2
ee82
1057
6036
3efa
a14d
99ab
4add
cb70
4f24
5b53
8f16
4598
61ed
a68e
2307
edfc
9d87
1063
b4d8
f8a2
f5ee
dece
b5b6
fcbf
f0fd
a0bb
3985
cc07
2b0b
3887
4819
c331
139e
2dc1
3e61
6676
66af
c687
a906
9907
832e
1a9a
1d53
2814
11f1
4923
dca8
3dd9
4669
19a1
e120
66c2
794c
69b8
3f73
d85d
7adf
4e9c
512f
1eaa
7599
3a41
3d2e
5d04
7f91
1c98
9e39
5a51
af4e
f79f
6f0b
2ecd
2e6b
b571
063b
704e
43ec
1b90
89b1
c9a0
487c
2f06
1793
18db
75ed
db5c
b573
dc0b
5dcd
621b
9d53
e2b9
6f45
7a57
6320
17c5
d8ad
76f3
25a9
fd20
4f41
5f0c
8038
90f7
7b3c
d95c
e353
1edf
081d
604e
eba0
2123
55f8
290c
3973
0d2f
9d07
8f0f
0954
7c1d
e65a
391f
bc67
afa8
6274
1ec2
c4f6
f869
9328
5b08
af4d
b8d1
6ac1
3db1
d290
7b6c
19b0
61b7
8122
a1a0
a1e5
d5c4
4ae6
3e39
ae55
a152
0bdc
8a0c
ac5d
9a65
b390
9c91
2f85
7ff3
fae7
68b0
c7a0
1e73
63ab
c9a2
9a56
2fae
489d
83d4
e409
9667
7361
c70f
50eb
a762
13f3
32d6
6090
1be2
4b56
4b5e
fd70
19be
4ebb
3d40
8f0d
605f
4458
d2df
76f5
31e0
956d
fd76
0f79
875e
8840
134f
4861
58f1
df58
b4aa
9943
cc7a
8b47
e2c3
d0a1
286e
e307
ef2a
61fa
11ee
f14e
3eef
2bd6
30b7
2f66
096d
b96b
62b8
7215
aab7
b22d
ec15
b8d3
5752
b161
29da
6a0f
a9b0
0441
7d6c
cff7
e0bd
f167
811f
defd
897b
7340
fac4
aa91
9656
a21d
e8bb
71a4
e1ad
3575
3560
ea5c
f573
7e0b
7e5e
092c
63b1
cdd6
8778
dccc
21f2
b1a8
9152
b47f
a940
2c52
0424
2c90
5d3d
67d2
8ae3
948c
6752
651f
865e
c1e5
c906
e96a
2bc8
265e
f564
de6c
5f61
7d63
325f
739f
f42f
7e4c
bc04
1044
6059
3f69
a73b
ee70
854b
6017
471a
fb3d
7933
938a
e863
a3ee
c36e
789c
b8c7
d953
168a
81af
9167
bef6
29f8
68db
52c6
3f9f
6183
81e5
c1d9
36d6
4b8c
7ddd
b10b
4697
dff5
c83a
21f4
2d0a
cfa2
0419
5d13
19cf
5a09
7cc8
16a5
8164
ee09
674e
be13
703d
233a
5006
2182
be52
eab1
d0eb
e2c9
ec56
60f2
bd15
4e56
a84d
7a47
7761
94e4
3758
300f
d95f
1973
1678
3e94
37f4
6d5c
ad3e
3e24
de81
9546
7991
e94e
bf31
7fa8
a88d
a80a
a2b8
e213
fb58
9e5e
29b2
3a1f
3051
923a
53c2
453c
494e
f30d
df2b
e765
0992
e1d4
dea5
8e09
5c20
d72e
e44a
63ca
4b7a
5a06
e0aa
a39d
e332
198c
9140
9134
de8e
6906
33f9
b2d6
bd16
763b
61fb
65df
8148
91f6
a522
9661
5fc0
e73a
3346
1b7a
5e16
503b
50c7
0c30
907a
f815
aba6
6826
ba53
b79e
dfd2
9585
7a2c
8f2e
ee1f
ed19
8e16
ce06
3a4f
7bdd
aa6c
1d54
807f
df70
6ea1
28fa
c8f1
544b
f409
3228
e89e
6e68
8679
ccfd
e76d
e4e4
ad9c
dd5c
fd34
6af9
c904
b847
4aea
3474
700c
8007
311e
f108
3e78
a60d
fb85
8b2d
8d0f
096a
099d
68b4
8315
e111
8aba
642a
b834
c8c7
faaa
155f
7b43
5c90
9657
6e23
3567
8855
cf33
8641
1d03
b840
2337
b837
faab
e527
2dae
5ac3
4221
633a
fb57
51ba
359e
87a9
62f8
34c6
d33d
f9a4
423d
abed
c1df
5e45
95e4
78da
489b
a12a
ce7b
f9a2
79e4
658b
6291
2840
c01f
1957
e220
e2b2
fbba
9c33
047f
ca3e
3eeb
1c48
a996
3d78
3c0c
64a1
7a16
3a97
52a2
bc16
6e33
26c5
2b21
2259
7ce3
9e43
6bd4
690e
32d7
54eb
8962
6fa8
5072
9a22
7821
4ba8
9516
eea6
fbac
6442
646e
eac8
9761
ae5f
fb73
e96d
dfa2
f0f4
7311
c931
d7a5
5d0f
06ef
9756
2698
63a0
c94f
0442
08f5
ca76
fae6
4b95
d16b
ce52
6d0b
cb49
c848
d461
209b
211f
1b93
3b1b
34ad
767d
994d
da16
3055
176b
a6e5
48eb
1630
719c
7ca7
48ac
6bc8
ae6d
3ce1
fcd9
08d7
9f8a
a854
82d2
fa35
26f6
430d
89d7
2449
b04d
c6f4
4d45
f72c
f0bb
1ee9
c5df
66ce
e92c
a7ac
8252
a254
32e3
3411
af8e
066d
a2c2
2474
b8dd
d21b
2503
162f
d92d
6e60
eeb8
5924
670c
7452
3ac0
3b11
8117
c747
cb2e
38d2
6b78
774e
d0c4
ca90
1f1f
b8e2
76fb
a1ad
fc4f
bbda
b286
b868
07c3
5c1d
781b
4e7a
b4f8
d730
8163
b120
1399
3c24
da9d
5b9e
5133
5137
b123
46b3
9a28
eab3
729e
17ee
4e0b
e1c0
a5cc
e82d
9a90
d893
05ce
cebf
ce38
faf7
5bb3
9728
ca16
5bb0
cdb4
3e97
5622
37bb
80e3
a51e
c091
ca37
21ed
25f5
3bd6
ef2b
08aa
2cc0
39ef
831c
cd7f
5407
c854
c59f
7c31
4b0f
ba14
b853
7850
2b64
fab8
453d
e942
1f93
2870
39e5
5b98
1937
7f46
166c
efee
b0a1
d8ca
edd2
5184
9ec3
2945
1c96
bd25
bd2d
5f4d
340f
c61f
2129
2ebc
91c5
d945
a322
aa22
e787
7df6
5611
c882
d211
d717
ee9a
9e66
bd83
4840
2f0f
6884
777d
735a
16f4
9f4c
3f5b
4b38
c8df
2590
4e68
3c07
72a5
84f4
dc0a
5afc
9404
5a5a
d26d
48ea
473f
8752
9c37
a4df
cdc7
e541
950b
09d8
26d3
22b9
cbf1
2847
5864
efaa
521e
afd0
15d4
1e24
29c7
864d
b907
adde
1c7a
9bda
d04c
fdbf
cf7f
394b
d9ac
b325
b841
1e3c
8e05
74c5
8d90
5573
17a6
c840
d086
3ffa
d0c0
466f
2338
82a8
a51f
f5ad
f14d
86ba
cbc2
e185
b114
be21
a02d
0892
1f59
6f55
c870
19d7
4321
4dfe
f0e2
5ce3
d80b
f2e4
764a
f5d0
71c0
f12d
ae92
094b
97b1
6fe6
b25b
2dd8
5ccf
2548
c528
2634
1ea9
0695
e2d5
92a5
78e2
a8b8
f007
f4aa
f113
9e42
39f6
b399
226b
58d4
6735
78e5
836f
9e6e
a671
22c0
4bee
dfd0
5630
a8f2
7447
3f46
829e
9f35
a4af
cf53
e792
fb13
4538
7565
4dde
6285
60da
60a8
08bd
57c9
9a35
1707
8d4a
340d
1ded
d865
0dc7
1fca
5f50
6716
5576
b690
170d
bfe3
48af
635f
05ed
bec7
29a2
49c6
2a15
fd60
d2ca
8c11
4eac
3e46
ead2
2e98
1109
3ece
eec7
cec7
8ee5
f66c
733b
e272
de9f
66ba
5c41
f4b7
4f1b
5da8
7d3d
7c3b
1697
d143
8825
44f9
4b77
7277
c93b
61ec
1e7d
524d
54bb
0c98
6833
f4a8
c1bc
a14e
0628
f71b
c131
7505
cef5
cc28
c8bb
f745
9406
b855
c6e3
4f10
a898
16d9
13ba
434a
dc45
0844
6d31
ad29
886d
2292
dfa5
483e
9dd4
61c5
63d3
5cd4
69d0
8941
625d
764c
259f
3e28
f6cc
5cfa
5bac
7ff1
6256
60c4
8faf
0f1b
5ba2
4e8a
137a
da45
6d1c
df1e
c6a8
8723
cf08
5f06
2d13
2d95
a9e5
bda8
4e8b
3e2e
574e
5c6a
fdb5
6baf
cb5b
5940
8c2d
ecd1
cba6
07e4
ed3d
801c
578e
a709
df31
1c68
426d
ddbb
4220
5772
7692
31bb
719e
2f1f
1ea5
7556
e6b0
c387
5328
c95e
e774
e57a
36f3
7909
4bfc
3d89
6425
7ff0
fa6f
84e3
5178
d140
b557
63f8
9d61
ea55
281e
4b3a
77a0
0520
0699
27fa
1d68
0d53
cb9f
153d
b168
32b3
4848
efd9
9fa2
44f8
5b90
7af6
cfac
784a
636c
2a56
949d
63c9
d98b
b823
dbe8
0aa5
1e79
8ee3
62c1
ad79
c0d0
f5f1
9c70
3dfa
a8d5
e740
8464
b4e2
79e5
8bab
9c10
f737
814d
ae58
b609
7975
8381
6741
904d
22d2
a213
66db
e32d
fbf9
f467
51aa
06b6
48c1
2e94
d17e
2748
eee8
cab9
23e2
4b1f
b75e
05b0
61ab
18fd
5ee6
22de
abdd
c0cd
0659
f54c
c119
ee22
c2b1
c8aa
1141
5146
3e3d
c62f
b706
2ab2
5894
7770
cf90
3e83
6699
8afd
e126
3349
22f9
eb0a
4a65
58bd
81e7
a9ab
1d0b
f722
376e
54a6
9b5b
b7e2
c6fb
9c35
2d06
28b9
f853
6d3d
6f52
19d1
e1d7
4651
c6b8
8328
ef87
3c19
5c9a
7887
d47c
6e28
c5c1
63e8
4733
a8c6
2125
2537
1371
2325
fcb0
fb51
bf04
e423
0f7a
87ed
8333
9817
8c2e
d785
8490
588e
8e43
694c
fad7
6473
a0c9
dcee
fdb8
df17
1e5b
3ec2
4a79
9a0f
ba04
da29
f0ce
b838
7d65
a0ee
495c
a194
f69f
d9be
992f
d011
5060
2feb
783b
79c5
6762
ca52
bd32
d590
4b06
4492
76be
8598
b720
4468
647f
e87b
c11d
667d
8b09
388e
4551
aeea
2f16
507c
8bcb
a34a
cc04
8476
6a5d
34ce
933b
ad72
61f6
4ee9
cb04
d064
8c6e
a46d
e814
f424
c64b
b275
808b
804d
6319
9a3d
aad4
f313
d74f
ea1d
fac8
0c83
637f
ec04
df26
b25c
24ba
b27b
ef08
0c5d
e464
4be5
fab4
8013
c6e1
edf4
520c
b032
64b0
3f1e
217c
ae67
d545
5cfc
9247
e096
777a
ac9d
f7bd
61c7
169a
d169
fa4e
d72d
265a
a515
b89a
6150
e1a2
3ed1
b149
0cbd
ae1c
7abd
b57b
d364
3d50
a4a4
7659
f12a
5ea0
0636
7346
af22
0f7f
1e4d
464b
cc51
bd0b
66ec
1c21
e976
a2f1
5f08
f7b0
2679
5ce1
8ca8
fcd7
7c41
9a23
98d3
c0e6
7a69
0732
3214
5797
7ec0
c55a
2661
c6fa
62f4
1226
9652
bddf
4597
3d86
8b20
c08b
1338
3c3a
aefa
83f5
2d07
1086
a0ea
88b4
fc90
36dc
6d96
b84b
1960
4b13
76f4
c540
9325
93a5
82b5
b228
2e25
a8ea
8151
792b
c0af
6357
98a2
c9e5
16d2
06d4
934a
7cfc
5f89
a483
b274
852b
64fb
2491
8fa2
0bc7
1da8
5998
c754
21cb
a5b7
79f5
fdfb
0752
34a8
ea48
f70f
584f
d06e
c963
647e
c78d
82a1
caa8
268a
bc86
4d73
7a17
6c53
f116
07d6
744c
f066
7a6b
6fec
0fd4
7c1f
ef84
ea75
7791
6b6d
8837
e5b0
c507
a6d0
a44c
7857
37ef
a211
a2ee
76a8
96dc
e699
892e
3c17
d220
e516
6e2c
e1ed
63ac
dd4b
814b
6cac
5c6f
0c65
966c
251c
3f53
ebbf
d12d
5cd0
5a78
7231
9d22
b4ac
7260
086d
a4bd
5432
22d8
edd8
ceec
1034
5023
8c16
f220
4e38
b14a
9b0b
e7bb
67b0
6643
d9fa
07ac
a84f
ddf1
efb1
b038
248f
4882
48e9
721f
87a8
c07d
f83d
37b5
92d9
7a14
60cd
80fa
4d74
ad10
0540
098b
bb2a
cabb
5435
e1df
3648
5a70
a741
984d
42ee
c95f
d10a
ee73
ebd7
bf4a
5a1f
8aee
307b
7abf
a1a4
b63d
578c
4781
d04d
4352
97cd
b8af
c8d2
9632
e389
5fc6
7883
92e5
e2ed
f8e2
0995
63c5
7afc
9d2d
961b
4596
f546
e14a
5648
2a07
1f87
8835
8f9b
9814
b811
e629
fca5
6785
9d27
16b7
a5a4
fa25
370c
fa66
60ac
30a8
0b95
2414
6d9e
e157
d556
faa3
1ff9
c86c
e7e7
c13d
915c
32a1
cf93
499e
4b7d
87d2
6152
a6a5
b842
0ce7
6292
e10d
1ea0
e6c8
63b5
cc27
a421
bc1d
1656
5ed7
7e03
d3b6
e20f
67ce
76df
e107
8d2d
3257
a2c4
58a2
58ab
5b5e
8774
1599
d60a
9a87
d703
32bb
6f95
dbac
c097
24e4
07ab
58a8
5ba8
8d7b
bd9f
49c8
24c5
1f38
457d
1932
1e72
6b08
53c9
df0b
5020
3f11
8fdf
993f
c18d
b1e7
4d75
9f0a
541c
19c5
d25e
8477
a224
2360
22e4
42bd
9d14
f59b
b127
9522
aaf4
2703
b8a6
0d39
5610
b14d
890b
2828
24d0
97ee
e8a8
86f1
3b72
382a
3f4f
48bd
de40
5f03
7e16
5514
6733
1e98
09d9
b90c
ccc5
e28b
c06d
cc9f
e224
4e81
9175
dd8b
2b30
df7d
e1e5
b5f7
5cd7
9d81
54d1
322f
b89f
e17f
0dfd
8026
979b
b7df
4522
66dc
fc0d
9a43
cd87
c0ea
7390
7411
f542
66c3
564d
5afa
b82d
80ce
a881
21af
d18d
eefd
863e
c496
4369
8765
5f19
bd35
fcd3
1cc7
731e
b95e
d507
6bb1
978e
8fa3
5753
78e0
9224
4e24
d183
7e4b
43bb
a915
6f03
9f91
9660
566c
af70
a87f
c216
df7b
36a4
79d0
9ca8
98a3
9408
6652
722f
51d1
d6d2
e260
60a2
6d99
6392
eda2
a55e
a69f
53b1
5cd2
87b6
8a08
aa0c
a281
58a9
803f
1d58
1657
3e69
46d2
e370
8d76
ad65
5337
72d0
4edb
4e29
bea9
37f9
2fac
b85b
c23f
0d58
2b37
877d
255d
4928
fa51
08ec
4715
5650
217b
ee7c
e2a6
5d22
276d
2f30
adab
1675
114f
6ea2
c5d2
2df2
46e2
7433
43c8
bd1e
dddf
1138
5e64
332d
cf96
96ee
f437
707a
a314
dd16
dba2
e8ab
e6c3
0842
0de5
dc5a
17c6
a1eb
c59d
463b
4ab9
a751
dd25
cce0
1764
82cf
15de
158f
beb8
e970
e3a4
c068
4a95
6f19
ed16
13bc
6c23
f940
ec2e
fdf4
1b65
7858
1f2f
3899
5f87
d0ef
2574
de22
d631
fcd2
7d26
48d6
84ac
2a92
30df
eaef
929d
17df
6d5f
7806
c699
63af
970b
2820
d431
4368
a0e4
3ae4
b0fd
4b58
2ecb
d15f
d64d
5f30
a53e
90a9
b833
9106
7e2d
856a
a62e
3dc0
5416
8d38
80a9
1940
8114
eec4
e643
7a0d
1f4f
e2c0
e2c4
df65
c0fd
9804
3183
f5f7
1edc
b646
c628
fa85
2b14
38e9
a33d
95c6
c68d
4b72
303d
1763
1d9e
62b4
7ba2
989b
adcf
834b
bd22
faca
e293
c0f9
0bd8
6dd0
a61e
be07
c60b
59c9
704a
7864
a999
c21f
2f22
4b64
4aab
956b
a62d
e37e
cc86
5fc4
9622
dc47
ccd6
badc
6713
2e7d
952e
2cde
a097
361b
c79e
46c7
a231
f221
517e
913d
7307
dc28
7b0c
de17
4d6a
093c
4657
b145
5e7e
49af
5c65
654f
9f7c
f366
68b2
8082
90c5
1d15
481c
9c3d
9bc7
d2e9
2b20
cb06
ece5
8d98
167e
be2d
5c24
cf75
76d6
4dd3
f438
1f7a
12a4
ada0
f679
47db
dd03
8276
5314
b89e
da84
eea7
ced6
5ed4
5e34
79bb
3c45
0873
5b0b
c285
6446
43e2
5cc9
9658
d774
751a
a7e4
d991
e977
50c9
288f
6ec8
d178
5e14
7a5a
1f6e
4bcf
6eb4
9506
53ad
fd8c
adac
ad23
e259
e2cd
0d30
2314
2413
2358
87a2
e22d
6e46
46f1
4309
bc4c
d0a3
6313
5cac
43fd
af6c
7856
dc13
e3fd
9f42
6bb4
cb33
5f0d
5850
dea4
e3a8
fc35
a776
f728
8d43
7916
7652
118c
9e30
c6c0
37d3
099b
6f3e
d24f
7051
fae4
e857
62a8
8f35
ee66
12a3
d982
7a27
3b03
8a07
d7a3
f66a
9d3f
ba3b
4e2b
1cce
d0ba
589e
6c14
a022
6555
6e29
1eaf
37ba
38a2
5c3d
f5ae
2546
e119
7020
b061
ddee
93eb
093b
3d32
9f32
9240
f038
c087
c0ac
62cd
4bef
6a34
dbc4
6a05
da90
3515
f1a8
178a
5d4e
343b
3026
e958
1ef8
f15f
3f15
731a
f590
f148
9160
c579
684c
5ae6
8420
d1e8
9128
44d7
7c76
ca78
f447
48b4
8772
d80c
33a8
906d
a453
5bb7
7814
c711
f552
3ea7
e54e
a03c
4da2
531c
af1d
9e90
ba9c
4bc2
a650
a229
e10b
557f
6984
9b70
62f1
62b9
a2b2
e57c
fadc
4f89
3f0d
d3ed
991e
3c52
eff7
cf69
3acf
7232
71e0
5113
a5a5
4991
d9a0
4b75
6df5
3bf1
aacc
2340
db46
d59f
6055
939d
5183
7e33
8e54
fc22
87da
e2b3
425f
5b60
0d9e
041e
fadf
910a
6346
fd4e
924e
8de2
d21f
053b
156d
75c4
d64e
c961
b05c
0b33
32a8
dabf
3ea3
e3a2
f904
07c1
dd4d
2a58
2467
6797
ec97
91b0
be78
294a
79c2
8dbf
5bef
60f5
87e9
c5b3
859e
8520
0429
645e
5db9
4de5
8895
f50a
71e5
2690
d3a2
87d3
92fc
cf61
d4c7
ea9f
0fd8
2f9a
5739
efcd
d422
1ffb
6770
490c
846a
cf24
1507
9ee5
7af2
42c0
4659
d8a2
31dc
6ed1
eede
fc95
720d
e86f
b041
f42d
56b0
8b40
bd2e
3d11
97f1
8bd0
2b50
2ca8
a6ba
ec0a
0436
82f9
3615
687a
88b0
d120
5ec0
493e
97d3
2a6c
cda7
c55c
8620
c92e
bcb2
272e
7a1a
d0c5
3b9e
950f
c32e
e906
99ac
4668
c4ef
e7b4
1633
6e3c
7115
a1d1
d370
3c2d
ec8c
391e
f02a
f257
5f82
b411
cb1c
f79a
f12e
ded8
39d8
efd3
729c
9eb4
092d
373a
8b68
e7a8
71dc
85ef
d303
ebae
2f41
8032
645f
6484
7c6d
4f3f
c8e6
e990
d1f7
f60b
6326
ec41
83d5
6074
ad90
b3c0
b227
765c
39dd
2f75
90ec
d8ed
d4ab
f5b1
71b3
cd25
80ef
4b93
9ccc
4546
06a0
bc87
9f0f
6038
1bdf
5bd2
c615
c8d4
f750
f524
aca3
0cb1
d3d1
3324
add6
e78b
44c1
5511
6f78
a95f
f5b0
469d
dc72
8a4c
df03
e267
ef6f
6b09
cc0b
8de7
fcca
be20
3987
2207
dd41
8f7c
6de6
0da4
4d9e
1539
6cb7
c70d
5fd3
ba16
a297
25d9
a24e
9431
84e0
0d69
349e
cf56
b5ad
f034
2a62
e993
be40
c59a
43bc
f231
e014
bae7
2486
966e
5553
0c8d
bc20
8d69
f898
acc1
09be
49a3
f346
7a4e
c7d3
77e1
5289
b209
7449
2f0c
673d
877b
e2d4
e41f
352d
a3c1
ca74
326d
b2c7
971b
bbba
3e93
ee46
7748
5c6d
b0b6
6656
06d7
fc0b
eaca
1fed
b453
2819
589a
7217
19c9
b13d
072a
e04f
0fec
2c6d
2e4e
6115
1e9b
b9e1
82f2
3028
d257
f2c8
cfa5
981f
a7c6
f8ed
21b4
61f3
1607
a54d
59c0
730d
aaa1
a2c1
9293
1cc8
3f57
77c0
cc1e
8e5f
46f4
3340
eb23
1d75
cf27
1c58
bded
ab50
f88b
f556
ee72
a6a7
9aa1
c869
bb56
d8e0
e108
2973
a91b
774a
7729
6ce3
44dd
f63d
dafd
28a3
c045
cd55
d07c
0556
aec0
ee8d
8741
f78b
dd87
92c7
2fa2
c9e7
213a
11da
9166
35aa
a698
73b8
9c2a
4d4f
5ac8
8e7f
6ffb
621e
3e42
a379
6fb0
607e
788d
e797
f53a
7143
a189
5cad
fa23
6d42
cb1d
f52f
6551
1eec
f92e
3271
166b
f6e2
6d3b
761c
8b5a
d52e
2ca1
a6a8
5373
8c2b
725e
6051
63ea
84e7
c1a1
554a
a3ad
dc85
af6a
38c7
6b53
8714
c22a
ce61
c5ea
49ab
59b0
984c
2290
a92a
e3f5
c973
f2f5
92cd
f45e
fbad
6eba
4e51
d1ac
0c26
264d
3af3
80b8
2a67
1672
0c25
494b
6dd6
6b6f
5f68
1e5f
91e3
e53b
b90a
fca4
cb4e
62f2
cdb7
96ed
9db0
944f
b95f
df3b
517a
a151
a8de
ca47
6f4d
616a
d166
067c
2ad1
2ada
046f
d087
a369
7eb1
e7f1
60bf
b856
bc52
c471
be69
7d45
f822
9e1e
2293
50fd
37b0
7b1a
e175
d6cb
c9f1
8326
9773
2445
375e
5aaf
64ab
4375
5a0f
ed07
f84d
a409
5235
2330
f39b
39fd
994f
3cd0
b825
0c6d
cdbe
3b1f
e724
b1c1
bed0
f60c
392c
3873
9f31
4313
9ba7
bb5b
4e34
c57f
e9a6
1744
08f7
d2c3
48e3
8313
2eda
f1a4
3e55
5943
8c70
d276
3871
63e5
2437
32ee
6711
61cb
9ea0
550b
6678
8879
a3df
7a48
67ed
61ef
93a2
6c27
a91e
1bfd
dd8e
0f4d
cfdc
24e1
276c
52c0
f3f8
d731
e8d5
da97
b482
1f56
2f5b
6e70
734a
8743
60ab
f761
1359
48d8
53cf
bfb0
a159
969e
d32c
2a2f
fd0c
0ba2
6f16
713e
ea95
f55c
f322
1b03
4d90
adc9
c1c6
2c7e
d39c
9e6d
c928
d491
1039
649d
6a30
c9b8
b3aa
9c0b
3aae
52f6
9fe1
f0a7
1b33
e139
918a
fc03
a728
0857
1d1f
168f
eeb3
963e
53ac
5c48
98f3
c0a5
7027
bfc6
1eed
85b3
38b9
7364
aa5a
065c
a416
25fc
090b
5c3e
432f
3723
4365
cde5
2807
6cc4
7b54
a50a
7964
5613
c51d
e287
42fa
38be
3498
cd3b
e67c
4921
b384
178b
5706
afdb
604f
3c1d
63cb
b354
29b1
b63a
e9d7
8c08
db48
dbc1
a8dc
2852
e084
3479
ad3d
2638
b65f
f614
19c7
f1f1
171c
786f
efa5
2752
4bb7
51c8
3692
6c42
6855
1766
84ee
2932
7d14
d185
3e9a
9e5c
aa1c
ba65
716a
3e54
7bd6
d77e
5896
e23d
8d9e
36a7
f9f7
2a44
38ea
433b
bb9d
61ea
6e75
4b8f
94f7
0d35
441f
c07f
cb2d
bd0a
60fb
0871
b6ea
931c
d89e
db32
e509
a598
f674
6627
33a2
8cf7
3f1c
1153
3ee8
663a
09df
23a2
5dfa
0730
4dc6
7682
f5e8
e34e
7afd
13e9
54e2
949c
fc15
81ad
72e3
8d30
45d6
658a
5192
e1a6
9ebb
334f
eb41
48fa
5362
cdc4
ac47
662a
daba
5dda
bd20
a24f
3f14
91d3
99a6
185d
4a9b
2acb
cb28
1d36
c3ed
d96f
8dbd
f158
3e98
a1db
9e32
6d29
6030
7337
d216
f5d4
5125
3641
5cf8
3373
08ac
7740
1392
380d
45cf
117a
b595
6cb5
83a1
6731
8e07
5906
f0ad
5444
a7cd
c10a
ce2e
7e05
264a
1761
fced
34e0
4713
311f
f1d1
ce2f
0cb0
6349
637a
22f3
044d
2d40
bfd3
a4b3
4342
0bb7
adca
15c2
deb0
3979
f40f
875f
faf5
a084
38e2
f51d
6117
97ac
c4cd
441d
87b8
b65e
fdca
f106
79b0
694b
33da
0b83
7a2b
80fb
0fb2
6bc5
a4a2
11df
f1b7
ae34
a9a2
bcde
7b4f
278b
05aa
4544
312f
eec0
7e6a
8ead
562e
bcd0
ba2d
d3ee
7297
3ab0
a7c0
c732
4906
8391
fa49
3f7d
39e4
e2a0
f5a9
f5f9
79a0
e9ac
f0e1
a768
d86d
b2ce
34a3
6dc5
735f
d897
9185
56c0
6dac
cd8f
8286
6011
776e
f85c
b8ec
b173
d8d5
483d
8416
d841
871c
e8ed
d152
759e
4721
5dd1
dd0c
2a3b
21dc
e2f9
972e
e868
fbcb
ed87
820b
4d3f
f7cc
452f
d322
fc2a
3b20
602d
5d9e
731f
5115
a1a1
26f9
da82
2d73
4f2e
5028
7413
2507
55b8
0638
f961
cc9e
20ef
1c5a
07ce
065d
861d
cb3e
fd1f
b6cd
68b3
a4be
5f3c
b8a4
c397
de29
39d0
cb03
0881
b1de
13f1
ec91
365f
8a3d
dd72
818a
be28
b542
95fb
269a
9c4f
df2e
f8f7
a263
c31f
8529
fda1
0f30
507d
bd78
ebcc
05f9
6e82
7eb3
bc46
5b28
c2b3
7a3f
a11b
36d5
6ca7
dc94
816d
5c46
2adb
3b48
fa17
904f
8458
a255
0471
2f11
5dce
741e
9770
a80c
63aa
0b71
0b82
3425
7a13
66a1
628d
195e
6517
cfd8
f444
d63d
5a81
a8f8
9a7f
34c9
bfa5
44a8
7509
b857
a853
fb64
7dd2
6e06
a1bb
66c6
692b
ba46
e7c1
c13c
eeed
e28c
7896
b46a
3bb7
8314
9eed
bed2
6ca2
3a8e
6782
b707
e35a
1642
b0e1
48e4
7622
1677
0b0b
5a7a
274b
dd04
b8fb
0ac2
1954
aaaa
8125
e908
e90f
627e
9849
45c9
c5b6
c7e1
ad8b
606f
2dc8
2877
f89b
3ada
0f5e
3416
9aa0
6e0c
ee2f
c50d
c025
e4eb
9db7
c535
29b7
ebb5
9f71
32c4
651e
fdcc
1eab
73c1
5ad7
446a
e7c6
2171
9ec1
4a2b
b787
a2f7
2edd
463d
6b24
3a1d
2e1b
80b6
565e
8b95
f5a7
fa07
548a
2bb0
ad5c
d81c
a34e
ec09
729d
3de6
63c7
215e
7136
c013
4fed
d41f
f160
4672
ba60
5c94
6881
99e7
e95e
1527
6ec3
e10c
d641
b3d7
cd0f
3299
e1ee
75ac
b48f
3867
a0d0
90a4
673b
45c7
734f
2a28
22f8
e20a
c287
1d60
172f
63cd
219f
befc
094f
c32a
a8ae
d053
30b1
f253
eb6e
50f1
0b35
2f51
292a
662e
fdf6
7034
e3fb
9dac
c851
90d1
0b9c
2730
52e0
630f
72f1
724e
e707
0fd5
d91f
7a1c
691a
2d97
499f
65a3
5132
ae0c
ee57
494a
5dd5
68f3
471c
2684
a323
edac
bc5a
2fdd
9514
99e3
eeb7
d64a
3992
bda2
ef9b
914d
68ae
7f0f
e0f9
8f32
152d
ae07
1b22
9b7a
c76e
42e5
812d
a4ef
5411
764d
25ed
c108
c12a
9142
a541
5677
5b0a
7a49
c8d7
a4d5
5b95
eb5b
6e48
df7e
2f0b
2a11
1b13
7b5c
9da2
bf7d
ef5e
63f5
fcac
ed31
2f2e
3f0f
e058
0f38
3b39
6dc9
5945
441c
5c9d
c220
214f
e90b
4a5f
b0cf
e66c
80f4
e2ab
650b
b40b
4656
cea9
17d5
952d
e242
b24e
e08d
bc57
ec16
f8cb
f9f9
5af4
da21
d8fa
d0ec
603b
3adf
67cc
c33f
315b
1975
c6c1
0709
cc3d
d14a
c178
2a7d
6df6
fb2b
eb66
3ba0
731d
8181
9e07
bc0c
0f6d
da54
fce3
bdaa
61f1
65c5
3abc
8bae
9f41
2824
5cc8
d87f
f629
b3ac
7dd7
2460
a259
24b0
1f14
3c92
4611
7b11
be45
93de
3cd2
83b5
d915
3967
7952
eb37
3585
8599
72a9
ad0f
3858
e66a
c462
6c1f
92e2
9d58
f219
71df
232f
ad31
9dfc
4453
f5f5
9eb7
6f2d
ef4f
6b63
cff0
7bb0
c333
3e23
c570
d6c0
8847
5ffd
425d
7764
7b6f
861e
bbe4
5c77
046b
cff3
6ff8
379e
4f7f
7251
50d0
3f3f
c82f
35b5
eafb
dceb
4881
6695
f8d9
222d
6854
3a9e
6499
7359
4e2c
8632
79df
1b0f
f775
425b
9ff3
36e5
9dbb
0c39
5fd4
d282
5579
8e4d
5cb7
f271
e364
95ac
8c21
ef81
a029
65bb
0c79
5c45
22f5
5d0b
c209
2a14
f259
4b5a
8157
3e0f
b6d7
6c07
3385
d7b1
0bcc
2b39
bbeb
3afa
d748
a042
f6ed
4f54
7b3d
ef58
f1dc
c1ef
8564
9b29
64fc
9060
90c8
2141
3541
859d
c720
fa95
1de7
2faf
7fcd
e8b2
f2e2
e2f2
b8f6
30ed
a0f1
b353
16e4
8108
d11f
6ab6
62fb
6857
90e0
0fbf
a758
b8b7
cef9
4af4
9bb3
a46c
06aa
6385
7b49
9771
9d8c
3074
21cd
6c36
b728
8a52
826d
6f3a
7a7d
e2a5
724b
b42e
9b69
f210
4ebe
d1e7
b10f
7731
1d3b
57df
19f8
6e31
e6d8
f3fb
ec9e
fcfd
974e
72c0
2d34
babf
0587
192c
b52e
96f4
5c8e
a845
8a85
1d2c
df27
b084
3366
383f
5397
8214
8aa4
9ef2
a6f3
5a2b
5b27
7a0a
3bdc
a24b
a419
9e94
4628
69f5
2bfa
53e7
5482
f41d
88fa
8c28
5bb6
b725
2229
3a5a
8487
77eb
d898
d7b4
8e56
06f6
46ba
d6e1
edf1
585c
523c
0bd4
9954
bf7f
c2a2
eeba
85ab
06f2
9374
0f44
df25
a0b0
e262
d75e
1e7e
e609
83d3
7a97
5b6a
d25c
21a5
f583
d13b
e585
1d4d
8f40
16f5
9e52
a5c7
cb31
cd23
60b9
5dc8
6654
af16
a071
fc1d
3d24
a052
389e
3d13
c50f
6bbc
f92a
9c5f
af59
ebdf
3ec3
9593
6b49
27bb
e960
d2b4
95fa
82f8
64f5
ef0c
8830
159f
6ee1
56f9
5cdc
d8b1
9453
2a38
3316
6e9f
eed5
ce03
c599
7c51
bb79
f89e
1979
5e58
86bb
7b4c
7b42
b72b
1f06
6a64
e2d8
1695
b94f
504b
dc58
661f
a890
eee1
667e
99bb
cf4a
373e
59ef
63c4
b31c
d75a
5173
a5c5
5822
e825
5141
3e8a
0b75
9ba5
a0d9
c8a2
d114
9504
db85
4bdd
ba40
6c5e
36e2
1fb0
64dd
5b83
a0e6
4db9
c7c5
c5e9
b529
a32f
f3ad
5bdc
82fd
b2c8
98d0
e543
d791
32d4
922a
bd38
c42a
a08a
6176
bc8d
ec7d
44bc
6dba
65ac
7e23
3ca3
aba3
7849
f479
15f1
ce07
b5e7
2922
26f1
56c2
9989
a442
0885
0553
891b
9a9d
8065
3990
833f
e81d
46a2
24e8
74bb
6be0
9885
a009
c83d
e950
313d
51eb
d11b
5cdf
bb2b
62d6
e728
df04
361e
4d1a
b133
de0b
e6d3
2651
ee17
e095
f4c0
280d
5b5c
1686
e15b
ce32
860d
703b
6f77
7e5b
f64e
6c2d
b90b
309c
ea64
443b
683e
8f77
933d
c16a
8540
b20b
e4c7
509c
792a
f8bc
1f65
8489
51ce
5c29
ad8d
58fc
f79e
058a
61e6
de7b
c571
6641
c694
6c87
c843
2a93
bfee
088b
6997
9d5a
ab3e
45bb
2744
3360
53cd
751c
74a8
2eb9
e86d
ddec
5ab8
b440
45dc
197b
850d
6a2f
9c51
9dc7
715b
b158
9eae
9628
a3b1
b9ad
b09d
cf5e
15c3
8622
aa73
f01f
4acd
4fea
943c
a757
d7ea
aeac
8e75
ea2d
48b9
327d
755c
c5ad
2328
fb2c
1051
daec
68ee
a311
cf5f
be4a
36c9
2628
53af
a3d2
b344
f7dd
c271
4911
54b8
4b1c
7895
ed34
c30c
b422
1664
1777
c795
0bdf
adc6
2928
c6d0
5a0c
fbf5
920b
b08a
dce4
9365
d883
459a
4ede
7f28
8fac
5914
2366
4de8
f41b
c1a4
cee2
852c
5cd1
6068
64ba
0940
4a81
074a
4355
a2a2
e9e8
92fd
bfcf
717d
9e0c
a9fb
a9b8
3991
6d6a
4d16
8813
c892
2140
6698
c6a0
69fa
5bfc
382d
48e2
e225
1e36
5c2f
c849
4b6f
2a3c
4537
1c8a
d27c
bd6d
0b34
600b
45fa
550d
a876
7ada
68f6
420a
4271
f4eb
c2cd
2295
87ee
16bb
ab4c
27f2
f0df
ddba
23cf
855c
49dc
b987
1f40
7acc
7e19
1293
347f
c8b7
d41c
f690
e60b
3b07
4748
742c
94d9
b014
0765
1354
6999
64a4
79ef
bdcf
f8c7
e122
9116
56a5
f9fd
6a11
4f65
13ea
a87a
2e8e
d1da
e9a2
9b45
ea0c
f252
2716
be35
b592
1c83
137f
5ab6
e861
3c68
0fa5
4f9f
d358
f886
1111
be72
4df6
3c5f
0717
ada8
954c
9674
43c9
4be1
2d48
242d
9f82
bc9b
79ae
9725
d1e3
294e
7dd9
4827
787b
76c8
25ef
4676
8af7
adea
3f1f
4d34
d167
a64d
7c2e
ddf4
089c
19df
353e
8584
8ea7
5a4d
6d82
b771
bd03
5a14
dd6a
2d3e
3f59
a993
de6e
69f9
db89
62f6
9d45
f258
7992
8ab2
7114
39f4
43c3
571a
f315
ae81
4606
6b96
9d08
92f3
78ed
bb32
e282
16d6
1e89
9153
090f
38f1
eac7
50ae
a852
1795
cf2f
5b72
b776
1f23
745e
dea2
2d22
78fd
85ce
c85c
0d6e
342f
5216
b61b
9525
fabc
305d
8bdf
810c
2672
6345
2a7e
1b23
2d0f
b02c
921b
71a3
519c
de8f
ec45
745c
8259
cae8
df1d
fc1c
f5b2
c145
910c
d9c3
7ba6
4b0a
d4d6
3795
55a4
d5a7
29a9
486c
2bef
599d
62ef
450c
61bb
0cbb
5941
e2fd
67b1
5dae
38f3
0bd0
5d1d
6959
6d5d
c956
f7df
21a1
91f5
17f2
a1b1
cc8c
17a3
0f09
f2be
902e
c0ad
b916
fd6d
a863
ddbe
c11c
7ef5
5f2b
7bc4
6179
75db
b171
5dc2
721e
9eb5
6b77
6bdd
223c
c034
aa93
63ed
6a53
1b58
5c98
a8e9
dbc5
f903
4785
e703
ef0d
ad6e
e7e8
c10f
b9d6
22bf
883d
2eac
4ef8
8578
af28
ef8e
d3c4
d03e
1fa7
49e6
873c
ae32
6672
694a
7b73
6d24
d062
75ea
914a
6ab1
da08
c8ac
c90b
4bf7
da4d
38d7
0459
7719
be4e
1c7b
f92c
dc4e
0b03
32f2
a06d
629f
936d
ad92
763c
2e8c
85dc
f6f4
a6c5
9945
1ba5
fbd1
8f76
dc67
9ec4
55a6
5e5c
ca7d
ea59
cde0
4ba0
efb7
61db
f187
0fc9
9d4d
0bea
b8aa
f53e
be85
d9d6
8791
6293
15d6
66ac
56fa
4a74
c74d
ab0f
7a5c
e366
2fb8
6bf5
9b4d
e846
6ff3
9290
1355
881d
baa2
81dc
9c41
4f90
4d77
5774
ad5a
45ab
da8d
90ad
6993
b7d2
cb52
d172
0996
e6c6
a017
0456
0968
0fc5
b874
ae27
4a73
e04b
5659
689c
7c3c
739d
fd9c
1ef5
1f45
b2b6
5eab
638d
1bac
c70b
6e11
43e0
4f77
b006
f5d5
6ee8
4b96
bb42
abd5
c077
f889
617a
630d
c9b9
7b07
078d
4b26
3f41
5058
4f56
ba33
f164
b5fc
4673
f2df
057a
95cf
609e
21e2
354d
5cf4
32dc
2f4e
27d0
f8b0
d17a
874c
ab87
2727
80eb
f494
1953
3b53
f95f
2a0d
a271
f762
1f77
665c
d353
e83e
1e33
8124
d1fb
5632
1c81
7cae
db7e
0ffc
1d56
4f14
4359
3783
7829
d820
a01d
4b9a
7d3f
8659
a514
cadf
8190
de8a
46d6
a640
3a8b
4b2f
90c6
bd9e
c2b0
e903
7703
62fa
54dc
a4d6
389b
9c38
973a
2578
b9d4
08bc
2d2e
b4e1
642c
c8c1
0957
052a
3ef6
b7a5
7245
9245
e00f
2edf
7598
5a7c
52b1
edba
5b11
6b1c
98c7
65e6
0647
f90b
eab5
bdf6
bfda
fd67
6c1c
3173
3e2d
a19e
5ee7
a592
6c29
7c70
1fb7
1f9e
6f3b
de84
e5e2
5ca5
382b
3fdb
923e
787d
a994
b934
31a1
65ee
75d2
314f
315f
c173
3523
353a
8e47
dff9
7a39
f5d7
2eaf
f107
3877
435c
627a
7b5e
7b33
84a5
847f
9477
c8e3
e7ef
813d
c1a9
6cb8
057b
7645
1972
26df
390c
b7ac
7917
786c
bf13
dd3c
f592
9a4c
5c56
0c3b
6953
fd93
31df
eeb1
eed9
6c78
de11
5ac7
f6ee
3fcf
b83f
b899
85d6
46a1
6c91
3c87
4717
631d
935b
4ee5
898a
578a
6031
a2a7
2190
3976
744d
7990
61c4
d722
3367
3293
b420
15c4
f534
658e
5bd3
a4a7
ef3f
e182
36df
3a2a
a2fc
38d6
38fb
7767
d02b
22ee
8b32
8071
9d90
c83c
f216
15a6
51ad
6677
9fac
80b2
0536
4edc
53f4
9dfb
2c57
c617
21d1
4584
9563
df44
2ac4
cb50
16b3
e18f
813c
0d41
5709
add9
6ff4
3f97
5b32
92af
921f
ae0f
7e65
dc0c
db22
2b26
a291
ad53
bf24
d3c0
d659
f440
fb30
156a
d15c
3ebe
0c7d
63ba
b0c3
e77d
1129
d17b
aeb2
4a7e
84f6
4a9d
cff5
9237
1e6f
5ecd
86dc
d30b
2afa
5f31
385d
aa65
48cb
8dc2
db94
a125
7e32
26b0
5935
22b1
eb21
f78a
26ef
07c6
bd1d
cfc0
da3f
2ecc
9676
c9c0
948b
65e2
968f
b3b4
e2c1
e8a1
0ff1
f3b4
082d
ada1
e70b
7010
1d7b
b884
7a46
978b
6758
82bb
737c
5fd6
2a63
e26b
9a5e
d259
8c52
d4ed
6da0
757c
b3f4
88bb
e21c
25eb
16df
a130
4376
e0de
0ce6
8c98
a958
af32
b897
db34
eaa2
eb15
d5d7
dba9
2267
9a97
b79f
11cc
b1a0
912b
b944
cca6
3b4a
72b7
9b9e
614a
5122
3eb6
da28
a7fc
606d
0fcc
135a
5817
110f
6b40
b8a5
343f
cffb
53e4
5865
f450
2fad
3806
eb5f
1e37
3ebb
9e73
c305
054f
7579
4a8c
a787
984f
0cef
c520
2349
2d49
e7d7
9441
efe9
60d6
8d60
5d92
81f6
3e74
eefb
d555
5f45
8e13
a81c
efbd
31fd
ce9a
a56d
6693
3a90
4de3
b4e9
4899
4f58
ae29
6019
f49e
e790
2e9c
51be
e2f4
d4b1
cac0
8969
7b13
fa3e
66b4
1c31
4981
c927
83cc
224d
9b6f
0cc9
2e8a
6557
3e99
7305
3c31
2bda
6f47
8443
1bcf
6994
3140
316d
a74e
9027
9046
f1b0
6942
a913
0f8e
4d3b
e79b
f567
2e3c
e678
2320
da15
d736
712e
51b5
c674
3376
cd0a
c784
3142
cad9
9054
7da2
660f
6044
9295
1d72
2b36
570f
f423
8915
9d9f
b152
aa20
5ce5
2457
6e93
5107
fd79
c7bb
4709
d70a
e40c
c065
966d
1f7b
d777
cef6
bd04
84fb
d4c4
9252
d432
55ef
4f09
e0c4
5332
5eea
a6b7
b970
ad2b
d28d
9e1c
6e1a
7432
781e
f21d
c1fb
7977
e9c7
68ac
376b
d964
7aaa
98ea
fbd4
e171
a9c0
62f3
a451
6052
ca58
bc6e
e8aa
fd5e
f397
21da
3a06
edf9
7477
4f62
a830
e654
554b
a604
a6b2
5f0a
e96e
1d9b
38a8
479f
5756
e8c4
ef78
f713
bec0
968c
0bae
5a29
e4f1
f0fc
0b5e
58b2
7951
b40f
704f
78e9
a5ea
72b3
6891
9d44
b2cf
495f
b35b
fda2
159b
1eeb
0f28
e44e
cd62
588f
aea5
f6fc
a4f3
90a2
95dc
6972
9cb3
0b0a
5459
edbc
273d
5b56
5577
dbb6
8296
e8f3
303f
80bd
ca9a
c435
21bf
5ec1
ba0b
6eb2
9630
560f
a2b6
f2f7
c762
fa91
0f3b
5758
a516
ebee
e18b
ae28
7df5
2f2f
6390
f9ef
b157
55f3
7ec3
b50b
36ad
d638
39d2
dc49
8782
f279
3852
9cc0
f428
5c28
1343
e3f8
1b87
ba4d
572e
5271
b2cc
2e3a
611f
7e69
a70c
b8a7
e2a4
f5bc
3e77
a68c
c64f
3a26
7885
61d3
7eb9
cc06
840f
e0cd
895c
8dc0
6127
614f
1ec3
c5fa
7fb5
f82d
1d63
54e3
9cec
e467
d658
7ca6
60d4
e067
d020
f4c1
1515
fd1e
f416
76c7
d5c1
c30a
1ca2
f044
fbfb
f8b1
c0b8
1d98
db35
c1af
a13d
639e
8972
42f7
e44d
9226
e656
fbaf
5544
fd73
fa2c
9a79
fbdc
d457
6a3a
4eea
e58a
0bf2
f8b9
c5a2
f33e
fcb8
f8b6
3c6e
b17a
3c4f
3b70
caf7
4f0d
20ec
3352
618b
3e62
792d
fc23
1b2f
a207
672f
a77e
d2f1
d242
a24c
dffd
d0da
c88c
efdd
8143
2943
ddb2
93ca
615e
49aa
7491
6fb6
4aca
cd33
61a1
4e5a
e17e
d1a8
915e
5551
a5e1
5a7d
e725
325a
51a7
c59b
224f
4e1f
80b3
5db2
8adf
a1c7
5e4d
fa7f
abf3
087d
233f
82ad
cdd8
ddd2
ea3b
b14c
66bf
a3aa
7a7a
8fe3
1d7d
f352
f61f
9e4c
d5b9
4624
53a0
43dd
6a58
1792
e21d
0533
4446
24d9
1920
aeef
1289
ca2f
82f7
e761
3997
52ab
e7cf
f5e0
d113
6ad1
d9ad
0849
dc5f
3ffb
3868
9663
1f24
6f11
ad5f
fbab
f576
5584
a528
47da
af0c
a061
5464
5f3b
454f
7ed5
29a5
627c
94e1
395f
a1d0
99df
fa44
5df5
d241
5a38
2e9d
a62f
9d42
301b
80bc
7ae3
f46e
4817
d645
f06f
7ae9
8a6e
2433
1d7a
7d5c
aa32
cf74
11d2
c60c
8b0c
c2d3
2916
b369
6613
c937
dd19
e62c
2ca2
ea4a
9b63
fce8
0652
273e
78b0
7790
b8c6
f714
3ea1
6a4e
130f
c90a
ca27
591b
7919
3deb
7aa7
150b
f6d9
4929
3c7c
a8d7
efad
2dc4
689b
d35b
76fa
61fd
3ecc
f632
22d4
9999
c8c4
76aa
31ca
be4d
56f8
3d5b
7734
fa30
9ef4
66f1
c6b3
6bfc
f3a8
a91f
dba5
b749
2422
cdc3
257a
1c35
23d5
97a9
e771
5876
9911
a73c
3ee1
85a1
2d2d
2f7c
b8fc
f86b
e315
1183
6e2b
c19e
ee30
3b0c
4a9a
6a6e
2ffc
7a52
e06b
2b53
2390
5b33
639c
8213
c14c
deb9
0634
53b9
f776
2f6f
d440
f71f
e607
f9a0
9af7
aab3
37c1
5779
72d6
b8be
3654
16fc
3eca
912e
4f48
2d92
2fc8
7813
b358
35ab
39ca
c74f
7d0f
0f3c
1790
7f1e
e715
f59f
a1be
7e0a
2971
d396
a0b2
92ce
c93a
e562
06bc
2a54
529e
cd19
c5d9
d927
5259
1ce0
8a5e
7d35
9b59
c7e3
056b
1cb2
59a0
07f6
0fde
076d
0fd2
527a
16b2
ce84
e5c7
be48
4345
e97e
4aac
db44
bbfb
cf04
f431
944c
f0dd
8f92
852d
96fd
d3bd
1b24
da2e
f2f3
701b
a051
2f38
eef1
5e63
e639
5a27
5a1d
90ee
7c6c
f61b
f8c5
f152
3ef1
bcbb
8c8a
fcae
4d85
e2d6
2d89
4d7f
ef3e
19a3
51f5
85fb
8628
646a
2d35
87c2
cab0
e525
0641
63ad
ccf9
0781
a286
48db
be11
3aa0
52e3
5eb9
cd63
d25b
423c
3b3b
751e
b71e
b1cf
7eae
b596
3607
49cf
ccf4
7c71
920a
e896
e0dc
3053
3217
bf51
553c
bc6a
2dca
22dd
4757
68ab
99e9
91b3
d5b3
791a
24c8
846f
241b
6885
b34d
2496
ce1d
b09a
6025
1b19
87ca
e3cd
f7ef
510f
be9e
faf8
7a81
adf6
a247
c4c4
95b4
1728
8af8
5aed
e4b2
243b
17ec
8fd8
d214
65e7
5116
d122
86cd
4925
f3c5
9c7c
42a9
fa96
1c11
c1db
e5a4
0c0f
e6f6
a941
ece9
8337
f75e
292d
792e
9ade
24d5
fde3
7c37
6f69
b05a
0fa6
5394
72ee
dbc8
e4ab
4d23
770d
c554
0cc6
b632
a9af
ef22
1715
5046
fa5a
22e6
6e57
dee0
890a
2a4b
7283
68ef
9bb0
11f2
eeaa
acc6
360b
b99e
2281
4ffa
648c
c267
2c98
3aa2
a8ce
b9df
dc4f
fc70
2f8c
5a6f
0460
ba98
2f15
622d
d930
ee64
854d
ba71
d7d1
2f8b
726c
90b2
179a
e89b
e2e0
b1ee
cee6
be91
aa8b
6969
8a10
50bb
cae0
82c5
1e63
d160
35f7
a978
bb77
b7b6
f831
325d
33e5
74ed
48d4
5009
2ef6
0c8e
3c20
22d9
87f8
c0c9
6807
35c5
e551
5370
0f03
928c
f40a
bc58
9bdf
a65e
05ac
ce89
e3f2
da47
a7de
bf20
c868
9799
7971
5cb5
9b0a
804a
2454
19eb
7071
8211
a18c
85d1
137b
dfb5
7ac8
a0d4
7290
7d7a
f354
ce5b
9114
7d0b
16e0
c64a
53c5
d9c4
1721
68fc
9491
bf6a
4ecc
56d6
5ca6
69ab
8796
cbd7
b248
efdc
321f
d71c
eed2
f374
ec43
24ca
4ba4
cfdf
2e7c
3e86
bee6
8bf3
1d51
80b7
796a
9d64
12ed
4753
05b6
652d
a14c
e5de
2f4a
e491
6b6b
1360
7de6
053c
d904
9cf1
8ba1
2fdb
a099
4b57
db11
0abd
1ed3
ee8e
de30
7bb6
877c
8d72
8d5f
65f8
dca5
9b2c
8043
9465
5811
1594
e5ed
f687
1bd1
6f42
7e9e
ad08
5c57
3457
0952
43c7
4daf
7520
3328
4a8e
af2e
da9e
b020
786e
6fe1
d76d
5233
cfab
3dcf
b00b
61dd
51fc
1e9d
e620
74a2
2536
4e3c
1e8f
d5a2
4722
8431
7915
4aed
d0dd
3d69
d4b6
2653
ad94
655b
d1a9
367c
9942
8b25
5cec
52cf
30ad
adc4
a987
690a
9c31
9ce1
d72a
dc6c
426f
f4ed
83e0
3de7
f65a
d3df
0f0b
7441
64ac
f429
366f
d36f
0dc3
639d
7428
8a34
c31e
4eb7
3678
a565
234f
e329
4b31
8db3
ea67
5dc4
62d8
fc61
1b06
adae
aa9c
2817
7b39
87e2
cb1f
19f5
3599
8585
6a46
f943
3b4e
793b
771c
9ba8
51b9
3e91
a164
8e2b
e986
e9f9
6879
501b
ba62
5b14
8563
82f1
48a9
d0df
903a
29e7
e830
7eb4
43d0
5909
e974
0d0b
f25c
2813
c1ed
c5e1
3c2a
58f7
ace2
0430
5fbd
8c38
b513
b562
9b2a
ad24
8db4
1f19
e8e5
fa3a
6568
be0f
39fb
6787
f24e
f27e
604d
a028
84b7
dfa4
67c8
77d8
8832
d1fd
a108
7b17
c737
d755
d4a8
fd39
c16e
aef7
de51
d5cf
5629
a3b5
1369
cfa8
9317
6193
568b
dc27
87fb
672e
92f6
6611
879a
e2e4
c741
8e15
afe9
42cb
abcf
fd2a
0d3b
2b3c
4626
5bf5
b74a
b04e
dc3b
9ead
460b
39b0
9b3b
9b5e
5156
8123
5eb0
7b75
f7d3
b879
509b
27c0
97e0
c4a8
754a
91d4
1b28
07d5
7d4c
5064
faed
7bec
1907
f673
d6a2
6bac
9ffb
daef
3819
49e7
4ddd
69eb
8aa8
800f
a511
c339
50e8
6032
946e
f435
1397
6754
8dc9
d1d1
eef9
95fc
a6b6
8cc5
fbae
420b
97d8
cf1b
2eef
168d
c8f8
20da
cff2
d234
0bbf
3072
5aa8
7e3b
e60a
c6b7
893e
fb7c
9446
d048
d3e5
3282
61cd
d176
91c4
a823
2b79
5f7c
fce5
dd15
d390
f3c7
fbdf
1641
96ba
73df
5bdb
bdf2
608e
90ab
c29f
3226
8f14
bdad
81cf
a1a5
a52a
c9dc
1f91
bf4f
9f2d
7760
2a39
5877
15db
5134
e579
beb2
2d75
c24e
e035
9aa8
a2ef
6606
8320
dbf8
5048
f468
693f
bfbb
4ef5
f1fc
a141
daa5
c841
483c
8474
efa0
22b7
21d4
7e49
7f61
c0f6
0615
47e7
b8eb
51ee
2907
c977
8d48
7d07
e40b
6257
fb34
05a3
b59a
b3a9
8789
b5df
6976
5a6e
0c15
8c1c
ef3a
09b2
7af3
4dd5
c06e
aa1d
c09b
62cb
63e9
a269
fc64
4fb0
b51c
f8bd
21f6
7638
71e7
9150
e273
d08b
3c58
9a6c
ec58
38b8
38b7
7a35
4e6d
f63f
33f4
8d4d
f2f1
6a93
2806
c154
95d7
5a4e
9af1
5829
60d5
6d92
234d
1bb1
874a
872c
c861
24f7
6a90
0b15
7778
871d
657a
71ba
3e92
9562
298d
66e1
b9fa
9aa3
daf1
791b
8ce3
1519
521c
533b
6811
b830
eedb
e5b5
c34f
a9a5
3de1
928e
4f85
30e2
8aec
4237
e330
a170
3a8c
fd41
c0b4
30fd
531b
7f55
c889
501c
3a3b
7993
cd30
e9ed
1ca7
b940
b4f2
e650
d156
c6af
102d
6fae
f526
61cc
eef3
b1aa
5e7b
0826
105d
545e
1c37
2213
471e
59e3
cf3e
c175
8da1
d2b0
e178
1334
6d1e
68d8
900b
4e96
09cd
638b
ec44
9a25
98f4
bdee
64a3
dd50
fdcf
16c1
9109
8e0f
6ad5
c679
db72
5af7
8a81
a748
e4bf
0f54
b511
1eca
75b0
88d6
ca20
eda1
5d7e
c059
f0ca
8a98
7b60
133b
7165
5565
ea09
3791
24c3
e75e
368e
ccf5
9afb
d2de
0fb1
1b62
e0ec
5937
3e07
b6ca
5b79
d2f3
58fa
fa9d
d8a8
5130
e552
56d0
fcf2
d2d1
8a1e
e235
a2c7
5f1b
98cb
9b19
f41c
2a76
5d09
644d
704d
13e5
52c8
dbd9
3b2a
ba25
aab1
570b
6858
a237
afd2
7664
9e7a
9641
53c3
2af1
9cf2
a707
5fd1
42a2
5619
818d
f6a0
56ac
6c6a
549b
525c
b224
452e
e5e0
c556
8685
39ae
13d2
2821
3a9f
fcea
6298
6d16
c8ba
1e39
867c
43f1
3dd6
3bf6
7d2d
f840
466d
33ef
1fa0
4baf
b216
ef93
ef39
b3c3
3c5d
6d9d
a8d4
29fd
64f7
8f4e
5acb
bfef
7bef
8311
51e8
81bb
f9b4
5a64
ba99
22cf
a219
a825
e4db
4450
4484
631e
cb37
f5f4
35a8
e5fd
c7f1
aaa5
afac
e852
b520
79fc
b2db
399d
6e26
5607
490a
23bb
6427
e0a8
8232
4bc9
a7cf
2164
7973
9929
dad5
57b0
6b1a
3d2a
af81
fde5
ed6b
1778
5834
a410
815c
26f8
69a3
bddb
34df
571e
87d8
cad0
61de
0c99
23a7
8982
fd96
0df2
32a3
b491
50e1
0cac
e378
bc6d
0711
3cc0
84df
98ef
f732
637b
9f63
ec92
e7ad
196f
1b68
381f
1e9c
6c48
62fc
72bc
9820
30ef
7811
d272
f19b
ce4b
55e0
f9a5
ecde
c7d9
57dd
3855
a0f3
2890
4b94
87c5
3153
8115
be68
06d2
39ed
4fcd
a316
c51e
eb16
eda4
f077
1eb9
a13b
5587
e58f
a507
d675
99f4
3c46
b92d
470b
842c
9c6a
3bb8
8376
4b2d
4256
7d57
4982
79a2
2771
37dd
efa9
4760
547d
e277
7666
46fd
9763
5a3c
6fba
df98
61b8
9570
9556
13df
b2de
8051
a48d
3356
4419
4398
5470
e82f
5153
0ca5
6b0d
232c
e74c
f0de
2464
47c9
5e83
7972
d97f
1df2
d7db
b779
aa5b
8330
9ab7
c07b
9ed7
3f19
abd8
bb17
f533
801d
53a4
d3f7
ca2e
6268
342d
9a3b
2eaa
71f6
815a
a17b
b15b
bc78
5a72
6f6b
e089
eced
4b19
639f
87c8
55d4
56a2
54c6
44e2
1b1f
3c34
c7d2
63b3
937d
b34a
c751
28d6
c84d
449f
0758
3224
9c39
6690
a081
48d0
42a8
58c6
c608
ec7c
38bc
4a67
9082
7962
b091
aeb9
5cdd
c9a9
8c4f
eba1
1d8a
2d09
3086
931b
b93c
cb3f
ce3b
8785
9745
3f0a
60c9
7234
9470
cb53
e15f
9e6b
09a2
ccda
9c8d
2de5
39e2
3bdf
a8ed
c3a2
105e
a0bc
728f
dd5f
f27a
91b2
79b3
43fa
2381
1722
f74d
f825
80fc
c472
c11b
915f
e531
86b1
a977
13d0
5d39
b61e
241d
6415
11bf
1e8d
3ee7
ee5c
0c81
4947
cc4e
80d3
6a1b
5c63
eac4
2ae2
110d
c11f
532d
edfa
30e0
5860
92e9
f5ef
a1ca
ef20
2998
3b57
9653
4adc
c445
e4a9
6b68
505f
671c
74a5
9baa
e8d4
619c
8e3f
a632
c678
b343
b38b
f727
67bb
3ac4
54be
2ad2
2bdf
422b
d651
1372
fd7e
4994
831f
bb9e
b339
76fd
25c8
65c6
6649
eabc
7d0d
7e15
60cc
aa68
a5c4
99fc
db0b
5c5a
9765
285e
bbd4
fd90
5157
097f
28a9
2426
903d
749b
3c1c
7f70
c8e2
e31f
1c42
7c4b
0d83
2d4d
0bf1
3d4e
e7f9
e09d
7414
ad1b
b886
bc70
b8d6
3db2
2297
539f
a4ad
d8e6
63fc
5351
3b91
58f2
d451
5ce8
38aa
765a
f597
1c85
d98d
4f6c
ad32
d35e
b146
a3fb
8b74
e243
920f
b0d9
f4c8
a096
395e
7f13
76e8
a12f
553b
7ec9
802d
ae25
7385
72b5
9f8b
cde3
3715
5f72
7aa0
a893
a12d
7e7e
fc53
8269
f459
9dcd
9311
a81e
19bb
81be
c144
4634
a63e
e9a8
5da3
42f2
3fb8
5b55
500a
6413
d2e5
e31b
55ac
8cfc
5b43
ca28
9426
6e51
e192
ee79
49f6
4871
082f
19b8
8137
eed6
8386
6c55
d253
0b6b
8858
275e
fbe8
61ae
d5ac
0682
ab23
80ed
a02c
6a9c
b4bc
aa33
d616
21c9
ee9b
9042
8067
6278
7b1f
354a
bead
e690
2c8e
fd4d
fa2f
2b49
eaf9
f7dc
582b
24c4
33c0
19b4
a185
5ec2
850b
85b5
fb20
5c5b
faeb
47d4
87aa
eead
912d
8e77
13f5
e772
eedd
66a3
9722
db63
b0c7
52ee
6c9b
77d0
80f5
7348
ea40
b271
80ba
445a
2ace
b0e0
979d
965e
bf33
7633
91dd
5c7b
786b
9b6e
24f8
fddd
e651
a8a9
9a0a
9006
9108
2ba3
ca07
2453
cc60
a3e5
38ab
b8ce
2caf
49d3
2b8f
cafb
a742
b70b
cf48
4d3d
05c6
f985
a273
50d2
d808
ec1e
4e2a
bbfc
e70a
3298
9d57
7cf1
ca0c
cb51
94d5
16d3
b5b8
6bf7
ea74
d829
c42e
f3ea
a0d1
2428
3bea
612c
4b8e
c72e
aaa3
a7dc
67f2
7296
8fd6
7a9b
2bc7
38e6
689d
6199
ce9e
69f1
3c2b
fa26
b7d7
8f22
e269
5ae3
4960
f93a
1566
a57c
88fb
6cb2
99aa
9bbe
5859
d074
21b6
0640
dca3
83ba
daf4
270b
736c
c865
602c
fdb0
e46d
627f
9b16
fc32
7e67
0c78
49da
93b3
8b8e
fdb6
7d53
65e3
a984
33b0
1bfb
5a45
9242
e8c1
a3e7
9ae0
6282
a8c9
b752
2196
65d9
c546
727e
b446
f0d5
e466
3dcb
8611
cd1f
efbb
1578
710c
7142
da0c
cd0c
9020
902c
2d58
3c97
aad8
cfd2
e8cb
7928
57d9
d957
bef8
c534
3c99
4bfa
aa8a
52be
cfe1
8da2
ad1c
a8c5
ae65
e590
b24c
940a
7467
6a6f
9487
5bb4
a27b
d890
e163
aec9
7ea8
1ca9
7944
9f2a
3446
c0c5
8ac9
4bd8
ebbb
ce43
9545
a532
a97e
6fac
fdb2
8b17
9bbd
f157
6b7c
da75
5029
1b3d
1bb4
4420
8f34
fd52
61b5
65b1
812f
cd4d
b4fb
c03c
8b63
3bb4
9ccf
d2bd
f59c
118d
918c
6c4f
f32c
9a09
9b91
b276
3dbb
5f69
ec6f
3955
3edb
aec6
c6a3
ed03
8914
683f
cf55
f9e6
d157
e673
634b
59a2
f98b
eb89
ad46
60b3
a49f
aedb
9ec5
d32d
fa8d
a037
cc65
50d7
50a7
0bb4
879c
b895
3ef4
de35
a9fd
7f7e
9c6b
ddc4
e229
15ee
6525
5ea8
5345
07f9
c7ac
af27
7a96
58e4
68e2
7881
c714
ac91
a5a8
f625
6b4e
2a2a
3a2d
e2a9
370d
477e
e0fb
6b3a
c8bd
1944
717e
59d0
b3df
a875
f28a
458b
3e9e
a160
de98
eb47
37f6
3279
520f
5def
cfec
0f9d
773c
f8c0
69b5
6995
eb7f
1dfa
5fe4
836a
5617
51ea
3ea5
3672
29b6
96a8
99a9
99db
f6e9
8c55
3ad0
d18c
8e6a
b9c7
2aac
37dc
7aeb
4591
1e7f
b54a
5647
1c41
7b28
3d36
cb22
5ceb
2755
5958
9bbf
fb5a
71f2
d1eb
6a36
5c2b
43d4
a370
db29
4ffb
8064
a256
d268
2bbf
da3b
7663
3a4b
6d21
c766
c46d
2838
72e9
d444
8340
22d7
0f07
3097
6fee
08e7
0bc9
4959
6f39
258b
bb87
f2b9
2fb7
2714
5071
7753
f7ee
a606
49a5
eb83
270f
da62
4487
1758
2a3a
8b11
45bd
25be
ee74
b589
0ba1
1b8e
3d73
efd7
7cc9
97a8
ee5d
c7fd
47f2
0528
11bd
4eb1
ee7a
b12e
9e63
8e42
c38d
a94b
48b3
f65f
de08
854a
599e
4b89
5a79
adb9
6398
83ca
d811
b5e8
46f7
63d7
99fb
6247
98a1
3b6e
7aed
84e6
47e0
719f
5cc1
4325
8af9
675c
8353
fd74
05f6
1387
8a87
4f0b
c044
2611
8c3f
2eba
f626
b67e
3c40
174f
4b8b
b44c
3258
5065
d0a8
075f
1959
6899
efdf
6933
dc06
1dd5
c441
2d68
b1a4
a6db
430b
84a1
b086
1665
74b2
8a3c
650c
1ed9
f1f5
6d45
9a41
bf46
58da
e0ea
60ee
7fc6
b352
db5e
e167
9572
b3a5
772d
a455
547f
ec13
61f9
debd
6a07
a9bd
f923
dbfa
9abe
6c66
d265
7832
b8b2
75d6
5781
b1ef
c607
3a6a
802f
a860
b532
96fb
6da5
e476
7c6a
87b7
bad4
fb15
817c
75f5
5cfb
93a8
c039
c024
9860
37ee
b33c
5635
530d
5d4f
afb6
5049
0513
6594
75a3
5eb3
a5e2
2b2f
32b9
4746
8271
c40c
e0d9
ef63
3c0f
b3bb
f7ae
6a60
fa58
b86f
6471
a315
ebcd
f770
610b
f18c
d1cb
7381
7cac
5a9e
dde8
a332
c659
fdce
4b45
5b87
f0fb
17bf
9c1c
c2a7
81fd
b14b
0ca3
aa23
a745
32e4
7f9c
614e
c18a
75c6
95a8
1d44
aaeb
4478
3efc
7e28
d57a
4635
563d
5cb9
2da9
cd2c
8f81
5211
ed70
f71e
d526
83fb
5b61
972d
8093
6015
058d
394a
1b20
3b78
5742
470f
a03d
c853
461f
110a
ceb3
882e
5c49
8a0f
f44e
6919
a7ca
c7a1
5782
4fa2
63e2
a89a
8145
95c4
8e6d
cd96
df4d
c4d9
6ac4
377a
78a2
cd78
f1d7
cea7
a5a6
662c
26d8
e347
f9d1
bcf1
0b20
a2d6
0864
6d3e
0c49
23ad
d7f3
c8d6
f0d8
dded
1693
ee92
79de
7b7e
244b
0869
dc5c
5365
f26f
5f1c
dfc0
e2ec
2eec
4eed
9ee7
7e70
959e
3906
d941
7262
c46c
8c92
6e90
c52e
b546
63c1
ca4f
672d
f36d
f23b
28ba
76d5
cb0b
bd96
466a
53e6
5755
9993
78f3
0d62
74e3
a4a3
19af
4e89
3989
5cbc
22f6
736b
1c57
f85d
e49f
07e7
5bbf
cec4
7e2e
2240
b8f9
5fbc
5aee
30c8
a299
7f90
922b
5109
e595
d9b5
cbb9
aa70
92c1
58db
e02f
c96a
b86d
9265
1f35
d00f
0554
76c9
45ef
6d0f
6db8
3957
7b1d
8d5a
a8aa
abba
e6fd
b6c7
3929
c9f4
e791
a2ae
e0bb
af6b
3355
7889
259b
715e
6723
4fa6
d2cd
0bc5
b428
7e3f
128e
db8c
d01d
f05a
f023
2c64
472f
c619
51b4
e575
9cb9
a82c
f0af
3aeb
abee
3578
dbfc
d28e
7f6b
635a
993b
dabd
05c7
a183
7ef3
784b
9f85
9d15
d758
fd11
d123
c3fc
1c3e
2375
5ba6
2779
7d86
c0cb
59e7
354f
de09
d342
dd06
af48
7462
8a5b
7f84
b8e0
897d
4af9
c776
a7a1
68b1
604b
f2cd
5b5b
c89b
eba2
3ed6
562f
8cfa
ea4f
c960
1bc9
351d
cc39
db1d
7590
3aee
07e0
b815
2e97
5eec
23df
2adc
fd85
17d0
5352
714f
36bd
7f44
34d2
97cc
c7ee
c791
cce2
64bf
84c0
8642
dc89
dfb6
7a53
2aec
36e6
9932
453f
955c
ec7e
c72b
6242
603c
c041
b031
748a
19e4
4f9e
76ac
3942
e7be
7266
5254
2868
86e4
5fc5
d6fb
5cbd
220f
dfe3
9664
9c64
ed6c
fc3d
9174
660d
db4f
d7c1
3269
c0ab
9c62
ab54
d2a7
7171
75a8
6adb
08fd
a4b1
7029
a0cd
4d65
6bcb
f15a
b033
925e
6d72
6225
a899
af51
bfc7
7679
8974
3275
9d31
f4f1
1d67
44cc
b4e6
d666
2d98
b2ad
c71e
fb54
e5c0
5f22
6c67
5d90
5c93
8d59
a957
dfc8
f0b6
336b
7959
c7ca
f19d
b5b4
9bf5
b8f8
58bc
bbbb
6195
be73
3853
7de0
6dc2
3171
4644
43bf
62ae
78b1
a049
a0fb
5730
edcb
ae60
b01d
4913
26e0
67c0
de60
8591
43b5
d796
42e1
fa64
9c63
bf5e
1949
5552
39b6
4306
dd8c
306a
c862
3081
22aa
b31d
cb1e
e6c4
f041
8751
8a22
5273
987c
691c
633c
2cad
42d6
5de0
0bd2
8f82
df8f
5ee4
a4e3
22a4
b716
f357
76c2
969c
cc42
eb0c
da7b
478e
a2f2
e457
6cc0
8dd2
bfb7
dc9d
e337
61f8
71be
837c
8bd1
a722
2bbd
4877
99ea
a2a4
c332
45cb
ec4a
bbde
3259
cffc
876b
7ce5
d23f
7c1b
afb7
b8b8
155a
ced5
95ba
0c61
dafa
af23
0def
57c4
f1c1
d19a
754e
2c49
2d47
a7f7
628a
c8b5
c25d
c29b
3278
5fb0
68c5
814c
e598
292e
6907
a059
b4e4
1ddf
3aa7
551c
b8d4
bfce
f616
1eba
7573
f67c
6b4a
2ab5
eddb
dfbc
3829
7023
6aa0
8350
36d8
b3db
fd2f
80e7
6ac2
6582
116d
c1e9
857c
8e5e
fda3
c8be
2b15
f22d
ae26
55f6
b92a
8c7b
4b74
b854
1339
2513
9dc1
4ead
f14a
b107
de4b
6aa9
b346
fbfa
944d
7a1b
4290
f22c
ee81
9e54
46f9
39c0
e34c
820f
7ae2
72cd
3814
8b1e
8b52
ef7d
d145
d559
ccf3
9fde
9f6a
a2e2
eb90
7e07
c5db
6a31
790d
33d6
dfde
bb5e
2e3b
c37e
a30a
82d7
1f41
5fd9
3db3
90d0
a28f
85f3
132d
fd2c
62b5
27b0
22b8
5813
65ef
6eaf
aeee
fb47
1d2a
328c
a7a3
d01b
e255
e29f
2aeb
ef8f
f7a2
7578
c640
c340
e3d5
cca8
a2e4
4528
1162
85db
d548
cc4f
a276
686b
295e
5d5a
9baf
aaaf
bd3d
7166
09cc
0789
4b49
5ada
1f8d
222b
1de5
061b
6d58
a795
c89f
fb3b
515c
555a
2941
d3c9
da23
150f
5e26
3628
69bb
d045
50ab
5f33
c5fd
856d
c3f9
d375
79bd
79a7
b767
6bf4
53d9
6267
2ba2
7958
dc1b
e172
aed8
e52e
f620
e38c
fd51
8afa
bde2
58e2
54a5
6b35
05cd
76bb
6af8
d3b0
6947
697b
bf47
a26a
fb65
6ce7
8bb0
f284
fc20
5ad3
da91
cb65
7faf
24d4
5fba
c824
d124
dea8
eca2
0dfc
d65e
7690
19d2
f165
9684
3b0b
6d67
8fe8
50a8
17aa
dc3d
ee62
9e77
4629
23f1
7c75
6df1
db6d
e028
e76f
b2bb
46ad
f39e
834e
ca04
f742
68f9
9d06
488f
6fc6
881b
9984
1863
2ce8
92ab
65b9
4efd
c324
e32c
ec06
ea43
4706
c20f
743c
6284
c22f
e31e
31f5
6545
ee4c
b119
5542
5e31
c5fb
fda9
2782
82a5
6a15
0dcb
3dd8
6e6b
91ca
dee3
992d
afd3
6f08
98f8
301c
951c
b5e4
a55d
b382
3742
6772
7f4c
8faa
5d9f
5dca
297a
56f6
6b44
4976
2af3
7b46
8d03
4fdc
d36e
4b16
d339
fd5f
15bb
15b2
e124
7e8e
5bf3
f91b
4bc0
5091
7a3c
e9e2
d1fa
ae44
d3fc
932f
e3bf
c85a
b86e
1c92
760f
91d7
3a4e
87f1
9a8d
8aae
8b4e
4f83
c44d
3914
701d
2f3f
7d92
980b
e93b
f8ce
95e3
26f5
5325
2f67
54b9
7f65
f48a
d66e
0b9a
5beb
6b11
683b
cf19
6e4c
de4d
a585
b638
49b2
e34f
5a48
5748
3243
f2c7
5292
a7bf
76c6
9e65
a525
563e
732a
739e
aa44
2fab
0571
060b
370f
844c
301d
3058
3453
22ce
f81d
f277
4681
8347
4b79
f72b
e8dc
4be6
52ec
5897
6514
7757
7b37
aee2
c4e3
2fd0
df3f
058c
916a
5597
6a61
c9df
0427
2b24
2df4
ad28
d0a5
a86f
d489
4bc3
751d
97c3
b22f
45be
f1c7
2607
560d
dcf7
f09d
ece2
2a32
112a
aec7
937f
99ae
1d83
ed0f
df81
7bee
828f
5197
a5c0
a9d7
a972
6ddb
491e
7836
cfc9
aecb
a117
9e3f
5e46
86b0
2b4f
8d2e
c248
be1b
a0b9
a252
7189
ee4b
87bc
e097
dacd
577f
bb59
4edd
e538
467d
d6a3
ba4e
8bf2
caf8
7d2e
f2ce
923d
c813
168e
6e6e
8154
c592
f6c0
464f
dd0a
6e1d
175a
11dd
36a1
fc4d
ab89
9d71
0c69
c16b
8593
d6b1
f8e1
84ec
1d77
2bcf
49ea
a420
053d
71d3
8e76
2825
191f
526d
fd6b
c8ce
9190
fa72
1fde
2429
cff9
2ffa
8c65
cd39
2565
b56c
63b6
5b7a
9087
2866
32b4
ad5b
a7e3
f31c
2c7a
63a7
5c35
4952
bc3b
ed5f
b1e2
9ef5
dedb
c544
d981
dc25
6251
97bb
7841
62cf
4968
451c
8937
cf9e
dbe2
d931
e3d1
3a2b
bd0f
5f78
741b
b730
e569
23ce
9b85
4744
24a1
d0ac
2de6
d3cd
faad
c1f9
9ed6
d5f6
ab74
ea28
7254
f051
b04f
5319
9732
d81b
ebed
7561
29d2
e3f9
2827
9840
e29c
bb3e
bd41
dd73
9c5c
7999
9ba4
1927
1696
1134
faac
6246
cf65
ca60
6fdd
8d56
c270
8e23
a60c
9935
db47
fab5
6f76
c08f
283e
b83b
6e4a
813b
9ed5
7ed0
2cf8
2c53
6497
5715
5ab7
8b3e
353d
9a2f
33e2
9c09
8a2d
5840
8441
c262
6f13
861c
bf15
e1f7
de7e
a57f
9690
49c2
bb78
301f
9ae7
a7b0
d958
df37
ee6f
d640
a631
8c0c
fb4f
9b2d
e2be
adec
8d15
d567
f60a
fcf3
3a51
a40f
64b3
5234
b4ed
2435
1bcc
2a30
38e3
c8e0
ed92
2c86
f3d9
3afb
3969
d23c
493d
87bd
dad2
e6fb
7a8a
c03e
331c
bf54
3677
0736
09ea
eccc
65f5
5182
c3f4
fcd6
cc56
1e92
860b
b607
4b4b
951b
e109
9ee4
a39e
066a
c038
da5d
a769
4992
31f6
16cb
a135
55a8
9635
0ca1
d9cc
ca71
74dc
dc59
96ef
aefc
757e
7ed1
a696
bf0f
ca59
07a0
b8ab
6eef
a12c
e686
d32a
f9ad
9b31
e4d7
5051
586c
39e3
6be8
f192
812c
815d
9107
8e4f
29a8
467e
44fc
4907
33fa
8c29
9d25
a427
9a1b
f0be
17e0
b8a2
5155
a1bf
d672
b9f6
3b06
9b06
ea85
df4a
1968
9098
6a52
53e5
36e3
7643
d15e
e781
d2f8
b8de
c0b7
f6e7
3d67
4d3e
74df
9475
cf7b
e8d0
eebc
6fa2
6c16
6224
727f
7637
45f8
927c
2d63
a855
e0a5
943e
52e7
9417
a2b7
f79d
7673
cebb
9e45
46c9
8384
fcb3
1791
0c5f
503e
9870
9f77
f80b
3154
4e58
752a
228a
37a5
7040
3757
6d5b
76b9
19bc
ae96
95cd
3b46
bbb1
37b6
d828
7b15
9079
3ef3
c165
b689
1ca6
a050
07c9
8ab8
a00a
bb1f
88d7
6a84
43d5
ea2e
5249
c867
0478
6c94
6fb2
63fa
39a7
79a4
7cbd
5a2e
9b25
7049
5b62
a23e
8863
db53
21f7
b3c1
832f
db8d
a7fd
3f81
f0ef
54b0
a716
c117
b11f
9157
b5a6
85cf
0920
0791
4fe3
d066
c453
b456
7f1f
afcd
b93a
66d8
87dc
e46e
8e20
099e
5caa
7c8c
8a0a
e286
7886
965c
9795
fad8
084b
cb0c
7fb2
b1a1
f8f2
9bbb
e56f
a6d3
3d43
a27e
c171
2691
444e
798d
3a44
3b51
ba7a
425c
43ed
c8dd
1540
2bac
57d1
67df
5127
91ea
5320
8906
fc3e
9a06
ba61
136b
f367
b4ec
923b
2dd0
a952
c566
d52a
b645
39a8
79d1
99a7
b9b2
37f2
8f4d
3db5
0fed
6a5a
4bcd
5790
3eee
a1ac
8ebe
96a0
f307
3dac
3d49
a783
8242
5768
17e3
a471
21ce
eed4
b5a8
669b
4978
594f
d248
7f8b
84d2
8dc5
b332
a1c6
c5c7
967e
d947
cd7e
68d6
6c5f
38e7
500f
b07f
c611
2169
616b
916d
3679
07dc
9a08
08af
13cd
bf7a
2ece
6bb9
e3a7
f9a1
ad09
7a1f
73eb
849e
e81b
455d
611b
37fc
3da2
b99f
daad
fc16
a19a
95bc
5c8f
eabe
d8f5
df19
1989
16af
96c0
8933
f0f8
2950
389f
4b1e
580f
6dc0
218b
19c2
3cd3
4a97
2a5a
339b
3b21
da09
9782
ef79
904b
8fe2
74be
2b13
b140
7060
0ff2
8e19
a864
1f51
9f53
f797
d1ce
a5b2
73f7
7335
aa71
ed08
60c1
dfee
dfe5
3f68
57b4
7932
9f3f
95ce
3add
c44e
d293
d08f
60d3
d0d6
956c
5c26
5caf
2329
7d4a
3f40
b36d
331f
3358
735c
e222
35e7
26f4
26bf
b2b1
c96c
a770
bbab
ed1b
7151
f6ad
e90c
fc85
874b
b861
9ff4
6fc5
b317
262b
a6b3
8cdf
2726
702a
eae3
6bcd
6227
cfbd
0530
9e7e
49bf
d9a1
7c79
1b8f
57f8
831b
d7c5
4648
c690
c9fb
abfc
ad4d
6016
5364
2963
f864
4be4
2e9b
e143
81ef
e5d5
22a3
faa6
bb41
ea41
a3ed
4be8
e8b7
ee26
7e9b
33d9
a279
b240
984a
d08c
4517
62ec
2e5a
6aa1
33f5
bf8b
1958
280a
3e64
0672
e6ab
b64e
d9b0
a916
fb7a
4ddb
4745
7ae8
4464
24e6
3c14
52a8
62e5
d1e4
8522
e9a3
83df
fa4c
0d82
cb40
aa99
fa52
131f
e1fd
9e98
957a
4ba5
edd9
8fda
ea92
e4ec
5ddf
d8ef
e716
19b1
eea4
7924
1345
73a2
87d9
6728
0fd1
7015
24c2
8a13
c0f3
773e
b87d
f1cc
8348
c2f9
9028
8fe4
c4e5
0568
81d3
81b0
9e89
c583
ccd0
3bf7
e279
684b
2f82
7f1b
bf14
c772
76b4
eece
5e56
ec23
cdae
8df8
8df4
d2f6
bf28
8fb0
dba0
1999
d622
2a0a
8db0
a86c
f877
76c0
cedf
b3b5
dc7a
245e
629d
dde6
7c14
7b55
807e
6126
e92e
3296
b704
5fe2
396d
22e5
3bb0
9411
f5dd
1945
255a
138c
69a1
ba07
a25a
0b86
cd8b
aa90
ad63
1b15
77e7
810f
b132
de2d
638a
a325
1b76
5b8a
ec62
0d5d
2aa8
98cf
f8ad
957b
d50c
96a3
a951
fc42
8a41
30e3
7db8
9de3
fb17
d307
5bb5
ca7e
366b
fc5c
8ac3
0658
3dd4
ae48
a190
91b6
a50b
09fc
d38f
9327
8327
0741
ef2c
8098
6b52
ab58
c61e
d77f
d1aa
6dae
4747
f276
30f1
622c
f541
d6c7
7425
5fa6
4ff4
3054
d237
7898
8078
b824
c2ed
cf57
ee2b
ee3f
6748
cf4f
6c68
8d6d
8a53
179d
271c
af95
31fc
25bc
81bd
ee69
c343
4dda
3242
2acc
8ff8
fc5f
f36a
0d1d
8958
851f
807a
9937
ed38
ea30
46bf
63b9
59a8
8cb1
8783
32a9
d039
8dea
7485
78ad
c8cc
3ed8
0cd8
8d23
ddf5
f8c1
3096
6456
077a
9332
a837
4579
a1c9
9e2b
09db
5347
d3fb
234e
8f28
3dd0
9e69
7e38
d63a
73a3
330b
372b
ef45
5911
e06d
1fba
e1b1
8138
beab
c695
8f4c
9fe7
5cee
eb6d
0da0
5734
d937
ef3c
c996
ba0a
cc6b
64cc
9c69
b3e4
533c
831d
e877
55e8
66a9
fb26
d445
3760
b7eb
c41b
193d
6575
569c
4bc1
d2dc
2e8f
29f5
8677
8c82
995c
4569
86d6
69db
e947
2aae
fcc1
3891
38fd
4b6a
a0f7
0653
4d97
50f5
bb5c
f228
2eb5
51c2
bebb
7af5
aaac
cde7
2417
4bc4
d997
152f
c5ca
3abe
da0a
1dde
a74f
7448
703f
d2c9
687d
a992
e711
f51f
f2d4
4550
654e
eebb
e62d
1ca8
dbf2
ebf6
6f31
285b
8f57
9be3
5925
9995
4b36
67d7
97fc
a4a9
223d
b0b9
c049
b85e
9456
ea56
a29e
a358
db14
e44f
f806
46ca
5773
c086
fc5e
b06e
e4ea
4239
50f2
e889
cefb
5eb7
3620
864a
cba3
384e
7bc7
05bd
31c7
7197
462b
56ab
563a
5cf1
4a4d
fbd5
1047
e0a6
7490
8954
b39c
c4ae
d47b
aeb0
7a73
328d
6255
1f63
1b1d
473b
1ed1
9eca
e5a3
8a46
eab6
1d71
b407
b273
857e
a573
a929
a9a8
eacb
58e3
57d2
7164
f1ee
91f3
5379
f3ac
2446
f667
287b
3d74
31fb
15a2
85c2
49d4
27d3
f2c1
0fe0
e064
3394
156e
a6fa
a385
9cbc
7763
0baa
be49
be89
9cf3
227c
efe2
26e5
8aa2
922d
de37
d328
ad07
6089
2367
7a55
cf67
a85c
5484
efa6
ed35
f537
fbfc
cf4d
6041
8033
1967
afc8
85be
96d6
9cb5
f783
a24d
5fa0
7ace
ec50
49e9
5b54
5b57
a2dd
e19c
1e8b
b14e
de85
7b29
3009
c8ca
dfcd
2ef8
c33e
584a
343d
2b16
38ce
9d16
d51c
16d1
96c3
c3fb
e9ab
a8f9
f7f7
b7f2
e059
f5c2
852a
95f7
39a4
624d
b426
c2a9
bf40
f84c
74ec
a756
a737
2137
1933
617b
e1c3
ce6d
5589
834c
da86
cdfd
78e1
9f0d
9069
fa67
e439
0719
6b5a
6d3a
b7d0
cbef
61e1
1e3e
f1f7
ee6a
9168
5eb2
fcf6
d06c
cdb3
9fa3
b0fb
5cca
580b
c2ad
eb56
e164
2931
5abe
6e19
1de6
6be3
bd59
e319
6593
a58d
f685
56b3
8826
5c2a
384f
e451
f4bb
87c9
b2b0
c359
e12f
f630
5c83
23b4
caf6
2dd9
c7e0
157a
f137
be79
79d3
6921
5add
32f7
d28c
c0ed
ba5b
1fe0
2d59
88a7
9834
a7df
c874
16f7
e6bd
637d
83a8
3af2
5731
cf25
60ec
a963
2878
3f58
4dcb
875b
a2af
e9e3
7628
316a
ce41
d63e
9927
89da
c8ae
cc53
a96b
24bb
4737
cbe8
f55f
66b1
3cd9
7b51
077e
9068
b094
4b59
7baa
87b2
db9a
b643
278a
b70f
b72d
978d
ddde
9494
2d15
b8d0
5520
a681
a6a2
6d4f
af85
f4c3
5486
2b57
72a2
f7ed
5167
7b8f
7da1
286c
986e
32ba
a174
b947
3b73
9289
50ef
9093
b0a8
34c5
37b7
3e5b
ae51
cc2d
fd49
4b41
5b86
8422
7032
5992
a8cb
d78f
ea3e
1c8f
3327
c922
ccdf
7c7e
9842
34ac
b0c1
dc6e
d6e2
f23f
5837
b2e3
f653
a5ec
6cf7
1b0d
cf91
e08a
825f
4593
1c51
8c0d
3b7c
7f8e
e25e
4469
5024
90d6
a26d
2d53
280f
8e0c
a2fd
aa5c
b86c
1f5e
4f1e
8617
eed3
a27c
daed
f0f9
822e
7e75
b565
b5e6
1378
c9b4
3a76
e053
3def
4ba2
b33a
d813
e22c
f33f
8152
0c2b
f9b6
dc33
5af9
e261
24fb
b860
74c3
2294
2f1b
4a8f
578f
547e
d1b2
9e09
7945
4328
e922
9b8c
1d2f
4fb5
a4f9
e962
5fc3
a411
8526
99d5
3a47
ba7b
9023
3878
6f24
8b1d
ad15
fa84
a9a1
87f2
edd5
246f
d7a0
83d9
f791
adf9
7458
5467
74b8
f290
42e6
473a
d8d0
6143
85b2
6389
cfaf
8d93
458e
9e2c
d5e3
ecf7
83fc
3f2e
58e5
88ce
cdc5
dd9f
f640
26c3
bcd2
db28
fa47
c247
9914
ea93
3413
c071
f9ee
51df
532e
fc29
7d2f
345e
ca56
64b6
c211
c8b4
15eb
2e4b
75fb
d550
0cc1
6cbf
8922
3781
8d9f
c07c
2134
9607
6684
09c9
26de
43f4
a72d
6707
e7a5
7429
4815
7bab
9428
f5cf
2526
4ebd
57f1
8024
502b
a66d
229b
e482
1f53
fabf
856e
36fa
8efc
0c4b
e60f
fd22
58d6
a868
e963
8432
3a84
52bf
e160
5e2f
7b0b
2bfd
5fed
d459
90eb
308c
98c8
6e54
71b6
46fb
4633
d4cd
3f7f
52e9
8be0
1185
c1ad
6bdb
4381
0825
a2f9
24b4
073e
29e4
87fc
ed0a
c244
ce11
d08d
2468
9b60
3398
872f
b8e7
968b
b37e
faf6
abfb
84d0
9da8
db5b
deb3
c323
fc4b
7723
b4b1
b82b
e0da
1737
3885
321d
ad1e
61c9
bef5
79cc
f94a
dbf9
4f81
c8f7
3ad2
6753
5f2a
98db
d871
b883
71ef
de34
3643
b3d1
320b
5dd9
bf91
5451
50e3
9655
d8c4
dbec
d313
d471
defb
e5b9
8539
a53d
d632
da61
a0c8
fc5b
46e7
d6e3
4433
29ea
42b0
f2bb
5e76
394f
bb31
d74e
28f9
c822
5764
f0c7
3a62
3b9b
a752
53f6
d9bf
0bf3
e230
e2c6
dfb4
6e5e
e5a5
29c2
0caf
a6e1
c376
0829
0751
877e
6de1
6452
3492
32a7
5b58
8b59
9bb7
d222
c6df
734e
ed61
ed84
9fd9
0ffd
576f
c6e7
c51f
e8b8
437a
8725
f015
876a
c660
76f8
6d63
fae9
9b99
1e8e
c598
69b2
ec86
cca7
6f43
b0b7
2953
3fd0
9753
ef52
35a9
859f
b625
6982
8af2
103c
7038
3a64
b2ea
dbaf
216a
e113
913e
9e4d
dba6
ddd1
28be
7831
9fb5
7dba
5f13
98cd
f870
d9d9
22fd
070b
2fb3
e0fd
87c3
1531
9e0f
1d0f
bdd3
2352
6dd2
91af
7e3c
f014
7058
8db2
a487
0d97
42ef
7fdf
f520
119e
2678
6309
3ad5
d70f
f434
6358
9992
cb14
26c8
3b36
944a
74b7
3657
722d
8ba4
b932
fbb0
a67d
4367
b913
16dd
c15c
36c2
09f3
d681
698f
ec8e
c72d
42f6
b057
d0de
9458
846c
4235
ad7d
f8aa
31b6
f5e2
a17f
deaf
f6fa
93d7
938d
69a9
3c4e
b328
8731
3789
bf27
8ae5
f490
2753
f5b3
3e7e
a1b8
a15d
39ce
5c79
fddb
37de
af89
d845
a7aa
45f5
25e2
55e6
6373
e3c6
ab91
dd2a
a4c7
251d
3724
bd33
760a
7527
064d
63f9
3c4d
bcc6
1517
4719
675e
b93d
cb9e
f27b
f548
1ef9
4973
eb28
cdfb
08c9
5713
a89e
19ab
1154
a157
db2d
fadb
7a41
5446
6792
77ce
9270
a42b
31b4
8e4b
09b0
6d73
1f43
92fb
4258
0d17
c8a7
12b9
0b2b
4248
3dc2
4956
63cf
af3b
b733
b477
cc7c
dd4a
efec
9a59
b06d
3314
8657
a132
a116
7e57
06b1
f32d
ec0b
6429
db6e
2f55
42e2
5415
f8c4
514a
e596
8727
1fa9
dc64
e29d
299a
3f95
4658
5932
cbdf
6123
e13b
363f
5921
5bf2
d7a6
5fee
3d95
4beb
6f32
bd74
61b0
5e6b
5c7d
c9a5
4d2f
5d0d
7965
d23b
2420
8bcd
efc2
76eb
a16d
8e87
fadd
b871
c82c
80a0
fd6e
1be5
67e0
5ea3
39d1
dcc5
dbde
a2b1
5f85
c8a6
98f6
ca98
6bef
8c9f
3157
7163
5e5d
a539
960c
c30f
326e
e26f
ca6b
5abd
a67f
133e
cd42
c0ec
576a
3a98
f6e5
f4c7
f453
8b6e
5359
5655
d61c
53dd
cc47
e74d
4f04
7455
7dbf
4b9b
afdf
f074
ae20
13f4
a40b
7aee
3ab8
51e4
d1cf
b5fd
f3d7
3b0d
62b6
63ec
500d
6213
6f7d
72d8
dd54
85a8
8ebc
f378
8309
074d
9427
e40a
ca1e
f029
2f19
e951
ef42
4fe0
d9ef
29db
29a6
73ce
fbf8
5d8b
c8a3
32c6
66ee
62df
799f
e22f
2609
ec61
ccf7
7f2e
133f
2d5e
f5bd
75d5
66c9
994a
7c22
228e
d040
5492
7f32
c7e7
ef11
e2e7
31aa
87a5
e2a1
dd45
92dc
4b6b
3acc
c4ed
b47e
d141
759f
dec3
6c0a
cc4b
fc2e
cb0f
e27e
2fd1
98dc
d4ac
301e
0772
1f97
b225
f390
4571
167f
9520
8645
9c4b
4bb1
7293
62e6
7a38
907d
eb1c
c597
86f9
47a3
0f06
a01f
c019
3f2f
951f
76cc
c529
5383
794f
9329
2335
db71
7f09
f879
546a
5d6e
1736
387f
68e4
dc3c
1978
36a6
fcb6
7c4d
3aa4
c41c
d8af
e87d
1ece
ae4e
a18a
8678
e7a9
13e6
42c5
6616
9890
dab7
e616
c557
c944
740f
7f29
346b
a257
34ed
381c
72e5
8185
68b5
bf8d
80a5
9ae2
28a2
2dc6
b6f5
43aa
da04
5f74
6777
7754
caa2
7677
8141
3e8b
23af
f707
ad41
f053
9ff7
e297
e43c
0797
e895
857d
09f4
2abc
8d96
5acd
3857
84a4
c2e0
cf9b
766d
ee7f
a9dc
dad7
ddfb
9df3
5dbb
50a4
d4b7
2f9f
a274
803b
9056
3616
665f
a885
cc37
eaa8
71e9
8ec0
f638
130b
4bf9
b0a4
7239
ec17
252d
3e6f
c1c1
95a3
66a0
694e
83a9
8ad6
2dd3
6c5a
3fee
0c3a
3d15
a2ea
f883
e1a4
f645
78d9
9019
8025
4664
9b68
393c
4aaf
7d56
889e
b8ca
9125
be5a
86d7
3925
43ce
9982
2af4
4d96
1662
0833
1bee
7bcc
c21d
f07e
4e8f
1781
c796
f74c
d2ac
5f92
921e
eeb6
e5e1
7eef
f720
628c
740c
6f2e
1667
2a5d
5f6b
5d1c
7b3f
91dc
49a0
6cd2
bc42
db49
cda5
34dc
6053
6ac5
1f67
08c6
293c
3b90
ab39
199c
2c09
43d2
c9ae
1b51
1bae
ed2b
466b
3fec
5513
abeb
4ecf
964f
0b89
5fdc
e0ab
27cc
2f8f
9d13
71f9
6a8f
a377
8995
5bb1
2bf1
aa7b
ed4a
2a99
08b4
b515
0547
6a41
49c9
7986
2371
5a2d
ef4d
436a
6db5
9bb4
a79e
3e5e
6b82
f40b
f0e6
396c
f96a
3b38
5dc9
8316
f79b
e1ca
a198
5eed
06f1
bc06
7a8c
c4ac
3297
593d
6958
679f
c28f
0df5
4bdc
a2d5
ae19
30b4
62c3
5be0
cdca
ec9a
e278
e65b
e1a7
af76
e05b
e042
e2c8
177f
9c3f
9b57
c94d
2a71
ab61
b6e4
53ea
e365
4b39
6685
e3df
faae
bf89
4ace
1c6d
721b
921d
daa8
bef7
6b2a
4d07
6f8a
b859
785c
4b15
9517
973c
eec1
367d
5a46
57b5
8cef
7ab7
833c
0645
990a
e27c
b42b
517d
75b8
c54d
5678
6cf4
89d2
ec22
1bf8
fa48
daf7
2b7f
82da
9a60
27e9
2319
c73f
d4ad
65c0
9ee0
e5a0
9644
3f22
725b
5090
b365
9815
a99a
f9e8
457b
15ab
25c6
ee27
5e54
73f9
ca0f
d706
c485
3ca8
9d47
c846
fa93
7aa4
ab3f
a223
c4df
f540
557c
3377
8341
4d0c
dd24
cd6d
24ed
fde6
a4b6
1fcf
6d3f
9617
9ccb
941e
8c22
e0b4
f492
07cb
2c3a
7515
a950
bf19
fbef
1128
5566
c7b1
4d29
9707
92a2
e8a0
5e30
89ca
b32a
b320
ccf1
e78d
d05a
3c65
83e2
bfab
4228
547b
8838
cda8
cc38
ed1e
b199
0678
2b73
8da9
7030
4d78
c419
11f8
71e6
8149
ee7e
c5c8
0cae
e62f
5c51
9376
e981
a829
d7f6
845e
b098
c45a
73e5
986c
1f58
779e
c355
6e6d
a149
5edf
097c
392d
e848
c4f5
a031
755d
ce3f
0b61
c7fb
b082
5a3f
2e99
46cb
39ad
e3d6
8343
7b4d
374a
a785
9d0f
6a54
2f3a
5311
a93c
310f
8af5
4faf
d91d
1fe7
8290
2332
388b
4d19
6734
9b58
c817
6151
11e6
5129
8985
adf3
a96e
2f13
3994
c2ee
fb39
61c2
6523
7131
963a
23d6
a3a2
7b44
5b0d
8b28
378b
9f44
705b
63e0
bc5c
e29e
f234
7f14
fb38
91d6
e6a1
7c26
3d76
5751
5f1f
7793
faaf
05e7
7655
25f8
c785
f247
c030
f06e
50ad
f29e
2bd8
77a4
9213
9abd
f8a0
15c0
6e8b
55ba
4429
bfa1
7f0d
e36f
4353
500b
efd4
e35e
728b
701f
cdb9
d460
79e0
8f24
8955
d8ab
218e
c396
9361
aa92
3a96
7298
9f7f
9177
6cb9
c9b7
cce1
cc96
94c1
2184
65f6
81c0
c12d
c5b8
cb43
5262
8766
7d38
7ea4
d55e
6cad
db42
eb26
2742
ea77
2d2b
8030
94e5
ece7
5a59
b17e
ce79
c5c3
d9fc
f9f5
bf42
8793
cf38
9e38
c525
96cd
a60a
894c
9041
b045
e266
80fd
22df
6af4
a625
8b8d
b08f
d0cd
ece3
23ec
4db5
ede8
387a
75c1
b1c7
5927
3b68
246a
d4b2
90fa
3bc0
9148
2cfb
4426
a995
5c95
b9b7
bd51
3843
a03b
2d17
a7b8
d8c5
6ad9
1b8d
8742
c04b
c46e
433a
79ed
c884
dede
a9a3
897c
fd75
4fb9
b8ac
06ea
ab33
aabf
e71c
e819
fd59
7691
153c
e1da
be51
b52d
9590
d9a2
b340
eade
ddfd
1f81
bfdb
f84a
0662
c858
0b1f
7b32
16f9
be60
0982
0fb6
106b
7048
681f
9d7a
d8c6
ddcf
e998
f595
a18e
9643
d6c4
2341
343a
a06f
34ba
c614
caaf
056c
2549
9695
fcfc
7ca3
1b07
3b2c
b44a
c2f3
c09f
1755
2356
873f
c398
d8dd
e71d
81a8
e571
be86
f6f6
4995
8cd4
928a
78fc
1d30
2a3e
5daf
b881
ed72
f5ea
356e
9e61
06d3
59b4
2a42
8fbe
ea17
b03d
94c4
a0fa
3ba8
3d19
4d1c
c4a6
a551
2632
caf2
b461
f24b
bfd1
7a6a
3b52
6aaa
b3c2
6e2f
6e38
51bb
0cb2
6a85
537b
1340
fc73
abf9
ea79
7741
4fda
6086
2857
30fa
6696
5643
c976
0dac
9f46
2448
a46a
a468
e6ae
f427
26ea
946f
d881
9e99
5e59
c39e
a3d1
89b5
62b1
6856
5d6c
e219
05c1
4586
e1be
f178
816b
e606
790b
f9fc
ebbc
dd91
dda6
4fc7
bbe8
eec8
963d
1dfb
a0af
565a
b7cc
210f
16d4
d630
8fd9
c426
47cd
7b9f
8759
b93b
d8e4
65e5
169f
6d2d
ca14
e041
e489
4428
15bd
9cce
2768
2c55
5485
ba6f
888c
9bed
0569
91b4
f6fb
6af6
ed25
7d89
b873
3f36
eacd
702b
0438
9716
af5a
f738
f6cd
2951
f928
3df8
9b22
afec
af90
76e4
2538
916b
be26
d569
8926
b38c
fcdd
9cba
2740
d7be
a20b
7d71
9876
5423
e0c7
fde7
d330
7646
ae70
7e29
23c1
db7c
ca4a
1f20
b219
c1fa
7cb2
4b82
9ad6
8ddc
384d
cf47
6c52
a4e8
0d5a
0f19
6759
a079
5684
c631
69a2
a020
0b3f
67e6
f897
b1e5
ce8e
0879
9aa9
ebf1
52a3
d8a1
f25d
0b38
e7e6
15e0
16c6
5e7a
4983
d94a
4b76
5bb9
b4d6
30b6
2de0
bdeb
3f70
4739
52d4
8d34
9811
c42f
3113
2ecf
917a
1cd3
7d51
3e1d
31c0
4643
4fe9
d0f6
39ea
49ee
c513
6e85
ee8b
bec9
3b79
37f1
291d
2d6e
96e4
a1c5
a17a
c576
fc99
4bfd
ca2a
2225
c04f
c63b
4496
1cf7
49ba
edae
ea1b
3aef
693a
b9e6
3143
1e44
5ec6
5eaf
d528
66b0
a683
aba9
cd85
5d8f
c313
61a4
6af1
c92b
7b27
9a31
628b
cd82
f20f
a0c7
a86b
f860
ca6d
4498
0f84
35a3
c5d8
a64f
a9d5
79f3
cf7c
78f6
2dbb
23e3
971d
bbc9
cdc9
4555
612b
6548
c122
c7f3
2f86
58f6
db66
3954
d61e
16ea
ce62
e2f6
3a9b
344f
8d39
d8e5
d229
eba8
45d8
e3db
0b91
f242
a44b
60c8
e0ed
b0ac
4269
6db6
64df
61b9
8597
8559
5377
237a
c9f7
4d0f
4276
ef61
3dbe
a0c5
a499
8177
c1de
b697
d9c7
fc83
80cd
802b
b86a
543c
0b30
7716
bc39
b357
d993
0cfc
73ba
bb09
2d44
7df9
2f61
c855
54e7
5086
9f72
86a8
56d9
6d2b
bb20
1f27
bf8c
28a1
3cee
b3ed
59e6
84aa
b7e7
e274
711f
46da
e9b0
ec2d
8a1c
fa6a
fdef
a09c
c438
e2b7
31ac
153b
65c7
71a1
c5e7
dc82
7ca1
b7d9
c06a
6c58
3d6e
db17
51b6
663f
46cf
09c5
56d3
e9fa
6cd0
fc31
50e7
ba6d
f299
2d52
bece
2cd2
49ac
39cb
333a
be14
1724
cb5f
e9ef
c5e4
dca4
b829
5842
fc6d
d894
5ef7
e913
af65
50d9
d2cb
83ee
0d7a
665e
bf9a
ed9b
91bf
c989
8b89
f729
5255
649c
0cc2
88e5
8d3a
d88d
fc9a
91ef
d74a
9ccd
d7a4
6e3f
71ac
ee4a
8524
092a
13b0
4aa9
b8db
e8f4
6067
5855
1ba7
c835
c8e4
d8d2
e799
f735
61d9
e179
7ef1
f609
96fa
b925
b744
4424
4f9d
7a3d
8735
f5ca
19a5
b1af
b55a
363e
fc26
8ab9
9bfb
5251
df40
7227
1186
75a0
f643
66b5
fd29
27f7
bf22
d968
e03d
0964
f239
1faa
283f
5957
b21f
e8b0
ec3c
aef2
7edb
f689
d34b
ca40
3f06
1768
1dba
4777
d227
f4af
49f8
7936
8f2c
e876
9084
385e
c43b
0f9e
1311
4d72
cd9d
ce4f
7a43
770b
328b
2d8f
98a9
c2c0
64e7
22ec
3e63
5606
a9ac
d9d7
2289
0d29
eafc
a234
e61b
3111
deea
f6c5
bc24
7a44
baa5
9f61
24f5
0d6a
7bdf
d420
b5c7
9576
56b8
d6d1
a920
f92f
0d4b
9b74
ad0c
b207
f8b5
9ac3
e024
9b67
dc9a
3145
d16c
9e57
3c86
9f76
8b3f
9da0
ad58
f717
9e4a
66ae
63d6
22f2
e82e
d4ea
8292
2415
5ba4
ef9c
cf29
7967
4233
b96a
60fc
27a8
1375
d9c9
c48f
6dca
b95c
d954
e226
29c8
7bd7
a8fa
ad89
1b94
689a
f794
1623
ae52
cea8
7e5a
29ad
f3da
52fb
7d91
c43a
b073
050b
75c3
7e43
bcd6
3743
f731
1965
3fc6
11b5
6ea3
714a
3cd6
4bf8
4dac
2fe6
78c3
87ab
ef19
801b
5cc6
e9d3
7c2c
b775
d023
dce8
9a6d
cfa4
499c
cd17
a1b7
6646
fa46
c707
cadb
be15
ca6f
8430
87e5
29c0
33d8
07c7
6d93
d7ab
8ef5
53f8
e745
f85e
9867
279b
447e
9f84
057c
eef8
b176
c56e
83a2
4786
1fbc
c035
261e
4f15
6614
ef77
f58a
1eae
b117
2c73
d399
93f9
d746
d0d7
cd1c
e657
7157
81f3
4693
e628
9977
330f
b9c2
f30b
c4d5
899d
eb1b
e311
fc17
7948
93fd
ca8c
f2e9
59b5
83db
0426
901c
3ff6
3d3c
78a8
76a4
8ade
e2fc
ccea
6a9e
9253
299b
7f5e
755e
91c7
9542
f3d0
6d62
546d
a86e
9c53
8f6d
8a54
3bab
54a0
7752
a739
ed11
7563
882d
c9d3
7827
df59
2a60
a4c1
989e
1939
1685
eeef
9edc
56ca
a628
8372
ebf5
bd08
4246
b8dc
879d
9072
9e56
debe
853e
b60b
63d5
572c
3273
0f36
dfa9
22c6
f665
2b59
3b30
94df
e514
6156
8e2e
068d
9349
3393
f3b5
cff8
d0e1
63e6
0d66
461e
ab93
b4a8
43cc
f0c1
8acd
c8d8
8169
2361
d9af
5923
a327
77f8
0913
9089
9c56
2f57
fb1b
615d
06d5
e2ae
8f85
54c5
2fc2
6072
b8c9
e615
65af
6eda
0cfb
8322
e7d6
df0a
d84f
548c
8c5c
739c
8519
61cf
1c2d
9348
23a8
8984
73cc
db2c
5ba3
32b5
47d5
4f47
8a17
2fea
3c1f
495e
bf5c
6e92
5549
c929
2afd
7b83
8afb
3ae3
7d3e
8517
1e7b
ae46
a197
ce30
7ee9
b6d2
c9c7
07f3
6fef
b45e
93e9
948d
8cca
ecc7
81d0
ce65
b59c
79a1
7c96
f241
8056
541e
5b99
87e7
cb32
36a8
d53d
c4cf
eb9b
a1f9
56fb
f048
5c89
e98f
e7f6
f2db
c2db
5fea
63ee
e294
52d2
bf3e
d2ad
fd2b
ad2e
5a15
808f
6914
5bc6
f7af
e1f1
ae85
0845
7b82
e248
b443
bfde
c856
d48b
eb9e
ea38
5984
3ca6
1bf4
cb42
dfdb
3fd2
c7e6
c93d
53bc
9d82
0fd6
c467
8298
7079
800a
e8b4
ee48
56d5
1347
23a3
afc1
7f4e
d05d
a6e7
5f8f
62eb
f884
f652
b6c5
79a8
9933
83be
4afc
fa4d
baa6
1d73
1d87
7249
23e7
dd56
75a1
7e8f
9579
66c4
793e
5936
7f06
9825
0b64
b4be
a9ee
16a7
c05e
247b
28ab
4317
9bc5
a997
d753
d311
1179
c5d3
7347
4d89
97d9
7a9e
a0cb
1ba8
2957
37c9
53c7
74f4
2531
6ed2
b190
7eee
3690
f694
c34a
57de
524e
64c0
3223
d733
06dc
ebb9
7fa3
3619
5892
a392
b88f
c8a4
05cf
15ef
ccb1
a7dd
ed27
bfdc
3916
306f
0f51
589c
8b16
d999
dbe9
e617
763f
c1ae
d583
399e
39bb
3c35
824d
0b55
93c0
6540
d142
850f
dca1
5b74
3095
ddb7
b88e
dd1c
76b5
19a7
65d2
6e4d
ae61
ac4b
878c
9a46
ed86
42de
c0bb
9ffd
3f67
107f
5333
9790
c7eb
cf5b
459b
de99
8cad
5a4a
fbb3
4d7c
5916
876d
0654
8511
8c15
8841
3396
27ae
68f2
22b4
39e8
387d
8355
a7a8
8e5c
6ab5
232b
c9d7
cffd
6039
2f62
d0ce
2719
8bee
da3d
c56d
b545
4941
7f4f
3f31
f917
80bb
62c5
9a5c
e3ea
8a6d
748f
173c
6d78
8334
21d3
2160
83a6
ed28
ddf7
6f71
4f64
b096
c26e
b43c
4b14
5e3e
b631
b685
439e
dd2d
b665
4483
5956
9416
9dca
edc9
2178
258c
4326
8d07
dd2b
b476
cfd7
f0e3
5239
2315
2558
5136
6c2b
72a3
52d1
[...]
