[PAD]
[SEP]
[CLS]
[UNK]
[MASK]
0
1
2
3
4
5
6
7
8
9
a
b
c
d
e
f
##8
##e
##5
##9
##4
##3
##7
##a
##6
##b
##1
##2
##d
##f
##c
##0
##00
000
0000
##01
01
##80
00
##08
##ff
0001
##02
##05
0a
##f5
02
##b6
##55
##6d
##1b
##42
##bc
##76
##d2
##1c
05
##29
##4f
##df
0101
##6e
##78
##4e
##aa
##51
##73
##7e
##fb
##4a
##7c
##52
##46
##7b
##48
##79
##43
##7a
##80a
##d3
##03
##49
18
##de
##4c
080a
##71
##72
##fe
##f3
##0a
##0c
##4b
##41
0108
##dc
0100
##45
##d8
##d9
##f9
##fc
##21
##d6
801
##09
##da
##0e
##06
##59
##0b
##53
##f8
##db
##fa
##f6
##f1
##39
##d1
##ac
##f2
##5c
##88
1c
1b
##a9
##75
##3e
##3c
##6c
##69
##8e
##5e
##5b
##2c
##19
##2e
##89
##1e
##2a
##8c
##5a
##6b
##47
##33
##8b
##2b
##8a
##81
##6a
##3a
##4d
##3b
##61
##25
##7d
6e
##20
69
##40
##31
001
##fd
##ec
##70
0c
##b9
##66
##e9
##44
79
##50
51
##83
##23
##77
a9
##be
19
21
##26
##ba
7c
8018
bc
4e
9c
##86
##d5
##f0
aa
42
0500
##b1
##74
3c
59
09
49
39
29
f9
fc
##7f
ac
##63
##ae
2c
4c
6c
dc
##d0
99
7e
cc
d9
89
8c
##11
ce
9e
5c
b9
e9
c9
##28
fe
0e
##58
##56
7a
##bb
ec
76
1e
4a
##dd
03
##22
ee
8e
3e
de
0200
##1a
2a
##36
be
5e
ae
ca
ea
2e
0b
##f4
6a
1a
db
7b
fa
61
5a
0002
16
c0
55
3a
9a
da
53
##f7
ba
8a
b1
##85
a1
41
11
##2d
81
f1
fff
91
bb
31
e1
25
71
c1
5b
8010
52
6b
##82
f3
##d7
2b
3b
##d4
df5
fb
c6
8b
ffff
4b
##30
d1
78
ab
cb
9b
1b00
eb
43
13
1d
06
66
56
23
73
63
26
08
83
e3
46
##bc0
##6db
33
##57
a3
b3
93
##5f
32
d29
d3
##54
88
86
d6
##87
e8
30
##04
##2f
##24
12
c3
c2
92
f2
d2
72
65
a6
##8f
f6
e6
36
e2
96
fbc0
##8d
##27
b6db
a2
62
##5d
82
28
c0b6
22
##0d
##07
b8
b6
b2
100
##84
f5
98
##1d
01f5
##0f
48
f8
95
a8
45
38
d8
1801
fd
58
68
44
ff
c5
07
15
35
e5
85
c8
d5
102
b5
75
0220
50
##37
##000
##32
04
20
##34
##38
##14
a5
##67
##60
180
67
17
##3f
##35
0d
6d
##6f
74
db6
##3d
9d
f55
57
e7
009
##62
27
87
f7
14
##64
##65
7d
00c
4f
77
d7
c7
3d
##b5
##b0
1c00
4d
##68
b7
8d
47
##18
97
37
90
ed
f4
00e
bd
0a42
0f
9f
a7
2d
##b2
cd
##10
94
001d
ad
696e
dd
54
af
10
##b8
24
5d
##17
6f
2f
##bd
bf
##010
##1f
aa00
80
##b4
0105
3f
df
7600
f555
##12
##bf
5f
b0
34
55aa
##ea
##15
ef
8f
6e76
a0
##b3
1f
##b7
cf
70
##13
64
e4
60
##a0
##16
d0
40
##af
7f
e0
##a2
f0
d4
c4
84
1025
b4
##a1
473
a4
db69
##a6
##ad
##a7
##eb
##e2
0121
##a5
##018
##ab
##e8
##a8
##e0
0014
##a3
1600
##a4
##ed
##e6
##e5
##e7
##e1
##e3
##ef
##e4
##90
##ee
##99
050a
4730
##c6
##461
4402
3044
101
##92
##c5
##ca
##94
0ad2
##9d
##cc
0016
d29e
##c7
##c0
##765
##98
##9f
##97
##001
##c2
b010
011d
##9c
##c1
##cf
##93
##cb
##ce
##91
##9e
427e
##cd
427d
##9b
2103
##9a
a914
0247
##c4
1825
##95
##c8
##c3
df54
1001
##002
25a
##c9
0017
##96
df53
659
0025
df55
5018
df56
f6d
##005
1d6
##464
2500
205
##ffb
d29d
f4f
17a
b48
##830
2102
07e
202
##716
25b
203
57c
df9
7800
706
51b
7ec
##805
201
4f6
##dfb
9fb
e29
339
142
d29f
0019
d29c
bd3
25c
00fd
206
b52
455
66e
ff02
##8a1
##d21
04b
529
fac
52e
143
4f8
28e
542
af8
ff6
4f9
2de
94a
427c
##802
7478
78b
##2a0
86c
##886
6f3
##8a3
555
b2e
36d
778
1b6
609
c52
0008
1dc
1de
f39
b76
4d3
a1e
##11d
4ac
##450
##61a
b0e
f51
4f5
0ff
##db0
505
951
##fce
1d2
##bbf
##750
1b01
0800
151
6b9
00fb
50c
200
4f3
##088
52c
8ac
501
51e
789
8fe
14e
3ac
1d3
##360
dfe
105
##6a8
##f07
efc
419
2f6
259
##4b0
06e
50e
2100
67b
##710
00ff
df57
##1af
0dc
14f
b5e
26e
248
306
##465
##f1d
db74
##f50
##083
4da
a6d
251
1d9
##70f
##fa1
905
252
##33b
f4e
502
4df
0ba
4fe
70b
427f
76a9
##367
8d3
1da
001c
fdff
53c
503
50a
1d8
c76
##3ed
##f51
103
d45
ed2
14c
f1b
##fd0
##810
##4af
##3b0
51c
1976
##bef
6100
##250
##7b4
##6b0
efe
0049
##407
1802
##610
##632
559
##3a1
78c
6d3
bae
6700
88ac
##118
##811
4f2
149
##71e
##3ee
539
11c
##212
62e
##550
e2b
##f52
##41d
50b
ddf
3fe
519
##be7
eac
##431
##72c
##b14
afe
##218
0221
573
54c
ef9
54f
378
b09
##58d
1d1
5ff
788
##80d
##717
7a9
c1e
1f3
253
##3a6
##217
##003
##50d
4aa
##80c
##7e4
##3ef
cf3
b05
427b
##40d
6574
f19
##bb5
78e
f59
22c
##663
##46c
##418
6765
7f3
509
4900
bde
55c
31e
9f3
d79
##817
##551
##d04
533
##f04
3a9
f6c
##492
##695
7ac
##f16
e2c
##fb5
4ec
9ec
bd1
7e9
af6
##3af
7dc
7aa
##6bb
28b
##781
##fb0
7d3
##7bb
8ba
##808
##81d
6174
359
1df
##865
088
##43d
bd6
2ff
9fe
54e
17a9
##638
148
1db
873
f5e
##224
605
##722
e4c
5010
##f14
##410
e89
11b
##80b
9dc
f6e
##667
##fcb
3ec
ff3
52b
##207
##313
##777
20e
48e
42c
##807
##314
##2a1
7ae
##614
##72f
4502
039
7de
56c
4fa
729
f53
##453
642
679
14b
##3a0
##3a5
##615
##fdd
805
##fc4
##3a7
da9
ff8
##bc6
1aa
c53
##f53
6461
##237
##f1a
##784
2800
##d0d
##2ab
06d
fa9
56e
9d9
##5b0
##bb0
079
##d07
40c
7461
aaa
7f8
7b9
##25d
4ff
##444
##3a2
ce9
##7d4
3045
4830
1fe
##7d7
f01
7464
f29
fd3
##804
10e
a01
##4fb
1804
92c
##4d7
##430
b73
##312
##232
03c
302
##310
##bce
179
9e9
##4d5
##268
c03
31b
86d
##726
ea9
##707
9f9
##49c
40e
852
7d2
7b6
93c
##468
##287
60c
db67
##69c
##694
##317
cb6
04e
##d0f
552
##7b1
f2c
##71a
705
##40f
##635
##f24
4a9
edc
##2a7
309
ff9
6e67
ef8
##71f
##725
##71d
fde
773
bdc
cd3
d7c
0ec
e01
a0e
##419
##3b3
7ff
2d1
##7ab
ffa
c02
e6e
a7c
a59
9d3
##815
553
##3e8
##70d
##7f7
c59
7d9
##08d
##bc5
##3e6
453
##80e
##d56
65e
##f10
6ac
##72b
80c
##837
229
56d
b6e
91c
c2c
a09
d1e
34e
de9
##552
e53
##219
##490
##f15
##7d5
##630
##f1f
##007
##08b
94e
279
##d85
##82f
55e
753
0578
21c
c0e
##3bb
##6a4
08e
9f8
##6bd
90e
173
a05
##587
##63f
##36f
##862
a3c
959
909
eb6
5de
e8e
109
23c
##234
##254
##69b
439
809
e5c
##613
653
d8c
##6b4
##818
##72e
6d9
2aa
63c
##d5f
b7c
##812
b53
##72a
97c
##665
##23d
ef3
##3e7
6aa
##fc7
##8b0
##7f4
##22f
a1b
0400
##bb2
##dd7
a53
##72d
##756
239
fec
##f20
14a
##7b0
##fcd
##698
a03
##413
##b12
90c
##562
31c
939
##713
##215
12b
506
c39
##265
##58f
37c
##411
60e
##7dd
c1c
##416
24e
a2e
##bc1
##813
1f9
803
db70
38c
##d6b
##db3
##814
68e
bfe
66c
a8c
c09
##3ad
35c
5e9
719
952
e73
##809
b79
##d8b
af3
##3b2
##568
242
##fd5
04c
##806
##61f
0d3
d4c
9ac
##25f
##467
409
76c
##728
##718
##d87
d73
e05
4b9
119
c05
faa
##bcf
17c
c3c
##3a3
0da
eec
8b6
e6d
##463
##711
5aa
5f3
##7ee
##41a
12c
80e
##f13
##f11
36c
##462
##75a
ba9
##b10
d05
##fb1
##6af
##3b5
1ac
d2e
##bc7
953
319
b0c
##fca
##f0f
be9
ee9
21e
fb9
##3b4
f73
##db4
1e9
489
bb9
##3a8
##61d
e39
##75b
1a9
##b13
##634
##3e5
##dd4
e0c
0205
##bcd
551
f05
##b1a
##78b
a0c
##fba
##754
##6b2
##227
64e
41c
##257
86e
209
68c
##d57
c4e
##316
9da
fb6
##720
##417
daa
##2af
##5a1
d01
##3e9
e4a
21b
24c
a79
c79
##458
##fc6
##6b5
20c
5b9
ab9
4dc
dec
##6b7
##6a0
159
##460
##714
##78e
83c
6f6
d3c
##727
##854
##2a8
##8a5
5d3
##6b1
a4e
##507
6dc
f8e
##0b0
##f18
##31d
##263
##f54
1c80
3e9
##b11
f5c
##7d0
f79
5a9
##f0d
089
9fa
a5e
2d3
4de
46c
8f3
a6c
##3bd
1ec
##db2
##be3
##333
0f9
##803
##469
##3ae
305
##d88
04a
0f8
15e
##3be
87c
d5c
##6a1
576
ab6
cec
##4dd
5ac
942
859
96c
c29
d2c
006d
9de
##404
##69e
329
a02
ffe
##6b8
##81a
1d00
75c
##668
709
c0c
##bcc
##715
1f8
405
##f12
##666
629
81c
c0a
8e9
b59
##fbb
##43b
401
48c
b42
##d81
b5c
##330
##3bf
fdc
##f19
13c
548
##433
##719
##d61
2f3
f09
##612
##7bf
38e
5dc
619
ade
##723
##75e
22e
##712
##457
##838
##238
0e9
3f3
e3c
676
aff
##081
##fb2
##47f
##85d
##553
##4d4
042
303
bff
eb9
##724
##46b
##45e
##774
##f2b
25e
e5e
##21d
10a
2dc
353
##f55
##660
15c
5b6
a39
##3b9
85c
3d3
##836
##3e2
##31a
0b9
fe9
##bc8
##758
##230
139
d6e
eff
##41f
##20d
##66f
33c
459
98c
d53
e19
106
b8e
##00a
##432
##662
9f6
##493
##bed
##860
073
##4b8
##690
cd9
##7a1
##8a8
6fe
8000
##6b3
##75d
##5a0
##be8
e88
2d9
9ff
903
ad3
df3
##664
##b17
30e
8da
##721
##77f
##fbe
9d2
829
c5e
##bb7
602
b1c
efa
40a
##75f
##be0
3dc
dac
603
bd9
b19
##414
b02
f7c
##31f
e79
f0c
##835
601
919
##4d0
f8c
##3b1
fda
##214
44c
85e
##7b9
##7b3
62c
eaa
##fc0
##b18
##b1d
b4c
##2a6
##41e
##260
979
##69a
aac
652
129
606
75e
##bc3
0d2
a89
##5b8
3aa
8ae
0de
24a
45c
##3e3
##33f
##30f
342
e52
##474
902
11e
e42
##2ad
##d54
403
##693
##47d
eda
##337
##8a4
153
##267
b29
##3eb
##6a5
##d5d
##2d7
0d9
##08a
##d8d
e4e
379
c8c
9aa
##45b
##6ab
##3ba
16c
##f27
##49e
3de
##2a2
2ac
##338
16e
##5bb
##b15
8dc
c5c
##45a
##7e0
##704
e8c
##331
##315
989
##459
3b6
##3e0
779
##45d
##69f
64c
af9
ca9
##0b1
##256
f42
##db5
6de
7f9
b01
20a
92b
802
df8
##637
##494
08c
889
adc
##7e9
##491
b39
cf9
e59
e2e
##783
##50f
10c
373
b6c
c6c
d0c
##46f
##4bb
##318
##fd7
f89
9a9
##7ef
##43e
b6d
f48
##f17
##22d
2b6
db9
219
61c
95c
##617
2fe
429
##204
##365
##364
b03
d42
##f2f
##565
##d89
301
dde
##618
27c
759
d6d
##fb4
##f1e
702
##5a7
65c
##3ab
##115
3d9
##3ec
##69d
##f57
##7b7
##3ea
839
c6e
##bca
##be2
34c
dd3
0091
##7af
fd2
6ba
f52
##80f
2e9
402
##fbd
##757
74e
bb6
cf8
##fc9
##d6c
742
8ff
973
cb9
##d8f
e02
a4c
##fc5
348
##beb
8b9
##466
##db8
##7b8
##bee
389
5d1
a0a
##7ea
##336
176
842
c01
273
72c
f0e
cdc
##f2d
##235
4b6
##db1
##bb4
639
6a9
##636
81e
f2e
12e
58e
8f9
6ff
##33a
fd9
929
c7c
1c1c
2b9
b0a
cfe
##7e2
##f26
##6be
2a9
a2c
##7bd
##470
##8af
71e
##216
##6ba
##816
##6a7
0fe
77c
98e
c48
e48
648
##fc3
ede
e1e
##4b7
76d
##ddd
80a
##7b5
9df
##b16
##412
##262
61e
92e
a1c
b1b
f1c
32e
3b9
8ec
##08f
d6c
##7a5
##f2e
##fd4
5f8
##415
35e
##bcb
##bb8
26c
36e
##08e
##78a
##362
3f9
06c
70c
5d2
a19
b2c
b8c
f3c
30c
d59
##d83
##335
32c
e6c
##be1
7df
a29
fd1
##f2c
d4e
##f5b
##7eb
5d9
##d58
##bbd
4d9
##264
b2b
##582
60a
048
c73
ed3
a42
41b
##fb7
##d60
##8ba
##6a2
b89
cff
95e
579
2ec
589
cac
##084
##56f
689
##7ed
##4b3
##6b9
5f9
baa
eae
##bc9
##bc4
##7e7
##824
71b
##6a6
0f3
46d
##bc2
6f8
##258
##43c
e09
##4b4
##867
47c
##7a7
651
##fbf
##f28
43c
5ec
a51
a8e
d48
##63d
888
##699
0f6
##864
0b6
74c
5fe
##085
##f5e
##7a2
e0e
##082
##5b2
##8a7
54a
76e
ad9
e7c
##564
42e
6f9
c89
##3b8
##3b7
c19
72e
8f8
##33d
324a
739
##004
##08c
7fe
d1c
##83f
##560
f4c
a5c
##616
##1a3
96d
##697
f02
##786
##21f
##477
479
##787
##8bf
c1b
##454
44e
##868
##611
cda
d89
##bea
9b6
##46a
##2ae
452
##7a3
##8ad
58c
##7ac
##584
##f25
##3e4
07ef
076
70a
dd2
##332
##00c
b51
##434
##696
bba
##8ae
##692
##334
##4f7
88c
0c1c
4d2
##6a3
45e
##495
##8a2
##5b4
##5ad
6d00
##d63
c2e
a48
376
41e
c42
ddc
448
##86f
703
851
##7a0
f03
2ae
c4c
##7b2
##499
7c29
d09
d2b
bf3
##496
819
e0a
##4ba
##456
3da
6fa
94c
##fcf
##086
ad2
bec
488
df6
##d8c
##7e3
0fa
##788
90a
1ff
289
67c
62b
aa9
bac
##782
##7ad
##282
bf9
cde
81b
##7a8
71c
6b6
##fc1
##210
2d2
caa
c06
ed9
##45f
##089
##49f
##d69
9b9
##d65
##5b1
##585
##8ab
##311
1ae
bda
##211
4e9
8aa
##5af
##863
##368
8d2
##f56
91e
##2d4
a73
cd2
##5b7
673
##fb9
##7ae
##236
e03
e06
##857
751
aec
9d1
e1c
##7e5
dff
##dbe
##117
1004
##4b2
7ba
d02
44a
42b
91b
b1e
d0a
##d6a
b88
##7e6
##7a6
##dba
##6bf
##be4
##1a2
442
d5e
##7be
3ff
46e
d19
c8e
##21e
00b5
##db9
752
8de
d88
##3a4
##db7
##bb3
bd2
876
##6ad
##5a8
07c
152
bf8
##4fa
##438
##567
##2a4
7da
853
1fa
##f5f
##b1f
dd1
d76
0af3
ef6
##26f
2f8
5fa
a88
dd9
f76
d8e
806
##4f4
##3e1
##fb8
0080
84e
a52
d39
##bbb
96e
afa
##dbb
1f6
73c
##437
ae9
##7e1
3f8
##78f
906
cae
##498
##f22
##436
##43f
688
26d
##7ba
##43a
6d2
dda
##0ba
##1a0
##0bd
##23f
2f9
##497
6df
f1e
##21a
9ba
##78c
##8a0
##f5a
66d
f2b
28c
##8b9
f88
88e
##d66
b4e
##785
##be5
d51
a6e
##fc2
16d
d0e
6da
##dbd
25a8
352
##d84
##5a4
##49b
##691
d03
##45c
##f23
2da
##304
##7a4
##832
##dbf
c51
##834
82e
e1b
##7ec
eba
##d67
4ae
f0a
##1a1
34a
748
9ae
##fb3
##fc8
##5ba
f4f6
##5a3
70e
c6d
8d9
a06
##006
##284
##8a6
8a9
adf
##435
ed1
##6ae
##827
64a
ada
##4bd
##28f
b3c
##fcc
##be6
1716
bf6
##5bd
0d1
32b
5ba
##504
879
276
988
8d1
##0b9
2700
##008
##439
##81f
##8b7
a4a
dae
##d6f
4d1
##2a3
848
##28d
##00d
##1a6
##20f
##5ae
##5a5
##110
3ae
##d8a
##f2a
edf
59ea
5df
3d2
d1b
##087
##d82
##f59
901
##8b8
##8bd
##4f3
##49a
588
006a
##556
7f6
##4b5
e76
##83d
a76
##4b1
5f6
##8be
##1a7
82c
##4f9
##55e
aba
##d64
##4f6
406
##d68
c4a
5da
5ae
##8b4
8f6
776
84a
##557
d2a0
4e6f
f06
##d62
fdf
30a
dfa
ad1
##7e8
##0b2
84c
##00f
948
##5bf
bdf
##d8e
##d86
##1a8
6000
72b
351
8df
000e
##7a9
##8b3
7fa
##30d
a2b
288
3fa
82b
##f5d
##85f
d52
##00b
fba
e51
##554
##f5c
3d1
b528
##111
1803
##f58
##5be
##4f1
##78d
0b1b
cd1
3ba
c2b
7d1
b06
##009
##8b1
##4fe
##49d
##213
##2a5
3f6
##4be
##5b3
##4b9
##55c
388
cfa
0300
61b
b4a
4ba
##0b5
1003
701
##00e
##5ab
##0bf
##5a6
8fa
##4bf
3df
6d1
2ba
##55f
##4f8
##8b2
22b
cba
0df
##4f2
##113
476
6ae
4000
##55b
##555
feff
976
##789
##222
ac00
##1a4
451
dba
fae
##0be
##0b4
##112
##5b5
1805
9fb7
##285
##4fc
##5a2
##11a
##307
c88
bfa
e11d
##0bb
##55a
##0b7
cf6
##5b9
##1a5
2df
74a
d4a
##0b3
006b
0003
a100
##1ab
f4a
##4f0
9100
d06
##114
##0b8
##4fd
2fa
##558
##1ad
##11f
0a90
##8bb
##116
141b
0a4d
cdf
dc01
##559
f40c
df00
36d7
dd21
d886
2501
##55d
0040
0305
6c77
bd31
38a3
0d1c
7ec2
00ce
181b
0a0b
d900
c000
00d9
0a0e
0ab2
254e
e7f2
1c01
bf00
1011
0102
0248
1000
4280
0ac6
##8b5
b500
df94
4a86
0005
d61a
1818
bc1c
2ffb
d29b
bb55
c765
0004
fd00
1027
00de
1026
0021
80f2
b48b
038e
0600
00fe
1811
1700
0020
6595
1800
0a1c
9c21
3066
c676
fbbf
0c3e
00df
db41
0b1c
0a1d
a6d6
49fa
ca00
00d5
455a
0405
7b4e
100b
1d80
6b9f
50f4
6f6e
9200
1c40
6a47
706f
3c1e
a000
1826
2657
b82a
101b
0060
c61c
af73
9800
609f
161b
000d
000a
7069
25b7
5162
28ee
180c
c523
142c
00c0
0007
9e00
9f06
7360
e348
b764
0006
0034
2de8
48df
2cb8
1100
ff01
0a79
0329
6088
010a
f700
8800
de00
1d69
a8a1
e54d
0700
a1e1
0085
001f
000b
f6df
6b00
2ab0
180b
0a81
3aca
06e5
7300
0ba7
efcf
0a7a
a1af
b0e3
1007
0009
7782
bc5f
ff60
1852
0010
190c
517b
e13a
001b
78bd
4da8
9c20
f1b3
598a
3b59
001a
04b1
b018
0031
0a51
0aea
000c
29f1
8ac6
0045
008c
52bc
0065
4a1b
4c9d
0a94
9dbc
00dc
2919
008d
57c1
07f8
0052
5f43
b367
dfef
3d1b
5fd0
00e0
4195
cfce
f000
0ca6
d6a8
25ce
8700
b5e2
1c55
95f6
a841
d083
0c1b
c6f9
000f
0015
0ae2
e000
0afe
ce5f
67b5
51b1
434c
0053
f929
1808
0505
001e
091c
002d
004f
0072
b300
00bc
1b66
51a9
2a2c
833b
0012
9500
0a66
0018
ce2a
008a
003c
0024
4a5b
74db
008b
7200
a70f
002b
ca02
00ed
d800
659e
0069
9400
d700
0028
5200
0070
ae00
00d3
00bf
1005
2000
3900
0022
e8fa
0a88
0a47
e400
0a70
18ca
8001
0023
02d9
bc00
00ea
0047
4be7
6b48
0ad8
0043
006c
005a
57c0
86ca
0afc
94a4
002c
0ac5
517c
b900
1806
0026
0ac7
dfa1
b4af
00b1
1e00
0b14
0078
0af1
0c20
00b0
0adf
00e1
0042
760d
25c0
0a33
020d
2475
002a
5ff7
011c
0512
0068
0add
8200
0074
0013
00f9
00e7
d500
005d
0050
39eb
6c1b
0aaf
00ee
00d2
3080
071c
0501
2511
0048
002e
0030
031c
0036
00e5
107c
0a0a
78bc
0af4
74da
0027
0a78
0011
4688
0083
4f00
00f7
0db0
00e2
00bd
0041
00fa
0a54
100f
0071
8702
0a6d
2f6a
007f
e7b4
0035
1810
0090
0301
9900
0a02
0061
0039
061c
0a2f
1002
b000
021c
0029
00c3
0099
0810
1b02
1018
f6dc
f550
252b
0605
005c
0081
00a7
e299
6465
0064
0a8f
5100
143a
0a15
2663
009a
0096
003e
b48c
2d00
00f5
dc00
5800
00a1
1200
00a0
1a00
f800
0046
0077
3000
1d1c
00c9
11c2
0201
e800
0a26
9b00
04bd
d600
461b
00c2
005b
003a
007a
005f
0a18
00c4
00c1
0055
00c8
0431
00ad
250b
7119
e8f9
00d6
0a4f
1601
00eb
044b
005e
1171
7118
0a43
0a41
4a00
00d1
d300
8e00
00be
004d
6164
9a7e
381b
f6dd
0033
131b
28b5
7c42
0ad4
5013
00e4
0038
f7de
00aa
9300
009b
5000
0063
1900
0401
0044
378d
00b9
0086
0ccc
00e3
5e00
0092
00a2
00b4
0705
25bb
00ec
4e00
0037
ce29
00e8
00bb
009f
05b5
e85b
00ac
94a5
0a92
091b
5600
4f33
00b7
e100
081b
dd00
0a89
0059
0098
8efd
004b
0066
a601
0054
0a3c
c900
0057
5a00
00a6
8b00
1008
a700
0051
5154
3a1b
1817
00c5
00d8
00b3
0adc
6600
8f00
00f4
f54a
af00
0dcc
00ab
0c63
0900
007e
4180
00ae
00d4
006e
6bb1
00cd
659f
003b
0097
ebef
0a00
5b1b
00fc
0062
00a5
0104
0032
003d
0632
2571
0088
002f
3fea
ab2d
00a9
00af
00e6
ef00
00ba
c61b
0141
007b
008e
0093
10f9
5002
0073
00a4
0089
0075
0299
007c
0082
0094
1f3f
1701
0b00
4eb9
0095
00a8
00db
0aed
0f00
00b8
6572
00b6
004e
00c7
0aba
181f
00ef
0a07
00cc
62e8
7273
00f1
0a39
00f6
009e
2400
86c9
00d0
00b2
9600
a500
6865
008f
1850
b4b0
0a24
e500
00d7
0a0f
2101
009c
00ca
1010
0067
1860
1024
6561
004a
da00
5424
1300
e298
0058
01fd
003f
3200
3600
00f3
f58d
009d
0610
00a3
00cf
004c
5500
b763
006f
4a5c
00e9
2a00
00da
0a83
1923
50be
d100
0079
0a5c
3800
1500
00f0
184b
185f
0e00
22ca
a710
0c00
db40
05f7
d7e4
0a73
5900
50fb
ab00
a902
3100
0d51
0076
ff00
0087
00f8
5380
0a4a
1839
0056
51da
2a37
8811
00dd
ea00
100c
181c
9f00
8ba3
1cc0
641b
1819
7a00
0c1f
1108
551b
007d
2200
3a00
0ade
e200
31ef
1d6a
0280
1b80
4f92
facc
4500
5022
e29b
4c00
3ca2
3d00
7b00
7f00
4ea1
c524
4600
6f38
42ce
7e00
4b1b
951e
c600
0f1c
00c6
3f00
780d
d010
fc00
8e01
0a77
7705
ed00
0180
ff61
5172
f5d3
cd00
00cb
4300
25ab
2f69
02fa
bde1
63a1
0ae9
1846
e202
1837
4f85
951d
7201
6200
00f2
fa00
7700
2b00
4800
101c
571b
5f00
0084
101f
3ca0
5102
4200
131c
0480
6e00
0801
0805
455b
2de7
9c00
2f00
0904
facd
ca47
3b00
5400
4f07
5142
f300
f100
5b00
6500
6800
8505
5d00
d9a8
661b
8500
7400
52e4
fa4a
0e1c
f500
4f0c
021d
0abc
3e00
4d00
23a6
511b
671b
6002
2600
1d6f
4e23
50c2
14f2
ce00
cb80
0701
8c00
bd00
5224
5178
1e1c
3e01
4fe2
52c1
2b58
481b
af67
51af
9000
0a1b
511a
1d6e
0d00
7244
6f00
4400
ee11
fd46
0d1b
bc30
7100
f305
b1fd
e14d
b800
041d
4407
5021
2300
0325
a266
2455
121b
1248
520b
4f48
5237
3300
a300
8600
f900
f3f5
35aa
6212
9a00
1400
4501
4f6a
6a00
1f00
8380
471b
6300
be00
100d
5580
2502
57bb
def0
0af5
51dd
5306
081c
0bf9
9d01
53ce
a817
0380
171c
0210
2c00
a800
9d00
c700
db00
3f1b
bd64
c300
0781
1188
4d1b
b10c
a600
180f
4dfb
341b
50e8
2900
3700
d200
5700
816f
ad00
8400
051d
39a2
c400
08a1
421b
7e01
3400
431b
cc00
ca53
8002
8100
5218
1814
b700
51bd
508d
7000
43ed
6c00
1014
0b01
4b00
7900
6767
0402
ce57
b127
e0f3
051c
274a
8300
52e8
a400
6e1b
ee01
b600
d016
5139
3500
0c80
8a00
a580
529a
2005
7cbd
50f3
8900
fe00
8e76
6201
7b50
c677
491b
c100
e300
3394
df95
11bd
c001
01bb
28ef
3680
9700
d005
2580
d000
6900
c500
0bd7
8901
f013
50a0
a153
b200
3e1b
7c00
bb00
5300
4100
151b
b080
4001
0c3f
c200
0884
8492
a900
ec00
50f0
e700
a002
e900
e600
d784
0a60
4d01
6bb2
218c
f5d6
4f01
559e
646c
8d00
b400
2a35
ba00
f54f
43ee
1505
e501
0fd9
f400
83b0
f600
3c00
0905
1480
d400
5c00
8476
a78e
f200
201b
8f01
7d00
5152
0acc
5301
51aa
ff16
1816
9101
7980
180d
03ff
eab1
2e00
bb54
2701
0b7a
01fc
a200
4a01
4700
8780
8b80
cf00
0a19
bb4f
b501
51be
1180
0e80
307b
d501
e380
8d01
1822
1dc0
4a5a
4880
6400
e801
fb00
b101
3205
359f
57ca
18f9
6901
ee00
1101
1022
5232
ac02
105f
b100
816e
1d40
aa80
cb00
01d2
7500
2880
501a
4ea2
4ea7
02c2
eb00
441b
ee80
3580
97ff
6780
7a80
1d0b
6880
1820
0601
4eda
4c05
3280
0a7b
be80
2bb5
ea05
8280
fc80
2080
854b
5297
ea02
1016
4251
2380
b07b
0b05
b180
d5d2
6c49
8680
e01b
1b19
517a
d2d2
f980
b906
a119
3b80
251e
bcd9
50bc
1046
6f3a
1052
ac80
4f62
bc1d
f480
2ffc
4f5f
5397
7802
1c2a
7144
151c
4b80
a901
e280
4780
dd51
3017
0baa
e880
f005
1c99
d9df
d646
0901
fe01
2d80
517e
7d80
0204
db68
1c33
f180
49f9
22fb
c800
471e
1880
7e71
f4f7
31bb
2a01
ae80
18d0
ce39
4a80
58a1
5c52
af1d
13bc
371a
eb80
65df
10ee
7117
7e38
cb6d
4480
9580
8580
121c
9050
0110
2cb5
2e80
de92
51d2
524f
2480
face
53d7
e180
2001
900a
f10c
d505
3ca1
506d
1807
9e80
fb0f
ff05
9f80
25b3
a016
fc01
4626
8801
e480
1680
4f02
6ba0
1219
0880
6280
1039
ba80
392a
c602
9780
6e80
7b3a
e580
8f80
fd80
1580
506f
44b8
b8bf
01e6
1ca0
be64
1a1c
9d09
0aef
2780
c747
0bd8
5283
1020
8011
5c18
1006
c5fb
0f80
ce80
2a34
1080
6980
fe80
5687
1717
1c66
526a
d680
7c1c
8af8
4680
0298
037a
0680
d580
b610
ab01
c280
7818
7f8b
535c
5056
7b43
c580
51e3
3218
0ee5
45ff
0111
6252
251b
0c05
50e5
1ade
6d1b
6480
25af
5051
53ae
d912
52fa
e7f1
104b
a807
0103
0cac
5980
5205
8d3f
53e6
52f3
4f1b
67bb
5108
aa25
200a
11af
791c
4e80
e2bf
4fcb
8701
5480
1e80
1105
7115
0147
9506
51b9
ea80
9c84
f9d8
7680
7880
f780
f742
b48a
ff80
d50d
51df
b904
1ed5
d201
7480
b418
f50d
5680
56f8
b380
eac7
4e72
0780
830f
0580
ea04
c601
2f80
fa80
b1df
9b80
5780
0a80
218d
3c51
4602
35a9
503e
5104
dc2d
8a0e
c680
fa31
5080
43a5
3c1b
9df0
643d
2c80
ec97
de80
1c60
2015
1de4
9808
3942
fe0d
311b
28a9
4d80
9049
ad01
2217
4e3b
da8a
50aa
2f1c
8d32
54f6
863f
f901
b680
6d75
9520
2202
bba1
2002
5bd7
9d5a
a780
b480
425d
ea01
6506
6f37
50d2
489e
f310
6e1f
2969
ef8e
8d85
d50a
5401
ef80
5052
ef98
4ec8
4f26
ad6b
1caa
ae12
5387
4f72
facb
4dee
c880
fe3d
7b05
3209
b880
179a
e725
4e53
0eb6
0e06
4f86
0ba8
044a
3d80
480a
0a99
0980
a1d7
1383
7350
0d05
694a
5292
790c
aa38
2e05
7180
cbf7
1d1b
e839
4fce
b50d
fc5a
2b80
e86c
506e
52c5
efe8
51a5
4e70
9c80
3f09
4f89
cf3a
4532
4002
b980
bb03
d619
ed80
33b3
5227
4c80
8a04
1037
48e8
a08a
efb0
a93c
210a
c980
4bfe
1d05
626c
b780
50c9
c2a8
7a3e
f8df
50b8
1b46
261c
51ce
f53e
c862
4eb0
2980
ce21
da4d
53ff
4181
814b
52dd
a280
6f80
51e0
afe0
8e43
5a82
1d75
2072
528d
b87e
2d1b
272c
5234
6952
d980
3f80
52e7
519a
070d
66bb
b4f7
d710
e802
0a05
c90f
4b0b
9280
0a2b
fc08
c9ae
1380
a401
5295
efe7
5146
8980
7a0c
de7a
6b75
a305
b014
ab10
4a49
8b02
470b
5287
b430
f81d
d880
fd01
a080
8781
4e47
c180
4380
1b1c
4e4b
2a80
9a2d
eaef
22a1
4e4d
9180
731c
d280
4ff1
d614
a980
527f
1d01
2375
48f1
ffd3
1aa1
ef07
0a03
6e32
04d6
3f01
4f83
4f1d
d90d
712d
4305
44d5
e20d
017d
4c1b
2e10
8b0b
d180
51c9
9080
9048
4fa6
7291
5d13
0f1d
1317
4313
52ab
a7bf
8902
0821
c380
92db
a64f
b580
1b60
e892
52b7
fa9e
4c4b
ca25
da80
530e
f229
681c
cd09
4f3c
0695
11a2
2f50
011b
fe0e
76aa
de01
5322
3380
9380
4403
50d7
4f6f
3a95
51a3
3c17
390b
414b
904d
50a2
760c
ca80
5304
5ba9
f3f6
2876
f580
4f0b
3a2f
e779
904e
253e
bff3
4f1a
fbb5
51f2
5303
b8d9
3a93
41c1
6f07
2180
4e5b
5a80
8180
770c
0f01
7f80
971e
0a01
5165
2b1c
54d2
2c1c
0e0c
5345
1f01
200b
6fb5
7081
017e
ee04
2b02
df93
1519
51ea
e9fc
ea07
f380
4701
904a
cf80
9bab
a217
0ae7
187b
51a6
f958
fc48
9231
507e
904c
5fd3
d799
01bc
0ac1
9a6c
fb1c
751b
b5e7
2d11
13ef
f940
ce8b
9e40
ee08
6a8e
20df
171b
ed0c
52ea
5054
4f22
8214
0538
4980
ce16
3a48
411b
e241
0d80
d780
3780
205c
f598
44a9
58b9
5167
6c05
fe09
c164
1d70
8501
670b
5f80
2032
35c5
17b1
480b
53e8
5106
0b80
0bf8
5b80
5221
3601
2049
f554
3d8b
5001
92ab
a005
0992
1a0a
5091
5143
4e1b
4e69
89da
26f7
d223
9d80
7d05
df44
4f9d
5337
7507
02d0
7c80
cc80
b91e
9a80
f150
2b1b
5048
4fbc
bf80
e401
51cf
1197
8118
e001
691b
0c01
4104
f3f0
fb05
e301
25a7
5290
533a
733b
cd6c
5501
91f5
af80
fb65
4003
1980
5905
1a1b
daba
c173
5276
62dd
c5ff
c780
50ec
92a7
192c
4c41
fa01
5383
720b
4f44
2f51
4fca
a81a
21a0
9e89
2e01
6a8f
c2f4
5042
0f0a
a0f0
b09d
60c7
541f
840d
51a7
3c80
5377
66ec
4f9e
7216
211b
0e01
6108
160c
6b80
904b
0d04
37ab
9943
5228
a2bc
984e
5801
d705
4fe9
e4c2
a237
4e21
ce05
3e4b
5266
cf01
50e7
533d
37ee
6f14
5117
4ce8
4a72
8e80
7e96
6410
9667
d0b1
1c20
4ebf
9a4c
525b
5223
4b1c
a680
c5fe
2063
4f98
259f
7282
5170
f3f8
97fc
1060
5215
5144
66fe
a880
904f
4f8a
881d
f95a
9ee8
c901
7625
f688
f84c
c708
9480
ef76
5555
0ecd
5254
7003
723d
d7b1
e3a1
5153
4e62
f972
03fe
8a18
520e
636b
33f0
3880
0d01
7701
501e
50af
5128
b136
6301
4f69
151a
4f25
4f27
8005
8d61
a083
de1c
1a80
111b
231c
f51b
5073
dd80
4f5a
cc40
1309
2280
8d80
c480
852b
2d15
91ca
5060
e4ae
52d7
6416
a72e
7580
d080
66ee
509b
3a6c
4105
1d74
f280
6d05
1019
4f3a
f192
891c
3e80
5241
5239
35d2
6d80
f41c
ad80
52cf
7419
291c
db80
1681
c10a
5b01
c247
e680
5d80
fef9
2b05
c604
1d02
8376
f605
4f7e
f510
5212
ddfb
dc80
9a0c
3b1b
ab09
e6e2
e889
7605
52f6
f3f4
7280
e22b
4080
3777
ddb3
ef14
bca0
03fd
6580
b280
2050
753f
0597
51ad
9980
8170
df80
4d3b
5150
ec56
de3a
2a4e
bb59
3305
757c
5701
2f4f
2024
5364
5187
f99e
6c0b
8c80
038c
da01
6609
3301
9674
8fdf
4f81
78b1
51c7
4ff8
9fae
f615
4e67
6680
7380
1501
f39a
d316
bc72
3b27
ff03
27cb
5e01
8188
bb51
4b05
503a
e668
1c0b
1b05
4ea9
7a50
ec80
2b01
063b
f205
e679
e077
66ed
5a21
5272
6380
8605
f680
1f80
2296
21fe
4eb8
9cd9
fef6
3b0b
667b
8601
041c
bd80
6080
f080
21ed
025f
da06
f505
f58e
1f1c
c7bb
0142
5180
0b4f
55d2
ab80
4f4c
c772
014c
0260
fc50
bb02
2680
d209
960a
7080
401b
923d
6999
bb05
50d6
54df
53a0
9802
fc05
ec39
ee34
521b
c51b
0534
ce22
9102
b305
4f80
34dc
529d
8808
1cd5
5113
2cdf
a180
fb80
6305
5043
504d
204a
f401
4f9f
5193
7292
a595
7713
8717
8003
db13
0240
4239
7b80
25d3
c605
93a9
d380
b50b
7401
3d09
b73c
4814
578b
01ff
1905
895c
1ab5
f880
f741
5472
103a
52b9
e01d
516a
3c01
5280
75d2
5075
1401
7780
52ec
1b64
a1bf
979d
071d
cad8
53d0
4505
1fe3
bc4e
fc52
b9ca
cd80
53af
678a
2076
0f05
b401
4df3
4fa7
06d5
bb96
cff5
0ffb
2010
d287
514f
517f
2ab5
db05
b1d2
2601
8480
2798
83ca
5235
83ad
025e
6c80
e9fd
4101
3180
5880
d480
26ef
cd32
fc55
d9d2
30d4
8201
50c7
c53d
7ffe
c2cd
12b3
66ca
4fb5
55b0
18de
79c2
3ce5
cb05
5396
68a8
a0b9
3c05
e9ca
220e
db62
2065
6f39
b2e8
c767
01eb
a98f
410e
1278
4e13
b913
0e31
1e0f
6a27
531e
e701
3448
202c
c002
6e01
5151
bc51
1780
af87
51e6
fd56
5118
9c05
3e05
c101
50fc
3480
66ef
4f34
2e91
4fb1
4abd
cb45
1d73
8b66
5268
a001
0c02
d37c
fdd0
5041
203d
5030
1fcf
7a02
ec01
dbfd
c080
1d6d
451b
3501
2073
2d05
4ac3
1050
6f63
811d
0120
2c05
2c1b
4abf
a16b
9801
cd50
34d2
e8ee
601a
5509
d7fe
6f3b
1512
52b4
0794
309e
14b0
2f52
510e
3980
fef5
3a7b
560c
2014
1901
3201
95fa
2051
14e9
6acb
ddab
181e
e9fe
2301
d66e
d001
056e
8301
3605
b201
dd01
7f55
836f
e722
0b55
20e1
1950
9c01
7e70
9eda
1280
047e
5408
6401
0ff5
38cd
7e2f
7a52
6d41
2801
6f01
2029
788d
d812
7901
c967
e101
9b01
8880
4401
0702
2060
0ae4
1d72
2ad6
ea03
a301
bd05
a405
f207
0202
bc4f
3928
fefb
f38e
f801
ad0e
efe9
ce9d
1e05
fabe
f14f
f515
eac9
fd34
6001
8db4
d811
0140
7102
6d6d
9701
d41c
519c
2fff
3001
a450
0259
bc80
5e05
6b01
d205
9880
6705
e780
541c
9054
c76b
35a0
472a
fdfb
0e05
ea50
6101
f152
25ac
54fd
3425
5b05
2040
cd01
d405
0ffd
8ba0
a4ef
e8ea
0adb
cc51
531c
1d55
2042
3705
9bce
2901
1301
30d2
8080
40fd
d458
8738
bf04
0ae8
fefa
5e51
6180
a101
0ff6
9051
8976
8c01
e9fb
0b53
5305
8a80
d80e
aa05
9e01
7601
5e80
0b50
8172
986e
6d01
5423
0ffa
025a
0e86
c6fb
12d1
20de
1d20
14c3
7e30
d905
a1ff
4601
824f
1da9
8805
8806
0a0c
0258
19b1
5cdf
328b
6502
e601
c401
2052
4d3d
04a8
0a50
0348
7b4d
e179
1d78
204d
8d4a
3396
339c
35a7
7001
f72c
6c6f
0b0c
5505
bb01
8b05
14e2
2538
80c3
d007
fc59
7e80
918f
1d76
2075
7887
c9d2
e080
2056
4f5e
909c
0aa2
0242
02c0
051a
fc51
8171
4801
48d2
f701
1fd8
d451
205f
2039
f5e7
5c80
6afb
fa02
7301
9442
7f01
b001
9c52
3901
3950
fc57
d9de
be02
816d
2253
3851
bd01
7ec1
d457
4005
9c02
0b51
d378
3401
1017
26e6
7f86
7468
2105
4901
ac01
4108
2656
922a
7702
c770
af6e
a44e
fd3e
d80a
fc4f
1a79
4357
e22c
1702
f514
9052
8ba4
c851
54f3
48ec
7be8
7db1
d2a1
aa50
e901
a105
4b01
8379
944d
df05
fefe
5a19
8bfb
2d50
d459
b8cb
74bb
0a62
02fb
191a
59d1
a380
6501
2038
8004
0150
0154
ca01
31fc
43f3
7708
9fb0
5420
4d3e
af65
5638
6a80
8afb
9bba
5628
0250
fe7a
816b
c105
9448
f394
200f
4930
1a05
b151
f153
3130
7501
2f01
6405
4f65
206b
4df4
20e5
1b40
897d
8173
1dd0
3253
205a
f391
4ac7
d809
a9d2
f101
f156
d102
c44e
203e
2591
4095
0f19
1781
0ee7
038b
f3f7
d37b
6801
c5f9
af01
af86
472f
d80b
0af6
0a2a
0976
f301
43f4
1df5
3505
4733
25a3
2064
a1e4
2550
b750
9e76
2068
d45a
922f
0132
02eb
0577
7c57
4205
5c01
6a30
917f
5201
1daa
5601
d363
5705
7d01
f4f0
3399
70b3
dc5c
cc28
897c
7b77
1d4a
206e
2071
2047
4d05
c451
d45b
7d90
c551
fc54
f158
e11b
662e
32d2
0fd6
ad02
5f01
70bc
66e8
4d39
f4ea
df86
9001
9fcb
aa01
3927
dc50
7e3c
8974
7a2f
03d6
de82
3a51
c201
57fb
7891
9fe8
2391
5710
2a32
7b4b
9501
a801
2017
4f66
af83
f511
8fe1
2018
2902
e980
aefd
4102
1d71
d202
f6ff
7d71
2d01
25b2
2030
af85
b2e9
b0e6
951f
1dfe
d860
f113
02d2
05f3
9c65
ea06
ba01
e105
c34e
7261
207e
e751
1497
9dc9
1453
9224
02df
0252
ce4e
038d
66bc
bd51
df01
f4f1
143b
f519
1d83
f017
07d5
e365
f40d
0203
794f
dc57
9901
0323
da05
7801
4451
2046
3951
3a80
bb80
bbb9
d166
4605
e8fb
d251
4580
07db
7d7b
1d39
1da0
fd1f
1450
2be3
7450
d8ba
1c05
cc42
f3fa
207a
f705
7005
7918
4e01
4c68
7e4e
7af2
4302
1d77
654f
2f02
a480
2d81
d3a2
f001
0a71
025d
1ce0
5901
2a2d
5a01
f3fb
2011
f393
259b
7b6d
0450
2805
93ed
0261
7c14
fef7
7b01
4301
1d0e
b801
8401
4736
6d3e
5732
54eb
8803
e0b0
01c8
025b
5155
fcdf
fefd
5389
f601
9601
9f01
d456
653e
7d83
bc64
4b53
c305
f286
b2df
6d40
31be
5465
7a5a
1a01
8b01
7358
8381
d6fb
b650
201a
ed2a
a536
07d4
0146
6e0f
fefc
7a01
f157
26f2
4650
a208
204f
7d6e
944b
cfd2
201d
555e
1515
54ac
1238
d314
02a0
5c50
88f5
f602
2044
14d2
c402
1d60
2058
66e6
5731
56d2
ee95
3aa0
141a
48a5
7265
cdfb
ce01
e9ff
0353
1d4c
65fe
f405
bf01
f513
1d30
bae5
eac1
d6d2
57e4
01f4
b94f
2a36
3105
f34f
2306
d851
07de
6472
5fa4
4614
6f1a
d808
01c0
18aa
9c28
7adf
3eb9
0b02
db01
9680
af8a
f4e7
bae4
6fee
6905
4ab8
5388
f3f1
cb4e
127a
c24e
e201
e2fb
1405
26ee
472e
57bd
cc02
9e4e
4a02
0ba9
baec
8175
eb05
2f49
3f05
11ba
07dd
808b
0a9f
6e05
6e9f
5105
7b0f
d801
5773
14df
6596
f392
4198
2f53
c005
21d2
fe05
3ed2
ae01
3b02
6701
74d2
af88
8802
0a45
3ee0
8603
5851
ffdf
2043
f478
bd02
bd4e
2028
9fc4
b260
7950
7e05
ce51
9e88
b950
1eda
2a48
0b58
c151
5620
544e
2486
5739
54c0
cae5
4750
93a5
01fb
1cdb
bc01
2c79
0366
de63
614e
6605
826b
d86d
f55b
202e
b2e2
1de9
e2ba
9ec1
5ffb
0a7c
1b0b
bc2f
6c01
5ed2
0b5a
5604
f2fb
7d59
d701
3742
104a
2031
4f5c
ef34
0fc4
2815
3260
1b33
7c02
be05
c04e
3175
3140
723a
ff4f
c5fd
1de0
4ac2
70b9
b535
a0cb
64cc
5805
8777
7c01
9c10
4c01
eeb5
bae9
c301
204e
f551
3d51
4042
202d
f396
2003
14fb
4dfa
70b8
bd15
7bc6
1b23
7ed7
7a05
2a02
6505
2201
d74f
339a
4ac4
14ee
4df7
e2c3
3ec4
5fbf
0aa7
4952
4c69
9e77
fef4
0ee6
be01
7bff
5b51
eb5d
8377
5d01
4734
7ecc
3391
1d2f
7896
7deb
3838
9f54
e1a4
0af9
fef8
8105
6b52
8b76
1dd5
2650
44d2
c701
e451
2069
ed24
94ec
df65
7b1f
c6b1
1e01
ee60
6bd4
eb02
1350
467a
2041
d401
b2e6
1d2a
ddf9
319a
fdf4
7886
b726
02d5
dc58
8ed3
2a05
9a01
5348
b150
f3f9
66fd
e605
2401
d452
2025
5553
1bc0
5613
b43d
df20
f212
f9d7
7e89
7a71
3e02
5549
b105
1d7a
9301
9350
2079
2705
f516
7632
9444
01dd
0253
3922
8975
2a55
0b56
f151
254f
f3f2
2b59
868b
c251
c76d
205e
778c
0ff7
1d23
1d2c
26ed
c766
0f50
31af
56b4
a712
021f
02c9
5158
1e1e
ae07
db02
7bf4
c07b
3101
ebf0
43f2
1dd8
837c
5752
b705
202a
bd1a
7d27
04f3
36b0
43ef
5568
6464
c6b0
1c1e
4201
db0d
6181
5650
c54e
b702
94ff
5d4f
5f02
3405
3002
5718
9f24
e005
013b
f905
4cfb
9e52
5c05
0b59
7bde
6b05
5602
837d
1201
f64f
f502
144e
4705
5d05
202f
4ac5
1514
70b7
cf3d
9090
1552
1d5f
3805
42ad
8610
1cfb
0902
2c01
dc5d
7b48
7b72
fa33
816a
e3d2
9045
a74e
944a
2f05
c40a
206f
d454
af6f
a0ac
0d15
5005
63a2
f805
0159
0ac0
0a91
0cc4
5101
5157
19d2
8c33
c998
0340
de5f
5b02
8b51
1d50
561e
c2fb
e642
3642
98a9
d8fb
07dc
f446
9405
5557
5556
f39b
efca
70bb
7df8
01b9
79d2
7c0a
7e52
dbfb
dbf8
41df
c68f
2654
9242
d241
c5fa
146d
3dd8
142d
c1e9
5def
5756
011f
7974
897a
9edf
f155
cb01
6642
d351
07df
f7df
3393
5422
5558
f4e9
36af
30b0
55b8
b723
0ab8
69d6
f965
6c97
533c
d64e
a751
cd51
5452
5d4c
84aa
2057
9dc4
c0c9
24ab
35e4
472c
8807
0187
02e8
5176
2cd2
d9b3
4abe
0bd4
7b02
c152
8b50
f542
97fb
9447
f395
7f32
12ad
4805
5584
758d
b265
7ccf
5940
2a50
7bfb
5a05
5351
8a05
8169
9105
78da
f87a
3801
7dd2
3f4f
b525
8fe2
3065
4df8
14c1
5590
55c0
d1e8
27b3
54d7
7550
92af
b783
c6bb
181a
2992
f90f
fc58
7e49
4abc
8efe
0b08
3a42
532a
1d46
6d42
9443
2022
af89
b2e0
1d89
baea
ddf8
e2c0
7d3f
880c
880b
b263
edb8
ffc5
0124
0ae5
6e53
ac2a
7e33
cc01
7b06
9a42
1d52
6302
fdd2
206d
6d44
6d3c
b090
0fc9
543e
fd0d
01fe
0ae6
057b
514d
cadf
ca06
a302
b8d7
95d2
c569
8d05
9445
b4df
4731
2026
2008
2ba3
1462
54b0
0257
18ae
1cf2
3c39
7e7e
4adf
da02
da4e
8a50
81fd
58bc
d54e
2f21
6402
25a2
1dc8
2007
2485
54f7
3005
4db0
5410
8250
b411
f337
3c62
dc06
7e66
cc0c
0ea2
7b38
5b86
6542
1402
b701
4751
2405
40fb
2027
66e7
66ea
0dcb
1d95
6d3a
bfee
652c
5feb
afc7
0a9c
0c56
7937
7a11
4a66
4a85
0bfb
6a02
8101
6b49
38d2
c5fc
bf05
af8d
0ffe
78c1
afe6
aaaa
0da9
d051
5694
65b1
7083
b817
c6af
0afb
027b
02e0
514e
7c58
3924
7a2a
2ad2
b18c
7105
5b07
fb4f
66f0
3046
204b
e7fb
0fd8
7f21
4732
3392
206c
9053
53c4
c76e
15b8
575d
66a4
6f54
7bcd
86b4
c805
2c4f
db77
410d
2b52
1d44
88d9
a24f
1023
8751
df1b
2590
70b4
c76f
ed27
a890
c2a3
18cb
dc51
8943
0e84
be6d
db3f
11df
31f0
c603
78fb
1d09
08fb
e351
3251
9202
9859
0fde
b079
4f60
0ff9
54ca
7b68
daab
353b
d6de
c6e9
3568
01f1
181d
fc7a
7edc
0e8a
ee4f
de05
db52
5561
3164
8602
8624
75df
b2e4
4ac6
1516
e2be
7aea
d1e4
4dc6
08a3
5630
9815
bf57
f722
010e
01e8
bcc3
4e33
aa0e
3ce7
cc50
5cdb
0e89
5a02
1605
3141
78db
1d7c
734f
0850
c5f7
5702
57f1
3dbc
b751
9449
af81
4d3a
8ac9
248c
f4ef
ef9a
1db5
852a
576e
2768
0312
2698
5f59
d7a7
f010
010c
0a32
8c05
ecd8
3ed1
0b52
5502
f3f3
fbbe
1d7d
9675
987a
2078
3d05
9f4e
2f4c
7f1b
2016
206a
66eb
8fea
4dfd
7a9d
86df
effe
cd97
8d25
1b99
9ca4
3952
7e20
ee02
cbd1
e269
a205
0451
0fd2
2062
ed22
1d11
55cc
0799
9e9a
0fd5
3dbe
300f
5407
62a1
7f52
7f20
9f16
a802
b33f
cf50
e7b5
014d
0160
0265
79b3
19ba
9eb9
b9e7
c905
0ee8
cafb
7b1e
f38c
c501
f451
bd78
0f0c
5479
10df
201e
8fe8
1d92
ddf3
adc6
348e
1314
7fb5
cf52
014f
bcdf
2905
7e5a
e907
ca51
0b54
1adf
3a01
ba59
8160
f15a
5640
e206
7502
144c
9f05
70b6
2055
2037
f512
151d
1d36
573d
7b98
14a6
b0af
b267
0106
02ff
18da
6e7c
5121
5159
4951
fc5c
dc5b
e952
7a1c
7bf7
bafb
4151
5b78
88fb
d206
d7fb
2f4d
bfdf
3fd2
34d3
2033
2066
5559
4ac8
200e
ddfa
c0e4
551a
ff52
010d
1823
1c2d
21ad
9c2a
f94f
acd2
9eb4
7afb
4aff
de50
cad0
5b52
9b05
c242
102a
a501
7406
db61
d74e
2053
2013
7053
4395
3daf
5565
7805
721d
9805
a360
a4b3
6e3c
0c9f
f9da
dc5a
99d0
ccad
9e1d
7a19
7a66
1a53
7bf3
1150
f105
3b87
e389
327a
c348
d20a
b601
204c
9dd2
27fb
4fd9
0fd1
b2e7
8fe5
4aa0
580d
57ab
8812
8864
b25d
b268
d813
7992
2951
dc05
7eea
8978
5c87
e951
0b57
4651
d20b
f5d4
7405
57d9
5706
d752
1d99
9ec0
75ce
9ff2
3809
649c
6824
a4d7
b005
6e50
a905
3c57
fc53
fe58
8e5c
2e67
5b79
f34e
1dde
1705
17f5
6d02
8778
ed01
e402
7f49
2019
1dcf
f517
ddfe
93c3
6291
5d2a
8065
6ae5
95a1
d551
e6b0
edbd
7c37
cc05
0e83
eedf
eaf7
7b8a
9adc
fb51
7822
66f1
d34e
c205
9201
d203
af4f
344d
60df
542b
af8c
b2e3
2009
7a9f
bd1d
7d35
553d
d1c7
62b0
4495
5724
f8a5
0243
027a
0256
1c50
5cb4
7a65
dedb
a1f3
410a
c150
56fc
e87e
c351
384c
207f
ed02
bddf
afd2
d0aa
66e9
4df2
472d
531d
6bef
7664
bf52
010f
0a25
0ae1
05d3
05d8
bc25
9905
9ebd
e94f
0e74
1a51
fa4f
f159
713a
3bb6
6669
b301
b3fc
c352
95fb
158c
9d05
a04e
2034
c764
d45c
38c5
2f1d
380c
65a7
7f10
9005
01e0
196a
7c05
3926
9e36
0e85
4afb
8e29
badf
816c
2b86
7850
ab39
6601
d305
d66b
b266
4852
3825
4df5
3751
0ffc
200d
78cc
f193
a2e1
22e2
3750
3727
86b0
8263
8d63
a3af
c82f
d80d
7929
791d
bcc6
aafb
ac1c
befb
9a6d
1107
a37e
32fb
c2d2
f242
f5d7
98df
9505
6d45
4702
944c
2023
af82
78b0
b2eb
1aa4
c531
65e3
d73c
0fbb
146c
3f50
5dfb
63ed
7007
7f5a
0107
0184
7990
4248
fc4e
d95a
8c74
764e
762e
0350
8e02
6a70
c6b6
43f6
23f8
9205
75f5
7575
b7fb
203c
4f63
4d3c
4df6
1da3
bae8
9dc7
ffa9
6de9
e0e2
7815
9813
d7d5
e4b9
0151
5130
1925
bc40
ac8d
cc4e
9e51
7a7b
1a02
fa7a
5a6c
ba05
ba51
3153
6b44
f38d
4b50
5605
922c
7252
a74f
4f91
8fe7
14eb
1d38
78c2
3195
472b
5b11
6dfb
b262
cbb7
c6b9
d450
d837
0152
0156
0a95
0cf4
bcc2
9cd2
59f4
acfb
cc54
d94e
b951
b9be
0ee3
eed5
8eb0
5afc
2b53
1325
f27e
d208
a605
b87c
58fb
6d50
7063
c76a
e2b8
ea9a
34e6
c01e
7bad
bf6b
258f
3250
575a
6635
c416
df15
efbd
02b5
1c92
2181
bc52
9c51
3c47
3c5d
3933
ac50
c952
1e02
1e7a
0324
de51
be79
0bfa
5647
56f4
7359
a383
8870
d675
c353
fd05
fd48
2d53
1f02
2054
789c
8fe0
4fee
70bd
e399
38b0
6ffb
65b0
9466
b30d
010b
01a4
05f6
79c4
aadf
3c35
3929
fcba
fc56
4c50
d951
e969
0eea
ee52
de61
2a4f
db5b
c045
9a05
9bd2
13ff
e3ff
e84f
12db
f251
96f3
a2f6
444f
15d5
d5df
9046
804b
5f7a
3451
ef01
339b
5425
248d
53c0
0b9c
bd9c
389c
97b2
b587
0224
1878
18fe
2151
09df
f9fb
89ae
9ed6
7b19
fa52
3b4b
0602
8378
e302
88f2
f84f
b5df
140a
8d76
cdff
ef02
a0f3
604f
7f46
b4db
bd32
2006
4aa9
e2c1
0396
c099
e051
64e3
8ff4
1fc6
6805
97b0
d207
d78e
f018
f585
024f
18c5
1c49
1c36
a949
a9cf
9c4a
9c7c
aa23
f978
ac05
c978
0e87
7adb
ec7d
4ab9
0bd6
5359
716e
062f
664f
5653
8850
2852
98fb
ff0c
2048
f702
c752
e405
26e8
54cb
52b1
441d
558d
5695
5bb0
55a4
6fb2
769c
880a
8667
87f7
8711
980c
ad5f
b450
b72f
cf51
ef50
e81d
ff24
1bd1
2188
bcd2
bc61
3c59
597b
ccd6
4a77
de5e
3142
837f
d8d9
d502
75fb
20d6
9d02
7ddf
9078
f402
94d2
3f49
e2b9
ffa0
80ed
0d8d
6802
a28f
bffb
c2d4
d3ee
f78a
01a0
0251
024d
0293
79cd
1902
7c50
3925
fcc5
acbf
5ce0
7a59
4aba
d101
eb01
064f
733e
087a
324c
d650
a24e
6851
b505
b5d2
202b
203a
7050
d7c1
5535
e5e2
ad34
f482
3333
bdfb
fd65
015b
0cfc
0c40
7995
bc62
3cb3
fc02
dc55
cc32
9ee0
fe50
7a7f
5e50
da0d
8adf
b1d5
a1f8
31d2
2b89
3b51
6353
3348
a350
a8d2
4542
fdb6
c58c
f552
edd5
6f05
70d6
205d
1dc2
200c
248f
baeb
b05a
1df6
04c4
141d
543b
b112
ff51
023c
1bf3
69d2
6982
19b5
bcc5
4e45
39d2
fc0e
cc53
5cdd
fe0c
8e6a
1a09
db71
7b21
9afb
8a65
4136
1d53
062e
26f1
d601
e84c
951c
35bc
3701
9047
f442
9fdf
a7d2
2f4e
3397
143c
1d24
8fe9
248b
9593
0754
2418
3550
47ea
4db9
6550
63b5
6785
7d6c
9726
9f2f
bd8d
f3eb
fd6a
023e
0213
05fc
0c61
7942
3920
9ee6
5cf2
7a35
768f
6ad8
5a28
5320
8a51
4178
9160
43fb
13d7
d301
b27b
48fb
2070
14bc
3d02
b771
d0fb
2597
5024
9ec6
1dfc
ffaf
a790
0551
17b9
10b1
4006
800a
b550
c4d4
f811
f217
025c
1c8a
1bfb
1b53
1ba0
79fb
7ce7
9c3d
2c50
1e0a
be52
1621
baf3
4109
410b
fff2
ab51
6659
668e
88b6
e205
a251
67fb
57df
b7f6
47df
a701
2f4b
df02
542f
2487
5331
e2c2
0883
56e0
92c0
38ca
a5e8
1ff9
3f64
2837
2304
4635
97ee
9f17
b25f
e550
017b
0276
0278
801e
0c50
0c77
a9e5
092a
29a3
8c42
ce7b
03fb
03ac
3e4f
3e33
5379
f102
5202
fbd5
9326
88d6
1205
2251
8578
2074
4fb6
9401
24d9
205b
94a3
1518
1513
e2bd
edc1
3051
b1c1
95c2
62bb
5431
7b12
9002
9f27
bf20
b264
c227
dbc8
016c
1821
bc5b
4e7b
3923
999a
7e4f
7ef1
cc59
9e45
9e2b
7a42
03df
3ee1
be51
6a51
3177
3b01
fb02
56ac
63f4
b34e
3202
e851
f283
754a
20d2
1442
3d01
544a
1f05
4f68
248a
788b
1fee
a053
96c8
7ba4
2ba8
1dd7
53b5
60b0
7fc4
7d88
75b1
e493
ef5e
fd88
f50f
0aff
1c02
1cf0
19cd
9c56
3cb9
5993
dc02
7e1c
7edf
c94e
1d49
063e
7305
f244
65db
a62d
6874
177a
570b
bd4f
b0d8
2067
1dcb
f518
1d2e
789d
ed28
1d10
56c4
af3a
9030
603a
0768
42be
15b7
2bb0
8f2e
977f
b334
01ac
011e
05d2
6e30
19bd
7c6a
4974
f92b
4c5e
dcdf
8979
8913
0e81
ec05
de65
ca4f
0b0e
6a6f
5af9
3a70
dad9
b1fb
a152
9225
68fd
db6a
37fc
3fdf
2036
2012
778d
0fff
905f
4dfe
b8ec
929d
5750
5088
7804
ed21
e3be
1c9d
6edf
7955
bc2d
9cbd
3c52
392c
ac7b
ac61
5cda
de02
ca6b
db51
7b08
7b30
a102
c10f
8bd7
137a
566c
2353
73fb
861b
12df
f201
f24f
f22e
4405
07d9
e505
c8ff
177b
607a
4dfc
1d88
c769
c76c
baed
afe3
148e
6050
4fad
40e4
56d3
caac
22ab
53b4
8693
9fdd
cffb
0188
01ad
027f
1bd7
792a
19df
1919
09eb
3921
2960
fccf
7e1f
5ce3
aed2
ca4b
8a52
415c
f342
8b48
8b75
78d2
06fd
567a
30df
f501
f8f5
45d2
384f
20dc
5708
e706
5442
1d66
9fb9
94a9
789b
14f6
f4ed
bae7
54c7
7dc6
1df0
c593
548d
16c9
b6dc
0552
1bc5
3d0d
5f2b
6634
922d
b115
c003
d4b0
e002
f72b
0153
1c0c
1b30
1bb4
79af
21df
2178
5902
494f
7ef9
b905
5e7b
6a01
61fe
53de
ebf1
138e
93d2
d366
8642
a252
35fb
85d3
a7f1
b2e5
4d37
151e
26eb
62e4
14bb
c597
c051
c3ce
4052
f0e8
3d0f
4007
6005
7bbf
7832
80b3
a008
c6ba
d204
0115
02ca
1824
0c66
a943
2121
49d2
399f
29d2
6c4a
7688
7650
2a51
5afb
8a01
9150
ab45
884f
d65e
65ff
968c
58d2
e58a
07e0
5551
5550
f51a
14b2
279a
81eb
12e2
54a4
97d0
b551
0a74
0560
7997
9cac
39db
299a
89d2
e905
7ad2
0351
8e05
eafb
2ebb
dbde
5589
f34d
4b02
ab02
2670
d3fe
8831
f202
9649
b851
17d2
4d40
cd43
e0f0
5427
26ec
f4ec
7dcf
7ae1
552e
a052
bb90
ab98
81c9
c5e1
6032
0750
17ee
7bc1
0190
0ab4
0208
0266
056f
18a0
798f
79ef
496d
fcce
6c28
89fe
9ebf
0ee2
0322
2e41
6a05
7bf0
531b
5381
b14e
1172
1dda
0851
3352
a34e
3602
a201
82fb
b251
a852
07f0
c74e
4dd2
9f7e
a0d9
1d9b
70b5
70ba
1493
788f
7f35
8730
93cf
3dc2
d883
4d17
1f25
2f04
3332
7be3
0119
0113
6e6f
69fb
7c82
2952
9969
ce5b
b9d2
4a51
eeb3
be09
be19
ae3f
ea52
ea85
ea37
1650
410c
2529
715b
3bdb
9b50
666a
9386
868d
f5d2
9850
507a
ed05
94df
247e
ef05
d0fe
f4e8
70be
1d1a
9ec2
54e9
f2c1
a03c
cdc7
60a7
8513
6553
755c
88b0
8809
e804
0130
1cd7
0c18
5156
9c0b
0987
ce4f
b9d0
0eeb
7a79
7a37
7619
1ad2
558c
3a5b
dad2
da36
2505
c651
d13f
781b
4351
1d51
2351
1228
c228
d242
7276
684f
0d50
f7d2
f703
7d5a
4f05
70fd
201c
555d
1de6
0ff8
14fd
248e
ef9b
4ec7
28b0
9f92
229c
c392
5aac
15eb
cb9a
2a90
3b98
1550
1d58
2bc6
2726
255b
6234
7207
a837
e551
f459
05d6
1cb7
1b39
0c88
0c07
a9a7
a99f
9cda
3c5a
3c86
ac39
4c3f
6c0c
7e3d
9efb
fe60
7a6e
6a32
7b26
1186
f14e
f15f
bbac
fbd0
4bfb
0625
660d
56fe
2350
6375
0876
e34e
a3df
f6fc
fd52
c801
04df
2045
87bc
d702
ed50
0f79
5451
54d3
3f1c
efdf
1432
4f5d
7890
1d3e
1d97
ddf4
f6e0
8051
5df6
5433
6250
6bcf
669d
61ab
7d0d
b6b0
b7bf
0a86
0aab
0503
8013
1c24
6e42
69ea
7cfb
bc60
4efb
9c34
4cdf
7e2c
d902
8cce
cef5
b9a9
8e50
fade
ba4e
4106
e1fb
257f
6b50
d105
23d6
2622
b351
86fb
d684
1251
72ff
e22a
9631
b2d6
d8de
ff40
6ddf
57bc
9071
ddd2
2402
101d
25ae
2004
5598
ddf1
7f3e
e6e1
9d25
94c5
3d11
1ffb
30b4
5db0
5312
6463
87a5
9be0
b6bd
c458
d492
f782
0a2d
0ae3
694f
79df
7952
790a
7c32
9cdf
f9ff
ac20
dcb3
89df
5cd8
ecdf
ca03
1a50
166d
a131
d150
78ff
ab05
6684
2671
b3fb
d342
e850
65fb
a609
07da
9d4f
841b
b2ea
1d28
5390
7f33
23ca
c052
8550
9f1f
9be1
abe4
b335
c250
c553
020a
1c04
79b5
9ceb
424f
299f
992c
8c50
5cba
5c54
0edf
0ee4
7a51
4a6a
deb1
de64
caf4
1a23
7b7b
1185
916c
cb07
564b
2653
e378
d62b
6570
96fb
b8df
fdd3
0751
5745
1478
7ddc
e04d
1d3b
ed20
1499
ddf7
1db1
9f93
7736
a09c
60e7
129f
45c7
b037
ebae
3aeb
0dfd
03a8
146b
3637
580a
670f
8f50
8beb
84b7
84f1
a004
e8ba
f450
f3ef
01df
0125
0128
01f7
1851
1b2b
79c9
a9fc
19b7
2153
213e
4e20
097a
ac4a
997e
7e02
ceaa
cee2
5ce1
c947
0302
eaec
5ab1
5a30
55f8
55ac
53f9
5323
5bdf
086d
3303
b302
3252
d658
a221
9846
f83b
fd51
ffdc
17fb
7d45
5d50
2f43
6451
5428
1de5
1de7
31e6
9f3d
97c5
17c5
eff5
8428
d6c6
aece
2088
2854
58b0
a7d7
c25f
d211
69f5
0ca8
0cc9
bcdc
f99b
dc5e
7e3b
9eea
7656
4a78
4ab5
03de
ee50
2e13
5a0d
5abd
b16a
a1df
5bd4
6b82
f38f
4bfa
787e
78d1
26f8
08d2
83fa
a3fb
d651
12d2
c27d
7251
826a
f879
a8fb
077a
07d8
154b
207c
a57c
7d5b
8d50
8d74
47fd
3f42
a0f5
2515
1d12
7a96
f592
9f38
6792
92ce
7d20
e015
7ffd
ffa7
5766
606f
b519
a52a
1dfb
14d5
45b9
67a1
7431
9f0f
95af
d85d
e807
0126
0ace
02ab
7921
4ebb
3c4f
3cdf
294f
fe15
eccf
4a2d
ee7b
5570
b102
41f2
8150
8174
78df
786c
eb7d
5652
2077
a54e
4d4d
b04e
7fde
4ac0
259a
1d8e
ed25
14c5
c1e6
1df4
873c
1099
0f81
9a9f
0488
07a1
1553
1d5d
2750
3fc5
6f51
7750
861f
a313
b71e
cd88
e3ee
e8b0
0172
69b0
097e
0964
f977
fcf2
fc60
9edc
5ce2
0e50
aef4
2e6b
da51
8a02
312d
5bfb
5689
735e
26f0
08ac
4620
3351
88d8
4858
951b
674f
174a
144f
7d7f
edaa
bd0c
9fd6
244f
80fb
cf05
8fe6
14f3
4daf
1d81
ddfc
5335
9d9c
86da
a0e9
e6d2
96cf
f0c0
45c3
c1bd
aa90
2257
3fcb
3336
4bc1
5bc6
6b11
7817
7b1a
7365
880d
808a
a860
ad6f
c7a8
e756
ff50
0138
0cdf
7953
a9ed
5903
9950
ce0c
ce84
0352
0320
8efb
debc
be45
7b0e
5327
b174
a17b
4142
1125
811e
4b54
1ddf
2302
835e
6255
48d3
9502
fd02
c5df
27d2
277a
f4ff
d4ff
2035
2061
1dce
9515
14ea
1d16
78eb
9f36
f6ce
7d32
4a95
7730
90ed
6dc9
15e4
b592
829a
bd94
973d
ef64
17e3
3f51
3bb8
5bb5
63e9
b80c
eb1a
e8a7
0118
6e8d
69d8
79b4
19b4
bc06
bc63
aa6a
3c5c
fcf1
ac44
dc56
7e85
d950
9e6b
fe52
0e8b
ded6
de69
2a5b
ea65
6a48
5a7e
3a02
9a02
fbdf
fb7a
4bf0
abfb
cb51
9bbe
93df
922b
1542
856d
0d06
14aa
140c
90f6
bd40
940c
ddff
b0df
baef
533f
14b9
7d2c
fde4
55e8
daa4
2d33
576a
91b0
82bd
1d0d
11a0
3254
4802
7f2b
afc4
b416
c4f8
f434
012e
0133
0117
0193
0a52
0c53
0cfd
217b
3cd5
3c37
59ef
4904
dc2b
992d
7e6b
cea1
ae55
7b49
3aba
daf4
da62
534f
b14a
f1d3
e11e
25fb
5288
1d06
6643
632a
2643
127c
f241
157a
3d4f
8d79
9044
2d4f
6f6d
80ff
8f02
a04f
7049
f04f
c52a
4ac1
4df9
78e0
9f35
06dc
86d2
552a
4a9b
edcd
08ef
9faf
b420
e195
40a2
cfe8
1fae
20ba
3430
48a1
61a8
7bef
73a0
8230
84f4
a250
b805
d69c
ffb1
0ab5
69bd
1989
9ca9
9c60
f912
ac4f
7eb2
89ac
b902
1e79
3eec
5347
4107
11d2
31df
5b53
2b79
fb42
4bf6
9b79
1d79
0651
237a
b379
b350
86a9
65fc
e251
9642
b84b
f8b6
38ff
3542
357a
c82a
37fb
9f0b
af4e
efbc
a0aa
d04e
c442
c4df
778f
5050
0dc5
2489
a6df
6d3f
2531
b05b
55ca
7f81
9d3f
55e0
9f88
14a8
d3c0
9f63
602e
11ea
3de7
c5cb
4525
7517
9014
7faf
085d
5bee
6714
68b4
7552
7d60
8d66
84f2
9d8b
a7a6
c638
e43c
0a65
020c
19b9
7c79
7c0f
4e50
feb0
fe68
1e22
7b42
7b81
7bd5
5542
554f
9a4f
a1d9
314c
312a
2b76
2b7f
782c
ab52
4348
6651
b33e
c3df
7246
6205
b64e
85fb
9fd2
a4df
25b0
7897
789f
baee
54fe
5ffc
f198
7aaf
c03b
6530
a5e0
b5c8
9df3
b2b0
72ef
748f
ed17
549e
8750
b22d
f61f
ff27
01d5
019b
0255
02fe
801c
0c71
9cfb
3c27
597e
098d
ac1d
992f
7e5e
7ef0
ce8e
b9c6
3e47
3ef7
7b31
5a51
55d4
3ad8
3ada
9152
7103
660c
7326
e38c
a37b
9342
e602
823e
2853
f5fb
070a
07d6
0479
77df
4778
9703
f4d2
8f43
60fb
1433
609e
0dcd
1d82
4aaa
f6e4
6428
b73d
fec7
2421
3039
c5ec
342b
9b6b
81b0
1f52
1085
3360
53a2
549c
9f50
9362
a635
afb2
bf50
ebb0
f002
fd87
012d
0267
1b95
a9cc
7c2d
4e0d
49df
6c83
99c4
7e44
0ee9
ec0c
03d8
2a77
2a04
ca78
6a53
1afb
7b1c
fa45
5a78
55df
bad5
bab4
b14f
71d3
c1fb
5289
3b42
d1ff
7841
ab2a
1dff
1dd2
26ac
084d
8646
1279
f24e
f26c
b846
454f
20d9
6d51
574d
7751
b74f
b74e
54bc
af05
df08
5fde
b44e
f4fb
4f67
3395
5426
af8b
5032
ed29
efe6
bae6
ddfd
54fb
5338
7ac3
7e98
0399
14b5
9d96
d1e1
d733
fb9f
48c4
5485
9ff4
df3b
e521
3ff7
876b
2457
5720
7556
9dfb
9fd5
c835
02c6
029f
69a0
7902
216c
2150
7c5c
bc5c
aad2
3c56
59e2
094f
f950
6ceb
99fb
8977
5cdc
7a40
8e7c
5eaf
6a67
fa08
bb4e
316e
c107
c64f
6602
636d
264f
9305
1202
c27e
922e
a650
223e
228e
a850
6d43
9446
3478
d442
2596
8d3a
bd13
1df3
4fae
14ba
553c
8ae5
1d57
33e2
7f1f
769e
8f04
8006
92a6
b3ef
b5a1
d810
e6db
e1a7
0aad
0c2e
7951
bc05
9c72
9c2b
3c5f
4905
39fb
f9ce
fcea
99df
9951
7e81
7e8d
d901
89f3
fea2
be2a
1aff
1661
53fd
b107
4bdf
ebf9
666d
934b
8651
d605
d2df
6529
b605
f509
a8df
d84f
c542
e7d2
4f46
d742
90db
b047
e44f
2059
1de1
8fe4
2524
ed23
efe1
7dcd
1dbe
7ae6
fa9f
40c6
d7ce
e538
60e8
9ac5
10a0
8da6
efad
aacd
1750
1414
4d61
53e9
55bb
7002
7bea
7f5f
83a1
93e5
af51
afba
c758
014b
0192
0284
02b0
1871
18a4
1c94
a94f
2156
aa52
3cb0
09e5
f902
dcf8
994f
7e04
893a
8991
8c51
ce50
9ee3
c951
fe88
fe44
0e88
ec4c
76fb
1e83
0327
2e3c
1a6f
5a50
3a46
53f5
5343
410f
8159
f3fc
2b51
3b50
fbfb
43f1
438b
735c
837e
93f1
c2a9
3644
a2ff
62bc
624e
b242
6850
20f4
9dd8
7d02
4dff
bd52
0f1b
9f4f
9f49
3452
d043
d47e
d441
c41c
8452
4d38
1d15
56e2
a531
4b99
21b8
3050
5dc3
2ac4
2b67
702e
e023
f1c9
42b2
0413
26a2
38b8
680e
6368
600e
88ae
c6b2
f816
f00c
0176
0148
0170
0285
0cda
7919
7c12
4e02
4ee3
9c6e
9c27
aa88
accd
2c52
6c7b
99f9
8951
8cfd
8c67
9e4a
0e82
76f8
03f4
ee51
de17
ca55
ea6a
2e7c
7b88
fa05
fa65
8a31
b176
a186
1151
e1d2
ab3c
4350
0622
66f4
7361
8305
8872
9283
a28e
a28a
626a
4849
9508
581c
858e
207d
5776
f70b
7d50
77fe
cd52
10f3
6f02
5fd6
b405
7ec0
1428
142a
5015
2484
1dac
9f3b
1db8
6790
da96
ff8e
eb60
719a
b79e
fdc4
3536
c42a
0806
07af
22d4
3082
30ba
53ed
5437
6707
6719
7551
7bed
84fb
8007
a007
c439
ff54
01f3
0198
0ac4
0273
054f
6e51
797f
a95d
3907
fcff
2c5a
7e62
ce17
5c42
e91b
7a77
ec28
1e42
1e58
0377
3eda
deb4
ea4f
c073
532e
ba72
a1f4
417a
1177
cb73
6374
e831
c20e
f277
f6fe
6228
fd4e
c505
04dc
9d52
4ddf
97fe
edf5
107b
04b3
4d35
4d36
14e3
1d91
c1e8
bd16
7aaa
56e8
7b9c
2793
8090
d2e4
ee97
10af
d530
20a8
98e5
90a7
dd18
d517
5ba4
1410
1714
16ab
15a8
482f
425f
5360
545e
54b8
63b0
7311
8754
94fb
945b
a805
ad8f
d0bd
f71e
0122
7987
51dc
bc5e
4e1a
4931
6c79
dc52
8c23
ec73
7653
1e18
5e27
5e10
2e57
fafb
164f
3a8e
9a50
da34
536e
5363
a125
bb56
3133
2577
8b30
9b51
43f0
1dd3
667e
631b
9339
324f
f233
f6fb
3603
e20b
8279
226d
b261
98d2
fd7a
0dde
271c
c705
b7d2
8d43
bd50
9f09
bf4c
340c
1f4f
cf4f
f6d2
203f
1d29
501d
14f9
1d8a
3788
8052
aaae
1feb
fd3f
3021
d1e0
fecb
12c4
1a9c
24c3
d2cb
3f3a
902b
71ee
61ec
42e6
a5c5
2aee
0496
2774
475b
4263
5217
76b2
83a7
9bbf
94d5
abc1
a089
b304
c6b7
0109
69dc
7908
79f9
7911
7c4b
7c45
5985
0952
2954
fc3d
ac6c
acc5
6c66
8ca0
7a4f
76fa
1efb
4a61
de4e
1a4a
1a14
6151
1651
55d8
9a38
f350
fb26
8b45
d151
d16b
ab8c
9b3b
ebfb
1d48
1d45
6650
2387
6343
2677
a303
a30a
a825
6752
9dd9
14d8
edd2
944f
bf4f
f0de
c405
a446
0ba6
af6b
7dc1
f534
7051
773a
08e3
24ae
16e7
0f63
dd25
dd26
069b
06af
1d21
16af
2dfb
2630
57e9
71a6
8450
9418
9f2b
d814
e5ba
ff53
ffc1
0263
18fd
1cb6
1c98
1cc2
1b0c
1b90
0c59
0cd5
790d
19b8
3c61
f951
fc5b
ac37
9990
7e40
cc7c
cc2a
8973
feee
767b
5e02
ae18
2e3a
2eeb
550a
4152
413b
91df
2546
71dc
5b3f
f3dd
fb2a
8b59
78fa
7828
cbd2
eb39
63db
e8d0
c27b
e2a9
9650
b678
f571
f82d
d850
ffd8
15f4
a542
0d4c
e75c
f759
8d7c
a773
2f4a
cf1b
cfdc
555b
6091
26e9
1dab
6053
ff87
86d7
7b64
1738
2395
af35
dec4
92bb
076f
f889
15bb
1f5e
5453
569c
58b8
68a7
7803
826f
9212
97af
a3a8
a6b7
a5b4
b2ad
b0b9
ff2b
014a
0168
0199
01cc
0a36
18d2
1ba2
a960
1953
210f
2134
3c45
5926
5932
59cb
09fb
4998
acd7
9edb
b916
7a7e
7a6f
eefd
5e45
6153
5575
ba86
41d2
4186
9135
bbff
312e
c170
c1d5
3b54
fb1e
ebf5
6688
a35d
9229
6588
360c
3606
e246
9602
f86e
75fe
7d1b
d708
8df5
9752
946e
dfd2
6049
b44d
455f
36df
14cc
cf35
54e7
6056
34e2
24e6
ba9b
c4e1
0d27
8aed
92b0
b2be
6faf
d762
04fb
1bcc
2615
45b0
48b0
4b12
53bd
541e
64fb
7490
71ad
94f6
af07
bdb1
e4fb
0a5b
183d
1c75
6e91
794e
a952
a9b2
bcb7
aa8a
5907
39f1
f989
7e43
cc4d
8c76
c937
7a27
3e51
3e50
de6a
be04
ea72
7b1b
7b3f
fa26
9a04
537d
25b6
4b7b
1302
1352
1d0c
735d
263e
8352
8679
867d
c269
f604
62fb
28fb
28d4
f57a
f545
9831
756a
0d08
e705
774a
b743
37d2
0f7a
8044
cf03
1dea
dfeb
1d85
6d3d
7f3c
bde3
6051
7ae3
5522
55e4
eb63
12c9
f790
2d35
8dc4
6ff3
2b90
c486
60ab
b895
7baf
daed
23a2
263d
3256
4d8f
541d
5587
5be2
7dfb
94b4
a6b0
a550
a3ef
c4fb
d330
05e2
1cfc
1c69
79bc
793c
7cc5
9cfa
2c54
8c52
ced6
ce81
9ed5
9e04
5cd2
5cde
7ad1
7a33
7a1f
1eb1
5efb
ae0f
1a7e
5a7b
558e
9a2c
a178
2583
5b3c
f372
d136
78f3
1d4e
7352
634f
832d
927b
f248
e688
624f
626b
456e
d820
c8fb
6d53
14db
7d55
3779
9f40
a742
2d02
ad4e
10fa
24de
5f75
c406
529f
28e8
36dc
1b6c
3ac4
f591
11b9
fa9c
a3c5
0f8b
9de7
30eb
b4c6
8517
df66
d19a
4ae5
351d
0802
03bb
1bc6
4fb8
680c
9f5b
a490
af13
b337
f431
0166
0137
0134
019c
02ac
05ab
18bd
6eb4
6ec8
69df
6972
0c6a
0cef
79d6
796c
7c59
4e05
4e7a
3cfb
290a
fcee
4c52
dcce
99f6
cc34
89ca
8c4f
8c83
3e6b
1a86
7bd2
5a73
1670
538e
ba27
254d
5253
6b42
9bfc
13fc
1d5c
837b
83db
e33c
b3f1
1253
123e
2225
3822
fddf
7d7a
4d77
9f70
6f7c
8f05
8f42
7f4f
1de3
4f51
14e6
1da7
6d35
6d32
b09e
b050
d79f
1dfd
1db2
f5ee
aaab
5521
fde8
bdcd
a0ea
63c9
b794
d4c7
cecc
5b65
e797
403c
a19a
b515
bd2c
b4a9
17e0
2330
356f
5562
53e2
545d
6316
7fba
76a1
7f2e
74bd
9707
9307
a71f
a66f
d4b3
ef1f
0145
0123
016f
1bff
1b51
7979
79fe
a926
210d
9c1c
9cb5
aa02
596a
0906
09f7
4968
ac2b
2c7a
6c09
7efd
7e50
d9f4
89b3
e92f
0e79
1e69
def2
de60
2a52
5e6b
ea43
ea23
2ee2
0b2e
0b07
db7d
7b28
7b84
3adb
9a3a
da6a
532d
a1dc
a122
91a9
bb4b
25aa
7179
3b04
4b48
56bc
6342
634e
2685
e350
334a
c350
c2df
c2dc
9223
f2fa
72aa
6276
82fa
b64f
100e
100a
9851
a851
fd1c
681b
4479
50f8
04d3
9402
b07f
cf41
a472
50c4
51e2
14b8
da9e
4a93
a598
a034
c399
21bc
c0a8
2d9d
b397
db90
2fea
7df4
0f64
adfc
edfc
30a5
0314
0468
0756
1d56
2450
240d
481f
6810
67a8
75a7
949c
a72d
a8a4
e8b7
f634
f284
0127
01b0
01b2
01e2
0223
02d4
1c68
69e1
79f1
794d
510c
a9ec
fcfb
4cb9
4c36
4cc6
7efb
7e5c
7e68
8982
9e05
9e49
5c02
7a8f
cad4
2e4f
fa46
612e
3a8d
5376
538c
b152
b126
417c
910b
e102
3bd2
1d4d
06ff
664c
634a
838a
93f7
e8da
e85a
c31b
9226
d259
a67d
826c
28ff
2850
b841
f56d
4853
f8f4
95ff
950a
5855
4448
db6b
9d72
5751
7d4d
c729
ed43
add2
ad40
b443
df9b
b520
2488
1038
6d3b
e2b5
c1e2
f19a
55c6
7ac4
7aca
805e
06da
56d6
b6e7
a532
9fa9
b193
ca90
3892
5d16
9ae8
2250
249e
411a
572c
55a0
6f24
7db5
8ffb
cdb2
f415
0502
696b
0c12
19b6
7cdf
7c47
7c81
bc26
bc65
4e7c
09fc
09f0
29b8
f9e4
fc8d
4c6e
4c6a
6c06
99eb
7e51
cc71
8918
9e8f
9e16
5c53
0e52
1ea0
2afb
0b0a
1a0c
7b46
5a5a
da16
532b
ba4f
a158
8151
f1fb
bbf3
136d
0650
5629
d3fb
862c
d64f
d63a
d21c
a642
f8fb
f850
f822
954f
4473
756d
9dd0
3d59
344f
8402
847a
1d61
51bb
4acb
1d2b
52c3
06ea
0ba2
1da1
4aa6
f6cc
92c9
c033
ea9d
ef82
a2ea
5e9c
4b96
ab61
dac4
9896
81ed
58ef
42bd
26d4
1777
2490
2786
445e
56bb
58a4
8f51
87ae
a438
b816
cfc6
c4fa
e695
f2d7
f338
0143
013e
019d
02b7
0c32
19b3
7c8f
7c67
4e83
59c6
0937
fc5f
fc90
9993
7e2a
7e63
7eae
7e57
d9f7
8c5e
e976
c916
0e08
0ee1
7a4c
7a81
7ad4
7a04
4ad5
4a1f
3eba
be4d
ca52
610e
557c
ba10
41d5
3148
5b8e
6b02
6b1c
f37b
8bdf
43f7
0845
b34b
3653
3650
9605
8251
28fc
2833
c503
07f2
3502
85f5
f74f
ed47
af70
bf0c
df0b
1f46
d071
4f64
9fb1
1430
4f58
14f7
b092
e89b
9d95
9e93
ff92
08ec
959f
d8c1
faa8
5511
4dc5
c0cc
fdac
61c5
76de
41b8
a516
888f
dff1
1d0f
261f
56db
543d
53b9
53b1
6db8
7be2
8433
8d8c
88b8
9fc2
9d64
afc3
fd07
f110
0149
0183
0254
05e0
1c5b
1ca5
1cc6
6ef3
791b
a9f4
a968
7c21
7c3b
3c53
3c58
0951
0924
49db
497f
3902
2974
2c02
8c26
9e32
5cd9
b976
0e32
ec02
ec79
1e53
4ad0
8e48
3e8e
de68
be68
5ee6
1a32
61d9
daf3
534a
ba50
b122
1139
8142
25ff
7101
713d
c135
6bfb
6b2e
df50
2683
468d
9382
8671
1252
12de
c24f
72df
36fb
950b
68d8
1575
354e
0408
0dd2
744a
87dc
1448
c702
f4b6
9f72
5471
80d1
b04f
a0fb
1fd1
b451
17ac
1422
1dc9
1da4
ed26
f6c9
b73e
03c7
7057
c02f
b6e4
eb6b
76c9
87cb
2194
e760
fdfd
bdf1
07ab
1551
3716
3dfb
471f
421d
4331
40b1
6695
6fc6
7f1d
7f51
7250
80b8
b314
c462
effb
e757
f809
f5a8
0136
02bd
02cb
029b
18ff
1ce8
1b4b
6e5a
7905
7c17
bc49
9c45
3c5e
49cf
2979
fcab
2c94
4ca1
8cb4
5c91
7af9
ec3b
ee6e
6a41
8a0c
114e
11f9
8153
716f
f376
f351
d1fd
3322
33d4
c363
925a
d24f
28d2
f84e
fd7d
587a
ffd2
ff4d
b5ff
9d75
5742
874d
1449
d7df
d751
4db6
f4d8
6fd8
f0ff
f0df
1d64
af8e
555c
5012
14f1
1d93
1dae
3feb
1d17
253d
b059
9eca
7e94
bd65
aaac
21c4
eb65
0d33
e39e
2095
48c0
ad3d
b298
20ad
f897
d42c
5d1e
92e3
70ca
d484
4516
07d7
1407
3497
48be
6d8b
7268
7db8
74b2
a716
bd04
b667
bf18
c7d4
c75b
cf5b
d635
d5bb
f3b8
ff56
014e
0169
0231
050e
1c53
1c12
6e52
6993
0c0b
7986
51ac
19c5
2163
7c51
9c4d
aa18
4960
dc54
7e4c
7e1d
9e4c
5c09
b901
b9df
fe4f
7a57
76bc
1eb4
beb9
5e42
6ad2
db4e
db07
7b23
7b85
1102
1187
814f
e18d
6b29
c687
8b72
8bdb
d156
6654
0829
335f
b30c
e842
f21b
a63b
f650
a209
82df
fd50
68ff
07fb
8503
102c
a5f1
67d2
9db6
9d0b
5703
2752
8706
141c
c7f8
9f4b
2d79
2f7a
807f
cf02
60d2
143e
6f33
1ded
8d33
11cc
2536
b051
e2c4
f6e1
da93
04e9
e019
2790
d8c5
0d3c
1ac0
a4e3
a6c4
81c8
fdce
3d39
b197
3790
72ce
80ad
5d26
0f66
c8e2
906a
34a6
30ae
0f51
06a1
0f2c
108b
2553
2d62
32a0
4868
5f26
7db4
83ee
8338
9110
a3ae
bbc6
c018
cd07
e7eb
f765
f694
fdb5
02db
05ed
1c19
6e1d
6eb0
0c7a
0c44
79c5
a94d
19f5
aa79
3c41
39df
acec
dc53
7e36
7ed4
7e32
897b
8c11
8c98
9e4f
9e78
5cfb
0e7b
7a36
1e24
4a3b
2a64
ca4e
ea78
ea2f
2eb4
6a33
db06
fab0
5ad6
55f4
9a13
dafd
dabf
4150
f16e
bb23
fb86
9b02
1d4f
1d59
6621
565f
730e
2605
88de
656e
b271
e5fb
d56b
750a
577a
e759
7dd9
3d50
bdff
d0df
d0da
8405
84d1
25a5
203b
28ed
ff66
1dcd
1deb
06e8
2522
4aa2
54e3
1db3
6052
3ec1
7aeb
ff8b
f29f
b7cf
31cf
4892
decc
75c6
c0a5
8daf
b29d
41e3
8df3
03b2
23b0
322f
3fc0
320f
4ffb
43b1
5b1a
6453
63e8
76b0
78ab
8fcd
9457
a493
a22d
b002
bf11
b50f
c207
c7b0
d003
0ae0
028d
0235
0292
1c27
1ce7
793e
7963
515a
4ee0
9c4f
9c31
aa4f
aa78
aaf1
59fc
f91f
ac78
ac98
4cd8
4c87
994e
7e88
cc4f
cc52
d971
9e46
e979
0e17
4ad9
0303
038f
eeaf
aeab
0b06
fa34
f15c
3102
9b73
7363
635e
6363
d343
d36b
e858
9228
e651
b8fb
f5f2
9579
fdd6
58ac
ff76
85f4
c84f
507b
d7aa
b7fc
90fb
0f4f
9451
bf78
640e
e0fb
ff68
4acf
1d2d
67be
306a
54cf
c1ec
7aac
088f
1481
11bc
14b1
40c8
ff97
ef37
68ed
36ca
a39f
b1bb
30cf
dd90
16d7
5f6b
0d87
1db0
14af
2f54
47e4
4fcd
5367
5f51
6fb0
6630
65b7
78a3
7fd0
745a
95ba
c810
c552
dfb0
d7d4
e726
e215
e47f
f3af
ffdd
022a
02cc
183f
6e13
6945
0c0f
79f7
bc86
4e51
4e89
4e7d
591a
59e0
0919
4983
39de
f9ee
fcc7
d94f
ce89
9ea4
0e09
0eb0
ec51
ecb8
4a6d
ae4f
ca5f
6abc
7b4a
fa17
6150
ba5e
8a73
1122
258c
258a
2b23
3b4f
43f5
73d4
6358
2652
e357
b34a
d37a
e82b
364f
f5ff
3850
c502
3578
e5de
87f2
8dd8
cd4f
af46
3f70
1f6d
af84
7786
1d37
06e6
26e7
149d
7885
4ec5
4ec6
6057
7de2
56ca
8054
1aa8
7b60
23c7
e5c3
d8c8
6d90
b0c5
9427
8e9a
619f
e3cb
d6e0
9f64
cf97
74ea
639a
a2c6
36e1
06c2
7394
8066
8060
8a94
0bb8
1fa1
1331
24fa
2832
372b
3008
6698
6458
7d07
7230
733d
75ae
83e3
af52
b43a
d612
d6be
e7ed
f71f
023f
029a
1bb7
790f
a906
7c1f
7c92
bc2b
4e84
9cbe
aab8
3c44
0955
49c3
2c95
7ee0
8c6d
9e28
b945
0e34
7a29
76ff
1e78
036f
8e25
3e88
ae40
ae83
0bfc
0b0d
7bec
fa76
fa81
3a15
9a52
dafb
5378
8a6b
a1ac
4179
7125
5248
cbdf
434f
5670
23df
735b
e305
a322
b38a
92f2
926c
92dd
72f3
a2df
b83b
b858
fd4f
fd4a
ff7a
50dd
9d79
8775
3d72
8d42
97df
ed1b
ad7e
dd50
6fd1
efb6
40dd
7894
1031
14ce
1df7
9fec
ff38
da95
7b9a
302f
7d9a
63c5
fec1
a03f
c1ce
5f3e
e39a
68c2
1ec7
c294
1f8a
8da9
3aaf
4066
8fa6
0550
0d85
1250
3802
3f10
4717
4fbb
4d69
4110
5f1f
57ef
6817
6618
772f
7f53
c36f
f4b0
050c
8012
1b55
1b45
1b9e
6efb
791f
7cd2
7c53
bca7
597a
0908
39f3
fcf6
4ca5
dc30
7e29
7e0d
9ed1
9e50
fe19
7a83
ec4f
1e52
4ab7
038a
3e52
de3b
de56
be34
ead6
eab0
7b44
5a2c
160f
da7b
dae9
1175
81f0
6b7b
3b53
d18d
1dd1
7357
a352
9271
22df
9849
48bc
f8da
f828
4478
c5f8
c5d7
20fb
1451
cd0e
2f6d
bf42
70fb
d042
1d65
4d3f
14ec
26ea
1494
50bf
7e93
7e90
ff85
bdc5
a7c8
a7ce
34e7
14ab
90cb
0da2
0f9a
22ed
10a9
3b6c
7790
cf9f
61c9
34ce
a298
6513
488e
d881
8764
901d
e76c
bdf9
0638
0494
07a6
1f53
2727
2662
20b2
331d
3262
41a3
45b7
5818
5f0f
5316
522d
67e6
7088
7d56
7b17
77ef
76b9
9d84
a814
a774
a8b1
b313
c3ad
dfd4
e418
f750
018d
01c7
0281
18d5
6ede
6efa
79cc
a978
7ced
3c63
09fa
2953
4cb2
6c7a
d979
8c3d
b9f0
c955
c9c3
fe4e
8edf
8e35
2ad1
5e73
ca05
cad2
2e4a
1a13
da7e
ba6d
a104
f142
f176
fffd
3151
e159
e107
712c
7177
5b3e
5b19
6b5d
2b57
fb01
8b79
d15b
d11e
ebba
eb04
1d43
5659
836e
a3d2
c202
a628
f6f5
36f7
f873
45fb
074f
e54e
102b
044f
0d52
c74c
3d08
8d52
ad50
240b
bf72
ef4e
a047
e479
e0fc
b0e2
1d33
d453
62e1
78e5
f6cd
1485
d7c0
97c2
c393
e6d0
5517
c791
942e
3295
c0af
0731
dac8
9020
0d98
3737
7598
3d9d
34c5
5f87
2aed
dd16
2885
f4a4
13af
1728
1459
1454
2568
3d60
5f2d
54b4
621e
75b0
9f53
9227
9db5
a69e
af25
b0b0
bbe2
b867
c467
c61d
d3ec
e805
f6bb
ffb2
f2ae
0129
013d
01c3
02e4
184f
18fb
18d8
1cdf
1cd1
1b4c
1be0
0ce2
1998
210c
7c52
7c43
bccb
9c3f
9c96
aab0
0953
0982
4953
3931
9952
99b9
89cb
899e
ce88
ce87
9e79
7a49
036e
2a69
db86
fa04
6120
3a4f
53fb
ba0a
3154
c119
5251
3b05
aba9
13fb
0871
d3f8
8619
d68c
c3fb
f2f8
e2bc
b2d2
98d6
456a
fd79
684e
ff79
c54c
3541
b54e
574a
7d46
7752
b77a
f452
70d7
a403
2021
4556
78ba
6095
dfee
1d1d
4ecd
2ff7
ff33
7ae7
0797
04eb
edc9
a7c2
6acc
2aa7
35c7
1e93
d6e5
e79b
9190
75e3
e8cc
db96
27c2
cf83
7422
f766
a062
ed1a
8794
7d14
03a2
0f24
03be
1f51
145b
11a7
280a
2f24
33e5
4bb3
45bd
5802
5bbf
6b12
6564
8310
846b
875d
84f6
9450
9722
9b1d
a086
a4fa
c615
d750
dfbb
dbe0
f717
ff15
f714
ff5d
016e
02ae
0540
05a0
1ce3
1b7a
6e4f
6e60
6e90
6ecb
0c36
793d
7cc1
9cf1
aa5b
3c02
49fb
2c39
2c99
9995
7e39
7eec
b947
e966
0e4f
1e2e
1ea2
0388
be42
be1a
7b2e
7b37
fadf
fa7b
6102
3a5c
b17a
914f
256a
5b08
cb5e
cb19
4345
6673
73f5
a35e
9302
935a
12f4
a2fd
8202
824d
b861
b22a
d829
d8d6
ff48
07d2
8549
0d72
d7ff
8d09
374f
2ddf
bfd8
5f4f
f0d7
84d6
b445
b2e1
36d2
a1eb
2f6b
103d
50bb
1df8
1487
1db7
1796
e539
7534
a3c8
6aa3
90c9
37c7
04ce
f5c8
0e9c
9191
0dee
e4e4
7f93
95c6
c7c8
3f90
d489
b88c
84e8
1419
13bb
2587
208e
35a3
42a6
56a8
56b2
53bf
67ab
769b
7b10
af50
a492
a72f
a82f
a5b2
c6b4
c30f
dd04
dbc5
d562
e774
fd63
fd69
0270
05b4
1cf6
1b08
1be6
0c76
0cec
79d4
a947
7ce8
59dd
3905
2926
f9f0
2c0b
2cea
4c02
6c8e
7ef5
d9cd
89b7
ce08
fe5d
0e7f
7a6b
1efc
1e5e
eef0
8e51
8ede
8e8f
55fc
8a0b
a175
bb36
3150
71fb
c6f1
d13e
d184
7851
78f2
abfa
5639
563c
2369
7351
337b
93aa
964c
960c
626d
62d6
220b
b25e
a8d5
4452
7577
20ff
6751
1751
74df
e74c
8705
f77a
1452
c751
974f
3702
cd48
af7d
df6e
8f70
4f61
25c3
1dc7
0ff1
1d3f
5395
b099
bdea
20ea
6791
8057
9d92
a012
7d2e
c2c5
9f82
faaa
12c2
f795
f09f
d539
30e1
b0a1
a5cc
70a5
5ba8
1d07
1467
145c
2453
225f
2be0
208f
3f18
3774
36ad
48ae
56b0
540d
6f50
671d
7bcc
7666
7f57
7fc9
8367
9d86
94f0
b75d
c4b5
d80c
dfcd
d1a6
e724
f3bb
f7ed
015a
012b
0135
0aa8
0a98
0294
053c
1bdf
1b04
6e29
6e8b
6974
69ce
79ca
a992
194e
214f
7c5f
bcae
bc5d
4ee8
9cb0
3969
3916
ace0
4c51
890c
8cef
c902
c946
c97d
7a70
76f7
1e1f
0319
ee89
8eb6
3e24
de1f
2a33
be85
ead2
fa38
1682
5302
534e
ba7e
418b
f1fd
3125
250e
5b5c
526d
f302
2bf6
d14f
78d4
abba
cb3a
06f4
5678
234f
2602
26f5
463e
a36a
d61e
d677
f2d0
e2df
8255
8241
b249
9852
6825
682d
c8d0
b58a
a563
77d8
b74d
4752
ed55
eddf
0f78
a7fb
9479
dd52
a0df
64ff
e4d8
4040
1436
78b8
50c6
50cc
1d9a
d45d
14cf
7883
7aee
14b3
40e7
93ce
7fff
08e9
9595
37c0
1f92
0d3a
d4c9
68cf
859f
25ef
dac5
1537
e2ed
9a91
3d94
176e
2736
80a4
fd12
d1c6
dd22
2ae7
0fa6
e062
66de
9766
03b5
140f
17b5
27f7
3331
547d
57b8
636f
622f
780c
7715
750f
78af
7bbd
7db9
9238
a7d4
a430
a2a7
a00b
bb15
c807
f250
fd8d
019e
02a5
02c4
1c4a
1cfd
7949
794b
792b
19b2
1916
2162
4eaf
5951
3967
29d6
292a
29a1
fcd2
ceaf
9ef9
5c5d
b971
e949
c9ad
fe02
0e02
0e23
7a4d
7602
1ea1
2adf
2a31
ae33
ca39
ea8f
6ad5
7b86
5ad2
556c
55f0
da19
5372
81f6
8144
f132
c17e
5bf1
5279
6b51
3b7a
df51
4b09
78b6
cb7b
135f
06fb
08df
8650
d647
1247
9270
657c
f655
f62f
e24c
b8d2
b6fe
984f
a83a
d8df
68fb
15f7
e503
c84a
d5f1
a505
e74f
7d5e
b752
ed78
540c
6f03
5f4c
2020
1d34
0dc2
f4ee
53cc
78c6
539b
cf3b
78e4
56c8
06df
40c2
d7c6
9392
21b0
f096
e5ec
f527
2730
fd93
32c4
46d2
70af
6fa4
a887
c2bb
03b0
0d83
2784
208b
2bcf
3f1d
4f10
56a4
5404
5258
6254
8836
ab18
b003
b695
bfc4
c803
c457
d08b
d6a0
dd89
f3a1
fb16
f335
02dc
02a9
022f
0290
0297
052c
1c93
1baa
6902
791a
a94a
19c2
2174
7c4f
7cf4
bcf9
bc50
9c0a
295e
2ca0
6c02
6cb8
7edb
ccfe
cc57
89a9
b912
0ee0
7a41
ec2d
be1e
5e63
ca42
ca5c
ea08
ea31
fa51
55de
5325
bab7
b171
a151
a13e
11fb
81fc
f10b
bb38
e186
254a
71f7
52b6
5242
52d2
2bfe
fb52
fb50
4b07
784f
9bf3
0608
6357
831e
8350
e3fb
4657
33f2
8608
864f
9206
e64e
a2f7
b24e
f529
fd08
6829
ff4a
074d
c8db
744f
2706
1409
404f
7f0c
b455
f6d4
6b99
53cf
5594
eac0
5735
378f
7a99
f595
1dbd
40c3
773f
56dc
e53f
90c7
64e7
20ca
5d34
b428
2f30
6025
efac
f892
cf85
71b2
c89d
2d2b
1ae6
7daf
8530
5dfe
072f
078b
0333
08a2
1f50
125d
17d7
1232
16a4
141e
24fb
33b0
3f53
3bed
47ec
5418
5725
53e7
658f
6fbd
7465
73b0
7b14
771d
782f
8804
9750
93b4
affb
a3e9
a21f
b461
b086
c6a5
c08e
c1a1
d474
d1a2
e8b4
f3b0
0179
01d8
01e1
1b73
1b03
698a
6997
0ceb
79e5
518d
a9df
197c
19d8
2152
2166
4ebc
5906
392d
297a
fc42
4c88
6c53
6cdd
998b
8919
cef9
e9df
e9db
e95f
c9d4
7a23
7a54
0379
0321
ee8e
beb5
5e21
ae42
ca8c
ea0b
0b48
0b31
db2c
7b39
fa7c
6123
61dd
3a55
9a4e
dadf
8a8e
a109
a11e
415f
4160
e108
5b32
3b52
3bd9
8b7a
8b37
4bd3
d1fb
78dd
1dd6
e3f0
e861
30db
c32e
f279
f28a
a631
f642
e683
9651
8206
b602
f852
d8dc
07b6
d54f
9d50
27fa
1479
9705
0fdf
af6d
24df
5d52
6f74
bf0a
8f7b
8f0c
a0d3
70f2
7f48
f0fb
473f
a409
1420
78b2
f390
b0ef
9514
8fe3
105c
efe3
ddf6
54f1
7f37
7dc9
6429
f01c
c03c
04e8
ffad
a594
23cc
b7c8
8038
fe9e
eff0
e42f
b6df
3487
cfe0
5f86
c730
c191
1ae4
91bc
078e
175f
145a
230f
2f2c
4fd5
44b7
5250
5469
621d
6d8f
64b4
770f
7807
85ad
9461
9560
900c
94b2
afc0
af5a
a30d
b8b0
c614
c444
c459
c46f
ef53
e4d5
f1a6
012c
01d0
02f3
0211
0228
0268
02b8
1c9b
6eb9
697b
6923
a94e
a9c0
7c7c
4e0b
591d
09c0
491d
39e0
ac4e
2c35
4c13
dcb6
9941
7e69
ce15
9e86
b9b9
feb2
7a1b
7a20
7afd
7ad0
767f
03f0
debd
ae20
ea39
ea17
2e29
fabd
5a66
ba16
8a75
4128
8145
f1df
f160
254b
3bfd
3b8d
1351
5674
731e
46fb
a3fa
b361
93d5
882d
124d
c2f7
f22a
e63c
3654
f5df
a871
454d
3853
68d2
35fd
d5fb
b529
7447
9d74
1408
3d6d
3d79
8fde
1f09
64d2
201f
bd39
105b
1d18
55c7
7dcb
9fe4
148f
642b
f29c
40e1
a7c0
80c9
1095
1097
e5c8
c1c3
66cc
9ac0
e05b
eecd
1ac6
c4ee
f79f
4de8
4019
9f68
8294
efab
889b
8890
c015
7df6
ddc3
afa9
6dfd
f1e2
6da6
ed1d
588c
0666
075e
03eb
1444
136f
4613
5207
545a
6f2d
74af
7f13
8865
871f
8666
9d0f
9854
9d65
adfb
ad81
a33f
bbce
b7a4
d6a5
d2d4
ff04
fdb2
ffbf
01a9
0a68
0a10
0a9e
027e
02ba
05ce
1c52
0c78
0ce9
0cb4
7948
7975
796f
51fe
2160
7c36
4e52
9c23
29fb
2961
7e56
7eeb
d975
8cd1
b914
e98f
e9c8
c92f
0e53
0edb
7a6c
1ee8
be4e
ca35
6a45
db7b
fa07
5a87
5ab0
9a53
9a88
da17
53aa
11fa
fffb
9168
f3aa
f34b
fb08
7823
cbd4
ebac
067e
5661
5683
632d
a34c
f651
e60e
226a
3847
15f1
e502
c876
c850
d50b
d57d
b5a9
a54c
1755
17f2
0d75
4f45
d7fc
3d5a
edd3
f4d3
cd05
2f48
1fde
cf77
6072
d040
40d2
40df
40f3
40f6
f07d
1d6b
7789
1dca
9513
1d25
252c
1d87
1d8c
5596
e2bb
1d19
788c
55cf
1db9
ff36
cd31
7ff8
a59c
a3ce
803e
c059
e390
5a97
4050
f091
0e93
3f3c
eb9f
2dcc
e19c
df34
aac5
e52d
6a91
5890
e09f
d2be
175a
1460
1362
2bef
230d
3ffb
3234
4bee
5fc7
5836
7665
7720
781a
84bb
9f51
9550
a83f
a868
b250
bfcb
c43d
cbcd
c617
f3b3
ffb4
ffc8
0182
02cf
1c6a
1bbf
6957
0cb6
0cd3
0ce0
798b
7935
a987
7cf1
7cbe
7ce5
bc4b
bcb5
4e7e
4e46
294c
f90e
2c4d
6ce5
cc2d
897e
8ce0
9ed2
5c51
5ce4
e924
ec08
ecc4
ee7e
de4f
5edd
ae4d
ead9
ea10
2e02
7b0c
5abf
c04f
3ad2
3af3
dafe
1178
915c
9161
bb81
bb44
c175
5bfd
2bfb
c68d
4bd9
abaa
9b21
1d42
1d5a
6352
837a
a359
d279
f60e
624d
b651
b225
f5f5
9825
95dd
6877
6ddb
147b
7d4c
d7d8
9702
37d1
5446
1f4a
d0f2
7faa
7f73
c44f
b483
28e6
78b5
dfe1
14c0
28bb
14b7
56e7
959e
b531
37c1
80e3
e0c1
1063
b02a
f0c1
652e
24a2
58e2
fd1e
0763
90a4
d02b
c51f
aba5
071a
06a0
28a3
22af
2ddd
3212
56b7
5636
5bb8
7553
7f28
9477
b312
bfbe
cbc7
c204
d854
d28f
e31f
0112
0222
029c
05c4
1c42
1b24
69a2
0c3b
0c38
7926
7984
51d6
19ab
7c40
bc10
4252
290b
ac21
ac5b
6c52
dc93
99a3
7e35
d98e
ce6a
ce62
7a4e
7a32
7ab0
4a7e
4a50
ee79
2a41
be84
aeb2
ea66
0bd3
db4c
6109
5a12
1671
556e
3a59
9a39
9a3f
a130
8109
bbf8
bb5b
e164
257b
c102
c176
5b76
5b33
2b4f
1d7b
2679
e379
b3fe
d639
306d
628c
386c
d84d
ff43
ff06
3509
e56e
7505
0ddb
9d46
b74a
3706
37f1
f4df
bd0e
5d02
5d42
2fdf
8f4c
6076
d046
847e
1d62
1421
609d
a1e6
4f53
3acc
252f
50ab
d45e
11c3
7e9a
1dbf
c534
9d93
4ff5
ce90
f29a
f2cd
3094
ef8b
0ecb
a0e8
94e9
e8e2
24e2
409b
5510
0897
0b9a
d6ee
2d94
30ed
e42d
8dca
95c3
429c
32eb
70c7
6f93
703c
ad22
ef63
edf9
0d65
11a3
146a
27b0
23ab
2362
3886
4411
4788
5f53
5757
6665
780e
7db3
7258
8fc7
8bca
9bb0
9db4
9721
9fc0
9f2a
9d8e
a010
a3bb
a715
b1af
d43e
d7b8
d868
d55c
ffca
f458
f7e6
0164
02fd
0227
1881
18c7
1c4d
1b06
1bf1
5114
21ac
21ab
7c3a
4e5c
9ca7
aa4c
aa31
09b3
395d
39c1
29df
296e
f957
f9e7
2cfb
6cbf
9962
d91e
89d8
8c62
5c6b
5ca8
b9f3
b9fc
b93a
e92c
c989
7a06
7a6a
76f3
7689
7607
1e50
032d
eed0
8e23
3e42
3ef8
3ea6
5e47
ea81
6a1c
6a0e
7b74
fafc
5ad4
554d
5574
ba31
bab1
4122
9156
7150
fb4e
d14e
abd5
cb2c
cb38
ebde
43df
1349
0652
0685
562c
231b
2675
83d1
3349
a38a
93bc
935b
8654
8607
e64f
e252
9682
82f3
2205
2252
b27e
d588
17fe
9d0c
9dd6
7742
471c
9043
9f41
cd5b
dd02
3402
ef21
e4bc
607f
e04e
1d32
67b1
2510
78ce
50b0
7aa5
642d
a2e9
8036
5f3d
80e9
86eb
20cb
089d
3293
adee
6fe5
b03a
41b0
b892
b510
c4cf
8aa1
2f86
1f6f
6dfc
f2b2
f88e
adf3
04f6
3464
3491
4630
4bcd
64b0
633d
67a0
7b13
77ed
7113
86a8
a0ba
bf51
b444
b2a2
b582
cdd4
e40f
e219
e412
e009
f491
01d3
0aa1
026c
18ac
1c3b
6e02
790e
516f
a9bc
7cb9
bcd4
aa42
aa16
092c
2948
2940
2977
fc17
4cf1
dcd4
7e6a
8c4d
ce7d
9e0d
5c10
b986
e9e8
c9df
c97c
c9a2
7a7c
7ab9
7a56
ecd7
4ad3
ee20
8eaf
be6a
5e53
2e78
2ef4
0b03
1ad4
5a33
5af4
3a0c
9a79
5346
ba25
f14a
c17b
c169
5b8a
f34a
d1f4
7859
ab35
9bbc
9b59
eb41
13d6
066e
067a
560f
634c
4627
3350
8869
e8b6
e87a
126e
e26c
a245
6251
b652
9823
35ac
d5f0
75f6
7544
17de
17f8
274e
f7fe
d7f1
4d52
470c
9077
54d6
bfdb
1f41
e4ff
60fe
7ec3
52ef
f399
8d3e
4aab
4aa1
9fea
ff32
4fac
56e1
0792
03cd
03c0
302d
ea99
cb68
7052
94e7
e5c6
31c2
e73c
daa0
33cf
8ae8
92b9
4b68
6ff5
76ec
d2b7
bda1
7f6b
84a6
3df9
0f53
177f
1f5b
38bf
4235
5585
6551
6837
7462
7827
83be
84dd
a433
a7e9
c6db
d584
e3a0
e80f
ed68
f3ed
f80e
ffcd
015f
013f
0af8
0ad7
0206
0289
02f0
6e6b
6951
7982
a9c2
1967
21a2
7c41
7c0e
7c8e
7c11
bcf1
9c78
42d1
3c60
2950
ac33
2cce
dc69
dcea
99d2
ccd1
d9fb
894c
8cf3
8cf7
8cbd
9ebc
9ed8
9e44
9ef0
c9b1
c927
fe49
7a0a
7a68
1e03
8e17
defb
5e1b
5e57
ae4e
ae79
aed6
aee9
eab6
ea51
ea2d
db29
dbd4
7b41
7bb9
7be9
7b07
fa54
ba67
a14e
a17f
41fa
1106
f16f
fffc
bb1c
c155
c131
f366
fb47
c631
7829
9b1b
9b71
238a
084e
3345
b3df
d67c
3043
c3ff
f208
a6f1
f675
e65b
366d
e26e
a202
b84f
b205
b24b
9842
9509
958c
9581
38db
d84e
e51c
207b
1748
2751
87fb
8752
4dbc
4daa
4dd3
37b6
9073
dd05
5402
104f
24bc
efd2
e40c
84f5
84d9
b44f
1013
1517
14e5
3ac3
1da6
11c7
3fe4
3789
9f3f
af64
7d3c
9fed
54e5
873a
ff31
03c9
04ee
31c6
c09f
36c1
1ac9
d2ee
b0c2
be95
2091
9da0
5b92
0f89
a025
9034
a892
7792
20a9
e1ea
6f8a
76e1
8483
03bf
0616
1d54
269e
24fe
44af
4567
5f50
5bef
5667
6450
6008
72a5
8557
95b0
a750
a491
a2a4
a4f2
b58f
b7b3
c3af
d8b0
e6b1
e7a5
f7e2
ff26
f560
f282
011a
0a7e
0a28
1887
1bfc
1b37
6e21
7978
1951
19c7
21d6
7cd0
7c9d
4245
4959
4cf7
ccbf
d978
d9c7
9e43
b9db
fe10
0efb
ec66
03dd
8e04
8eef
be50
5e8b
6a89
1ab2
7b83
fa42
fa49
fa0d
fa6f
614f
5abc
55fb
5545
dab4
535b
8af2
8ad4
4174
f154
f107
91d3
317b
7146
5b0c
3b07
c64e
7846
78de
78d9
ab8e
ebfd
438c
23da
a346
a340
9375
d3aa
8858
c278
9252
f252
65d9
3651
6226
2846
950e
38fd
ff7b
c8aa
c8d3
d508
d5d8
577e
2747
1403
7dda
f44a
0f29
a778
9441
5d71
ef73
8f77
7f05
25ba
1427
78b4
14ef
14f4
9059
cf32
f6c0
7dc7
1dbb
10ef
31bd
a094
14a5
12ba
24ee
e739
1ecd
96ce
1392
d6e8
402b
842b
c01a
76df
80a3
e6c6
60a6
96d6
44a0
a4a4
1fb5
1bcf
1084
2634
2230
24f4
37b7
37e7
37a3
4dd4
48ba
536f
5dbf
77b0
8bef
8086
87e3
84f9
800b
9250
a218
a003
a6bd
b5b1
b1a8
c6b3
c7e6
d49c
dd0f
dbc3
e0bf
f31f
f082
f785
f0b2
0a14
0236
1c1b
1bfe
6975
0cd6
79be
1924
1962
1999
2154
4ef1
4e5d
9c88
425e
3c4a
0917
392b
29e4
fc5e
2c47
4c47
dcd1
dc3e
9926
cc2c
5c7c
c91d
fe07
ec5b
1eaa
0346
037f
eefb
ee14
8e28
de25
2a30
5e5c
ca74
2e51
0b3c
6a57
8afd
b182
a16c
a187
4177
f17a
f12d
bb4a
3b75
fb3e
d1f0
eb57
4389
13df
0659
5657
2383
833e
3302
3385
9343
d298
a602
a622
e6fb
e650
2842
2849
a8db
454a
fd5c
5850
a502
a5fb
f749
140b
4d78
8dd1
3703
ed42
ed5c
9fbc
a752
add8
dd08
ddf5
54ff
5d79
5dd3
804f
344a
34db
a042
f4f3
66e5
04b0
ff6b
7784
51ed
2593
2516
1d9c
1492
78e3
22c8
d796
bd19
bd1f
7d37
1483
605c
52b0
da90
fde5
2d1f
80cf
d1ee
9f84
9f81
1092
97ce
04c1
12cf
e0c5
6f67
87c0
38ee
8290
eda5
b39a
9291
92e8
e7c1
8f8a
f4ae
0837
0318
055c
1413
17b3
2f0f
24b4
3495
4862
54d4
63ef
631a
6bb7
772c
76bb
7697
83e6
8362
886f
87e5
9bb7
9beb
9be5
a784
a8be
cf11
c7b9
c0b2
d40d
e232
e22f
ed87
efb4
f707
f58f
f838
f497
0aa9
0ab7
02aa
02a3
0589
05f0
1cea
1b0a
1bae
6990
0c0c
7938
79a4
79e3
799e
a970
a92d
212d
7c5d
4e6d
aae3
3c48
594e
0997
39ea
f9c0
2c34
2ce6
2ce5
4ce7
9920
99a7
7e11
cc06
d9f3
d97f
d9ef
ce0d
9e67
e953
e9be
c9fd
c9ee
7a34
764f
4ad2
0378
8e11
5e24
0b5f
db88
db32
7bf1
fa55
fa63
610d
5a59
9ad6
9a3e
53d3
b10e
31f6
2547
71d7
c15c
2be9
8b5e
8b1e
9b03
ebd6
4387
06fa
662b
232d
087e
e3fd
333e
a388
b3b6
935e
d352
d32f
86bc
c220
928a
d26c
e6fd
e604
e68d
b641
f848
a8fc
d87a
d8d0
58f0
d544
67fe
db64
e741
8744
d744
3dd2
af78
bfd1
d455
b4d2
df9f
f4eb
53c8
1d84
b09a
7889
7a91
78e8
22c9
f536
9f90
fde7
fdef
21c7
a05d
8094
1f90
66c5
a8ce
a8c4
e733
76c6
e6de
8597
6298
10a3
44c8
75e4
0de1
24a5
45ce
af97
58e4
71e8
7035
e0a6
90a8
e068
3f8e
f0ae
cfab
cba7
976b
046f
172d
2fdd
24dd
2264
3490
3f11
400c
57d5
5f17
5db1
5582
556f
65bd
7716
7812
7836
71a1
871e
8fca
88af
9562
a8b7
c118
cfdd
c31f
c236
dd81
d8a2
e4f7
fbc5
01a8
028b
0238
0537
1c6d
793b
795f
79ed
7998
799a
19e1
7c26
4e10
2983
fccc
ac66
4cfe
4c0b
6c0f
6cc7
992b
7e34
cc6b
8c73
8c1e
8c30
9e57
9e27
9e38
9ee7
5c3b
e903
c9e0
fe7e
fe39
ec4e
ec41
768b
1e32
8e37
2a4a
5ef5
ae6a
2efb
2e34
0b77
1add
1abf
db73
165c
557e
3adf
baf0
416d
414f
117d
813c
f137
91fb
6bf1
2b1e
c669
4b28
78fe
78d7
43d5
1305
1db6
662d
564f
2326
2354
e36c
3358
d3ac
d685
c357
c25c
f20e
d2fb
7278
a6b6
e629
e675
965d
8243
b850
f866
a876
d859
58da
58fd
ff47
357b
8548
8571
a57a
6742
1773
14f5
3747
ed72
cddf
2f44
8077
3f46
b0fa
8f4e
60d8
c4de
f4fd
07e2
142f
04b2
1dc5
52c4
789a
14ed
1053
14c9
8ba2
bd6b
ff86
ff8c
93c8
9f8c
90e7
6d9b
239b
9399
939d
faa5
80ef
be9d
86ee
209d
e4a5
a79f
f5c1
c0ad
38e2
459a
0739
9d27
b4c7
652d
75e2
342f
edab
1767
c017
46dd
651d
3763
c062
c8ef
84ed
d399
e1b2
d1bc
3d19
0493
172c
1267
1504
2461
249f
31a0
43a3
5787
7f0d
7719
7457
71a2
71a0
8786
9f14
9fca
a468
a552
a334
b728
c218
d613
d6b5
d333
d3bf
d721
e61a
f83f
f8ab
0181
0ad1
0a6b
024c
022b
05b8
1be5
6e1a
795c
514a
515b
a9a1
1959
217a
7cb8
bc66
4edf
4efa
59fb
59e9
09c4
499d
2929
f9b4
4c78
7e84
8c5a
ced9
ce07
ceab
9ea9
c935
7a78
7a0e
7abf
ec09
7647
1e73
2aec
2a54
be3e
be14
5eda
5e58
ea38
1a7a
fa5a
1653
c07e
c0d9
55fd
3af5
ba79
8a4f
8a3c
b10d
1143
312f
2506
c12d
5b5d
5252
f381
2bbc
fb46
cb43
eb58
23fd
735a
2655
830e
4670
a3ff
a363
b3db
d319
8639
8688
865a
8620
1203
c26e
d21b
e609
e65a
367b
e272
2243
224c
f8fe
5842
c579
174f
2755
274c
87f5
4f4d
2d4e
94da
6f4f
80f4
df4e
b0fb
70f7
d409
b402
7ec4
7899
3ace
7ac6
6794
0796
ff9e
de9f
31cb
9396
c050
209a
9da4
4dcd
f8eb
46c4
1ec1
bffe
2d99
b1c4
3dc8
f0c6
606a
adc9
6ba7
f52b
4b6a
f1c8
eae2
f02f
d2b0
46ed
152c
bf8f
edf1
f067
4ba5
cf6c
080f
16db
16a8
13ed
1214
27a3
308d
3be0
3466
31a3
4315
5456
578f
64f7
76db
7f5b
8d87
8db2
85bd
9be3
a018
ad04
b404
c811
c007
c7f4
cbca
d2d7
e80c
efbe
e7a4
ff5b
f8b3
f5ab
01da
01be
01c2
0aaa
054c
185b
18ab
1c7a
79b7
19a7
7ca9
7c63
7cd4
bc4a
bcac
4efd
42fb
398b
2925
f9dd
fc22
fcc3
ac9f
4c86
4c0d
9957
7e53
d949
894e
8c02
8cfb
cea9
ceb2
e902
fe36
fe30
7a0f
1eea
eeeb
8e4f
8e8c
8e3d
de28
beb2
5e09
ca46
ca61
1a1e
1a30
7bfd
616e
5adb
5a07
1646
c0ff
3a2e
9a35
da4c
b146
b1f2
a150
4155
4171
4183
8179
f16c
31d5
e178
c1ff
c1df
3bdf
4b52
ab74
cb75
cb20
06bc
6678
6646
666b
561c
564a
232b
737e
6323
26fb
0842
084f
08d0
46bc
d371
8855
887b
e825
e24f
6270
2819
227a
98d7
d8ac
583c
e54a
85fc
857f
7576
0d02
0d42
8d7e
47fb
dd1c
80fa
b0fd
ef03
a048
cf0e
64df
7fdf
f04c
b488
1423
4f82
1de2
9512
f293
9e94
f2cf
1739
e5c2
af3e
af36
d730
5f35
e0c9
04ae
c0c3
c0a0
15c3
a393
fda6
45ca
e424
b6c3
479c
3761
6b6c
7dab
6d2b
34ad
32b0
9888
8dfc
1d04
222f
23ba
2f1e
3865
3bb0
36bd
37bd
4317
4854
47a8
5430
56b8
5782
6d57
62a2
65b5
7725
77e2
7499
7f22
8fb7
97b4
9638
97f4
9fd4
978c
9557
b7d4
b43b
bfb4
b6a2
c49c
c662
dbcf
d6a6
efdd
e5b2
f802
f49c
0a6e
183a
18e8
6e45
6ecf
692b
0c64
79d8
7968
a9cd
a996
196e
bca1
4e18
59b1
091d
09b5
099e
09c3
3959
2c81
4c1c
6cf0
6c90
dc0f
7e7b
7ef3
ccfb
ccd0
d91c
d936
d9b8
8950
8cab
8cc6
9e02
b99c
e9bf
e9cb
ec9c
1eac
1e25
de66
5e16
aeff
ae16
ca6a
6a6d
6adf
6a0b
db55
dbd2
61d2
6127
1640
c0d8
3a52
3af0
da2b
dabb
ba34
f15d
91fd
e188
258b
5bfc
6b81
2b44
3bd4
fbf1
fb5e
4b8c
ab89
cbe9
cb28
9bd1
ebd2
1ddc
1ddb
5606
7353
638f
267a
2661
834f
8363
e324
3371
d388
d350
364c
e289
b2fb
4839
a8d3
3873
44dc
ffbc
07f6
e5fe
a5f7
9d1b
e742
1443
1472
4d73
b74c
8d6d
97bc
37ff
f4bc
9452
ad52
dd4f
541b
54de
7042
e47a
40f2
7f02
f046
a4d8
78b7
efc8
4fe6
51c5
6d39
ef93
22cf
f5e5
3ecb
729f
40c1
a01f
c032
852f
7b6b
bdc1
506a
8033
bfea
e398
ab99
6f6c
5d32
87ca
3035
efa0
ca96
cf86
cdca
651a
cda3
7ba6
6881
d519
adfe
7f69
c4a7
cd1a
b4a8
6d1a
082f
07ae
08b4
13e8
10b0
14dd
24bb
371f
3419
4632
4f13
4f12
430f
6115
66ba
7b11
7b15
86db
8d54
83ab
9234
908f
94ba
94f8
a4b0
a694
a2d7
a1a0
bfb0
b21f
d8b7
f314
f715
0144
01d4
026d
0288
02ee
05df
054a
1c51
1c70
1b50
69e8
19af
7cfe
bc7a
bc31
bca2
9c29
39ba
2949
295b
f9fe
f934
acb0
ac90
6c2d
6ca2
dcdd
9971
990f
cce9
d92c
8c2c
ce48
9e65
9eee
e9d6
e92b
c9b7
7a03
7a12
1eae
0365
8eb4
3edf
3e89
de0c
2a4d
5e7e
2e75
0b78
0b04
7b7f
1633
3af4
9a64
b186
4143
9179
e14a
e109
25f6
6b86
3b8c
3bec
ab7f
eb79
eb06
4353
1327
06f9
6649
56fb
23d5
738c
735f
0853
8342
e35f
466b
3342
b366
d30c
88d4
d689
304f
c231
9233
f27f
a689
f6f2
b877
b24f
f82a
8586
75d6
67b6
6778
90f0
ed51
bdd2
adb6
b073
ef42
a04c
e478
e403
1015
4f54
1d27
dfe9
50a9
7888
c1e0
7f3d
f6c8
56e5
0ec4
c029
939b
68e2
faac
9536
b0c0
0f87
cecd
13ce
0d90
af9c
b6ce
61cb
c481
a1c2
71b0
f4c7
cdaf
3ff1
a069
4063
bdf6
080e
0867
055e
1463
2667
2310
2660
20be
3224
3111
34fd
4722
4310
4612
4660
53ee
53a6
546f
57b7
55b4
7b1d
8551
871a
8854
8204
8415
9ffb
900d
94fd
a727
a494
abb4
bd8b
b693
b8b3
c5a1
d407
d71d
df0d
ebb4
efb7
f69c
f6a0
f78d
f0bb
01aa
01ab
01ed
01cb
0a46
023b
05f9
0567
18b8
1c4c
1c8c
6906
69f8
0ce1
79e0
7993
a93a
a9ad
1911
7c4a
7cf0
4eba
3c0b
3c5b
3ce8
49dd
3966
29b6
2997
f979
f991
2cee
4cd6
99cf
cc8e
8c10
8c12
9ef8
9e68
5cc1
b96d
0e40
7a7d
4a17
035e
03d5
0387
ee15
2a58
0b09
6a43
6aec
7b4c
7bf2
7b3c
5a1c
3a7a
9a40
8a79
b1d3
412b
f1fc
bb76
318a
714f
c18f
5225
6bd7
ab85
73df
0872
e35a
b352
93da
e8ac
c281
92fb
9281
36f5
a240
6202
827c
28d7
b20e
b2d0
9540
e5d7
85df
8575
c87d
9d03
574c
5740
1476
8d02
8d55
8d48
f44d
bd73
ad4f
2faa
8048
cf7b
6042
e0d0
1435
1dc1
f397
51eb
1054
4da4
f4e6
53c7
14c6
eac8
afeb
7a9b
0887
ff3a
14b4
ff82
f2c9
4530
60e3
5f37
e0c0
f05e
d01e
a79c
f8e3
f79a
22e9
85c7
9f6f
073d
f7c1
0de4
edac
7793
fd2f
2739
f0e6
8f90
929f
b2bd
5793
0f36
74ca
d2b5
ad26
2d20
b1e2
6df6
9487
b068
3dfc
bfaf
03a7
1784
275b
2bb7
2bb8
256f
3207
32a7
3818
38bd
4312
475a
4238
443f
45ba
44f9
540f
5723
6f55
7806
78a5
75b3
8710
82a7
9810
940f
9552
9b17
9d54
9786
a4fb
a00a
b717
b75b
b332
c802
c837
c6b8
c256
d7ea
ff55
01f6
0287
1c76
1ce1
6ebb
69f6
69a9
6940
6958
0cf7
7931
515e
a9bd
19f3
19e9
7c7b
7ccc
9ce9
9c32
497e
4949
49f6
acdf
993e
9933
9925
89e2
8cdc
8ce3
ce33
cea0
9e71
0eac
7af6
7a2e
7ad7
4a5d
4a34
033c
8e73
3e4c
2a2e
be3a
5e64
ae69
0bf6
6a0a
1abe
dbbe
7bdb
7bf6
7b2f
5a08
5a43
5a03
5a84
55f1
3afb
9a5f
ba08
41aa
117c
318d
2581
2570
7188
5271
2b84
4b4c
4be9
7869
134a
2607
466d
b31e
9373
326b
3233
d302
88d7
d28a
a656
e226
a22a
22d8
f583
984b
d872
8576
b502
507c
a51b
0d49
6db6
2702
875c
f709
8d0b
ad05
ad41
afdf
af4c
bf7b
b0b6
8fd2
a074
c478
7067
bd3b
04b7
86c5
b0ea
14fe
1d90
afe1
54c4
e2cd
6058
7b9d
40ea
7d2f
6d95
b7ce
a1ba
e6d7
e6df
d052
68c3
5d35
6dc7
0894
b5ca
619c
e3c4
3d30
4599
9031
919c
8dcf
08cb
b1b0
5d95
b2b8
579d
2ecc
42ea
44ed
6fac
dd15
d514
c516
4ae8
c6dc
a760
fba2
c2b0
451f
061a
0453
0804
1710
145d
1565
258d
2562
2460
27a2
255a
3367
37b4
3f57
37e2
3d67
436f
4117
47ba
5f52
526f
6710
6492
63b9
6fb7
65ae
6087
78ad
85b2
90bb
a33d
b862
b7d0
b330
b432
c7b7
c7a2
d268
d470
d7a0
f367
f784
ffc9
01f8
01ca
1829
1cd9
798e
79ae
7915
a96b
a950
7c08
bce6
aa65
3c0f
29d0
fc3e
2cd6
2c19
2cbe
2cf4
6cb7
cc6e
cc63
ccce
d90f
8c46
ce46
ce53
e9d5
c96f
7a3c
7a87
1e6e
1ef1
1eb8
4a6c
034f
0385
8e57
def4
2a1d
aef6
ea6c
0b4e
6a4f
db76
6167
1629
1652
1648
5563
9a8d
5370
11ac
f174
fff3
e11c
c139
6bd6
d130
78dc
ab1e
ab04
cb0d
635b
88dc
8647
30de
c388
9251
d2fa
e62b
367c
3683
9606
968f
8203
f51c
48ff
9588
58fc
c843
0d4a
0d0e
7475
e7f9
e77d
14de
7d43
7d44
c746
b70c
8d51
ed6d
bd4a
bd71
0f7b
af7b
7f1c
25a0
ff6f
86cc
1def
1d26
5033
4f2e
1d1e
c1e3
4aaf
9f37
bd68
54e6
48e5
a7cc
c59f
91ce
21c3
c0e0
6d94
9ac3
9acf
d2e3
c4e9
f791
a6c1
d5c5
d5cd
ffea
81c2
38e9
25eb
e52a
e42e
edae
08c2
f898
b6d5
2198
77c0
3f96
d59d
d4ea
7fe8
a486
d8ed
688e
6d24
adae
4065
147f
1ddd
33ae
4698
4d6b
5665
578c
6562
65af
77e1
8fb5
8f18
875e
8835
9765
9310
95b2
a414
afc9
a0bd
a5a5
b232
b5b8
c1a8
c559
d43c
e666
f562
f3b4
f61d
f788
ff23
f5bf
016b
01ba
021b
02ad
1853
1cd4
1b3b
6e5f
6925
796b
5111
a9d4
4e0c
5986
59b0
09ff
49e1
2978
298c
ac79
ac85
2c4a
4c94
dc41
dc59
dc14
9902
d9aa
8cb1
8c87
ceb1
cebd
9e8a
5c3f
c94f
c9a4
fe6e
fe64
4a3a
8e6c
3e2b
be39
bee7
ae50
6a79
1a6e
1af3
1a60
fa89
fa50
16bc
556a
3a4a
9a51
9ad1
8a4a
b18d
e14e
f345
2b2e
3bf6
fb20
4bac
781c
7848
ab78
cbfb
1dd9
565b
2321
737c
6350
086e
8343
462d
b349
9351
8844
d602
30dc
12f1
f259
f266
7279
f678
f641
a2fb
8252
2249
b8fe
a85b
38fc
ff7c
ff0b
b572
a5d4
0d48
0d45
5778
9f75
6f7b
8071
404d
d446
b479
b44c
a46d
9fba
04b9
0ff4
14e4
a6dc
5039
ed2b
559c
6d30
5196
afef
f190
509a
679d
805b
7b93
93c6
f2c0
e533
e53c
e530
08e1
4399
6aae
76c8
4b9c
0da4
eecc
5aa4
953e
46c0
81ce
e3cd
1069
cd96
b024
fdab
6067
e527
c8c9
16c1
f89b
2fe7
bb63
32c5
a422
9b67
076c
c06f
07c0
ef6b
906b
8d99
0765
0db2
17b4
163f
13ab
108c
24b0
27af
2dba
3330
3fb4
37a5
4254
46b2
40bf
5267
54b5
6312
6210
7217
7d0f
7009
8d0d
8419
8721
97bf
908e
afb0
a25f
abc7
a3bd
b804
b3e7
bf5e
cbc5
c1a3
cf5f
cfcc
d5b0
d78b
d834
e250
e490
e7e2
efb3
f6b0
f8a4
01b1
0185
026f
05bf
1c15
6e04
6eb2
6938
6992
699d
69c7
79a5
a939
19f7
2183
7cb0
4e78
4ebd
4ee1
9c14
9c17
9cc0
3c50
097d
0928
09b0
491a
f924
fc0c
ac25
6ce3
dc07
7e6c
7e1e
8cd0
ce67
5cf3
b9ad
e98e
c996
fe1d
7633
4a21
037e
3e4e
deef
2a87
be6e
aee4
ca19
2e87
6a21
1a21
1a2f
fa11
6178
5a52
c07d
8a26
a1aa
1174
bbd3
bb2c
bb24
f307
2b09
ab42
cbf5
9bdc
9b53
eb4f
1d08
06b6
068e
235a
26ff
836b
4621
334f
d296
881b
3077
12ac
924f
65f5
b279
48d5
45f1
384e
3866
d8d4
850c
d5bc
0ddf
0d74
e7df
14ff
c771
97aa
3752
f447
2d52
5405
2403
cfd9
f070
b40c
1de8
14e8
1d98
1da2
c768
62ee
7a94
1f30
1db4
3ec9
56c9
56cb
7f8c
60c3
b6e8
de9c
9f89
9095
6aa0
e050
17c0
12c7
80e1
be9e
fb93
551f
d3cf
6dc6
cece
cec6
5ace
9de6
13cf
6193
30e2
6014
c5ca
3b6a
d0cc
cfee
9dfd
a192
5891
5ec5
a8e1
96df
452d
df6a
caa8
ed97
d0a9
eba0
daeb
476f
040d
046c
0b15
0fb3
1585
17e5
24b5
3404
4414
5d21
5777
5f15
55af
6bc7
7810
8088
8317
8008
9285
ad07
a804
a8b0
a8ad
bbee
b08f
b495
cfca
c6b5
cbea
d4f7
e118
e82f
e3b5
ed89
f11d
fbb0
01a2
01c1
0196
024a
02dd
0282
0217
05b6
057c
185c
1b3c
1b20
797b
7903
792e
198e
191e
1961
216e
7c62
bcfb
9cf0
9c63
9c18
3cca
591b
09ed
f9aa
f949
fcb9
ac71
2cd8
2ca6
4cb7
6c50
dc3a
7eb0
ccdf
cc36
cc37
d90c
894f
8c53
ceff
5c67
5cb2
c99a
0e2e
7a88
1e5a
1e3b
4a7a
4ad7
037c
031e
8e10
3efb
3e40
2a42
eada
eabf
6abb
db26
7baa
fafa
5a88
1669
5506
9a54
53d9
5353
fff9
fff1
9189
9126
3171
e152
e150
5b25
f339
f344
4b89
ab4f
cb52
9b4f
ebfe
eb2a
eb0d
137b
135b
1370
1dbc
0670
66fb
6603
56fa
632e
0823
b343
9308
325a
c2dd
d2ff
6253
827a
b6f3
b657
f579
f8f9
956a
95fd
d852
fd03
c583
857b
c8d2
c84c
5771
f70c
7775
a7db
1040
5d51
2f78
3455
a0dc
c452
84d2
a443
25b8
78bf
1dc4
efc9
2f60
0dc7
4fe5
78ca
3a97
bd10
3ecf
ff8d
3022
7737
0ec8
9d3e
7d9f
9394
a2e2
b79f
5b98
1592
f5c0
15ea
9428
85cb
b8ee
9ff3
601f
9024
0d94
f42f
92b1
e594
7024
bb68
a4cb
c487
92ef
a190
cffe
1ae1
6737
aec9
9d18
9d13
8760
5fa9
adf9
a4a3
aba4
c4ab
7763
a2bf
0407
1637
2d57
2454
3630
345b
38be
4314
4230
47b9
44fa
5b14
52a7
558f
5004
6413
6082
771a
7813
73bf
7f2c
9f13
a314
bbb5
b813
bb11
bbbb
c6bd
c0b5
d550
d6a4
d72a
dd6b
dfd7
edb2
e43b
ebe8
e5a5
f7f4
f7e7
f21e
016d
012f
01c6
0abb
0215
0509
183b
1cd0
1c3f
1b8d
6963
0c5d
7962
799f
a976
a999
a998
212e
bc17
bcc1
9c03
9cd5
9cb3
9cc7
aa3a
aa87
49fd
f9e3
fca1
ac95
2caf
2c93
4cad
6c3d
dca8
99cc
8c4b
ce52
ce59
ce3d
5c0e
fe51
fe4c
0e47
7a10
76ac
7687
eea9
8ef9
3e3b
3e10
2a1c
bef7
5edf
ae51
ae03
eadf
2e07
6a52
6a5c
7b73
7b09
5a8c
c04c
3a78
ba78
ba3b
113f
f10e
9124
e1f4
5b7d
52db
6bd9
f3fd
3b24
fb37
ab7c
4329
0642
0646
56f6
567f
2305
23f7
732d
8375
4681
a3fe
32df
887c
1246
f28c
72fd
6563
a6ff
f648
3679
3641
a220
8281
222c
b658
f547
957d
386d
3821
5852
3546
d57a
20da
a589
7d4f
77f3
8d78
f44e
f409
2d70
af02
241c
5fd2
1f43
e44b
e0d6
844c
25a1
1d67
57cc
1431
6098
4d34
6b91
14fc
2521
f4e3
1dad
78cd
ef97
5093
8ba5
e895
f6e9
ff37
039d
56cc
c039
edce
c022
9d3b
5534
c59b
5de9
4397
2aac
36c9
1e9f
1e9c
f059
21b3
f5c5
5a99
9fac
2d3a
0f90
75c4
1f86
efff
d53f
c5e8
f7c2
eaa2
6060
8ae1
3deb
e2e0
f48b
2b6b
7592
3d9a
dd33
fd2c
5d1a
1764
8f9f
0fed
ede8
0485
a8e2
c89b
819d
c065
7ba1
6dfa
f885
03e0
0786
17b2
1282
10b5
225d
2552
23e5
3f2f
42a0
4695
469b
58a3
5257
5432
52a6
6750
6f53
6467
6432
67ef
6d6c
6456
7f50
78a0
77e8
8694
8664
97d7
af0d
b694
bfcd
b5b2
b00c
c450
c3a7
c660
c432
cd8d
cf1e
c332
c4f1
d224
d8b9
ef51
e718
ed8d
ebee
ffb0
f711
f507
0155
01f9
01d6
0186
0a1a
0286
02ce
0531
1c83
1c1a
1c1f
1b0d
6eff
6e64
793f
7917
1942
19fb
19f8
21fb
7ca6
4e87
9cf2
9c75
9c94
aa2e
4288
59df
59f0
091e
0970
39e5
29f4
f9fd
f910
f9a1
acf3
acf9
acfd
ac30
ac13
2c4e
ccea
ced5
e9d0
7ab2
7620
4a05
4a44
dead
2a17
be7e
ae24
ca13
ea45
2ead
6af1
6a17
1a8e
fa82
1688
1674
55a9
5566
3ab7
9a8f
da12
53bc
8af5
8a15
a1db
1153
8103
9128
3169
3182
e151
c1fe
5bf2
520a
6b78
fb03
fb31
fb58
c652
c62b
d1d3
ebe9
eb30
5672
5681
2322
73ac
0878
e34f
4642
a351
b354
d33e
e83b
30d0
c2ac
d2d5
7202
f6fa
e66e
3645
f8ac
38d6
ff29
ff46
c823
d542
1029
504f
20f3
20d1
a56e
1729
17dc
0d77
57ff
574f
e752
7d4a
7706
9779
2447
5ddf
bfd3
a0fe
6045
7f03
e07c
d402
c41b
84ff
b52b
259c
c1e4
b053
4fa2
642c
a01a
7d9b
65ed
55e3
55e1
a051
a050
37c2
66c2
0d32
d4c2
1ac5
d2e2
be97
21bd
d5c7
5ac7
98cf
e888
b4ce
df88
65c5
7425
8ecd
7dfa
a5c2
452c
2ae8
67cb
e035
16df
fdf2
0fcd
0ddd
0bc4
1f54
16a3
24bf
3211
38b2
43ad
4b16
4787
571a
5494
5618
52ae
6f52
6587
622d
6336
6582
6f59
73e6
8552
9467
9715
9435
a418
a419
a0b0
af12
a1a1
b1a0
c45a
d460
d47d
d69f
dd63
ddbd
ffc3
fbcb
0a69
02b4
0296
1c6e
1c72
1b49
1b13
6e97
6946
69e5
0cfb
0c47
0cc6
79d9
7930
79a3
a942
195a
19e6
2143
217d
7c25
7c9b
4202
428a
3cef
59d6
0962
4950
3909
2936
29e8
acb3
6cbb
dc42
dca9
997d
7efe
cc65
897f
8c27
8c84
1e75
2a26
be4f
2e61
db42
fa1c
6176
6166
6158
5adf
1602
c0d2
556d
9a17
5329
5384
8ade
a1fe
a135
111c
8133
f109
9151
e120
25f3
c13e
c157
5b50
6b36
3b39
fb4a
8b03
d152
7853
78f4
ab0a
ab58
cb32
9b52
eb7a
665a
668d
08a9
83d2
3353
a385
f276
f27c
d2f3
d2d6
a626
36fc
6206
226c
b86c
b844
4850
386e
687c
077e
c8d8
754f
20f7
17bc
17d6
6dd2
9d08
9d0a
147a
0fb6
9f02
cdd2
ddd3
dd4b
544f
247b
6f78
b06e
344c
704e
f0d2
f04e
d46e
9fb8
3390
4551
4f57
4fe7
54f9
7f34
d79d
9fee
1dba
f6e2
40c5
ce99
9e97
60cb
5527
bdcb
9d37
4390
6aa1
12bf
5e99
7197
e730
ba94
fb9c
9da1
e4a9
1ecc
0f97
9de0
405e
619b
15c6
5b6f
fe9d
1393
602f
0d2c
8ae3
802f
dd3e
4b69
6a96
12ee
fd13
6898
c1b0
81b7
ef68
96ef
afaf
0dfa
0317
045a
0db7
0be5
1458
2413
32a8
33be
45bb
5707
56a0
6bce
6d60
64f3
6d62
7bc0
7330
720d
76a7
76a3
7d69
7567
8460
8660
969d
a41d
b5ad
b782
c267
cfbd
c7b5
c454
c5a3
d802
d22f
d432
d3e3
d80f
d555
e218
f4af
01d1
0277
189d
1c06
1c9f
1bbe
1b86
69f3
0cd2
0c51
0cc5
7988
a951
a91e
a9fd
217e
2165
2115
7c46
7c4d
bc91
59d2
0966
09a5
49d6
4962
39cb
f941
f9fc
f9fa
6c4b
6c17
dc7a
dcc1
d952
d9bf
89b6
8911
ce7f
ce8d
ce14
ceeb
9ead
e9f9
e937
c9a0
c9a5
7af5
7abc
1e1a
ee07
eea1
8e47
8e7d
3e18
3eed
dedf
de3c
2a63
be72
be30
ae0c
ae15
ca8a
eabc
0bdd
6a72
7b3d
fabc
613d
5a4d
c0bc
c0fd
558b
ba81
812f
fff8
e10a
c106
5b5e
f388
2bb1
3b78
c6aa
8bd5
4bd2
eb2b
ebd0
437d
1d03
1d0a
663c
63d2
33d3
330e
d357
884a
887a
d64b
1242
1270
d26d
72d2
72fb
a6f5
e647
9683
826e
82dd
f54e
98f1
484f
48da
4826
ff09
8542
b51c
a54f
67ff
6d06
9d6e
9dde
7d5c
7d75
4fd2
77fb
c755
8d4f
97f9
3753
f473
9f7a
addf
ef0e
efdb
8f08
cf47
70f5
60db
86c0
70b2
78c7
149a
62e5
54c5
cf38
0394
773b
cd35
65e5
80c4
c2cc
c0ea
90ee
8092
6532
d735
e059
ab9c
6f6b
5a9d
04a2
ab64
5ac9
afff
0423
3033
9d2c
9798
dde2
7021
cf88
cb93
8b90
2a95
26c3
f3c7
cda9
58c6
7033
851f
bdaf
9d15
5dad
dfad
0f22
1466
231a
27e7
2dbf
20b7
370d
3f26
37ae
44bb
48bf
4fb9
400d
4116
5722
6bb0
655f
7b18
700d
783d
87ef
96b4
9bcd
b802
b5a3
c704
c264
d462
e716
e8a1
f256
ffd4
01b5
01a1
01a3
02c5
050b
05be
0594
1889
1c48
6e94
6ec2
6987
798c
796a
7966
7983
516d
51fb
192a
19bb
7c71
4e7f
4ea3
aa37
59b4
0990
4934
395e
39c0
f909
f933
fc39
fc9f
ac53
acb5
acaf
2c3c
4ccd
6c82
7ee9
cc11
cc56
8ce9
8c8f
cede
cedb
fe06
fe13
0e27
0e10
7ab1
7af4
1e2f
4a45
03d9
eef3
eee8
3e2e
de35
5e2f
ae05
ca2a
ea5c
ea62
2e2e
6a08
1a8b
7b51
7b5a
5a53
c06d
c04a
9adf
9a7c
9a2f
daff
a14f
1141
f17b
314f
3161
2579
7152
7153
718b
5bd2
6bf3
2b7d
3bf3
3b25
3b5f
c650
8b5c
d13b
abf0
abd4
cb50
9b2a
23d7
262e
2647
265f
a373
a375
934d
3242
323c
d6b6
e853
3048
c3f9
c38d
923c
92f7
d22b
a621
e64b
9689
62f6
b619
98f3
fd73
5859
5853
15fb
754e
1778
0dd3
8772
4fda
c71b
4d02
b7df
bdd9
9fdb
94dc
107a
24d6
2440
2f6e
df0a
3473
640a
7f0b
c409
4735
07e7
51b3
4f6c
5421
52c2
2528
539f
cf33
7d34
0882
873d
11b7
42ca
4ff2
cb66
ffa6
91c2
c0e6
a8c9
5e90
719d
e736
8b62
5512
f056
86e4
e4ab
c797
3e91
a5e6
8f37
a02d
ade2
e88e
f8ca
3792
df8b
d0c5
742a
3488
e488
e48a
d4eb
689a
3768
bece
0fa5
81bc
cd29
ae97
3f8c
2da1
04d5
0b12
0fb1
0456
169a
2830
2720
3453
3f20
3499
441a
4be0
478a
4fc1
5711
5bb7
55a8
6493
68a4
6bb4
6db7
74fb
7287
7d8b
7fc6
7362
8417
87ed
9db0
933b
9662
9bc3
97b7
9498
a777
a232
a587
adb3
ad89
a4ba
cbc6
c23d
c41a
dffb
d4fb
d469
d2a6
d7eb
eb1d
e0b2
fb15
f33a
f111
01c9
02f5
027d
0262
0579
1b4a
6983
7941
7965
79bf
1952
1966
2176
2161
bc27
4ed2
4e36
9caa
9cea
9c97
5942
59b7
493f
49e6
39af
297c
f98a
2c6a
4c6b
998c
9958
99a6
ccbd
d9e3
89eb
ce2f
9eb7
b90a
b9c9
e938
7a28
7ab7
eca9
4a30
4ab0
0307
ee2f
ee38
ee16
8e52
8e4b
de7f
2a53
2e12
6ada
6a14
db44
7b04
fa43
5a54
5a8f
3ad1
dad4
ba30
b10f
a1fb
a141
1184
8184
f188
bba9
bb3c
e14f
2576
716b
7133
cb41
9bfb
9bd5
ebdf
e37c
4654
862a
e878
e821
e856
c378
c2d1
d2b6
d27b
f6aa
e61b
a27a
825e
28f5
2877
b878
f84d
95d8
ff0a
076d
1502
157d
850a
a54d
1753
0dd0
7748
c7fb
3d5e
377a
cd7d
adaa
af48
ef4f
cfdf
d0d3
d4da
d475
df97
7ec9
4f9c
505f
ef95
5ff8
f19b
3596
2ffa
54e8
f5ec
039c
4fab
1aae
40e0
cd3f
a3cb
5de1
239e
68e0
36cd
f733
1a91
68ce
d01d
5b95
2d3f
ffe8
709f
4051
5484
e3cc
33c5
33ca
f8cd
11e0
9aab
2ac0
20a3
b6d0
3012
839b
8ff8
1760
81e9
f2e6
2a96
648c
b1b1
d6cc
e6c7
4d26
0fa9
aa9b
8aa8
42b7
d5ee
34a3
adfa
ada3
8f6f
c88b
075b
0824
1787
15b4
121a
155a
24f8
3407
3717
34b2
4d07
4bc5
469a
4704
47bd
4004
400b
5886
5083
5fa1
5d04
572d
5838
6f16
680b
66bd
65a1
6457
60b1
643c
61a6
60be
76bd
7210
8635
822d
9551
9b13
9f57
9787
afdd
a317
a70d
afcd
a662
afbe
b1a6
c637
c863
db18
d8bd
d0b5
edfb
e465
fbb2
f854
f33f
f787
fdbb
0163
0a53
02e1
1cf9
1c89
692c
69b8
69c1
7977
79ce
193e
7c8c
7c35
7ca0
bc5a
bcc9
4e55
42da
4253
3caf
3cc1
5938
29cb
f952
ac6d
ac51
6c5b
dccc
7e82
cc3c
cc60
d97d
ce36
9e06
9ea2
b95d
b9cc
b9cf
e9f1
e9b8
e9b3
e9a6
7a7a
760e
0308
ee4e
eef2
ee28
8e79
8e41
3e70
5ef0
5eb2
5eed
ca1c
ca0e
ea42
ea7e
613a
5578
3a1c
3afa
dade
8a36
8a30
b1f8
91fc
5240
2b25
cb87
9bdf
ebd8
eb0b
137f
1d4b
062a
6652
6653
6685
732e
7340
63d5
6387
26fe
46f5
4655
4678
b3dc
d3d8
8675
e852
30f7
c23c
92ff
72f5
e6f6
224f
f853
f819
a823
ff4c
354a
b569
6dde
9d76
5753
87ff
4f78
4f73
4f47
77aa
7740
d745
4d4a
4d7b
b7d1
ed7c
bd6e
2d51
2ddb
cd4e
ad0a
bf6d
5f42
a0f4
b4da
a41c
a451
b48e
b485
57cb
bd37
ff65
1dcc
4f50
8ac7
7898
1d35
1d3d
4fed
149f
e2b4
7ace
7dc0
148b
a01c
7d28
04e3
80cd
94eb
08e0
a059
b7c6
97ca
60e6
c1c7
a2ee
1194
1a90
f050
d014
c79a
20c4
3e94
3e93
ab69
329c
7098
1f8e
b424
d535
b19a
b19f
f0c5
6019
fda4
44c5
1295
1297
c5cf
7f94
a2c5
e487
5f93
76ef
739a
f02b
41ed
7037
d2bd
b1e9
442a
7527
6888
70e2
c4a9
03af
049b
1118
122f
13eb
2084
3450
3f16
3758
3338
3863
433b
4fb0
4fba
47b2
5317
5713
57a1
5491
5f5e
661a
6118
63e4
740d
73a5
869c
80bd
9433
9be8
af1e
a412
b4fb
bbca
b564
b0bf
c716
c550
c694
c728
dfb5
dbce
dbb4
d78c
ef16
edbb
e087
f2ab
f4dd
0178
0177
0114
0162
0116
0a67
029d
05f1
0535
186c
18e5
1c88
797a
790b
79f6
7936
514c
51a1
a9a6
1908
7cbc
bc02
4e4a
4eb5
9c50
aa3d
aab4
3c38
09d2
095a
4911
394f
29c1
fc33
fc38
ac15
6c99
99e9
9932
99ee
ccf2
cc04
89dd
8c3f
8c18
8c92
ceb5
9e72
9e25
5c90
b943
e90b
c96d
fea3
7a8c
7651
035a
eebd
3eae
aee7
ca75
ea4e
ea61
6a50
db85
fa58
5a7c
5a06
5a7d
167a
55f2
daf8
536b
5350
ba02
a12a
a12f
f165
bbfb
bb74
3178
2b50
c67a
d12a
78f5
9b41
9bf4
eb88
434a
43d7
1d47
2372
2359
7348
6347
2642
e325
b372
30d6
7208
a62f
a60f
e673
e628
e62d
e24d
9677
9658
2826
22ff
b823
95f0
a84f
d839
6828
ff4e
154a
7508
6d79
27f5
876d
1475
7d77
77f5
d74a
47d3
f479
f445
9f4a
2d6e
5d78
b0fe
efde
ef7d
d0f3
d0d6
94a8
86c6
5057
505b
7892
67b0
14fa
14f0
4dac
252a
502c
ed2c
4f24
1496
149c
f597
bd1e
3593
359b
e4c1
aaaf
31b2
7d24
4538
23c6
6d91
6aa2
fec9
be92
9da2
5a9f
04a1
0f88
5768
ab66
401a
2f39
0e97
303d
eb96
0b93
9f66
8da0
efa4
11e6
65c7
cf8e
cb9c
e02f
a4c3
72c2
f0e2
fd95
648d
b2ce
f022
4882
b4ed
a6ea
6da3
ebad
9ae4
0db4
172b
2360
2564
36a7
4718
4111
5830
586f
5d6a
58b7
6490
68b1
75a3
86b2
8d89
8284
93e9
9bee
9696
a7b1
a432
a617
a8bf
a81f
a8bd
b615
b8a8
b1a3
cbc3
d3a7
d43b
d338
d21a
d0b8
ef52
ef10
e2a6
e085
e33d
f693
0191
019a
0a9b
1cb9
6edd
6ea1
6920
693f
0c7b
0c22
7925
7920
a90d
1947
7c48
7c6f
4e6c
4e22
aa59
4240
3ca9
3cba
3c07
5960
0926
095f
29a6
f9d2
fc4c
fcbb
fc5d
ac03
ac3a
2c76
2c97
4c67
6cd2
6c54
6c68
7e41
7e09
cc78
cc58
d92d
8905
8c08
ce78
9ef1
9e3a
5c3c
b92b
c950
c958
c90d
fed2
feb1
0e37
7a53
ec1d
1e43
1e74
ee3c
ee1f
8ee6
3e66
de1d
2ad0
2a07
be87
ae66
ae6f
ca57
ca54
ca65
2ebd
0b79
0bfd
1a81
db3c
166a
c043
9a3c
53f1
b1d8
910a
9134
31de
31f1
3104
e14c
525a
3b4e
fb73
fb8a
4b51
78a9
78d5
cb3c
9b7c
437e
134b
133c
0653
662c
6674
5676
462b
464d
4687
3309
3339
33d1
3325
b323
32f5
d3dc
c3fe
92df
f2f5
725a
a6fe
a6fc
360a
e28e
82de
222e
4541
6d52
f55a
e7aa
870b
7dff
d7de
c74f
c7f0
3d53
974d
f44f
bd7c
2dff
cd4a
546e
54dc
6fd9
8075
b0f0
341c
1f6e
1fda
646d
1d68
1438
1439
1dec
b0e9
efef
78c8
78c9
eac5
5098
bd6a
f5e0
f6ed
f6ec
20e0
48ed
03c3
9e9b
31b0
86d5
552d
f2cc
ff98
2d17
a7c6
809f
63cd
12b5
c390
d4cc
8b61
fb90
41cf
f8e6
ab6b
5acf
c0ce
affe
25e4
85ce
9f6b
e884
9d2a
6021
62cf
6064
989b
d0ca
65c6
c6e4
bb6d
a0ab
8427
72c8
a2c0
6487
ede2
70c4
32ca
a29f
47c9
8f81
9b65
c2ef
1ffe
bdab
91e4
9ba4
c6d4
2767
7764
e51d
0dfb
0f1f
1632
1720
1474
2551
2be1
2d64
3431
34fb
433f
44b1
5490
5414
531f
55a2
67ea
7fd5
73e0
75bf
8f1d
8287
88a5
8dbb
9dbf
ad0f
a5ad
af5d
bf55
b2d4
b00f
c45f
c4f4
d468
dfd5
d7e1
ebbf
edd7
ef12
e835
ef28
e334
ed8c
ff10
f2af
f0b0
f435
f5ae
fd62
0131
0a06
0abd
0246
028a
02e9
1cb1
1c11
1b11
6e9e
6903
69ef
79fa
795d
79a7
a972
190a
19fa
195d
2169
2126
bc24
4e74
aa0c
aa2b
422e
596b
0972
49a9
3903
39cc
f9cf
f9cb
fcfa
fcc1
ac0d
2c8a
4c25
4c10
dcfb
99aa
99d8
99db
9984
99ca
7ed2
cc64
895b
89af
8cd5
ce38
9e0e
5c65
5cb0
b9b4
fe33
7afc
7a07
7ab4
763c
1e4f
1e45
1e87
4a10
eeb9
8eee
3eeb
3eab
de41
be61
be66
5e7c
5e52
5ede
ea3f
2ed2
6a28
6ad4
6a04
db23
fa71
c0d4
5588
5547
3a0a
3a34
9a19
da08
da29
ba29
bad8
b10a
b14b
b125
91ff
bb7a
bb75
310c
2545
7139
52fb
6b3b
2b36
fb0e
fb7f
8b85
4b78
4bd1
9bfa
9b20
eb4e
138f
062d
6679
2349
2384
6356
2620
83d9
4639
336a
a34a
a34d
9324
3272
307e
c26c
c2d0
f26b
d2a9
9652
962c
96fd
a281
8205
8259
2843
b61b
b6aa
b25c
954a
d831
ff7f
e566
c87f
d5d3
751c
1743
5779
e74e
2753
87d1
146e
7d49
d77c
3d41
4d50
8dd0
9074
f4da
0fbc
2dd9
2451
5d5e
5f05
70fe
6071
40f1
f077
8451
a4d9
1437
50cd
8ac0
5393
1f39
7aa8
54e2
48eb
a01d
c031
edc4
ff9d
1732
2aad
31c3
60ef
e052
0da5
21b1
c795
3e92
2d3e
8f32
7099
adea
9ff9
8295
b1c3
6012
601c
b4c4
3731
2fe4
f52a
fd92
e1e1
61e8
d595
0489
71bd
3764
28c9
3888
03a1
0707
0835
0d68
1088
1711
13a8
15a1
32ab
33e7
30b7
43ea
4bbd
4d82
5716
580c
5d5f
5db5
5617
63ee
63a7
6612
64f4
68b3
749c
7dd4
77a5
7867
8f14
8813
8704
8bb4
9698
9fd7
9863
9bbb
955e
911a
a20d
b7b8
b49b
bd82
b55e
c665
cfba
c257
c69d
cfc5
c7ad
d7be
ebc7
e45e
e7e0
f610
f311
017a
0aa3
0279
02fc
0570
1862
189f
1cbc
1b42
1b88
1bb0
6996
0c30
0caf
796e
795b
51b6
51fa
5166
a959
a9ea
7c2a
9cbb
9c54
9c99
aadb
aaf6
3c7e
4945
49c6
499c
39d5
fcf3
ac1a
ace7
cc7b
cca7
cccd
cc95
d966
d9a4
8c81
9e29
b922
b9c7
e97c
e9dc
c9b0
0e6e
7a08
7aff
ee0b
2ab2
5e1e
ae7d
caf9
ea11
2edb
2e17
6a4e
1ad6
6152
6130
c06e
c0fe
557f
ba3e
b185
a13b
4166
8176
f183
91d6
91f1
9157
31fb
71db
717d
3b7c
d14c
ab50
eb25
430c
1339
23fb
7303
6388
2606
83f6
a378
32dc
d377
d3f7
88da
8652
860a
d608
e8d8
c252
d289
a64e
a647
e60a
e687
364d
3674
96fe
963c
62f8
827e
28f4
b855
b24a
987d
9828
982d
958a
957f
457d
5879
c5bc
15dd
e5d2
d589
a503
a5d9
180e
1752
0d09
277b
1441
4faa
4f03
4fd8
774d
d70e
c759
3d46
975c
9079
ed41
cd4c
ad7b
af74
5d08
bf1c
8f4a
60f1
7fbc
e045
e047
e0d5
a442
f6d5
f4f2
07e4
07eb
51b8
bd36
25c1
66e3
1dc6
4da3
1d9d
4fea
afed
b052
f6cf
7aa4
873e
7de7
f29b
9f94
9f97
bdc6
e012
9598
9094
1098
14ad
c39f
c1cf
bfe7
a8c3
952e
04c6
76cf
e6d5
5aad
ba97
c79b
5b97
d5c2
38ea
bfff
3d3c
24ac
3428
9028
c8cf
8021
b03f
fd29
a0a6
6ffd
5d25
ed3f
c2ed
f033
c4c7
e0ab
3da5
c063
c06a
9b9e
bda4
3f83
c4a8
2fa5
06b1
04f4
12a8
1668
1081
1fbf
130d
2fb0
278e
2783
24f9
3db0
3fca
369a
43ec
4867
5419
57ee
54d0
57b5
58ba
6db0
66a8
6552
6f20
6b16
65b4
63a4
7ffb
7fcd
7723
8632
8268
831a
8bed
823f
9010
9b11
983f
a80a
a854
a43e
a560
a284
b7d7
b457
b21e
c410
c69a
cd69
d638
d75a
d712
d7a2
e3bf
e4b8
e75d
e5a0
ed83
e7e8
f461
f2a7
f08b
f7b0
f75e
f318
f412
f7be
01d9
013c
018a
0194
0272
02d8
02e2
0516
1c67
6e46
691c
6970
6965
69c0
0c52
0c8e
7959
79c1
a935
214e
2179
2125
7cb3
9c87
3ca8
5972
599a
492f
39ec
390f
f9e2
dc3c
99fc
996b
7e03
7e8e
7ed5
7e28
cc8a
cc77
d94b
d9af
8caf
9efe
9ef6
9e30
5cac
b941
e9de
e9e2
c98c
fed8
0ed2
0ef2
eced
1e39
1e30
4a81
4ab3
0361
0328
eeb0
8e74
3e58
3ea7
de42
de62
debf
2a71
2afa
5ee4
ca37
ca18
2ef7
7b29
7b2a
7b2b
7b5f
3a6a
3abe
da4f
da5e
8a85
b18f
416a
4120
8136
f1dd
bb2b
3179
e18e
2578
5b2f
5269
f3d5
2bff
2b82
8b4b
4bde
d153
7870
ab3f
9bf2
eb50
734a
268c
46b6
3319
863c
e875
e8f4
1266
c24c
c2fc
c26a
d28e
a2f8
286c
2289
22f0
b81c
b8f1
b6f2
b62a
f566
954d
a8fd
4529
d8f5
c54f
07f5
154c
15d6
e549
d583
9d49
57f6
e7fe
4f74
7778
3dd0
4dd8
8d0a
4709
97f5
ed0a
ed06
a7fd
5443
240a
6f29
6f73
6f7a
640c
1d63
bd34
78b9
5392
62e3
7acf
3594
148c
039a
56e4
56ec
9f9a
93cb
7d96
b6e5
34ed
34ec
94e1
909f
b53e
c398
2420
0dab
fb98
bb9d
c4e3
fb62
20ce
ab9d
04ac
15e5
d5cf
a02c
b59b
8293
6033
75ec
8aea
64ce
f421
20ab
d0c0
2feb
ddec
34cf
9737
929e
80af
ed39
a8e7
96d2
42b4
7520
dd94
73cb
7fa2
7d17
0d62
12a1
1469
12a2
1368
2dd7
246b
255f
3bc1
3803
38ab
43a7
43b3
4417
47ad
6217
63e7
6816
6782
60ba
708b
8662
93ee
9bed
95b8
933a
95ad
a886
a551
abb8
afc1
a8b2
bb12
b3ea
b5bd
c46c
d5a1
e313
e4b7
e5ab
fd21
f70f
f3e6
f568
ffba
f66f
f835
f498
012a
0295
18d3
1ca6
1bd3
6ed9
6e26
6ea0
6961
79f8
795e
79f0
79b1
7957
79ad
a944
7c6c
7c70
bc03
9c71
9c59
aa03
5961
5928
59e3
39b7
39e7
39c2
2958
29b5
997b
994d
99e3
7ee7
d955
d9db
8986
8c79
8cec
ce64
ce68
9e69
9e85
9ee1
5ca4
b9fb
c9d8
c95a
c982
0e49
0e28
0e1d
7a30
ecfa
765b
4a37
0364
8ea9
3efe
2a43
2a06
be5c
be15
ca69
ea24
6a74
1ad8
1a87
1a17
7bfa
7b33
5a5f
5a37
3a50
9a81
9a84
530b
8a57
b178
b189
a106
9178
317e
25f0
7178
7107
c1fc
c17d
5b4f
5b38
5247
6bf4
f3d0
2bba
3b2f
d165
9b88
13dd
0604
5654
084a
320e
88df
8689
e8df
c28b
9248
9286
d252
721c
722b
e640
e60d
e27c
6279
824a
824b
22f2
b852
b6f6
b64d
382b
d87e
d85b
687a
683a
15df
75dd
0473
a5fd
67f9
9d51
87f3
4f4f
c741
c7da
47bc
f455
9f71
9f21
a7fa
2d43
ad79
54db
bf4b
bf21
ef46
ef40
1f73
1f03
1f0c
70ff
6079
e071
07e9
143d
555a
a1e7
a1ef
9510
14c8
78c4
3fec
afea
78e2
d798
1df2
11b4
0391
ff83
06d2
9e90
a7c5
94ee
eb66
23c5
4398
1f95
68e1
eec2
ba90
8f33
0f95
3058
d2ca
329d
4053
efa3
aacc
b29b
16cb
16e6
6de1
8391
f526
9739
f0e1
3b9c
4d93
71bf
f4c0
d76a
f763
1f62
d511
352d
4aee
8d1f
b069
0490
0712
077f
0834
1fc7
1dd4
1f55
266f
3f04
3562
333d
31a1
355e
35a2
475f
48af
4085
53a7
54b3
6bc0
6fcb
64dd
6304
7587
7fcf
7116
7559
8d56
8f28
98a3
925d
949e
91a0
983d
a8ba
a788
a43a
a4f9
b784
b7f7
b6a1
c6a6
cfbf
dd07
d61f
d5a0
d7a5
e315
e6b9
e78f
e110
f638
f007
ffc7
f411
fd5d
f1a3
01ef
0a16
02f9
022d
029e
18f8
6ec5
69c4
0c09
0c86
7967
79a0
a9d7
7cc0
bccf
4eb7
4988
f9f4
ac42
9963
99c0
7e7c
cc67
ccc8
d9c6
d998
8987
8c4a
8c3a
ceb0
9ef3
9ef4
9eb8
5c4e
5cf9
e9f3
e93a
e9dd
e957
c926
7af1
ec2c
7683
1e14
4a42
0389
ee7d
ee82
3e0c
3e61
2a0b
ca56
ead4
0bfe
6ab9
6a8d
6a64
1a20
db4f
5a5c
5309
53f4
8ab9
b123
b128
a171
a1f2
114f
114b
812b
f121
9187
c12f
5b21
f3bc
f37f
2b3b
3b2a
c685
4b08
d17a
eb77
666c
7302
734d
63f7
e352
e386
b3d2
b356
937c
d34f
e84d
3042
120c
c342
c375
e6f0
3681
365d
e25b
e22e
960d
a27d
62f3
8247
22a9
b685
b278
f842
f8d9
954c
38df
fd74
5849
6876
c5da
c58a
0708
15bc
35d8
d5fc
75d4
040e
a5de
db66
e746
e7fd
147e
77fd
c7d2
37fa
906d
ed4c
bd49
0f7d
94d9
ddbc
af72
5d43
5d47
b048
ef75
cf79
707b
60ff
e0df
e29e
fac1
7785
1d9f
2520
5026
f1b9
e2b1
5733
54c6
f19d
bde8
d793
7d3e
3eca
6799
8050
1aa3
92c8
92c6
179b
bdc8
9d30
173b
a1b5
fece
14a0
a2ec
2425
c3c7
9530
bb9a
decd
a5e3
9dea
48c1
0e92
bff8
0730
aac8
f486
b033
3016
98e3
5d28
30cc
7398
3da9
cdec
4426
a88d
6df1
adf6
adaf
f06c
72ba
3ba8
faeb
0fa1
0d82
085f
1bce
12af
13be
1f12
1611
26bb
2614
33a0
3dd7
3719
350f
3fc9
35ad
4f04
4813
4b10
4b15
4fd7
4210
44fe
4114
5313
5dd4
5be4
6003
6d56
65ad
67e5
7bb5
7722
73a3
7fd7
7d89
78ae
8453
8215
87d0
85a0
8fbe
87ea
8611
9430
9f15
9568
9f18
9117
a808
ab17
a2a6
a282
a4fe
bdb0
b007
b7dd
bbcb
cdb0
c3b3
c3bd
d6bd
d718
d2a2
df26
d436
d558
e018
e450
e407
e7f7
ebc8
e7ec
ef58
f312
f40f
f333
f4b3
01de
02d1
05de
0575
058e
05dd
0595
1872
1baf
6e61
697a
69fe
69ed
0cf5
0c04
0c90
a92a
a9d0
1928
1993
bce3
4e3c
4e61
9caf
aa62
aaed
3c91
59bc
597c
5950
0907
0998
49e9
49e5
4999
39ff
3978
39dd
f9d9
f9b9
f95f
acf5
acaa
2c72
2c22
2c62
4c7b
4c53
6c55
6c8d
dc0c
99d9
9960
7e46
cc70
8933
8cfa
cee0
e9b6
c948
7a4b
7a1d
1e10
4afc
4a3f
ee66
eead
3e2c
3e74
be07
be62
5eff
ca2e
2e8b
2e0d
0b0b
6a39
6a56
db53
7b45
7bd7
61fb
614a
6107
5af0
5a32
c0f5
5541
3a38
9a6f
da04
5355
ba8c
8af4
8a27
1120
9166
3139
31ae
c11c
f32a
f385
2bf9
3b82
fb53
8b2c
4b3c
d1df
7843
7871
abd3
ab5e
eb54
eb38
134e
13d3
06f1
2345
0820
83d5
4653
33df
33d6
b385
30ff
304e
1231
f2f6
d278
d23e
a678
f67c
f603
e62f
3643
9641
a279
b6f1
f58c
487d
d87d
ff41
35df
35f8
35db
c84e
c86a
d54d
1740
6dda
f753
144d
7d1c
7dd1
4f6e
77f6
d7f9
4d47
9746
afda
80d2
80d8
80fc
3f0e
ef4a
8f6d
6473
d074
4044
f0f5
f048
d44b
b4ff
f6d1
4aca
50cb
b5e1
c1ea
253b
3592
1482
03c1
c034
ea9b
40e2
60cc
7ff5
6ac5
809a
6d9c
97cd
af34
409a
9535
fb94
1e99
daad
4dc1
6dca
3e97
5a94
a026
629c
fdca
2f3f
d6e3
44ce
3dea
c5c9
802a
10c7
f484
2b64
8b91
1761
273e
b0a7
71e4
77c3
7df2
5d90
a428
43cf
8888
888a
42ed
452b
88c1
4887
1ff3
9b99
a88c
d031
aba2
bdf4
61b8
b4ad
0df3
0784
171e
1333
178f
2716
4250
4638
4234
446f
45b4
478c
585d
6667
7690
7b16
8bcc
84f0
97ad
9f56
a58f
a857
b80a
b36f
b6b7
c4bb
c8b1
ddb8
ebcc
ff07
f704
f5a7
f470
fbbd
f8b5
0ada
02d3
023d
05a8
1c46
1ba5
6e09
0c74
79db
79a9
79ec
79bd
79a2
19d5
213a
7ce9
7c30
7ccd
bc2c
4ef7
9c9c
aa6e
aa07
3c7f
4944
2937
f94e
2c7e
2c4c
2c75
4ccc
6c3b
dc0e
dcb2
99ab
d929
8960
8c25
9ebe
b93e
b9bb
e9c2
c95f
fedc
ec2e
ec50
ec1f
eccd
1edb
1e31
03f3
03dc
ee29
8e8b
3ef9
3e63
2a20
2a13
be78
5ea2
ae31
aea2
ca1b
cabe
ea7b
0bd1
6a5a
6a36
1a56
fa3e
fa8a
6141
617d
5a49
5a0e
5a68
5342
ba61
8af3
8a33
8a68
b179
b12d
a1b6
a15f
415e
4132
11fe
1137
1134
f104
91da
bb88
3152
31fe
e15b
2542
2503
5b47
52f5
6b70
2b31
3b2c
3be9
8bf7
7879
cb71
cb88
eb37
1353
1d41
065e
e373
e38b
337f
9303
325e
1274
925c
f2ff
720c
f606
36ff
3652
366c
9625
8242
b277
98d8
98fd
98f4
d871
5856
58f4
4471
c544
0753
c8f8
8742
7d4e
c7fe
8dda
474e
3729
906e
5478
1076
2409
bfdc
7043
d047
40dc
e04f
e07f
b4bc
3398
1425
2de2
52c6
67b4
f1b0
78c3
788e
7a9c
cf36
78ea
7acd
7e95
28bf
1df1
f5ed
e4cd
9dcf
f6ef
7aef
7295
c535
f29e
8522
f2cb
d1ed
c0e5
9f85
809d
6d9e
ef3d
12be
12b0
24e8
1f91
7196
9acb
c3c6
5aab
d053
551e
64e4
f5c2
5762
4015
fdc9
5dc1
0422
e88c
379b
d6df
6ba1
8b9f
0fe1
76da
36e4
b8c7
f3c2
a299
5f9c
6f87
479f
376f
bf32
9d12
bf87
f764
806c
cae4
6d11
2dfa
0411
03a3
0b10
10ba
2802
2f17
2582
2616
28a2
3710
3551
3552
3f15
34d0
3618
35a6
4f14
4d57
4469
4b17
480f
4697
575e
5664
577f
5fb4
5f2e
63a0
6227
669f
6084
63b7
66a3
6d65
61a5
745b
7564
75a8
869b
83e5
8612
83b9
86ab
8616
855e
947d
9d58
a1a3
b565
b857
b21a
c33f
c415
c498
c285
d78f
d554
e765
e5b0
e7d7
e4d7
f78b
fb17
f864
0a72
0a84
0209
028c
0207
0520
1856
1c10
1b7c
1b5f
69a7
0c6d
79fd
799d
5148
1943
19d1
1932
21f3
2130
7c04
bc44
bca3
bcef
9cc6
aa4e
aade
aae2
39d8
f9df
f97e
f9e5
f9cd
fc77
ac24
acea
4cd4
6cae
dcc5
7ebc
d9ae
8cbb
9ea1
5c4f
b9f1
b98f
e97e
fe08
0ea7
7a55
7a43
7abe
ecf3
1e46
1ef2
1e86
1ea4
4abb
0382
ee2a
8e77
3ed4
beba
5ee1
ead7
2e0a
2e2d
6af0
6a0f
1a3c
1a04
6147
16fb
da81
daec
5328
bad2
bad0
ba56
8a7a
b16e
b13e
a1f1
814a
9108
e1da
e1db
e147
c182
5b8f
52df
6b0d
3bfb
fb88
fb87
fb3d
c66d
8b21
8b09
4b79
782a
cb78
cbb9
ebda
13f4
1d5b
23f4
637a
08f0
8349
83d4
46f6
3384
a34f
b342
b3dd
3223
88d0
30b6
124c
c2fa
724f
f64d
f686
3639
3633
3620
624a
82f8
82d1
8220
2848
b24c
f5f3
a8aa
a873
d822
5823
687b
ff7d
e5d8
857a
8577
d576
b5bc
b578
170a
7442
747a
9ddb
e709
7d08
777e
d772
4d4e
b7ff
b71c
f40a
dd4a
1070
24f5
6fb6
a070
7f7f
f0b6
1d6c
04bb
5055
50c3
3ac1
8d31
54cd
3784
c1eb
d795
f6c7
7ac9
7aae
11b5
ff3e
56c0
c530
9d94
3024
4a94
bdcc
65ee
b6ef
a09a
1736
2aab
90cc
5e98
d737
1a96
64ef
68cc
e4a0
c796
159b
83cf
4011
2f3e
e3c6
0428
15c9
85c3
b19e
aac1
a899
0de0
f42d
8ff1
8b95
9292
a2cf
77c8
06c1
7df3
95e1
47ca
5ec3
c1bb
58c4
3766
ddc5
ed95
91e3
aec0
dd92
d39e
66df
8481
5aed
3f62
0464
0f04
0f1a
0b13
0557
1265
1257
13bd
2bbf
2219
27e9
3317
3bb2
3836
37b9
3335
32a4
4413
4081
4782
54bb
6f10
631d
67ed
71af
785d
76be
77a0
7834
8db0
8587
87b0
8720
93b2
9d6a
94fa
95a6
b722
c3b2
c00c
c504
df1d
d08c
d434
e862
e665
e262
e86f
e8b3
e307
f418
f2a1
f5b0
f430
f28d
ff59
0197
01cf
0aec
0237
056a
05d7
0568
185a
1c0d
1c65
1b07
1b38
6e9c
69d1
0cfe
0c2a
0ca2
7999
19da
bc53
bc70
bca5
aab6
aa3e
aa5a
42df
42f8
4285
3cf1
596e
5915
092f
4902
390a
290e
2988
2989
297d
fc2d
acd8
ac32
2c41
6c19
6c85
6c92
9904
99e4
7eb5
ccff
cc49
ccf9
cc75
cca6
8921
8c8e
8ca2
ce3e
5c61
e9b1
e9a1
e996
c9c6
fe38
fe62
0eae
0e2f
0eb4
7a8a
ec57
1e8e
ee05
3e8a
3eb1
3e38
5e62
aedf
ca45
ead5
0b24
6a81
fa09
fa87
fa1d
612f
5a0c
554c
558a
da66
538b
8a1c
b14d
a12b
4168
818d
9106
9174
31d8
3128
e129
25f5
25d0
7169
7182
c14f
c188
5bd6
5b1e
5b5a
6bdf
2b47
3b37
fbec
c64d
cb8e
cb35
9b1c
9b4b
9b2f
4340
667d
5608
567e
2309
2629
4686
a31c
b34f
86f3
30fd
d239
65d2
e6f2
9655
964f
96f9
b848
b2f1
f508
f50e
985a
95f3
a878
a8a9
fd45
58df
c5f1
c879
c85a
d57e
b573
20f5
a572
67d1
274f
2749
147c
4f7f
4d74
b7fa
8d45
3778
90f4
9fd3
9f4c
a71c
94de
ad45
dd4e
ddd0
540e
10f7
2408
bf43
3f79
340b
704f
6442
d0d5
e29a
142b
52ce
1051
53c5
1d8f
1490
ef9c
f59c
d79c
f6cb
7aa9
9fe9
148d
e896
f53f
b738
03cf
ea92
9f99
fde1
63c8
ef32
bfeb
c098
2424
b0ce
a0c0
20c7
83cb
a4e4
46c8
a6cc
c29f
b599
aff3
aff1
e194
b027
44c1
606b
c8c6
9aa6
f422
df85
e59d
dde7
f521
cf8d
c012
e485
5f8d
35e7
95e5
a518
0f62
96d3
96d1
bacc
bf8b
dd1d
d0e6
6da8
3aef
3d24
948b
72bd
22b9
cdfa
1417
1f58
2fba
2d69
3be1
37ad
328f
4214
5461
54af
5d85
57f4
5460
5be3
545b
5783
6777
7613
7fbe
7d84
74f0
8b18
83e0
8470
8fc3
81a1
8111
9bb5
97d5
9d87
9758
98ba
9284
a41f
a474
afb8
a78f
a304
a00d
b758
c3a5
c238
c2ad
ddd7
d713
d265
d816
fdb0
f72d
f460
f41e
ff1e
01e5
01e4
0587
0596
184a
801a
1cf3
1c22
1c30
1bfd
6e43
6e25
6e65
79ff
79b2
79c3
a9d8
a975
19d4
2155
213c
9c6f
9c16
aa1f
424c
3c6b
3cbd
3cc3
59ff
0941
49d5
49ca
29d1
f9ec
fc87
ac89
ac10
aced
2cda
2cc5
4c45
4cd1
dcd6
dcfd
9945
993a
7ef7
7e60
cc33
cc16
cccf
d9e9
89db
8cf5
8c0c
8c1a
cefb
ce3c
ce3f
9e03
b95a
e919
0ed0
765f
1ee2
0304
eef9
3e8d
de8b
be33
be56
5e6d
5eba
ae38
aee3
ca5a
ca64
6ad1
1a7b
1a54
7bd3
fa4e
fa8b
616b
3aff
8a3a
b148
810f
f17e
f175
913c
9170
7173
52d8
6b0f
2b7c
2bf7
2b24
3b0a
3bdc
3b06
df5e
fb79
7840
cbbc
cb5f
9b85
1373
138b
1385
06f0
230a
6351
0852
460c
a371
a3d6
b324
32da
3231
860c
d686
e87d
c2fe
c23a
9269
f2b6
6576
a203
a2dd
6241
b653
a840
3872
d81c
5866
68f6
c56b
15d0
35d7
e572
d548
754d
1776
17db
e702
27fe
874f
87df
3d73
edd8
ed44
bd09
0f02
9f0c
a7ff
a7df
2dd2
af75
246e
8072
3f43
6479
6043
60f4
b408
b40e
07e8
28e9
c52d
f39c
cf3c
e4c5
3ec7
52bb
679e
da9b
06d7
86d4
8526
a0e1
5de7
63c2
9398
5063
af3b
af32
0d3f
8b63
9dae
6f60
6dc4
9fad
46c5
15e8
d5ca
98c2
e190
dac6
9794
6069
3799
16c0
cf93
b6c2
d0c7
2b6c
7420
cb96
58e7
d6c5
b2cf
b2b3
0482
0f38
46d4
6f92
bba5
4d23
c2e4
a487
448c
d2b3
94ce
8aa3
dff6
44ad
988e
d1b8
8fa9
d4a5
0b11
0330
04d0
03e4
1fc5
178a
1311
16bf
22a7
2567
380b
3417
3724
38ad
30b5
4450
53a5
5bcd
5803
57a3
7562
7f12
74b4
700e
8bb0
8be1
9254
9507
9553
93e3
9d60
94fc
a287
ad61
b207
b0b1
b83f
cbe7
c417
d257
ed6b
e2af
e49b
e7a9
f3ee
f3a6
f492
f815
f70d
f692
0aca
022c
02a2
02c1
1bf9
1b21
1bea
690a
6998
0c85
0c35
79de
5127
2124
2164
bcd6
4e2c
4e63
9c55
9c39
aab1
aab3
423b
3c1d
590b
592f
0918
09a6
494a
4941
4925
290d
fc29
fc03
ac5a
ac94
2c45
2c77
2c7f
2cc4
6c39
dc4e
7ebb
ccaa
cc47
ccd4
d939
d910
8934
899a
8c48
8c71
ce4b
ce69
ce32
9e19
b974
e97f
e9b5
c9f4
fe69
0e3b
7a2c
7a2b
ec1b
ecdb
ec27
767a
1e55
4a08
4a23
eed2
eed8
ee2c
eea0
3e81
de5a
de83
2a81
2a56
beff
bebc
5e60
aef3
ca76
ea3d
2e32
0b87
db45
7b5c
7b8f
fab9
1672
166b
3a53
3a88
3a28
dad8
8a6e
f126
fff4
9140
317f
e1df
e15d
25d2
710b
5bf9
5b0b
2b06
2b8b
2b3f
3b43
fbfe
c672
c640
8b88
d10c
d145
ab07
4352
4359
1369
7366
e32a
464c
46fa
d387
88d2
d62c
e86d
30fe
c24a
925e
f270
f67e
e681
3621
e27f
9678
82d2
22b6
22dc
b270
d83c
584e
58f1
357c
c8fe
c83a
d58c
d5d0
b57a
04de
0409
a5dc
674d
17ff
0d7c
0d46
6d70
9d71
57fe
2742
9751
9709
cd46
540b
2471
5d4a
3449
70f8
7f4c
b442
df9c
b52a
52e9
4f88
1dee
8feb
dfea
4193
3060
8d3d
1da8
1d1f
9f39
d79a
7aa3
2ff0
7de8
7de0
729b
fd35
10e0
86dd
60c2
229e
a097
de9d
173c
2aa6
a534
90c1
31c1
37c4
a8cb
c096
faaf
17ce
c3c0
e6d4
36c2
d2e7
f05c
c4e4
4dc2
089b
1f8f
b42d
22e3
6761
25e2
10a8
15c2
9d2b
3dc6
a89a
ca92
ca9c
f899
27ce
839a
3898
12ea
c7c3
c7c1
41be
2ec7
6f84
a519
d896
e0ae
6fad
df6b
cd25
e065
b88f
d5e6
7528
c6df
64ae
bf6f
0d1e
8df9
e514
cdfd
0410
0d60
0d84
26be
27ba
333a
34b7
3824
3436
458f
46a2
5003
572b
57dd
5696
5087
62a8
6258
645f
7430
73e7
7d57
7316
77e5
83af
825d
8468
8b11
843b
8838
8b1d
8558
88bb
980e
9fc7
9304
a415
a21e
b4d0
b45b
b8af
b55a
cb1a
cd84
c55d
d212
d31d
d6b8
d256
d7a3
d334
e7ab
e469
e690
f3a0
f726
f806
ffbb
f7a1
01bf
0a27
027c
0581
053d
18f5
18fc
1859
1870
1812
18a5
801b
1c0a
1c26
1cc4
1bbc
6efd
79e2
515c
5110
a9fa
1912
7c69
7cad
aad4
3c1c
3cfc
59ec
09e6
394d
392f
f97d
ac73
ac8f
acbd
ace6
2c82
2ce8
6cf6
6c12
dc47
991d
9992
cc1e
d9b2
d9cc
8927
89c1
ceda
cea3
5ca1
e991
c9fb
c906
c9b2
0e2c
7a75
ece9
1e57
4a53
eeec
8e5b
8edd
3eac
3e0f
be08
5e5d
ae6e
ae17
aee1
caf2
ea86
6ab5
1a41
1a47
db4a
7b71
fa6c
fa61
faf4
6133
160a
55b6
9a7b
9a2e
8ad7
b15e
a133
81fb
9153
e139
7151
7161
c174
5b7b
5be9
5b26
5b5f
6b83
8bff
8b52
4b26
cb33
eb32
438f
0645
067f
660e
63fb
63ac
63d4
0869
e3fc
338f
a32f
b389
b374
9347
885b
8825
88fd
d67b
d6fa
30fb
c2f2
f6f4
e64c
62de
82a9
b202
9855
9541
a82e
457c
45d3
4581
38fb
d8ff
ffd9
e508
8583
a5d6
9dff
1473
d76d
d77e
8ddc
9f0a
cd53
5447
6fbc
b07c
34df
8f76
cf7c
e4d2
40ff
404c
f078
9fb5
9fb4
bd3c
25c4
555f
1d22
b5e8
53c3
50a7
1d8d
1491
1f3b
7ac1
bd63
bd6c
e4c3
9d90
ce94
3026
40ec
ef85
fde3
2d16
c026
9d34
7d98
80ce
5deb
97c7
5066
24e9
4099
d2e9
1e9a
d3cc
0420
3535
1399
2d93
e79d
9194
0d20
e52b
eda1
9aa7
3b6d
20af
dded
f2e8
c48f
b2ca
4d96
5894
651f
a510
d486
d1c5
70a4
88ce
2892
bacd
6733
1f64
c51e
bf61
edf2
5f65
dba7
0fce
0334
1258
10b2
2777
275a
2336
2412
2556
24f6
33a7
4812
4699
4d64
580b
5690
6716
600a
641e
67e9
6be1
63b8
7811
7717
7694
74b7
8be7
845d
8be2
833a
88b2
9f52
9728
978b
9d88
9d81
9f2d
9004
9697
90bd
abce
a72b
a806
a723
af2c
a6a3
a43f
b61d
b45e
c7b1
c45e
d36f
d7ac
e750
e3b0
e553
e3e1
e5a4
f69f
0a34
05a1
05a4
18d9
1c45
1c28
6950
6926
692d
0c8d
7961
79cb
5183
19ff
7c73
4e71
5933
59c0
098b
0912
29dc
f953
ac52
2c2b
2c91
2c9a
6c03
6cb4
dc1a
dc9c
9977
996f
7e21
ccbc
cc48
ccd3
cc23
cced
ccc9
d988
d938
d9e5
89b0
8c5b
8c14
8ccf
cebf
9e7b
9e0f
5c2e
5ccd
b98d
0ed8
7a09
7a25
7a15
ecfb
ec3a
7670
4a24
03d2
030d
eefa
8e12
def8
de44
2a68
5e34
ae7b
ae49
aed7
2e50
0b7b
1ab3
7b4f
fa88
618b
613b
6125
537c
53d6
41a9
117a
1154
1132
81dc
8167
317c
31fa
e170
e104
256c
2589
2563
6bba
f3d2
c674
8bbe
8b32
4b0d
cb26
9b0e
668b
563a
6324
264d
83fb
a342
a357
93f3
9385
3240
86ff
865c
d652
30f6
30d1
12fa
c2d8
c2fd
9289
f221
6548
a67b
f6f6
3608
a277
b687
5876
6826
e571
e506
8547
102f
50df
5078
50f2
047b
0d6e
0d5b
6d7e
5743
5772
87d3
f751
774f
7743
b7fd
477a
4703
97f2
f403
f441
a77b
2d5b
dd4d
afde
6f42
cfde
e46e
40d5
e079
f041
d4f5
d40b
c4d6
a47c
25a4
1434
8fec
1d31
dfe6
0dce
1033
14ca
f1ba
50ba
7a97
7ac5
f538
0791
40c9
7f87
10eb
a015
852d
7d2b
0ecf
ffa3
ffab
a7cf
2295
9f83
a1b4
bfec
952c
1192
953b
fb96
24c4
a4e1
2d37
04a6
8596
48c6
2f32
a395
ad3e
ad30
f7c5
f7c4
eaae
eaa4
1539
e4e6
9aa2
16e3
e8c9
b391
e2e3
7423
f1c4
26cb
36e5
30c3
d594
46d3
6f81
888e
6f9c
70a6
bec5
becf
4881
8ded
7da2
28cb
f884
88e6
d030
64a0
8f68
d524
d06b
0553
045e
0474
0336
108d
1698
1315
1691
26b0
23af
23e8
2806
2fc3
243f
20bb
3fd0
3813
3284
4bb7
408f
456f
5d6b
5beb
62a0
650d
6d0f
68b0
6fbe
76ab
87f4
94d7
9365
91a3
90b4
a465
a72c
a312
b11d
b6a8
bd57
b7b9
b7e0
b7eb
bdbe
b437
b554
b5be
c7d0
c3ba
cbc2
c788
d695
df27
e72b
e21d
edb5
e496
e4b2
ef2a
f7f7
ff57
fbee
fd68
0171
01c5
01cd
1c82
1c2f
1c8d
1bd2
1bac
6e87
69f0
699c
699a
0c69
792c
79e4
799c
a9fb
a9ef
2149
7c31
bc18
9cf9
9c09
9c3a
aa51
4287
3caa
3ce2
5917
39d6
3953
f94c
f916
fc30
fce2
fca4
2cac
4c8e
4cbb
4cc2
6c2a
6cb1
6ce7
dc2a
9989
9966
8983
8cd3
9e63
5c0a
5c1e
e9f2
c9c0
fe87
0ef3
0efc
0e07
7a5b
7a3f
7a3d
762b
1e48
4a79
032e
3ef0
def5
2a25
be55
be10
5e20
ca48
2eb2
7bac
7b8d
613c
5af3
16f2
168e
55f9
5352
532c
a176
41f8
41f1
115a
818f
f17f
bb50
3174
257e
2588
c1f9
c12b
5273
5243
fb5d
c6f2
c626
8b0f
8b3f
4b7f
ab41
cb4f
eb20
436e
43aa
0633
66b6
663a
562d
7354
6341
8382
464e
46a9
46f4
b32f
b38d
32ff
8629
d62f
c31c
c3f0
c358
c24b
f2df
f2d1
f226
a68f
e242
a272
6281
b86b
b2de
b20a
f561
98aa
9869
f82e
f86b
956c
9570
45f6
38f7
58fe
ff0e
15f6
351b
b586
0d79
874c
7d51
770a
c742
3d40
4d51
4d72
4ddc
970b
37df
f46d
af7c
24b6
6f1b
8078
6077
d04a
4048
f04d
c408
844e
8473
b47c
1012
fac4
eace
ef91
bd14
f290
93c0
cb63
ff93
a0ed
2d1d
c2c7
c0e1
ef3b
939c
af38
1191
faa4
b0c3
f051
86e2
24ce
1593
cecb
c299
9deb
c0ab
38e1
eb91
e5eb
5b62
33c6
9f62
b02f
11ed
b01a
b39b
c6c1
61c0
4299
7595
8b94
842a
9df1
a291
c731
71ba
e097
43c7
ad9c
c190
bba8
45eb
62b4
8de0
bd2f
1fa4
eba6
ebab
4d1f
5df2
7f66
7fa3
e517
b062
c88f
1fc4
14d7
10b7
3230
375f
3085
3112
4fc4
44fb
47f7
4d87
4b1a
4d58
47a4
45be
5fce
57b1
5fd5
5263
56a6
683f
72a7
7f11
7235
7824
7089
75af
875a
8f19
87a1
8260
85b8
8be6
969f
97ef
9bc4
9f5e
9fc8
abef
af20
a215
adb5
b552
b458
b084
c3ef
c466
c786
c45c
d1af
df10
d8a4
d267
e808
e444
e265
eb10
e8a8
e664
efd7
e6a7
e564
e368
e4f3
f7b7
f1a4
0af7
02a8
05dc
052a
0547
0574
187c
18e2
1bb9
1bd5
6e2e
6e2b
69ee
0c4c
0ce4
7924
7cb5
7ca1
7c94
bc29
bce0
4e0e
4e66
9c0f
3cd2
59e1
09e9
099c
2943
29a5
29ca
f968
fc1e
fc32
acde
4c08
4c09
4ce4
6c4f
6c2b
6c20
6c36
9928
9936
7eb9
7e7f
7ee1
cc55
cc03
cc39
cc90
d97a
8cc5
5c88
5c23
5cbd
5c94
b92a
c98f
0e7a
0ed3
0e2a
7a17
ec9e
1e88
1efd
8e0b
8e36
bed3
be0e
be6c
5eb5
aefb
ae21
ea32
2e28
2e64
6a40
6a12
7bbc
7b3e
fa56
3a10
9a49
9a68
b149
b1fe
a1fc
f16b
9173
916b
bbd6
bb19
314a
e136
712e
c181
c154
52f9
f352
2b3c
2b19
c659
c684
abf3
cbfd
cb86
ebd1
43ff
434d
5607
236c
7378
73fe
635c
e3df
e3d0
33f3
b37d
930c
93d8
d374
8851
8604
e84e
12fb
c3aa
c30b
c34d
c385
c324
92fd
d20c
a672
a60c
e277
e2dd
28bc
b859
f50b
9879
950c
fd0b
68db
1566
e54f
040b
8708
4f77
77dc
d7f2
c7fd
4d08
477b
37f2
a729
2d4d
940b
af77
5dd6
6f79
5faa
b042
cf6e
f04b
f6da
df9d
142e
4550
66e0
78be
609a
4d33
419f
1d94
1d96
f4e4
8d36
1f31
f593
55cb
f6c2
28b2
088a
2ff9
1484
9dcb
679b
ce95
1fe9
f292
7d23
f2ca
e6ee
65ef
21c2
5dea
8098
14a7
12bb
c1c0
8030
5e93
719b
76c4
e05f
0daf
5f3f
36cf
1e9d
e0ca
24c7
159d
04a5
0f86
5ac1
ffe9
4598
459e
f8cb
85e2
85e0
3b67
7f95
8891
e2ee
61ce
cb91
4b6c
a19f
048c
ed32
579e
2ec9
5f91
0f3f
6f86
e099
74c6
42e7
c1b1
58ce
0766
bf3b
0fab
a733
46e3
6889
6d2a
c6d8
3ae0
3d28
d1b9
5f68
5f6f
aba6
84a7
4baf
0f5d
1411
16b5
1724
16a5
1f2f
270f
2fa1
2f16
23bb
2721
2d5d
22a2
2364
3711
369e
4453
4804
4727
48a8
4113
5464
546c
57d7
52a2
57e0
5d8c
528f
6bc5
645a
7212
7f24
7727
7d5d
7114
8fb4
8816
8f22
8d67
8789
950d
9fc6
93ec
a2a0
a615
a21d
bd21
b3ed
b227
bbc3
b637
bf26
cfb0
c08b
df19
d4d0
e638
e72f
e3e3
ebe1
e5af
f80d
f6bd
f204
ff28
ff2a
f285
0ac9
0229
0241
051f
18a7
1bf7
6e1e
6964
0cff
0c2f
79b6
7939
7912
5109
5188
a90c
a9c8
1914
2116
21a6
7cf9
7c39
7c07
7c38
bc36
4e2d
4eb2
9c5e
4272
422b
592a
594d
0935
4961
49e4
3965
29af
f9ba
f963
fc79
acfe
2c03
2c5e
2c2f
2c07
4c66
6cf5
6ce4
dc8c
dce1
7e73
8cdf
8c65
8cc2
ce82
9e48
9e2c
9ee5
5c0b
5c9a
e94b
e912
c93b
c9ec
c9ef
7af0
7af7
1e29
1e6c
4a11
034a
eeff
eef5
dee1
dee4
be77
ca4a
ea14
6a06
1a36
1a07
7b40
fa24
fa35
168d
8a2b
113c
f1d0
bb53
3188
25d9
710a
71f1
c14b
c138
f3fe
2b45
2bf8
3b20
fbb6
fb89
c647
c67f
78ac
7861
ab27
9b44
2389
7373
631c
2659
083c
e37e
46f7
3378
330c
b3f2
93dc
322a
86aa
867e
866b
863b
307c
1229
12a9
c3fa
c3f1
f289
a651
e27e
e233
965c
62d0
b649
b289
f543
f54d
f586
48d7
f84b
f8d6
958b
d848
d853
d8f4
6852
6875
c51c
854e
8545
85d4
7548
75a9
504a
50d1
a51c
a5d1
7451
9d47
9d7f
e740
7d42
7753
c7aa
c77a
b779
4759
9771
9741
374d
94bc
8040
3f4d
3442
a078
1f47
6452
60fc
d07b
4046
e06d
d440
473e
7ecd
b76c
06e2
2482
5597
b056
22c7
1488
e4c6
7de1
7def
56cf
7b94
92cb
b731
1790
7ffc
2d19
4535
65e2
ef36
14a2
a038
35c4
21ef
f735
fb6a
ab9a
75c3
75c1
13cc
6190
0429
4594
e191
40a8
e795
9796
b012
8897
e59c
db99
dd36
dd3d
4021
6396
cfe2
5797
baaf
6512
a512
e0ee
7fee
f4cc
a5cf
cdae
45e1
4485
4481
3dae
df63
9b91
4e91
cd28
e069
dff2
d761
26d7
2da3
9ae2
8798
9887
9016
ad19
7fac
388b
0be6
140d
23a3
2585
3018
3f07
34d7
3b1a
321d
3454
3434
3556
34f9
47dd
46b1
53b3
508b
541a
53e5
55a1
5474
54b7
5fb9
58bd
6224
6333
63b1
64b1
743d
7fb2
74b8
76a2
8783
811f
9318
949d
a80d
a3e8
a4d0
a318
adb8
a00c
b7b5
bbc9
b4f3
cf1d
cf53
c69b
c818
cd66
c0be
d3b0
d43d
d725
d634
d4dd
d00e
e224
e08b
e7ef
e782
ed6f
e8be
e00b
f3b2
f5a0
01e3
0a9a
0524
05bd
1849
18ec
8016
1cdc
1c31
1b94
1b9f
6e37
6ec1
794a
7969
79ba
7928
51f8
1979
21a3
bc3e
4eaa
aa7d
42bc
3c31
5949
59ba
59e6
0954
0915
0916
3945
39cd
29e7
2999
f99d
2cfc
2c24
4cd2
4cfc
4c19
4c22
4ca0
4ce3
6c51
dc60
ccd9
d9bc
d965
8932
8968
b97d
fedf
feb7
0efa
7af3
7a84
7abd
ec04
ecb4
76f6
1ef3
1e70
4a27
ee21
ee83
3ed7
de31
deb3
2abc
beea
bee1
5e49
5e06
5e5e
ea15
2edf
0b42
0b88
6a3c
6a5f
1a29
1ae9
1a84
dbd8
7b35
fa41
616f
16f1
168f
c0fb
3a43
3a4d
ba14
b163
81da
91f3
bb73
25df
2586
c149
c1f4
c13d
2bf1
3b55
3b44
fbd2
fb3a
fb83
fb30
c62a
8bbc
d137
785c
ab0b
cb2e
9b3e
4344
0607
562f
2320
2327
63df
085a
463c
4640
3355
334e
3321
b31c
93d9
3278
32d1
328a
d68d
e8f7
307f
92da
f269
d283
a6f6
a68c
96f0
9607
6261
82ac
22bc
2278
b8fc
1009
9861
95f2
a8f4
38f1
38d5
fd0a
c50b
0742
07bc
15d2
35f5
e57c
c85c
c847
75db
0452
044d
20bc
a58a
17df
1709
db60
5755
57f3
f706
1455
7dd6
7d40
d7da
3d0c
b773
b7d3
a77c
add1
dd03
bf03
80da
df7a
efdc
8fd8
1fd9
1f7d
cf6d
cf45
4049
f06d
d4d2
b440
4f9a
789e
1d86
103f
78c0
5198
7884
7a90
55c8
7aed
6798
1fe7
8523
a093
b7c5
31c9
c1c2
24e0
b798
5aa9
5aa6
953c
1a98
a0cc
9da3
9dac
8f36
3053
87c7
8592
2d97
0d28
e522
403e
af9a
7f9c
92bf
8024
cf96
10cc
f488
2190
b036
c6e0
2e92
4b6f
8f9b
6484
648a
b1b3
32e7
32e1
8ec7
3f9c
b2cc
cac3
baae
71b9
0b6d
58c5
d095
bf37
6fa9
bf9b
8d2b
9d1e
e1c5
b883
46ef
876a
f761
a6ef
c517
ad10
0d21
03ed
0fc0
0fbf
1418
17d4
1bcd
13b9
17eb
10bd
1284
2410
2813
2f13
26b8
2beb
286f
3808
37f4
33ad
3f0f
36b5
36b1
343b
38b9
3555
4217
40b4
5b10
5fb1
6815
65b8
649a
7453
7809
7d87
7712
74fc
8360
83ed
849c
8728
8315
8b16
8f5f
8d8e
9d04
941a
92a8
9f55
96bf
98b3
a7d5
add4
a0b4
b7e9
b560
b692
bf56
c3a3
cdb4
cfb2
cd8f
c008
c5b5
df07
d70d
d7dd
d724
d75f
d33f
d556
e010
e3a6
e7d4
e457
e4b4
f465
f63f
f584
f1a1
f5a5
013a
01d7
0157
0a6c
02cd
05c0
188c
1833
18ba
182d
1899
8019
1cf7
1bdd
1b93
6ea9
6ef0
6ef7
69cb
69c8
0ccb
79b8
a948
a945
191d
2171
2189
2177
21ae
4ef9
4e6b
9cd1
9cad
4281
3cf9
3c3e
59d8
094b
4929
49a4
fc34
ac59
acf2
ac69
acb1
2cde
2cdc
4c9b
6c07
6c32
dcf9
990a
9930
7e37
7e14
cce8
cc9c
ccc1
8970
8990
cef0
ced0
cebb
ce2d
5cd1
5c6f
5cc4
c903
c9dc
c9f7
c9e6
c9e3
fe81
0e48
7abb
7a5f
7ab5
ecc7
4a2b
03fa
8e5e
8e2e
de03
2af8
2abe
be6f
5ee7
aeb3
ca7c
ca88
ca7d
ca38
ea3e
ea8a
ea13
2e88
2eed
db47
db5d
162c
c07c
557b
3ad9
3a63
9a06
9a0b
da5c
dab9
ba42
8ad1
a164
1152
915d
bb52
bb26
e18a
257c
71d9
c140
c122
c137
5b09
524a
5245
5233
f3df
f37e
2b2f
fb8d
c619
8b8b
4bf2
d1aa
d1fc
783b
cb5d
9b45
9bf7
ebd4
4306
43fd
136c
1d7e
0671
664e
7374
6303
082c
e388
e32c
465b
a3a9
a366
8871
304a
12da
c241
c233
92f8
d2fe
727c
a654
f63e
96ac
a2f4
8229
283a
2261
b847
b689
b625
b644
b2da
486a
a831
38d4
d86a
583a
68df
6866
ff42
c56a
c8f6
75d1
756b
7583
0403
04db
20fc
20d7
a541
67d9
177d
6d4d
9ddf
e70e
87d2
1406
4fdf
47d2
977e
90d8
90d9
f4aa
bd43
0f0b
cd02
cdb6
10d2
10f6
247a
2f1b
2f09
bf4e
bfde
80aa
3f02
3f0b
efaa
a0dd
70d2
7073
606e
40b6
4074
a4bc
17a8
9fb3
94ac
36d6
b0e1
1510
4df0
8d3b
53c2
78cb
11ce
3fe8
eac6
ef92
7a92
3a90
ff3d
c53c
9e99
9e9f
04e4
7054
4a90
cd3b
a0e2
c02c
9d3d
91cc
94e5
23cd
653f
24ef
bfef
04c2
d4ca
ba96
953d
f730
1a94
a798
c79e
c793
5d3a
f8e8
f5cb
1ec8
859d
d2c2
3297
709b
8e97
b5cc
6199
303f
a39c
3d35
efa8
6031
fda2
e4eb
16ed
f427
373e
c6c6
6ba8
74e6
a0ae
176b
71e3
76dd
06c8
b8cc
e6cd
6514
a51a
739c
d89b
b513
a488
488d
e034
3ffc
d885
a06c
9889
dae4
8486
3fae
03ee
03e2
07a2
1464
1465
16b8
1318
2493
2fb7
24f7
2d63
385d
3f5e
300c
34fa
4817
41a0
5f0d
53ab
5082
5db9
58a0
5832
6db3
649e
77e0
7bee
8bc1
847f
83e2
87b9
8304
9d07
9f11
943a
90be
a331
ad63
a436
a691
a1a6
a0bf
bfd0
b72d
bbbd
b0ba
c80d
c234
c336
c8bd
cf5c
c55f
c789
c1a4
d7f7
d25f
d262
d6ad
e707
e6a1
ff14
f587
ffc6
f494
f49b
ffb3
ffcc
0174
0a59
0af2
0a17
0283
021a
02af
05d9
189c
18c9
1cc9
1b26
1beb
6e0c
6904
699f
79e9
79d7
5129
510a
2119
213d
7c33
bcfd
4ef5
42fa
423c
5952
59fe
0975
0950
491e
f9c9
ac63
2cb1
dcaa
dc6a
dc85
dcb0
dc9d
9981
7e79
7e47
cc9f
d9fc
d9c8
89fb
89d5
8cd2
8c7d
8cba
8cd7
ce7a
9ed7
5c6e
b973
b9e5
fe26
0e7e
0ef1
764a
762a
1ef6
1e64
1ee1
0376
0349
ee73
8e0c
3e53
3ee8
defa
bee9
5e19
5ead
ae78
cab0
ea2a
2e6f
6a18
1a2b
7b52
7b27
fa6d
fa4b
fab7
61db
6184
5a1d
16f3
1628
9a7d
9af0
5349
baf4
8a1b
b1f5
b18b
b137
4185
4182
8149
8130
f179
f13a
7108
c148
5bf3
5b8b
6bdc
f35b
2b0a
3b22
fb78
8b73
4b4a
4bb1
782b
787f
cb42
cb70
cb24
ebf7
66f2
238e
0846
d32b
e879
e847
c361
d24e
d221
7205
7269
f644
e686
360f
e2f8
9659
6225
8245
b8b6
f5fe
a846
fd42
58ff
58b6
e5da
8502
85f1
c8f5
c85b
0dd9
744d
f553
877a
f773
7779
d740
b76d
8d6e
4753
97d8
90ff
90d2
a7f5
2d5a
9478
ad4b
5409
1072
2442
6f7e
6f21
bf08
3fd3
3f06
34d8
d04d
c4da
f6d9
04ba
2de1
1dc3
5053
9057
4fe8
50a4
6d33
78e7
78ef
9ecc
54ef
f6e7
7ae0
f29d
10e2
ea96
3090
ef84
7731
bdcf
34e8
21c5
eb6e
12b8
7198
e73b
d4cf
d05a
d2e1
be99
ee96
4899
41cd
6f6f
f5ca
576c
9de9
2dc4
2dca
15c7
fe9c
98ca
cd98
c5eb
b1cc
e524
4030
9a96
3485
0fe0
c48b
76d1
80a8
b1b9
32e0
b2c6
60a0
baad
739d
88c2
45e0
c422
6fa3
1ff4
bace
751a
751d
9d17
4423
442f
d5e2
3ff2
d76b
73c4
64a7
5ae2
cd16
0316
066f
0fb7
1313
1726
147d
1204
1fcc
2814
2719
28a4
3810
369c
3d61
3318
3084
4d8b
43bd
4d54
47e2
508e
6697
62ae
65a8
7830
73ed
7615
77d5
722f
7d61
780f
8477
88b4
969e
931a
9f2c
908c
a812
abed
a4b4
a7ba
a110
b3a6
b7e2
b0bd
b4f9
c886
c268
c613
cf0d
c836
c115
c864
c4ba
c558
d3ef
d3e7
d690
d7a1
d3e0
dbee
d611
ddba
d6ae
e413
e462
e78e
e803
f7d5
fdb3
f75f
fd84
026e
0244
028f
1876
1838
1c4f
1c78
6e73
6edb
6ee5
6948
0ca4
7973
79f2
7960
7910
a98d
a93f
a9c1
19f2
19a5
214a
212a
21d7
7c18
bc6e
bc3b
9c2e
9c90
aa83
42d4
094c
0947
2907
29ef
fc4b
acce
acc3
2c2a
2c36
2cb3
4c85
4ced
4c9a
dcae
dcbf
ccb1
cc3f
8cff
8c32
8cb2
8ce6
9e53
9e81
9e5d
9eed
5c8a
b9ec
b932
e95b
e99d
7a21
7a1e
7a58
7a2d
7a13
ece6
1e7c
4a25
03db
035c
eeda
8e1b
8e5f
8e64
3e73
3e7e
de08
de33
2ab6
2a7c
5ea1
ea6b
6a6e
1ada
1a2a
7b03
fad3
fad1
fa7f
6105
1626
3a49
3a71
3a09
3ad5
9a87
da39
41fb
4147
8152
8163
f1f1
f1f4
9188
913e
52d5
f304
c688
c63e
8b3a
8b28
4bd8
d170
eb51
13d8
06fe
738b
73dd
83fd
e37d
338e
a3d1
b36d
d294
88aa
8678
30d5
1208
12f5
127e
f249
f206
6549
658e
9645
62f4
b8ff
b243
9858
48d6
95df
38d7
ffd1
c506
0770
35f9
e548
c853
04f5
0406
a50e
6d4f
7479
740b
3d52
4d53
b77e
8d70
37da
90f5
ed48
ed4b
bd79
0f46
9f47
cd4b
add0
dd70
af0b
3fd6
df73
df46
5fdf
ef4d
8f71
e442
f042
f0d8
d4d6
c40b
f6d8
94ab
b2ee
f398
b760
b0ec
2f66
2592
788a
c1e7
f194
3a91
4ece
8731
e4ce
e89e
f6ee
7ae2
0397
7dec
ff8f
1aab
40c7
03cb
03cc
302a
60cf
edc8
309f
fded
c028
453d
b6eb
c2c9
90e5
2aaf
90c3
ee90
fb9b
a0cd
c4e2
1597
0f85
96c0
5dcd
ade5
aff7
25e5
0b9d
98cb
efa5
3dc0
dace
eaab
6520
75e5
eda7
10c2
d0c6
b6de
b6da
95ca
2fe2
65cf
f52d
8ff0
6fff
e1ed
a1c7
a191
5d93
41b4
b897
8f8b
4d28
4d24
4488
8198
71c4
8aab
1fa5
2f82
5faf
f762
d392
3f8b
6887
f2be
5baf
7f65
5aea
3fa4
3ba0
7d15
2fad
06b0
0f52
072a
1f04
13a5
172a
2287
2d85
23b4
23e9
28a6
2213
255c
3722
331f
36a5
3617
37ac
386f
43a6
47a1
47b5
5bce
563f
5d61
5b1d
5786
58ad
545f
5bb3
54be
6f56
68a0
6f5c
7224
7837
7dd7
73a8
7860
741e
75bb
7bc9
8dfb
8bcf
8507
8459
8264
90b0
93b9
9f28
9d66
ad21
a407
a756
a8a5
af2f
a7b8
adb7
af5f
a55f
b3b2
bfca
b660
bb18
b6ab
b338
b7e5
c7b4
c80b
cf1a
cbcf
c714
cfc3
cf56
c4fe
d002
d8ad
e7bb
e667
ef18
e611
e857
e554
f453
f43b
ff2d
f5b2
f8a2
016a
015d
01bd
01a6
020f
0598
18a1
1c4b
1cd8
1c1d
1ca2
1ca7
1ce6
1b59
1bf6
69a1
0cf1
7989
798d
a9d1
a9af
198a
2106
bc68
4e03
4eb4
9cb6
9c1b
9ca1
aaec
42fe
3c10
5969
49e2
49c5
394b
296d
2967
f96e
f959
ac18
2c16
4c0a
4ce0
6cfb
6c67
dcd0
9973
7e72
7e12
7e13
cc4b
ccba
d95d
89c5
89c7
8cac
8c28
ced4
ce37
9eb6
9e7a
9e09
9e75
9e4d
9e23
9ed4
5c4d
5c70
5c68
5ca6
b90e
e9b9
e934
c9db
c9dd
c904
c9c4
7ade
ec0b
ecae
ece0
763a
1e34
1eed
034b
032f
0367
ee4c
eee2
8e0a
8ed8
8e56
2ada
2a57
bef3
be59
ea75
2eb7
0b40
6afa
1a4f
1a52
1a46
1a0d
1a18
7b2d
fa2d
5a24
5a65
1642
53da
5369
538a
5366
415b
110e
11f4
1104
814c
f129
f1d9
91d1
bbdf
bb7e
bbd0
3181
31d7
3187
2540
71d6
c16d
3b26
fb56
8b22
d125
d15f
7825
9b7b
43d6
0669
66ac
23f5
237d
238d
63dc
0839
835d
e3dc
e36b
e344
4643
46f8
333c
934f
93fb
9387
327c
328c
d346
8873
d624
128b
c3dc
c276
c23e
f209
d2f0
a652
f63a
e67d
a2d2
a278
a275
622c
b26e
95d4
a859
a874
fddb
fd47
07ff
15ff
15d4
d541
5770
e743
1440
d7d9
c7f2
3d06
b7f5
97f8
377e
ed4f
ed4e
bd0b
a702
a703
9476
547b
2f79
bf47
5f0c
a0db
a0fa
1f7a
70da
e44e
e0d7
d4b6
d44f
c40c
1b68
0dc1
2513
1d9e
70bf
4f23
ddf0
7a93
4aae
cf3e
b05e
78ec
7dcc
3595
9fe0
14bd
da9a
e6ea
c595
4537
229a
23c3
e5c9
d8ce
d8cc
a036
1f97
a8c8
b79d
242e
76c5
eecf
5f39
d05d
be90
e0c8
9da9
cec5
709c
b5cf
5dc8
2dce
1065
b029
92b7
889e
c6c9
db93
d422
759f
d6d1
6ba3
639f
6a9e
9df9
36ef
06c7
30c8
e6c2
baa6
46d5
5ec6
888c
4798
44e7
dd23
4d2f
45ec
a73b
cd24
46e0
07cc
1fad
a52f
ae93
6df2
d0ed
d03c
5ba0
7f60
f066
fbad
0f14
0815
03e9
031d
0fbd
07b8
13e0
16be
24af
23a7
23b9
28ab
249b
3313
3263
346b
3f55
43b5
4333
4be6
400e
5f1a
5db8
54ba
57ae
6804
6813
63bd
65a0
6d5d
6bb3
63e1
6006
64fd
7db2
7318
78a7
8886
8fb2
87a2
8110
8d8a
9490
908a
96ab
9d6f
a3b1
a863
b5b0
b40f
b219
b22f
b7bd
c80c
c2af
c6a0
cbb4
c2ae
db12
d411
dfb1
d8a7
d5ba
f613
f469
f3e2
fdb7
f23f
01b3
021e
051b
0588
1844
1ca1
1cab
1bb1
6e58
6e12
6e15
69a5
0cdc
7906
7940
a96d
213f
7c6b
7c3f
bc58
4e1f
4ea5
9c83
4231
428f
3cff
59dc
590d
5937
59bd
59a1
0945
497d
3941
395a
39fd
399b
2982
fcbd
aca5
2c8b
2cc8
4c5b
4c3a
4c60
dc8e
dc70
dcf0
dc82
dc9a
99fa
7ebe
cc0a
cc44
d9e8
8c2b
8c77
8cc7
8cc8
b9d4
b9e2
e96a
0e4d
7afa
7a67
1ed8
1e56
0371
eed9
3e7a
3e22
dea6
2a8e
ae22
1a2c
7b0b
7bd0
fadc
6179
61f0
16ff
161e
168b
c044
3a5e
ba89
ba85
8a0a
8a32
b1f7
a157
8120
e1aa
c17c
c147
c13a
6b3c
6b7f
6b57
2b42
c6ff
4bf8
9b31
9b54
eb8d
434e
23ff
2352
2386
6339
086b
0877
83d3
33de
332e
3327
a345
b3d7
9389
938c
9377
3225
d339
d37d
8829
866c
c2f8
92f5
7242
a641
3609
e266
62f0
82ff
28db
220a
b84e
b67e
b203
b240
f5f6
f5f7
4844
a858
457b
38f8
3874
444d
c5d2
15d7
3573
e5fa
e569
85fe
854d
d578
507d
6702
0d0a
7472
57d2
7df5
7d0a
4fd3
d7f6
d75c
3d7a
474b
3770
f408
0f09
1074
6fdf
b0d9
ef6d
ef78
ef71
1fd2
647a
f0d5
101e
ff6c
a1e5
4f55
0ff3
7895
0dcf
a6d1
14c7
efe2
5190
5738
573f
b09f
b09c
5ff3
bd18
f5e9
7299
06d4
9d9a
f01f
f294
1791
40e9
7d25
d7c3
6ac9
55e7
21c0
a3cc
e8e3
6aaa
a1bc
c091
17c7
17cf
eec6
ba99
a0c7
41cb
5d30
1ec5
0e98
e5e3
9f67
6fe6
9d23
62c0
b29c
0d9e
3b62
adc3
e596
d42d
27ca
cf8f
8ffe
a4cf
8f95
a2cb
3b96
c73d
71b7
43cd
d48d
8889
888b
74c4
74c7
54a2
c1ba
a481
0fa3
0faf
1aee
91ee
e1cc
853b
caea
eba8
8d1e
5f60
5ae0
fdf9
9484
4769
0bc0
0fdd
0665
0720
0b1f
1461
170f
172f
13a0
17f7
1fba
145e
1fbd
1f5c
231f
245d
2584
2d6a
37e4
3615
3814
35b7
4118
4720
42a8
4bc4
46a3
4504
561a
52af
5264
6fa1
681a
63ba
6491
6bea
6788
620f
6556
64be
77b4
7814
76a0
78a6
8464
861d
869a
87b8
958d
9b1a
96b3
9835
9d89
9be6
a71e
a257
a330
a783
abeb
af2d
a236
a114
b716
b490
b806
b834
c00f
d805
d30f
d827
e70f
efa1
ed04
e7b1
e69a
e7e3
f287
fbc2
f43f
fbe6
015e
0167
0ad6
0a8a
0504
1b3a
6e5e
6ee2
6ec0
69e4
796d
79d0
7958
7904
7927
79e6
a922
2104
9c57
9c8f
9cca
aaf0
42f4
5936
5913
49f3
49fc
3973
39e4
f92c
f9ea
f9af
fc21
fcf8
fce1
fcc6
2cfe
2c6c
4c30
4ca7
6c31
9965
7e7a
7e0e
7ea1
7ea6
d9d8
d99f
899f
ce10
9eae
9e17
5cd0
5c9c
b98b
e950
e963
c9d5
c9d7
fe70
feb8
feaf
7a74
7a14
ec88
ec69
766e
1e27
1ea3
4a4a
4afa
4a54
ee67
3ed0
3ebf
de07
2ab4
5e0d
5e3f
ae52
ca26
eafc
ea3c
ea30
2e7e
2e15
0b34
6a8c
1a5e
1a7d
db50
7b32
fa79
61fa
5a09
5a10
1684
c0f4
55fe
da0f
dab5
53fc
ba74
babf
8ad2
8add
8a54
8a12
b17f
b16f
a128
81ff
8123
f1d2
f186
f184
914e
bb4c
bb3d
257a
7142
71de
710e
c179
c1f1
525c
6bd2
6b39
3b1e
3b86
3b32
fb76
fbfd
fb70
d1d2
786e
7878
abdf
ab4e
cb7a
9b30
eb86
4378
1366
1d7f
0681
0674
23b6
63d7
46fe
4683
33ac
931e
e855
f24a
f243
f2f3
658c
f6f7
e671
e6f1
e245
e2db
a276
620c
8283
b68c
f546
98d0
48f7
f85e
f8f7
3878
fd7e
5821
6870
c5dc
e575
d571
b5fa
7546
040a
1759
175c
9d0e
e70c
8709
7776
7773
77db
b7fe
8dd2
9748
3772
3775
a70c
246d
2f70
5f1c
5fdc
ef06
a0d2
1f71
707f
6448
7f42
f040
706b
7eca
b52c
542d
7788
a1ec
f51f
6b96
2598
503d
11c1
b057
f191
31ed
9ecf
8732
e4cb
9dc5
6420
fa94
9d9f
aaad
f298
3025
179d
04e5
f2c3
edcb
edc2
fdee
fde2
7d91
7538
90ec
b7ca
6aac
c09d
9528
e73d
04cd
d4cb
17c3
0dad
f731
64ee
24cd
dec3
3e9a
089e
46c2
ab63
942c
4059
4016
548a
2f35
f09e
e5e5
2dc3
40ae
3aa5
e525
9aaa
9aa0
64c6
f42a
db94
4291
4292
e029
5d1d
6a90
8ece
d4e9
cac1
47c5
5ec0
a5c6
cde1
71ca
6734
44ae
d884
a885
afa7
9060
6884
2763
8d17
84c6
6aed
c888
2df9
0fd0
0fcb
071f
0419
0f15
0637
1287
145f
2635
2f11
3811
3638
3fc7
3634
3553
3337
4810
4610
440d
40b0
4f0d
47a9
5444
5d89
5fb7
5498
6fcd
647f
6690
6d8d
6365
6636
6f5b
68b8
74d7
7219
772a
761d
77a6
8fdd
8b13
85a1
845e
9632
9630
9413
9db2
9230
94bb
9f5a
978d
955b
a207
a417
a256
af5b
b3bb
bfbb
b838
bf5c
b0b8
c3bb
c8a8
cf27
cdbe
c006
c00e
d418
d6b7
d1a3
d00d
d78d
e830
e41a
e712
e582
eb1f
f360
f632
f313
ff12
0a58
0a57
024e
0212
05fb
05af
18df
18f3
801d
1c5c
1cdd
1bb6
6ef5
0c73
0cfa
7934
5141
a95e
1978
21db
218e
2140
2123
bc41
bc21
bcf0
bc87
bcb0
4ea8
9c8d
9ca2
9c98
aa70
4282
3c9e
593e
49ee
49cc
3991
2911
2968
299d
fc47
acd3
2ced
995c
7e42
7ea8
cc8c
d9ec
8946
8949
8c20
8c9c
9ebb
9e3d
5c33
5cbb
b9a1
e9d8
e9b2
fea8
7a4a
7a47
7a62
1e5d
4a0b
03f7
ee49
ee61
eebe
ee17
8eb1
8ed4
3e55
be35
bead
ae6d
ae88
ae37
ae60
cab2
ea2e
2e6a
2e74
2e63
6a11
1a4d
1a61
dbaa
db7a
db5c
7b0a
7b89
fad9
61f1
6126
3a8c
9ade
9a65
daf5
da0b
da65
53f3
ba41
a142
818c
81ae
911c
bbbe
3121
3109
311e
e10f
25fd
71d8
7162
c12c
5bfe
6b79
6b03
6bf6
f31c
f3d4
2bfd
3b34
fb4b
fb34
8b20
4b7a
4b27
d188
78f0
cb74
9b24
437c
660f
562a
23f2
736e
734e
63de
634d
4604
33da
338b
d3f2
886d
867c
861e
e8aa
e8fd
12f6
125b
c3b6
c36d
f20b
d27c
7248
f64a
f661
f625
e67e
e231
a20e
a20b
228c
b28e
95d7
a86c
a82c
d8a9
58d7
4440
0741
156e
35d0
e56c
d5f3
7547
1741
9d44
2773
27f3
77ff
c7df
b709
4708
37d8
5455
3faa
dfdf
df75
a0f1
a0d7
cf78
7071
64d3
d0fc
7f4d
d47b
c479
06ed
d45f
14c2
3fe5
54c1
253f
5333
9ecb
f5e2
e4c0
e89d
20e4
7de3
14bf
079a
aaa3
1fe2
d7cf
65e1
56d8
c2c2
34e1
55ee
173f
5de5
653a
ef3e
6aa9
a539
8032
5e9a
0d30
d050
319b
1e91
e0c7
a0c6
21be
dec6
9fa8
8595
7093
8e91
b5cb
13c8
548f
adec
3f3f
aff6
e5ea
0b99
33c0
459f
df38
c5e7
b028
e792
44cf
62c1
10c8
429f
c6e7
4024
a4c0
f0ed
2b93
c483
7dfc
60af
c73b
eae0
8881
0f69
0f60
5fe6
76ea
c894
8f85
479e
44e1
cda4
c2e1
8518
488b
71ce
e1ca
91bb
d0a7
b888
b889
bd22
d51e
16d5
70e7
c6da
64a1
32b8
3d26
901c
a2b4
3d14
3ba2
701c
03e6
0404
0433
0beb
033a
08b2
1215
1fbe
108f
2765
272a
22a8
2838
2554
24be
3465
3118
3fdd
3d6b
3754
3d89
3fc2
45a1
5467
5d81
5f56
680a
64af
671a
6812
6db2
663d
6dba
64fa
67e1
6fcc
6f5d
6111
7433
746b
7bc8
7335
86b5
86b1
84d4
849e
9db3
9783
96a7
9d83
a219
a7a2
a3e4
b407
b7f4
b3a3
bf1e
b5b3
c7f7
c3b9
c00a
c47d
cf57
c21f
cbbb
c23f
c28f
c0bf
d667
d463
d7ec
e416
efb8
e006
e222
f817
f5a1
f31d
ff0d
f11f
0165
02f7
02c3
05e7
1c0f
1c38
1b78
6e70
6984
69b7
0c8b
0c25
a973
199b
217c
212b
212f
2114
7ce6
bcec
4eff
4e75
9ccf
aa55
4284
3c66
3c04
593a
591f
0932
0910
3981
f922
aceb
2cb4
4c1a
4c64
4c1f
6c60
dcaf
99f5
990e
99d7
9917
99bd
99a1
9996
7eac
cc5f
d937
d9e0
89f7
8c22
ce43
9e2a
9ef7
9e10
5c19
b96e
b995
e926
e918
e9c7
c92a
c99c
fe6f
ec87
ec13
7669
1e5f
1e67
036a
0362
ee68
8e62
de40
de30
2a2f
be89
5e82
5e17
ca23
eaf5
ea4a
ea0a
ea41
ea47
2e73
0b36
0b0f
6a3d
fa25
5a69
165d
5543
5540
3ab9
9ad9
bad9
8a19
b17c
1128
81d3
813a
8137
f1d5
f130
fff5
bbfa
31ff
e187
7159
5b23
52fe
f3a9
f35a
f38b
2b7e
2b49
3b8f
c639
4b4f
4b0c
78f8
abf7
cb7c
9b26
eb78
432a
061e
0626
664d
56aa
560b
238c
7389
265e
08fa
e3f8
3388
d3fc
d389
d6fc
d62d
1276
123c
126a
c302
c3f2
c2f1
c277
9278
726e
654a
650b
656c
f66e
36fa
e24a
e2f6
e223
9622
a259
b869
b241
487b
f851
a8b6
a879
a877
38d0
d84a
d8fe
586e
44bc
0755
0775
15dc
357d
b5fe
7541
758a
044e
a508
6741
67da
174e
6dd6
e771
870a
d703
d7f8
d7d1
c77c
b746
b7dc
8d59
8d75
8d7f
474c
9fb6
9f03
9475
2446
bf49
8045
84bc
25a6
df99
52e1
4f96
36d8
b0ed
1056
26e4
a6d9
8d34
8d37
8d3c
1daf
50a1
78ee
4ec9
7dc5
28be
7d31
088e
e4cc
20e6
42cd
7dea
6422
a0e4
c025
9d36
63ce
b7c0
b536
a530
37cf
1f98
9527
e732
9ac8
d055
b0c8
1e96
24c9
5b9b
5d37
8f3d
5ac6
1f87
5483
676a
aff0
2dc2
2dcd
4593
e885
62c6
129c
0d23
eda4
2ac7
6def
6dec
e2eb
3734
3d95
fd2e
fd27
bb66
3484
8f98
2b95
98ea
ede0
9df4
d4e4
ed34
cacb
d488
cde4
d889
d88a
bd2b
a524
9062
f2b7
d513
f0a8
5dfd
e761
8f63
2fa3
0dd4
0338
0558
111d
1f2b
166f
2417
26a5
2fd7
2262
2307
311d
3f52
3713
3265
33a3
36a1
343e
3beb
37a0
3210
4bed
4494
5d57
56b5
57b3
54bd
6444
675b
6330
6f57
68af
6bcb
6d63
6be4
7710
7663
7fcb
7364
8810
8084
9804
971d
9bcb
a7e4
a865
a7d0
abc3
a23f
a009
b632
b781
bbb0
b6bf
c265
c43a
d81d
d7b9
d4b4
d23f
e7b3
e6a2
e63d
e786
e089
e0b9
e00d
e8bd
e11a
f003
f3b5
f6b1
f712
fddd
f4ba
f5be
0a97
0545
18d7
1c96
1b76
6e89
6e3f
6e68
69b9
79fc
79c6
5177
a9f5
a9f9
a931
7ce3
bc81
bc04
4efe
9cfd
9c77
9c04
9ca0
aa2d
594b
59b3
4932
3947
294a
2981
f98c
f928
fc8a
ac83
ac1f
2c3b
4c5f
6cdf
6c75
dc72
9944
7eaf
cc6d
ccac
8959
896b
89c6
8c21
8cf6
8c16
8ca5
ce42
ce79
9e0a
9e31
9ee4
5c6d
5c9f
b90b
e94e
c942
c91a
c9a6
0e3c
7a45
4a76
4a1d
030b
8e6b
3e6e
3e1d
3eaf
2a5c
bea0
5e4f
5e39
5e8a
5e7f
aed3
ca40
ea69
ea67
6a55
6af6
6a3e
1a43
db30
5a38
5571
9a63
da52
daf2
ba1b
ba52
8a08
8ad8
8a09
b15b
b135
a166
a18d
416e
11f8
1126
f1fe
316a
e171
7160
c17a
c15f
523a
f37c
fb23
fb5f
c679
8b23
8b74
8b5d
4b75
4b83
437b
067c
562e
5644
2348
23a9
236b
6328
464f
3386
b341
8682
d67a
d649
c34b
724e
7245
72d6
6573
f6f1
f6f0
36f6
e229
966b
968a
b8dc
b8d5
b27f
f5a9
4871
4546
38f0
68f1
6819
ff74
c54d
0752
15fc
e529
e588
85db
b506
b58b
b563
7588
507f
6745
7440
e778
87d9
140e
d74b
d7d6
3dd3
4d0a
8d7b
37f9
37db
90df
907f
bd6d
a7dc
9408
10dd
5d1c
6f4a
6f7d
ef6e
a076
cf7d
cf44
70de
70dc
7f41
e0f6
fac6
4ac9
6b9c
2595
2599
67b2
78c5
5730
b058
b054
7f36
55c1
359c
0888
6426
ff88
1aaa
7f8f
4ff7
4ffa
a01b
4a91
ff96
e01a
ffae
a59a
65eb
a09d
90e1
1731
a3c0
fec3
a2eb
a2ef
68eb
3199
b0c9
ee93
f73a
64e0
1598
83c7
6f62
8e9f
6192
aff8
aff4
eb94
33c1
1061
f8c9
85ed
652b
1534
889c
74ed
3890
a0a1
cdc3
98ef
92e4
70c0
0b62
67c3
62b8
62b3
2d25
7da3
5fa0
1f60
9baf
6dae
d03b
eba2
4ae0
0d13
edf4
5885
dfa7
a2b7
3fab
3ba6
22b0
4767
4510
0725
03b7
0be4
1765
13e7
1758
17b8
1116
2d54
2bcb
2368
36a8
3be7
3b12
358f
37dd
3db4
375e
3236
34bd
47b4
43a1
440f
44b9
669c
6668
66ab
68ae
7367
7418
73af
7d81
78a8
7d54
7816
8f07
8b1a
86b7
880f
8085
87ac
9434
95b7
98a0
a7b2
b254
bfc7
bfd7
b362
b5b4
c80e
cf0f
c727
c082
cd82
c8b2
dd5f
dfc0
d49a
d557
e492
ed56
e227
e66f
e69f
e5a7
e69d
e560
e497
f6b5
f414
f783
f832
0a09
02b9
0226
0230
05ac
05b1
1cfa
1cb2
1cc5
1bde
1bec
1ba6
6e79
6927
699e
0cf8
0cbe
0c6f
0ce7
0c91
79f5
797e
7956
7922
7913
a979
a9ee
2175
2138
7c16
bcc4
4ede
9cde
9c7d
9cb4
aa09
424a
4246
4259
4227
3cf5
5953
5925
5956
59a0
09b9
09b2
49bc
497c
49b2
396e
3983
398d
2942
298d
299b
f91e
fcb0
fc98
ac70
aca7
2c6b
4cd9
4c5d
6cda
dcb1
99b0
99cb
7ed9
d9fd
8c29
8c54
5c3d
e992
c9e1
fee2
0e29
0ebe
7a39
7a5e
7a3b
ec7c
ec14
ec35
1e85
1e1d
4ab4
0306
ee1e
8e7a
3ef5
3e15
de86
2a08
2a2b
ae0d
ea2c
eafd
2ebc
2e21
2ee7
0bda
6a2f
7b54
fa3a
fad4
fa27
1676
1649
1659
c0f1
c070
554e
550e
9ab5
9a18
ba39
ba7d
ba7f
bad4
8af6
b173
b15f
b12f
a1d2
a148
a139
f143
f1f3
bbb6
bb1e
e1fc
e133
2574
c1f0
c130
c134
5b81
5b70
523c
3bd3
3b88
fb38
8b25
4b5b
d1f1
d127
784d
cb5c
cb25
432b
136b
5651
7343
6369
637f
2640
08f1
4606
4661
4625
3359
336b
3382
b345
b340
b326
d34a
d3a9
d383
861c
d6f1
e8f5
3078
3040
c22c
f2f9
d244
a624
36f8
9673
a2f5
a253
28dd
98bc
98f8
986a
f8d2
f841
9529
9563
45aa
3840
d87c
d85e
d844
d8d5
587c
5875
58d5
6853
15de
c845
754b
75f7
6779
17d3
9d7d
27f1
8748
8779
f77e
f70a
1471
7d06
7747
7744
d7d2
d70c
3d5c
4d49
b7f8
b7f2
8d0c
3741
bdf5
bd4c
bddc
9f76
9fdc
9f0e
cd5e
947c
94d8
ad49
b07a
b0fc
1f0a
d04b
101a
1426
66e1
86cd
50c0
501b
50a5
1d13
5090
3a98
4ec1
9ec9
bd17
7e97
e4c9
e890
6424
c536
9d9b
40ce
f012
31b1
ea9f
bdca
a095
c0e8
c0e7
a1bd
14a1
90c5
803a
0d37
d73e
c053
8b6a
80e4
1ac4
21e9
4890
24cf
f79d
a5eb
87cf
b59c
4014
2f34
5dcf
ade4
3d38
139c
d6e6
cd93
9ffa
30ef
8da3
40a5
2aca
8dce
889f
10ce
2b63
4294
429a
b035
34c7
4020
61e6
36e2
3f9f
d597
cace
6f89
5fe7
6f97
c2e9
f03a
9d10
7bab
2f8c
ae96
f0a9
f0ac
5887
5f69
3bae
3df2
6d14
040f
07be
1f14
13a3
14d4
15a0
24d7
23e6
263f
24d0
346c
343d
3081
349e
4232
443b
47bf
4691
4fb3
4008
5450
53b0
5492
5698
5495
6713
63a3
6459
608c
67e3
72a1
7862
7254
77d0
75a4
7304
8716
8630
8265
8d58
8585
9fce
97ab
93bb
9756
9711
97e6
9f5f
abc5
a4bd
b7b1
b82f
b258
b006
b4b5
c72c
d6db
d118
dd85
e453
e6a4
edd4
e3b7
e5a3
f083
f230
fbed
01f2
01ea
0a8c
0234
053b
1855
1885
1854
18c2
1c47
1c87
1ced
1bf8
1b15
6e71
69d5
6912
0c82
0c1d
0c13
797c
7944
7916
7994
516e
51f6
51f4
190b
1940
1910
2172
7c88
bc4c
bcf6
4e41
9c6a
9ca6
aab5
4206
3c55
3c6a
3c9b
0913
09e3
4987
4907
3946
39f2
3989
2973
297b
f923
fccb
acbc
2c69
2ceb
2cc7
4c75
6c61
6c56
dcec
9978
990d
cc62
89a0
8c06
8ccb
ce3b
ce77
cea2
9e07
5c36
b90c
b959
b96c
b98e
b933
b9b8
e921
e997
fe2a
0ef9
0eb1
0ea0
7a18
eceb
764c
1e17
0345
0368
eedb
eebb
8e44
8e85
3e71
3ea3
de26
de5d
deb2
2ab1
5eb1
5eb0
5eab
ca7a
ca24
cab5
eaf6
ea87
eab3
2e79
0bd2
0b5b
1a08
1a7c
1a40
1ab0
7bd1
fab1
6188
5a39
5a8e
5aba
160e
3a6b
53d2
a165
4146
4189
41f4
f1f7
bb31
bbe9
314d
713c
c159
c1db
5b55
5b43
5b39
5b88
6b45
f375
c68c
4b4d
d126
787b
ab1c
ab3b
9bd8
9bd6
9bac
eb27
0641
567c
23ac
634b
6359
635a
2651
2672
260a
0843
467b
331c
335e
93f9
933e
936a
32f6
d3d0
124e
c21b
c2d9
9203
9240
f28e
d271
d22a
d270
d274
72f9
a661
f61e
f677
e655
e6bc
e6fa
e685
e24e
9623
6229
226b
b833
b671
b606
b661
b23b
f5de
98fc
45fd
38da
fd7c
5820
68fe
ff72
074c
158e
1561
e576
e5df
854f
c852
d5f8
b5fb
67df
6746
9d42
9d1c
f7aa
4d43
b7f9
97d2
37de
ed71
ed09
eddb
0f40
a76d
cddc
ad48
240c
bf76
bf71
3f6d
dfb6
df4f
dfaa
1fdf
70df
407f
7f7e
7fd8
84d8
844d
17a2
7066
143f
ff67
905b
f4e0
4feb
503c
50a3
519f
088c
3ec6
6425
06dd
03ce
1793
f2c7
ff9b
e6e0
9d35
6ac7
80c2
56d4
a098
a09e
55ec
109e
8095
63cc
97cf
a1b7
38c4
68e8
bfed
c3c3
eec4
9533
f737
e0c6
21bf
04ab
87c2
96c2
c293
d2c4
1f84
c0a2
5dc5
ade8
aded
e3c7
eff7
106a
9ffe
40ac
85ea
129e
153b
c8cb
f420
b390
c6e1
9736
348c
8b9b
2a91
e489
e486
d59c
d4e8
4d9c
ed37
5ecd
0f6a
2ae5
2ae6
c4cd
3da2
94cf
1ffc
6b6b
1ae3
e067
aec6
b884
9ba2
f2b0
64a9
bf64
8d18
ad16
72b0
cfa2
dbad
dbaf
0313
0615
1f07
12a7
2fce
271f
272e
2715
2238
2d8f
2788
369b
36b4
33b4
3f2b
4bbf
4465
4fdd
46af
4fb2
485d
46b3
4fbe
5615
5b18
549f
55b1
669b
6666
6311
7336
755f
8d6c
800c
8863
849a
9118
9f10
9dd7
9084
9bc9
9334
949f
95a5
94bf
a862
a460
a69f
a0b1
a0be
b718
b336
b477
b827
cfcb
c310
c8b9
d46c
d7d7
d3be
d8af
d864
df25
d4f4
d4bd
e3e8
e864
e7be
e827
f407
ffb5
f23d
fd6b
f718
ff13
f863
f26f
f2a3
01b6
0a44
0269
0274
0214
02ea
0583
0511
0565
18d4
1c2b
1b52
1b10
1ba7
6e55
6e0b
6935
0c7e
0c57
0c93
7943
7972
a9bb
197a
1963
bcf5
bcdb
4e2f
aa43
aa0b
420e
3c96
59f3
59ee
09bc
09f4
39b0
29f9
29bb
29b0
291f
f918
fc1b
fc78
fc72
fcaf
ac09
ac36
6cd3
dcb8
990b
995b
9907
7eb4
7ea7
cc0e
ccb0
d9eb
890f
89e7
8c93
ce56
b9b1
b962
b9a7
e93e
e990
c90a
c9fc
c90b
fe43
fe41
fe7f
fe85
fed7
0e41
7a48
7a60
7606
763b
4a60
eeba
eef4
ee2d
ee27
eeb4
8e75
8ea7
3e0a
de47
2af5
2af3
2a3a
be4a
5ed6
5e59
5e15
ae04
ca81
2e6d
2ed8
0bdf
0b41
0b2a
0b32
1ad1
1a88
7b76
7b47
6155
5af8
5a8a
5a70
3a19
3a81
3a54
3a65
9ab2
da13
530f
8a47
8a62
b14c
4173
41f3
1142
11f1
f13f
91f8
914d
bbba
bbb1
7155
717b
715a
c11b
c129
6b73
6b04
4bb9
7826
78f7
ab30
ab5f
9bf9
9b0f
eb59
1328
23de
833c
e363
33bc
33fe
33d9
3324
b33c
32f0
d3de
d375
d324
8609
8606
d6ac
3041
1243
c35f
c2de
f2f0
f2dd
d26e
d2d9
72d0
a679
a6fd
f609
f631
e64d
360e
e2fe
965e
a2d6
a2fa
62ff
820e
2259
b226
9819
a849
4545
4561
6845
ff08
ff6e
c548
c581
0771
154f
e50e
c8df
757b
50f5
a5f2
a547
67f8
17f9
17fd
6d7c
f74c
4d71
9770
f4d9
9f7f
a7d9
2d42
dd77
5d53
6f4d
2f42
80d6
dfd1
5f7b
8f7f
a0bc
cf4e
d044
f074
d4df
a452
9fb2
2dea
78b3
2526
5038
51cb
eac2
2535
f59e
7f30
7ac2
8ba1
0881
1486
f5eb
ff34
ce9a
86d9
9f98
705c
ef8f
c590
90e2
a3c6
2398
c396
1f93
9522
b797
17cc
5aa1
5515
f057
86e1
5b93
83c9
96c3
c297
d2c6
a021
1f8c
b59a
48c9
13c1
5488
0426
fe97
0735
9d26
62c5
24a9
902a
e425
c5c8
c5c0
e8cb
e8cf
b01e
10ca
dde9
1763
fd98
98e9
76d6
61ea
a1cf
5f88
26c6
6515
0f6c
e7cd
479d
c1b7
4d2e
ddcc
67c1
a734
dff5
d0a1
d0ad
bd28
1faf
2f89
9ba7
c6d3
64a2
406b
bdfd
8dfa
3885
dba0
c88d
2df2
03ab
03ea
043c
23b7
2be6
3461
3665
3f54
3bca
480c
4458
4365
4115
443c
45ad
46ad
5d8b
5081
5fc9
5b16
5d83
56b9
5f2a
6b13
6be8
66a5
73a1
7f04
781d
86bb
843d
808d
8837
820d
88ba
849f
81a7
9d5f
9fcd
9b16
9f23
af24
a75a
ad54
a315
af5e
bbef
b45d
b7ac
b499
bbb3
b55b
c562
c774
cbe8
c491
c368
c1a2
cbe5
c6ae
dfb2
d21f
d5ae
d559
e3a7
e2a8
e81a
ebbb
e0be
f232
fd85
f4b7
f46a
f006
015c
018b
01b7
026b
0508
0542
0573
05d0
1ccb
1b2a
696d
695b
0cdb
0c5b
0ca5
793a
7907
79c8
5181
a9b5
191c
1956
2157
7cdc
7c34
7ca7
7ce4
4eec
4eef
9c0c
4278
3c46
3cda
3cd7
3c90
591c
5970
59e4
49f0
49ad
4990
393e
29c2
f9c1
fcbe
acb9
2c7b
2c63
2cbf
dc94
dcc2
7e25
7e24
ccfa
cca3
899d
5c45
5c60
7a24
ecfc
ec30
761c
7652
1e4d
1e0d
4a63
4a68
030a
032a
ee43
eedd
3e59
3e85
de43
2a45
be0d
ae02
ea1d
2e2a
0bff
0b5c
6a5d
1af2
61d6
61d7
6165
5a0b
5ab2
c071
c04d
53df
534b
ba13
a144
81d6
917a
bbd8
bbda
bb8a
3170
71df
714b
c1b6
5b44
5249
524b
f3d3
f325
f356
3bb1
fbf5
fb7e
fb09
c65d
8b70
8b44
8b57
8b07
d149
cb82
eb43
eb3b
4349
4377
060c
0639
6620
662f
730b
63d3
6320
260b
8302
83df
33fb
a309
88f4
8643
d673
30f1
f2d8
f2f7
d2f6
d2f4
72d5
6579
a6fb
a688
a677
f676
e66b
e67f
e273
e27b
6248
627a
2851
285e
28f0
2266
b8f0
b8d4
b624
f5d1
98ff
9822
48f4
a8f3
38d3
d82e
fd75
fd77
1588
e57a
75d8
5045
20f6
a506
6776
0d76
9d6d
9d53
57d8
e7ff
f7fb
4f0a
c776
3d4e
4d44
3776
90de
90d1
90d5
0f42
0f70
9f29
9f77
a74a
2d73
2dd5
ad1c
af21
106d
10fb
6fd3
2f03
807a
3f03
3f0c
b07e
e4df
7fd2
7f79
f0bc
f0f7
c44d
a476
52e3
36da
b769
52cc
8acb
1d3a
50e1
5734
f197
55c4
f6c4
7d3d
3ecc
da97
c53e
06d0
fa91
ce92
92c5
179f
9e96
7b61
4a92
edc3
ffa2
56de
91cf
21c6
9099
d8c7
d8c2
b533
97c1
37ca
803f
c097
faab
5513
f052
f8e5
3e9d
2d38
2d36
a6c8
d5c8
ab60
9dec
48ce
b42c
5481
affd
98ce
e88a
e882
efa2
40a9
3dc3
6039
f7ce
fda5
85e6
3ded
b6c7
f894
3014
7599
8396
839d
34c4
f525
81e5
12e9
6ff1
c48d
a1cb
f3c6
ed3b
6892
c899
b511
c4c2
1ffd
71cd
aec7
ef62
d8e6
96e6
afad
cae6
9ba1
c518
82e5
3ae1
901b
976c
74ad
080d
0663
0bc7
0fba
0803
031a
03ba
0783
07ac
1bc7
1365
2268
2707
2bc7
2bed
24ba
223f
27e8
34af
3725
3d85
3433
3364
30bd
4468
4b13
446b
4582
400f
41a8
5dba
58b1
63ea
65ab
7492
72af
7260
7d6a
711f
8784
8dd7
8257
808c
88b7
9f04
945e
9338
9331
9556
a3b0
a3a7
a7dd
a711
a263
afb3
a5b5
b3a7
b2a7
bf19
b3b9
bf5b
b45f
bf22
c212
c468
c7ef
c5ad
c437
c55b
c11a
d783
d466
e3ec
e4f4
e789
e4fc
f444
f713
ffd5
f462
f69e
fbea
f7ba
f49a
017f
01ae
0a8e
0ad5
0ab1
02de
0239
05ea
05a5
059f
1c85
1bdb
1b2d
6ebc
6e4a
6e66
69f2
69c3
0c1e
0cb0
0ce5
7909
799b
a98e
a9eb
190e
1968
2136
4e07
9cd8
9ce8
aaf3
4249
423a
3c36
3ce0
5955
5982
0923
393b
296c
f9bc
f973
fcc2
2c5b
2cc3
6cce
dcff
99ff
9999
7e75
7e8f
cc26
cc15
d95c
d994
8c78
8c0d
9e7f
5cad
b942
e99a
7aec
767e
1e09
4ad6
4a22
4a15
ee55
eef8
eee7
8e2a
8e3f
3e29
3e57
3eb8
be1d
5e28
ae0e
aed5
ca7e
ca8e
cad7
ca0d
ea6d
ea89
0b83
6adc
6a24
6a15
1a3b
1abd
7bdf
7b24
61ff
6129
61df
616c
5a26
5a67
164e
164a
166c
5544
3ad0
da87
5386
ba11
b159
a121
41de
4130
1161
1124
81df
915a
318f
e132
717a
5bde
5b0a
5b2a
5b84
6b4f
6b8c
2b4b
2bdc
fb2f
8b7d
4bb6
d17e
d169
7852
7847
78d0
13f2
0688
66f3
561b
56f9
5621
568e
23d2
2303
233e
6385
26aa
83ff
834c
83f9
8389
460b
3308
33d2
a3b6
a358
b384
936b
3274
8659
d642
d669
d626
e8d2
1249
c246
c28e
f28b
72a9
657d
a620
a687
f652
f6a9
e6f7
365f
e2d2
e27a
e2f2
8277
2226
2228
b842
b8aa
482a
48dd
f8d3
957c
a83e
d869
fd76
fd78
440c
4445
c508
15ac
e543
e50a
8543
b5dc
5076
50d0
a5d8
6753
174c
6d4e
f7fd
7d03
7772
3dda
b740
474f
f47a
f40e
bd7b
1079
5d0c
df79
b041
8f21
8fd6
cf0a
cfd8
cfdb
d079
c475
c440
8409
b41b
b471
b4dc
b482
9fbd
1b69
b767
4f52
0dc8
1da5
f1b5
1f35
7aa6
1dfa
7ded
6793
1fea
a011
0ec6
a59e
34e5
e53e
08e6
e8eb
1094
23cb
6d92
2aae
2aa1
6aad
fec6
5f33
4895
daaa
d01b
e4a7
24c5
c794
dec5
a4ee
5a92
5767
942f
ffee
ffe5
15cc
139b
bd99
6013
b4c2
6527
8ae4
b29a
0d9c
c8c3
e8c4
e8c0
9890
7791
af90
f42c
4022
6399
c7c6
92e7
f1c2
26c7
06cb
d4ec
5790
e09a
a517
74c2
54a0
e7c3
a48c
41e8
448e
8516
c4c6
0fa0
71c5
9b95
91e5
751e
751f
dffa
dffd
b881
07cb
dd19
9068
2f91
88ef
b4e4
a06b
64ab
0d1a
8488
a76c
351a
8dfe
d52e
cd1e
3df3
cba8
cba4
fae8
03a0
0d88
0723
046b
07a3
1638
158f
1fb4
2492
243d
241e
2256
34b0
3410
3237
3699
3282
35a4
35a5
349d
481d
4268
47ac
41a4
581d
6fce
6f13
68b2
6558
740f
7d6b
77b5
7264
7616
7006
87bb
8430
858f
83e9
83ec
821f
8496
81ad
945d
93b7
a810
a722
af15
a457
a56f
b638
b215
b6be
b7a3
b7e1
c50f
c7ac
c6ad
d7bb
d4b1
e7a7
ffce
f43e
f7af
f7a8
f089
f114
0139
0a1e
020e
02a6
05da
0510
183e
1cf8
1c39
1c8f
1ccd
1c9a
6e63
6ecc
6933
7976
5120
5135
a904
a916
1903
1936
1994
7c5b
7c0d
bc76
bcbe
bc32
4ef8
9ce6
4273
42a9
422d
59f1
59cd
397f
3968
293f
f9de
fc40
fcfd
fc74
fc85
acab
2c51
2ce2
4cbf
dc4f
dc4d
dc3d
99fe
cc41
ccb2
d9b4
891b
8c8b
8cae
8cad
9e39
5cbf
b9e9
e91e
c9bd
c9e7
fe8d
7a86
7a82
7a0d
ec7f
ecd0
ecf7
1e7e
1e68
4a58
4a62
03fc
03d1
de7c
be29
be5b
be58
5e40
5e66
5ed0
aefa
caf7
2e53
2ea6
0b73
1ad3
1a0e
db20
7bd6
7b3b
7bdd
7b34
fa32
6149
615b
9a10
da84
bab5
8a43
b155
41fc
41f6
115d
814e
8157
f178
9132
9165
bb7b
bbdc
bb30
c186
5b72
6b53
2b27
df5d
fbf9
8b4f
8bd9
d163
d157
78d8
9b4a
9b28
43bc
1345
13fa
560d
2381
73aa
7387
6382
e323
b3de
b3d6
b388
9352
93d4
322b
d37f
8879
8633
d629
d622
120a
c289
c223
f2bc
7266
6569
a653
e678
e639
e619
3624
6233
8249
b8d3
b8a9
b23c
b26c
9826
48fe
48fd
9576
957b
a8f1
4575
3842
38aa
38f6
3826
fd6d
fd49
fd06
5843
ffdb
c5b6
c566
3570
3566
858c
c844
b56d
75fa
0448
a571
677e
1708
17d1
0d53
7402
9d7a
4f06
4fd1
7755
774e
8db6
8dbc
8d53
47aa
47de
370b
ed5b
f443
0f7e
0f4d
cdd6
dddf
54da
10d5
807b
3f08
3f44
df7d
ef08
ef7a
efd1
8f78
a0fc
e4d9
604e
f07c
f0f9
d447
c447
844f
a4d2
a44f
51b5
e29c
ff63
9517
8ace
14e0
3ac8
1058
2525
0ba0
22c5
3a92
e2ce
bd6f
e4cf
3ecd
039f
56c5
6797
805d
c539
a01e
b73b
9f9e
4a9d
3091
65ec
31c0
12b7
60e5
c1c1
04c9
ba93
f73c
86e8
e4a4
83c6
5d36
4de7
a6c6
15e7
9420
9de1
629f
5482
10a6
b8ed
cd9f
ad33
829e
bd92
75e7
0d9b
16c7
9894
b396
4290
301f
dde1
fd2a
6bab
bb69
cf8a
77c2
92e1
2ec6
6517
6516
a513
d481
ad96
ad91
c893
7fed
d895
d892
ddc2
aa96
bf92
8d22
7512
91b8
d199
152d
bf8a
afac
3524
748c
8d94
2766
a763
7766
a2b8
82b3
fbae
61b0
2ba0
d4ab
0811
03ad
0467
0414
07a0
06ae
14d0
15a6
269c
2b12
2f56
22a4
36a4
3fb1
3bbd
383f
3456
3f23
34fc
4d21
400a
4b18
47a3
45a3
5d0d
572a
5fbe
5d6f
6433
68bd
6554
7808
7be0
7582
763d
7497
74f9
872a
86a1
8554
970f
9453
9215
9d6b
95b3
a08f
adbd
a1ad
a8bb
b118
b6bb
b662
bd8c
b7e3
b4b2
b5a8
b11a
c690
c216
c21a
c4b1
ddb0
d3bb
dfb4
d412
dbbd
d258
d00c
d210
d857
dfc8
e003
ef2b
e77f
e8b5
f219
f49e
fbb3
f3e1
fd67
01ec
01ee
0ad3
0a75
0a12
1831
1857
1c71
1c56
1c54
1c32
1b84
1b14
1bb3
1bab
0c4f
0c21
0c99
7964
512e
a9ff
a99b
191f
bcb6
bc19
4eb6
4e31
aaff
aa45
42dc
422f
3ce1
5971
59f6
09d0
093f
4948
4984
29f8
2985
29bd
29c3
fc2c
ac40
2cc6
2c9b
4cb0
4c99
4c98
6cd5
dcd8
dc21
998a
993d
7e5f
7e16
cc4a
ccf4
cc85
cc18
d914
896e
89cf
8c5d
9e41
9eaf
5c57
5c24
5cc7
b9f8
e920
e962
e9e1
c96e
c99f
0e5f
0e67
0ea1
0eed
7a5c
7a61
ecd1
ec11
032b
3e19
3e4d
de87
beb6
beee
5ef4
5ebd
ca49
ca07
ea6f
2e82
0b3d
1a45
1a2e
faf8
fa66
611c
5a6e
c0df
c0f8
3a57
3a37
9ab1
9a32
dad3
5341
ba15
8a45
8af7
8a38
b183
a10b
a10f
418c
81b6
815d
f138
911e
bbfc
bb47
bb87
e1f9
e1f0
e156
e165
7171
715e
c124
5b3d
527a
6b1b
6b30
2bd4
fb07
8b27
8b84
cb8b
9b55
9b38
ebf3
4371
662a
6623
5646
5679
232e
73ff
734b
73f2
7320
73f7
6321
2603
085e
e31e
460f
a3fc
326d
8852
d6f8
e8fe
c3f8
c33c
c2ff
c2bc
c22a
c261
92de
923a
d2f8
d233
d277
6581
65d7
a6f8
a65b
e60f
362d
96fc
a2d9
623b
827b
b2d9
b209
f5d8
f56c
f5dd
98d4
95d6
95f7
a8da
a869
3871
383b
d861
5861
6869
ffda
1579
1541
154d
35d4
e5bc
e546
e5ac
d5f4
b5f5
b51b
b581
75fc
757d
046d
047a
0d0c
6d7a
9d70
f556
87da
c7ff
b745
8d1c
9706
90d7
ed6e
edd9
9f79
dd0a
af71
af7f
2478
6f41
6fdb
bf4d
b046
b074
3446
707e
d04f
40f4
e0bc
e040
f0d3
25bd
7ec6
4553
ff64
2de3
c525
a1e9
6b90
52c0
5016
3068
5035
1d8b
14c4
78cf
b05f
5097
7aa0
ff3f
6796
7b97
60ce
552f
a0e0
c02b
a59b
5538
21c8
e5c5
6aa4
14a4
12b1
37cc
1f99
38c6
68e7
68ea
35c2
2429
c054
86e0
e4a6
a797
20c6
6dc2
3055
15e9
3290
6293
b595
38e3
0425
eb95
a39a
fe95
98c5
e197
b8eb
9ff1
8da4
6023
40a4
f8ce
e4ee
e4e2
e8cd
b6c6
b6d4
f487
6ba5
74e5
8ff3
a0a2
176c
b0a5
cfe5
6488
e1e2
92e9
32e3
5d29
b8ca
30c6
4d9f
60ae
a42e
41ba
7fe1
96d8
9b64
bbae
ad2d
bf97
152a
d760
688c
66d9
7487
5ba3
8797
5df7
5da0
776c
84a3
72b3
3510
2887
82b1
4ba1
080c
043d
08b0
03b9
1fce
13b0
16b4
1fc0
1f57
1412
1782
17e6
1fc2
2d56
241f
28a8
2f2d
2787
2be4
340d
3817
3718
3b17
33ab
355d
4756
4668
4d5d
4318
4fb7
4d60
48a2
4368
522f
5db4
5459
5f2f
6f12
633a
6611
67ac
60b3
7417
7458
7214
8785
97d4
961d
9860
9565
98b4
a667
a618
ad83
ad82
bd56
bd81
bd8f
b636
b4b7
b7ae
b8be
c407
c3a6
c58f
c333
c636
c211
d4d7
d707
d7d0
d787
d4f3
e464
e43d
e454
ed66
f80c
f808
ff1a
ff11
fb13
f47f
f00a
fbe0
fd89
f332
f236
f437
f1a5
0abf
02ec
058b
0544
050d
18f6
182a
1883
1c2e
1c62
1ce4
6e4b
6e3b
6981
6962
0c48
7946
798a
5179
51d9
1907
1996
213b
7c20
7c99
7c9a
bc47
4e77
9c7f
aa73
aa49
aa1d
3c06
3c32
3ceb
5966
49d8
4939
49b9
49ba
39e9
39b4
39c3
f974
f9b8
fc31
acff
acbe
ac86
accf
2c0c
4cfd
4c11
4cc8
6c7d
6caf
dcbc
992a
99ad
99a5
7ed1
7e17
cca9
d92a
d9f0
d9b0
8c49
8c31
8c24
cef1
9e8c
9ee9
5ca3
b94e
b909
b915
e9d7
c9ff
c917
c994
fed9
fef1
0e55
0e42
0e8f
0e0f
0ead
0ea4
7ad6
7add
ecff
765d
1ef5
4a71
0339
ee70
8e63
8eb7
3e5a
3e7d
dee8
2a0a
be41
be20
beb0
ae23
ca7b
ca5e
ca44
ca0f
eafa
6a42
6a7e
1a27
dbd9
7b8c
7b25
fa7e
fa2c
5a1e
c047
5579
556b
3ad4
9aec
5354
ba03
8a10
b1a9
a16a
a138
4131
810c
8141
f1dc
fffa
e126
e1ae
e128
c14a
5bd1
52fc
6b31
f31b
f377
f387
2b0b
fb32
c62c
4bf3
4bf7
78f1
7866
abd0
ab84
9b46
eb4a
ebb9
1379
065d
564c
23d4
63d0
260e
0849
4672
4622
33f7
a37c
a32e
9370
326c
d30a
867a
e823
c374
c25e
c27f
f240
a658
f62e
f622
e60c
3622
e2d8
e2d1
961b
9628
a2a9
82f6
28f8
224b
225a
9544
387b
382e
d86e
58f9
5869
3563
856b
8561
c872
b57e
b5f3
7569
20f2
1742
177c
7452
74dc
5741
e7f3
87de
87f1
7dd0
4f21
777b
d70a
3d70
b772
4729
47fc
9708
0fd3
af1b
3f76
df45
5f4a
347b
cf08
6443
64d1
6041
60d6
e0aa
f076
f0d4
b403
a455
17a3
51b4
a1e3
b0e4
9511
8ac2
7893
efc1
efcd
419c
51c6
b094
b05c
78ed
bd66
f5e8
f5ef
e899
48ee
0390
f019
f016
92c1
92cf
3027
c037
40e5
bdc2
9d33
4539
90eb
a3c7
5dec
ef30
68e5
a8cc
35c6
952b
b792
242f
4093
1190
8b64
d05e
9532
e393
c790
d3cd
5a9c
0898
46cf
5760
c0a7
b590
f099
15cb
a39d
3d32
98c3
9038
f7cb
606c
0d2f
3aa9
2ac6
9895
6dea
e595
e59f
c6cd
9a92
219f
7594
74e4
cb9d
12ec
e1e6
5f8b
26c1
e6ce
95e2
43c6
4521
88c5
e0a1
6fa5
488c
6b60
2d2f
e032
876f
dd9a
1f63
f2bb
c51a
e1be
34a9
a067
32bf
5ba5
a4ad
82ba
fba4
3ba4
388d
4760
cf69
cdf1
03a6
0d5f
061d
0836
0b1d
0692
0498
0827
1707
125f
1f13
13b4
17bf
1f2d
1555
26a8
23e7
2db3
2463
24d4
2664
269d
2692
3804
3227
33ba
37ea
35be
4f15
4236
48b8
53a1
53ef
5f24
56ab
67f4
6809
66b5
6664
66be
64ba
6fb9
678c
6110
65a2
772d
7838
7bc2
77a4
843e
84fd
9bc0
9d0d
93a2
9493
91a5
a58d
af11
abe8
a567
bfce
bfb5
bd0d
b70d
bdd7
bf54
b8ae
cd0f
c235
cf26
cd64
d69d
e468
e257
e214
eb18
e3ba
e5bb
e331
ebc4
fd04
f238
f7b8
fd8a
f1a7
02be
02a1
05ee
186e
182f
1813
18cd
1cc1
6e23
6953
69d7
69b4
0c45
0c4d
0ced
0c97
517d
51f7
510d
5184
a936
a9a0
193c
1937
19a3
7c0c
7c19
bcd7
9c89
9c58
9c91
aa08
aa4a
aa74
aa8d
3c15
5941
5924
09cc
49f8
39b2
39e8
2946
29ba
2932
2910
f9f7
ac1e
ac17
2c7d
2c65
4cf2
4c92
6caa
6c0a
6c13
dce9
dc13
9937
7eaa
7ede
ccf3
89f1
8904
89ab
8c7a
8cf4
ce41
ce5c
5c49
5c7d
5cc8
b9d7
e933
e9ba
e9c6
c94b
fea9
fe1e
fe14
fe35
0e51
0e3e
7661
1e37
4a4d
4ad4
eeb6
ee75
ee23
eeb8
8e8a
3e87
3ebd
3ea0
de11
2afe
2a6c
2a5a
2a5f
2a16
be06
bed1
5ebc
aeaa
aeda
aed1
ae25
ca3e
ea59
2e09
2e30
6a7a
6a71
6a22
1a59
1a67
db36
fa20
5a85
1604
c04b
c0f6
daf9
da44
da85
5321
5326
b1b6
b130
a140
1157
81f2
f1f0
918e
913b
31b6
e163
2509
2569
7164
c125
5b06
528b
6bfd
6b28
6b87
f371
f36b
f32b
2bf2
fbdd
c6a9
8b8a
8b35
4b2a
eb08
eb07
1323
1354
1d5e
067b
56f2
235b
732c
2686
268d
83f4
a3de
b309
3203
d384
882a
868a
30fc
c34f
c27c
c2f9
c206
c266
92d0
a673
f6f8
e643
e67a
e656
3604
967e
9688
622e
8239
223a
b6fb
b6f8
b654
b252
b269
982c
f859
f8f6
f85a
956b
a8f9
45d0
384a
3845
fdd8
6821
444a
440b
ff1c
c56d
350e
e579
85ff
c861
b5d0
04ff
0447
20d0
170c
6d08
6d4b
6dd9
e77c
8749
877d
14d6
4f09
77d2
77da
d7db
c7d1
3d7b
4d42
b7f1
8d03
974e
97f3
37f3
90aa
90da
ed76
ed7e
ed52
edd6
cd7b
cd06
2f7c
2f45
2f47
3f4e
df4d
b0d6
3479
a0f9
a075
a07d
704a
644a
d06d
4045
8403
bd30
6090
4acc
b5e4
2514
bae2
3fe0
4aa8
4aa3
78e6
bdeb
d79b
9ece
9dcc
56c1
14be
10e9
9f9c
5525
552b
309d
ef89
cd36
7ff1
c591
2799
9594
e5c7
b539
97c6
a8cf
c09b
719f
e056
119b
3193
21ea
bb94
a0c8
2099
fb6f
d012
a791
6f61
5a98
46c6
a6ce
1ec6
cec2
a027
a02a
81cc
5dc7
5dc2
676e
aff9
eb93
e5ef
85cd
0b95
df36
df31
30e0
eaa1
0d2a
0def
153d
16e4
c5ce
7794
64c8
df8e
08cd
9a94
db9e
429d
7590
65c4
6bae
f522
74e9
cdcc
6a99
12e1
6ff0
648b
80a0
a1c6
32ee
d6cf
32c0
e6cf
d4e2
95ed
95e0
eae8
46df
74c0
d1c9
f023
cda2
cda0
b51d
4482
8197
cde3
6b65
6b66
ed9f
4e9f
e06a
e1c6
d021
2f8f
dd9f
9ba6
d03e
2daf
82e7
e1b0
8d10
8482
dfaf
351f
fbaf
bfae
2fa7
06bb
0463
03e3
06a7
133b
1662
1335
17ba
2d6b
2337
221f
22ae
245f
2834
37bb
325f
3467
3693
36ba
31a6
4837
4437
4be5
41a1
5804
5726
5458
5230
6b14
63a6
67d7
6417
6715
647d
61a7
685f
7337
733a
73b8
74ba
745c
74f3
71a7
83b5
8758
8414
8f57
8867
978e
9d61
947f
97a1
9335
90b9
98b7
94b5
a25d
a7a8
b469
b787
c7e4
c232
c337
c8a2
dbe8
d331
d565
e71f
e419
e463
eb15
ebc2
e2d4
f456
f567
f5a4
f4be
018e
01f0
0a64
0249
020b
02f4
02bf
05a2
187e
1869
18c4
1c43
1cd6
1c59
6ee8
69f1
6936
692f
0c55
0c39
0cbf
5107
191b
19a9
19a0
2128
7cd9
7c27
bc83
bc8f
4e6e
9c8e
9cc1
aabc
4255
3c8e
3cec
3cf4
3c99
3c95
5988
59a9
597f
598f
09da
0931
4995
39bc
391a
f947
f9ae
fc4a
fcef
ac88
2c0e
4c4f
6c6b
6cb5
6ca6
dc74
dcef
dc99
9908
99da
7e0b
7e54
d9a7
d9ca
89a1
8c88
8cb3
cedf
ceef
9eeb
b9e1
e9aa
e97b
c9ab
7a22
ecd4
768c
1e51
1e06
1e44
1e28
1e8f
1e38
1e35
4a8d
4a38
0375
eeef
8e7f
2a7e
bef4
5eb7
ae2b
ea49
2e7b
2e7a
2e5b
2e25
6a2b
db2f
6146
614c
5a1b
5a2d
1675
165b
c076
9a43
9a58
5307
ba37
8ab0
b170
b177
a124
4121
812c
bb4d
3159
3147
3136
e145
e1fa
e135
5bf0
5b74
527e
52f7
6b35
fb25
4bff
d121
d162
eb0e
eb47
eb70
134f
130e
135c
064c
0620
666e
6624
5656
232c
637b
6348
63dd
2644
8355
834e
8326
4644
b3a9
b377
9369
3245
8874
d641
e83e
e87f
12b6
9279
92f9
d246
d27d
7255
7239
65b6
6545
6509
a639
f681
e6aa
368c
9609
a24a
a2d5
62d8
825a
8261
284f
285c
2844
b239
f57b
f5d5
f846
f8f3
f86c
9569
a87c
450c
45d5
45f4
fdf5
fd4c
584f
c572
07f9
1503
3572
7581
a5f3
a56a
677d
6744
17da
17fa
6df5
6d09
8759
f708
7d73
d709
c77d
4d1c
4d46
4d5c
a7aa
2d7d
941c
dd71
547e
244e
2479
6f43
2f73
2f72
bfb6
8041
3fda
5fd1
ef72
efd9
8fd3
604d
d0ff
8440
25b5
36dd
9519
6b93
4dae
53c1
5591
559d
ef99
7f3a
5092
f6c1
7ac0
e2cb
9ec5
7dc8
2ff5
11be
3ec5
6423
fa92
4ff6
c03e
cb65
4a9c
ff99
ffac
e6e5
65e9
b6ed
91c4
91c7
753b
c0e3
a056
a1bb
239a
31ce
c39c
4091
c3cd
68cb
e4a2
6dce
8f31
87c9
5ac3
5acc
ffe3
75c5
1f8b
3f32
303c
bff6
5b6c
eff3
30e4
efae
bd90
85ee
3de0
cf9c
9733
f0e4
6392
f2e0
b0ac
61e7
a1c4
d6cd
fd15
cffd
689f
0b6c
ad9f
8f8f
b516
f036
8190
81bd
c066
1ae7
b88a
d190
a88b
dd98
afa0
1f67
9067
eba3
34a1
9ae1
c6d1
64ad
276f
3d22
c4ac
8df4
7d18
7014
0bb5
0f10
07f4
03e5
0715
0612
0660
0662
0337
0d6a
0497
08a6
1218
169b
1fbb
131a
10bb
2728
2fb9
2437
330f
3496
3f5f
4774
475d
4d66
40b8
5315
5d6c
661d
6f19
6d61
675e
6835
65bb
6f25
6fb8
7238
7f26
77e6
8d04
8313
8707
86a4
8bb2
878b
8712
8bc8
866f
85a7
8258
84ba
8fcc
9862
9bcc
93ba
9491
95a3
955c
afa1
a413
a5a0
a45d
abe2
a262
af28
a082
a368
afc8
b083
bb10
bfba
bbe3
b3a4
c61a
c3a2
c7d7
c815
c004
c857
c0b4
d553
d3e2
d6b3
d4bb
d7e7
e31d
e7e9
e004
e616
ed63
ef23
e4f2
f264
f7b2
f7ec
0a63
02c7
0563
0518
18f0
1c79
1cd3
1ce5
1bad
6ef2
693c
0cd7
0c98
79b0
79cf
5145
5174
a9d5
a957
a9a5
1931
19ae
19ca
215e
4eac
4e3d
9ce5
9cc3
aa7a
aa2c
aa14
aabf
428e
09f5
093c
498a
4910
3977
29aa
f97a
fc3c
fc12
ac68
ac9c
2cfa
2c61
2c68
4c59
4cc4
dce4
99bc
99be
cc5b
ccb3
d98d
89be
891a
8c9f
ce1b
cea5
5cae
b924
b967
e904
c97e
c94a
c9da
0e4a
ecb6
768e
1e61
1eb9
4a19
4a56
4a82
0386
0356
ee5d
3ef1
3e5e
3eea
dea4
2add
2a1a
2a65
be4b
5eae
ae72
caf1
ca62
ea8c
ea83
ea22
0b7f
6a44
1a78
1a16
7b79
7b36
fa39
fa84
fa13
61f6
61f2
5abe
5a58
5a18
5ab4
164c
3af2
3a30
9a4a
9a46
9ab9
9a0d
5361
5374
b1aa
b106
a181
415d
1164
8143
8186
91d4
e155
25fe
718a
71d0
7128
c10c
c1fd
5b2e
f35d
f30d
2bf3
2b40
3b09
4b88
ab7d
cb36
9b08
9b33
eb0a
432c
438d
1358
06f3
5619
2378
2379
23fe
7384
26bc
2682
08ff
8308
831c
834b
8374
e346
e37a
e377
3361
3340
3387
a34b
a389
937b
93db
93f2
9323
32fa
86fa
863e
c3d1
920a
f27d
d23b
f65a
f68f
3649
e2fa
967c
968e
962a
968b
82d8
2828
22f5
221b
2273
22f7
b6ff
b6f4
9845
98db
982b
a87d
fdbc
6878
68aa
6833
ff4b
c5ac
c577
15da
354d
67f3
7741
c778
c70b
3dd9
b74b
8d44
9075
eddc
bd59
a747
94f5
adbc
1045
2f06
80df
80d0
cfda
7072
70f0
e4f5
6048
40d1
40d7
d4db
a44b
a441
bd3f
b523
52e5
4f8b
28e2
86c7
778a
6093
52c9
502f
bde4
bde0
31e1
9f3c
f6c6
9dce
f6e8
3ec0
0393
06d1
ea90
8525
c02a
2291
56dd
56df
a092
21c9
e8ef
4396
653b
63c1
b7c9
feca
14a3
14ac
12b4
c1c6
0da1
1a95
a0c5
68c4
fb66
fb61
1599
5d33
d2ce
405f
6292
fdcc
13cb
2f3a
38e8
3f34
3f31
eb99
33cb
b8e3
cd94
6fe3
903d
8da1
bd9b
fda1
aac0
1299
0d22
a89b
8ae7
eda9
2acf
92b5
e592
9a93
fd28
e025
e024
389f
1766
842f
c7ca
e1eb
f3ce
ed33
43ca
0b6e
44e9
4d27
d098
819f
e0a3
ad29
90af
bdae
8aa6
8d20
7519
d026
752e
752c
8de9
1fa2
afa2
ed10
a4a7
c4a2
dfa2
cfa6
bfa2
03ae
069a
0315
03ec
1722
17b0
155f
282f
2b1d
2d60
2699
2499
278d
36bb
3862
36ab
37a6
355a
4fbd
4bb4
42a3
430d
5632
5db3
5457
5f55
6469
63e0
6d69
7314
7460
7fbd
749f
7dba
841d
8217
9710
9db7
9785
a3b3
a80e
a235
af2e
a6a6
a46a
a2ae
a285
b3ee
bb14
b2a1
b49c
bb13
bf0d
b860
b214
b5bb
b3b7
b7a0
b7be
c756
c3b5
cd61
c45b
c315
c7e9
e312
ef15
ebe3
f7e4
f71a
f3e5
f836
0a1f
0232
0590
18ee
1c7f
1ccc
1bf4
6e4c
6e19
6918
0c34
0c9a
79f3
7945
7933
79c7
a9b3
a997
198c
193d
1915
7c84
7c96
bc2e
bcb2
4e25
9c66
3c2d
5948
59c7
09a0
39ac
3999
29de
2972
2959
29fa
293a
29cd
f9dc
f9d1
f911
f932
f9ad
fc06
fc35
ac2f
2c6e
2cdb
4c55
6cf7
6cad
6c94
dc89
99de
991a
7e26
cc46
ccf1
d924
8923
8958
8984
8993
8c17
ce02
ce4a
9e64
e922
e9b0
e993
e99e
e9c3
0e0a
7a72
7a8b
7aba
ec59
ec0f
ece7
1ea7
1ee5
4a3e
03d0
ee78
8e69
de4a
ded9
2a8b
be22
be27
5e33
ae70
ae14
ca4d
0bf3
0b5d
6a58
1a5b
1a83
dbd0
7b0d
fa6b
fa30
6144
6156
1641
c0fa
5586
dad0
ba46
baf7
ba2f
8a89
a10e
a168
41dc
114a
11d9
8178
f14d
f1ae
f187
3146
31d0
3107
e103
e13c
e1f7
714c
713f
c142
5b73
6b1e
6b74
6bd0
6b32
f346
2b88
3b45
fb8e
fb19
c64b
c61e
8b54
8b34
78aa
781e
abde
4384
13f8
13d5
0648
06ac
66fc
6658
2343
2388
7341
73d5
6384
e30a
e341
e3f2
e3d5
a3f7
b3ff
8683
865d
304b
1283
928c
f27a
d275
724b
a669
a6f4
e644
e283
a23e
b85a
b840
b603
b63b
98d9
4851
95b6
9571
d823
fd59
6840
0703
35f2
3544
d577
75f9
20dd
6755
0dff
57b6
f776
f70e
1447
4d6e
4d06
371b
374e
374a
370c
f47c
9f08
9fd9
9f4d
a771
2dd3
cd1b
947e
ddd8
afdc
241b
5d76
2fd6
bf0e
3f71
3fd8
dfd3
8f4f
a07e
a0da
cf74
64bc
6449
e47b
e449
e409
60f7
d07e
d0f6
c4d2
c471
b475
4f90
94a7
b768
51e5
3061
8d38
14cd
5595
ef96
7ac8
7acc
7aab
0885
9fe5
9fe1
148a
ce91
fd38
a019
5524
705e
4a9f
7ff7
7ff2
c024
9d3a
6aca
6ac2
80cc
b6e0
90ea
4391
6539
d8c9
a1b3
a53b
a032
1f94
a8c6
7191
9524
e738
9acd
76ce
d2e0
f732
e0ce
f05b
daa3
dec2
f8e9
8f30
a6c2
3052
9426
8591
ffe7
709e
c0c8
affc
25ec
3532
98cd
9f69
9033
c5e6
b19c
f8c8
979b
8aee
153c
0d91
af91
7f9e
7f9f
8020
08c0
3d98
dd38
4026
3896
a0a9
b0ad
e48c
76d8
fd10
41b1
cac2
689e
a8e4
a8e0
6f98
c198
72e5
f4c4
d897
9b6e
4d25
4484
2aeb
bf3d
90a2
67c0
62b2
673d
e03f
e064
c8ed
6df4
f2b9
3523
4aeb
b3c9
b3c6
8d1d
a4ab
84ae
f061
cba1
dba3
74a5
2fa8
0830
07b0
03b4
0f25
0fc1
0dbe
13b3
1404
1617
17b7
1bcb
1f56
1fb9
1556
1557
271e
246c
2404
2bbd
243c
27e1
2439
3695
3fb5
3507
32a2
3bea
3089
34f6
4207
47d7
4463
4257
4d6c
47eb
4696
57b4
5bed
57af
5362
5477
57be
52a4
63a8
6bca
61a1
7411
73b4
7634
7f17
7fc3
7d66
7f23
77ec
8465
8432
85bb
86be
85b7
800d
84b1
800e
93b0
9811
985d
9b18
9436
98bd
a6b3
a258
a4f1
bf1a
b413
b6b8
b4b8
b7ea
bdb7
b785
b20f
b8b1
c750
cf04
c695
c453
cd85
c7dd
c78b
c584
cf5a
c5a5
c5ab
c114
d215
dfba
d7e0
d216
dd66
d81f
e754
ed88
e256
e494
ef57
e0bd
f614
fbc7
f45a
f868
f8ad
f211
f4b9
01fa
0ad9
0a04
0225
02bb
0218
02c8
05f5
0521
0506
053e
18c8
1c3a
1c77
1cb0
1caf
69d0
690f
69af
69e6
0c49
0cd9
0c3c
0c8f
7985
512c
a9f8
a97d
1973
197b
19de
19f9
1970
19ad
199c
215f
7cac
4ef3
4e40
4ed7
4e37
4e32
aaf2
aa36
3c7c
3c21
5909
592c
593f
59ad
5996
0978
098f
09af
4942
3988
393f
296f
f97f
fc20
acb6
ac0a
ac28
aca8
ac9e
2cf1
2c87
4c79
4c8b
4c8d
dc6b
99e6
7ef8
7ebd
cc0f
d919
d926
ce85
9eac
9e5a
9e14
5c83
5c32
5cb7
b9f6
b977
b9e6
b9c0
e943
e9fa
e9ec
c97a
c90c
c96c
fe78
7afe
7ad8
ec6d
ec2a
ecad
ecef
1e21
1ed7
4a09
4a3c
4a2e
4a40
0342
0347
8e7e
8e3b
8e34
3e6d
3edc
3e67
de0a
be5d
be1f
5e26
5ea0
cafe
eaff
ea36
2ed5
2e56
0bf2
6a2e
db7c
db72
db5a
fadd
fab3
61f4
6134
5a4f
5a6b
5a47
5ad5
5a15
3a03
3af9
9a24
9a07
da3b
dab7
ba3a
8abe
b160
a146
a17d
8166
f171
f170
fff7
9171
91dc
9133
91f7
bb78
bb7d
e1f8
e160
25a9
257d
71d2
7137
7168
c14e
c1f2
c167
5bd3
f30f
2b08
2b04
2b5d
df5c
fb0b
fb57
c644
8bba
4bda
4b3d
d1dc
d1d1
d174
abd7
cb02
cb21
cb22
9b0a
9b8c
eb8c
6676
234a
23f9
730a
738a
63aa
635d
338c
a37a
a33c
b370
936e
88d3
862f
d6f7
306e
c309
c319
c2da
f2ac
f23b
d288
723e
65ac
65fd
f61c
3675
e24b
9646
a283
82f4
285a
b273
b274
4820
9546
45dd
3833
38dd
d855
d8f2
d87f
fd44
5841
582d
44df
ff73
c50a
0778
074a
15d8
3508
3571
850b
c82b
7506
504b
04aa
044c
a540
67f5
675c
17d9
6d78
7446
9d4e
5709
577d
27df
2703
2709
f74d
7d52
d759
47f6
4740
3749
907a
ed77
9403
dd7c
af08
af0a
1042
5d73
bf02
bf29
80dc
b04c
b070
b0d4
8f29
a044
cf76
707d
7044
644e
e41c
e0d3
d448
d403
d40e
c44b
a402
6598
e29f
facf
6f3c
dfe8
4192
306c
50ac
51ca
afe4
1d14
4aa7
f599
5094
5334
2ff6
20e2
7ae4
f537
8055
fa99
fd30
9e9e
86d3
d7c4
6ace
c2c1
90e8
5de4
1f9f
b791
4b90
0da3
eecb
f73d
209e
209f
1595
1594
6f66
f8e2
3e90
0893
a5e2
8f3f
0f98
3059
5ac2
8590
8e95
b42f
b5c9
fdc5
d6ed
33c8
1068
df30
6028
3dce
dacb
b199
44cc
85ef
62c2
652f
153e
c8c7
df89
d0c4
3d9e
dd30
402a
973b
8b9e
0fee
8ec8
8ecf
d6c9
5f89
d4e0
b891
cff3
0b69
5fe5
e0ec
e7c6
44ee
dd2b
d093
289d
aa97
9d16
7bae
d0af
3ff9
d194
853c
f1e8
66d5
f887
e1bd
70e5
70ea
b3cd
988b
4d1e
3ae8
c4a0
ad18
3516
3f6a
07f7
06b2
0d57
0788
1f18
13ea
1bc4
1213
15b9
2694
269b
2835
2565
2bb4
2db9
20bd
3807
372a
3582
34b3
4dd7
43b2
46b8
41ab
5fdd
5d0f
5d56
561d
5bc4
53a4
6db4
620d
60b2
77a2
88a3
8f52
8862
83bf
856f
85b1
878d
9663
9bc1
925f
9216
9699
9332
9236
9d67
91a8
94be
a3a6
a43d
a2a1
a41a
a316
a50f
a1a5
b72b
bf0f
b7b7
bf5f
b556
b4f1
c8a3
c814
c3b4
c3a8
cd60
c438
c8be
d2ad
ddb1
d692
d499
d438
dd67
ed0d
efd4
ef2c
e8ae
e1a2
e78c
e2a3
e8b2
fbcf
f719
f6b3
f664
f3ec
f757
ff5e
f7a0
ffb9
f7a4
f49d
0158
0ab0
0533
05b7
182c
1c08
1cd2
1c81
1b28
6e2a
6ea7
6e92
69ca
0c43
0c10
0cce
792f
79eb
79ab
5149
a9db
194a
192b
19f0
1987
21f2
2186
7c1b
7c03
7c64
7c13
bcda
9c33
9cb9
9cb2
4935
39fa
393c
396c
393a
39d7
395f
3987
293c
294d
2928
2993
f9f8
ac4c
ace5
2c17
2cad
4c29
6cb3
dc28
996a
999d
7e08
7efc
ccda
d925
d9a5
d995
89bc
8caa
8c43
8c86
cefc
9e7c
9e87
9e24
5c59
5cf1
b963
c98b
c932
c99b
0ed5
0edd
7a76
7a69
7a38
ec84
ec34
ec68
ecce
1e07
4ab1
ee0a
eef6
8ead
3e68
defc
2a2a
5ef3
ae0b
ae5e
ae1f
ca66
ea29
ea09
ea58
ea12
2e4c
2e8e
2eb1
2ee1
0b27
6a0d
1a03
1ab1
db89
db83
db0f
7b55
fa86
6182
5a55
1655
1689
160d
3a31
9a8a
da55
da7a
da7d
dab3
ba36
8a4b
8ad6
b11c
b12b
a13c
a18e
41f0
1147
8102
f1f5
f11b
f1d8
f1f9
f1d1
f15b
f12a
f12f
bb5e
3172
310e
31f4
313f
e13e
e127
71b6
713e
712f
c1ac
c104
c18d
6b4a
6b5b
f33c
2b38
3b0e
3b0d
fbd8
fb06
fbb1
c642
c681
4b81
d142
d15c
d183
ab5d
9b29
9bd4
eb7c
eb87
4343
43da
435a
668c
73d2
6306
63fa
6326
086c
835b
832a
e3d1
467e
4652
4619
467f
3341
33a9
3347
a36d
b344
93ff
9376
3241
3259
8826
86f4
d6f3
d62a
d640
d687
3076
1259
122a
d253
367f
966d
62df
62fc
28fa
282c
b629
b648
b27a
b26b
48f5
4825
95f4
a842
3877
d8fd
68d4
447c
150e
150b
156a
35f4
e5fd
1021
04d8
20f1
a576
a50c
9d5c
2779
f75c
14b6
c7f3
b7f3
4772
4775
9747
ed45
a745
a709
2dbc
cd4d
9406
dd7b
dd0b
54f5
10db
10f4
5d4e
6f71
2fd2
2f0b
bf46
bf40
df0e
b077
cf0b
6455
e476
60de
d0f5
4072
e041
f06e
f0fe
473d
17a0
bd33
25c8
25c6
fac7
1b63
6096
4f56
4194
50e3
3064
503b
4f2d
1495
11c8
11cb
5192
5fff
1f32
5096
f6c5
e89f
48e2
642e
7b95
7b96
7b9f
fd3d
c036
91c6
753e
7530
e8e7
109b
97cc
90cd
5e97
5e92
952a
c3c5
c3c2
5f34
ba9d
dec0
f79c
a5ef
c29d
709a
4057
8e98
8e96
6762
3034
fe98
e199
073f
2d92
9035
efa9
62ce
eaa7
0de3
1531
2ac9
af95
7f97
3733
27cf
dd3a
6ba2
26cd
a19d
b2c2
d59b
7df0
95e4
579c
2eca
5f96
6f85
5ece
5eca
a51f
72e3
72ea
8f89
c1bf
bbad
45e5
ddc4
beca
4e90
e061
d028
d0a4
07ce
1521
a88a
dd9d
f76f
d8ee
1f68
9061
cae1
26d3
dda6
f1e0
3521
a063
0d14
8d16
8d12
edf3
a76b
7768
30a9
ad15
8dfd
3fa3
82b8
fba1
faed
0614
049c
0fc7
0bcc
0f55
07b3
0fd7
0436
043a
1fdd
17f4
178b
1bc8
1690
146f
1470
2d07
2804
26b2
2469
277f
27a6
2559
3d04
3fc4
3444
37d4
3698
3235
3fb8
3504
381f
4765
458d
4493
445d
408e
4456
42a4
5417
5b17
57eb
5616
611d
658d
643f
64f1
7f07
73b2
73bd
7338
745d
78a2
7368
74f8
8638
872f
82ab
8bc5
8254
8b12
8562
8860
831f
8267
845a
8f2f
8618
869d
8db1
808f
9f20
9f12
941e
9816
94b3
9311
93a4
9555
a088
a5b0
a75f
a267
a3ba
a7eb
a28d
a5b3
b7b4
b23d
b7b0
b668
bf25
bdbb
b5ae
b285
c80a
cd04
cfc4
c20d
c4b8
c5b8
c787
c86f
c4bd
d367
d694
df1f
d81a
d617
dbeb
d33a
d5ad
e432
e8a4
e8b1
ff1d
f7dd
f22d
ff2f
f7ea
019f
0a4e
0a13
0ac3
028e
02b3
05ba
0507
0599
182b
1cfe
1bd8
6ed2
6eaa
6e56
69de
69f9
697d
6934
0c19
0c68
797d
79a6
512b
5132
5160
a99d
19bc
1971
196b
1977
1922
218f
7cd5
7c3d
bc6a
bc7f
bc99
9c41
9cd4
9c30
9cc9
aa5e
4208
4276
420b
4275
3c4c
598e
09ce
494b
492b
3975
2909
296b
2962
fcd0
fc8f
ac81
acd0
acd4
acc0
2c55
2c8e
4cc5
6c23
6c64
dc24
dc9f
99ec
995d
99e2
7ed8
7e5b
7ee3
ccdb
cc61
cc92
8924
8962
8cf9
8cea
ced2
ce65
9e0b
9eb1
9e3f
b96b
b93f
b9eb
b99f
e9a0
c974
fee9
fe74
fe65
7a44
7a8d
ec1e
ecbd
7685
4a03
4adc
4a31
0341
036c
ee1b
ee87
ee0d
ee32
ee3f
8e49
8ef0
8e0d
8e1f
de89
deed
2a6d
2a59
2a1e
2a6b
2a15
be1b
be74
5e46
5edc
5e0f
5e32
5eb8
ae11
aeeb
ca30
ea46
ea40
0b86
6a6a
6a13
1ad9
1a63
1a58
dbb6
db78
db0e
db3a
db57
fa5e
fa85
fa68
61aa
6135
5a35
3ad3
3a2a
da0a
da50
53f0
ba2d
ba07
ba32
8a6d
8a78
8a7c
8a81
b17b
b161
a14b
a189
a161
413c
412d
11fd
81fa
8107
9177
910f
e15e
e166
71f8
71d1
c1da
5246
6bd3
6b26
f329
f32f
2b21
2b20
2b35
3b41
8b71
8b3b
d17c
78fc
ab0d
9bf8
eb31
1306
1320
1377
065b
56a9
565d
2319
23dd
733c
83d0
3381
a3f5
d3f0
88a9
8866
86f9
862b
8686
d654
e869
c37b
f275
f25a
d240
7253
7275
f66d
f683
3658
e248
a243
a223
6271
6209
b8bc
b819
b655
b65c
b24d
f503
9866
95d5
95d0
45df
d8bc
d821
d85c
fd0c
58d9
07d3
1569
e5f3
e58e
85ac
c858
d5de
a50b
a577
1779
744b
9d7c
e70b
14da
77f0
c773
3ddf
8d7a
8d0e
bd5a
0f73
a7f3
2d71
ad4a
544c
df42
dfbc
1faa
1fdc
707c
70fc
70fa
644f
640b
e4b6
e406
60da
406d
c443
84df
28e5
1b6f
6099
8acc
419b
2f61
2f62
8d30
14cb
f1bc
5599
5737
54ce
b096
2533
31e2
7e9e
f5ea
56c6
da9c
7b9b
ce96
f01b
86d0
04e7
3099
3097
cd3e
c598
e53a
9f8b
6d9a
2392
a033
7190
5aa3
36cb
ba95
1acd
319c
ee91
21eb
f05a
86ed
68c0
20c3
5b9c
f8ed
46c9
5769
96c7
c290
d2cc
75c0
b59f
f092
0e94
eb9d
0b9e
fe93
b8e7
9ff8
df3a
8297
f8c5
e52c
0d9a
c8c5
16e8
16e9
8dcc
989a
3b63
adc8
e2e8
10c0
373c
d425
d420
7025
f0e7
2b9e
77c5
ede7
e1ef
fd1d
b2bf
c738
5f95
baa0
0f3c
46d6
43cb
0b60
74ce
8f87
7fea
cda6
c424
4489
4883
baca
c060
1aea
7516
dff3
91b2
b1ee
752f
a884
a52c
26d6
2f95
f883
f88b
b4e8
d0ec
2da7
9ae6
70eb
4d1a
abae
cd1d
b060
4ba4
4ba0
701a
7016
cba2
2df8
0716
080b
0f18
08ae
169c
1665
1330
1f28
22a0
2407
2f0d
2333
2491
3268
3117
4865
4665
4d81
4719
44d4
4fc0
48b4
5fb8
5691
5f23
57a9
5f5c
67dd
6404
6b17
65ba
7fb0
7568
7728
731a
7721
73ab
7dbb
728d
8bce
8818
881a
8f2c
8332
84bf
982f
93e7
9463
98a4
9f1e
97a7
9085
9222
af04
a7f4
ab11
abe3
a7b9
afc2
a307
bf1d
b614
b815
b7ee
b2d7
b45c
b0b7
c3e5
c754
c721
c338
cf2e
c7a0
c554
c1ab
df16
d8a5
d758
d491
df2f
dbc9
d6bf
d789
d112
d8bb
e25d
e836
eb17
e49f
e21a
e8b9
f777
f635
fbb4
f495
f117
fbbb
ff5a
f45c
f8b8
f8bb
01db
01e9
0a76
0a61
0a23
0aa4
18d6
1c6f
1cce
6e33
6ea4
6e99
69bb
19db
211d
7ca3
4ed3
4edb
4e3a
9cba
9c5f
9ce4
aa84
aae5
42f1
42d0
3cbc
0977
498e
4936
49b5
3974
39ae
39ef
293e
2957
f903
f9d4
ace9
acb2
ac9d
2c53
2cec
2c32
4c4d
4c74
6cf4
6c9c
dcfa
dcf2
dc32
9968
99b4
7e2e
ccd2
cca5
cce6
d964
8948
89ec
8998
8c7c
8c2a
ce5e
ce28
cee5
9e0c
9e11
5c78
5c31
5c12
b95f
b9b3
e927
e9c0
c979
c957
fe76
7a73
ece4
761b
1e81
0363
8e42
8efa
8eb9
8eba
3e5b
3e8f
3e07
de4b
dee7
be26
cabb
ea26
2e4d
2edd
2e35
0b37
6a7b
6a88
6a07
1a25
1a82
1a10
db39
db31
fa5d
61de
6154
5af5
5a3d
5508
55db
3a8b
3a44
3a24
9a33
dada
da8e
da86
da63
da8f
dab0
53fa
bab6
ba4a
baf8
ba5b
8a3b
8a07
4159
4153
418d
1130
113d
f103
bb70
e1d8
7121
c103
c13f
5bdc
528c
f35e
2b73
2bd8
2bfa
fb2b
8b2a
8b0d
abff
9b5c
9b25
9b07
eb5e
eb83
eb56
43de
4326
1355
6628
2342
2371
08d6
081e
83d6
e3fe
4682
3357
a3f9
a369
a32b
a328
a38d
b37a
b306
93de
d38b
d370
d356
8848
8839
d6aa
e81b
c32b
c2d3
c28a
92f3
9274
f2f2
d2bc
d273
7277
6508
a659
a66a
f6f9
3627
a2fc
a289
2871
22f3
b87d
b6fc
b66b
b253
f5f1
4842
487e
f87d
95dc
a847
3841
3839
581b
684b
85aa
8579
75bc
1706
9d7e
e70a
e770
27de
144a
14d9
7d4b
c706
c744
b77b
90fa
ed74
0f75
ad51
af43
af44
244c
24dc
6f77
5f03
8f7d
7045
60f5
d0f0
404a
404b
f0f0
8442
844b
9fbf
b521
faca
7781
6b98
8ac5
2519
54cc
54fc
78e1
22c3
22c6
55ce
9f32
3a94
9fe3
e894
9dc6
f6e3
6421
1fed
3028
c02e
6ac0
de95
7533
1730
239f
fec5
12bd
66c3
76cc
d73b
c057
faad
c3c9
eec1
f736
a0cf
64ec
c4ef
f8ef
0895
87c8
81c0
c0a1
8e9d
13c0
5dcb
3f3e
3538
15c8
85c6
85cf
effd
ad39
40a7
62c4
11e7
eda6
3b68
cf9e
b6c1
95c8
7023
702b
fd26
2733
273a
72c5
6a9c
2b91
cfe4
77c4
92e2
32ec
3b99
3b9d
5f8e
7df9
6893
5fe9
ad9a
72e1
a489
f03d
bf34
bf30
94c2
caa5
4e92
8532
ef6a
73c7
a6e6
e1b1
f0a4
ed19
ada6
32ba
5bae
5ba1
3aee
9017
588e
5aeb
72b5
3513
cfa5
dba5
74a4
d4a8
0495
043f
04f9
171f
13ae
17e9
2b14
2207
3635
347f
36b3
3b15
369f
33ec
3757
3d69
34b1
4211
41a7
5d07
5f28
5bbb
641d
6fbb
666f
6338
67eb
6bc2
67ad
6fc1
6f5a
7db0
76a4
7fc0
73eb
8207
8d0f
87d5
8f20
8256
878c
9217
9613
9412
97ac
9211
abb5
a46c
abb0
a3e7
a7b0
abc4
a434
a5a4
b410
b812
bdb3
b78b
b333
bf27
bd58
bbc2
b236
b435
c3e6
c0b1
c3ab
cddd
c08c
d33b
db15
d55a
e80b
ebce
e552
e7b7
e636
e8ad
e863
e7ae
ed67
e0b7
ff18
f364
f4b2
f2a4
f2a5
01a7
02d7
02ed
0532
05e3
05c5
18b0
1cac
1cb3
1b9c
6e7d
6ee3
6e95
69b6
69aa
6914
69eb
69c5
69cc
0c6e
0cb1
0cca
794c
79e8
79a8
515d
513d
a920
a963
a918
1929
194b
1965
19e8
2109
7cca
bc46
bcde
bc69
bc92
4e08
4edd
4e35
4ee4
9cfe
9c70
9ce0
9ce3
9ccb
aa2a
aab9
3c78
590e
592d
59d4
095e
0960
4903
49da
49cd
49c9
3910
3995
29f3
29b9
f9c7
fc6a
fc95
ac19
2cff
2c59
2cd7
2ca2
4c20
4cec
dc18
994c
9953
998d
9915
7e8b
d903
d969
d982
d98f
89d0
89a4
8999
8cd9
ce0a
cef2
9e2f
b9d8
b982
e92e
e9eb
e9e3
c9eb
fe4b
fe54
0e72
0ed4
7a6d
7adc
7a85
ec78
ec40
ecdd
ec07
ecc5
eccc
7676
7648
7639
7640
4af3
ee54
8ebf
3e32
debb
2abb
bedf
bebe
5e71
5ed8
aea9
ae57
cafc
ea20
2e52
2edc
2eb0
1a3e
db34
fa0e
fa15
6175
6187
5a6d
3a7f
3a67
9a76
9a6a
9a66
dabc
da61
ba26
ba0d
ba38
bab0
8a63
b13d
a174
4103
11d8
817e
81d5
bbfe
bbd7
3144
2508
71f2
710f
c1d9
c1d1
527b
525e
f357
3b40
df5b
fb28
c606
8bf4
d171
d18a
d134
7874
ab7e
cbde
cbd6
cbdd
eb03
eb75
432d
1387
6639
665b
736c
262c
08d3
e376
e3f3
e3fa
e3f4
4685
334b
b3fd
93d6
93fd
9357
d3df
d303
d34d
d354
d653
d68a
e826
30f2
c30e
f2aa
f20c
d2f9
a2dc
a22c
a26a
625c
622b
8276
2279
2270
b8d1
b875
9875
9870
9545
3870
fd4d
68f3
68fa
075c
e58c
c8a9
c8fd
7570
5079
674a
6749
6759
276d
f7f0
c740
3d78
3dd6
4d03
4d0c
8ddf
374c
37f8
bd55
ad7c
af1c
1078
107e
bfd2
8fbc
a0b6
a072
7f78
659c
5299
4f99
6b92
1d3c
4196
1498
149e
3fe9
eacb
f594
509d
d79e
7aa7
6059
3ec2
48e1
42c9
7296
da9d
c533
40c4
302e
04ea
4a97
edc5
ef8a
ef8c
7733
e6e8
553a
553f
c594
7d9d
279c
173a
a3ca
b53c
939e
68e6
bfe4
4b91
d059
d05f
e391
41ce
24c2
1591
83c1
576f
d2c9
3296
a022
1f8d
2f38
f098
22e0
0e9e
ad32
9d28
b1cb
b194
6016
919d
85e5
8aef
9aa9
65ca
74e7
bb67
58e6
e48e
a1c1
f1cb
35e0
06c9
f3ca
a423
b89c
f4cd
bbab
4487
e0ad
df67
90a6
2890
bac2
91ed
a73c
d0ae
dd11
26df
7485
9885
a4a0
aba7
406c
776e
84c7
3d1e
4bae
22b8
cbad
bfad
d4a3
0be7
0728
0f11
047f
0bbb
0439
04fe
1312
170d
123d
17ea
1456
17e8
2db0
2234
2665
2265
2690
250f
278a
24f3
2557
2789
3694
380e
3462
3f27
33e0
322d
363d
35a8
35bf
43a2
4f18
433a
571e
5612
56b3
5564
5f5a
6807
608d
6bc1
63e5
66a0
67e0
6f17
6fc3
6436
66ae
6f58
7614
74d5
708c
76bf
840f
87ab
8636
8f26
82ae
800f
96b8
9081
9564
98bf
94f3
a212
a815
af19
a5bb
afc5
a7b5
a699
a111
bbc1
b257
b6a0
b31a
bb17
b4b4
b111
b4f2
c725
cb15
cbb8
c089
d72c
d862
d69b
df13
d3a8
d3bd
d757
d117
ebb2
e61d
e7af
e08e
e3a4
e8a0
ff0f
f263
fbc3
f8af
f4bd
0161
018f
18ea
1b8e
1b1d
1be1
6e3e
69db
69e2
0cd4
79d1
791e
79bb
51d5
5134
51a8
a9b9
2145
21d4
7c75
7c2e
bc6b
bc1a
9c6d
9c49
9c2c
9cb7
9c9d
9ccd
aa7b
aaf4
3cd9
3c6c
3c92
59fa
5934
599d
49fe
490a
49dc
4985
3930
29bc
29f0
2984
29ad
29e1
fc27
ac2e
4ce5
6c72
6c26
6ccd
dcfc
dc20
dc22
9935
7ee5
d94a
d95b
d9cb
8903
8920
8907
8c7e
8ca6
ce60
9eec
9e58
9eb2
9ea8
5cfa
5c63
5cc0
c9b3
fe2e
fe89
fe86
fee7
0e58
ec5f
ec9d
76f9
7631
1e41
1eb0
4adb
4a2c
0369
03d7
ee58
ee8f
8e40
3e5f
3e62
de15
2a46
2a24
2ab8
be2e
5e1c
ae75
ea5a
ea57
ea5d
6a6b
6add
6a82
1a11
db8b
db3d
7b7c
7bda
61b6
6132
9a1e
da0c
da07
da38
5375
baba
a159
413a
1155
f1db
f140
911b
9129
914b
91d8
bb42
bb21
bbdd
3185
2573
715c
711e
c143
c121
c16b
c183
c17f
5bf8
526c
522a
5281
2b39
3bd7
fbff
fbf3
fbf4
c661
c682
8bd2
8bfc
8be9
4b39
4b5e
4b47
d1b6
785b
782e
ab2b
9b78
9b5d
eb2c
43d9
13d4
064a
0628
66ff
23d3
235e
63f9
636c
2625
26fd
2674
084c
08fe
083b
e31c
465a
a31b
a36e
a3d7
b3aa
b37f
932e
9328
32ac
3247
883c
d676
e866
30f3
127d
c341
d243
d28c
727a
72de
726c
7289
e670
36b6
36f9
96fa
a255
627b
8208
28aa
28d9
224a
227b
22f8
22db
b8fa
b85c
b866
b2d5
f5aa
f50a
f506
f5fd
48ac
4831
a87f
45b6
3852
684c
ff45
ff75
c543
c5d3
c545
c57f
0772
354b
e57b
e5d4
c840
b54f
b583
0446
a566
741c
2778
277d
4f4e
77fc
c779
c709
3d45
4d0b
b75c
b775
47ff
9778
977a
37bc
0f6e
9f73
cd76
cd6e
cd59
ad77
afbc
10f0
6f40
6f7f
bf77
80d7
8f7c
8f0b
1f08
70f3
644c
60f8
60f0
f0f3
f4f9
07e1
9fbb
b524
4552
51e1
efc6
efc0
b5eb
4da6
1034
5ffd
f59b
bdee
7ac7
7d3a
bd61
bd60
3ec8
aaa7
92cc
3023
c03f
40ed
8524
56da
b6e2
de90
e537
a3c9
959b
eb69
eb64
2aa9
2aaa
b53a
c1cc
a2e4
a8cd
c093
b793
4dcb
a6c7
5aca
1f85
b5c1
38e0
eb92
98c9
b8ea
e88b
b190
a89d
3dee
92b3
c6c5
219c
3d96
fd22
e022
5d14
a0a4
cdc1
81ea
b0a2
2a93
0fe8
c485
a1c3
f3c0
e6cb
5d9f
baa1
0f31
47c2
a8e8
54a3
ad95
4d22
c2e5
c4c8
c4c0
d09c
ad20
6b6f
7525
1522
96e5
f2bd
c513
e1bc
ed13
32bb
daef
d1b4
588d
5f64
82ce
abad
8df8
22bf
072c
0f16
0807
0444
072e
0d8f
0816
08bf
083d
1f1a
13b2
141f
16b9
2312
2f15
26b5
2bc8
2860
2693
24b2
2d67
2f59
3fb0
3232
3287
33a8
3d6a
4f16
4410
4754
420d
477f
4267
43ba
5784
5728
5660
5860
5699
5f5f
64b3
7463
7f18
7474
7f27
749e
8765
8b17
9784
9836
93b1
a40f
a6b8
a3b8
a5b1
afb9
a4b5
a00f
a0b5
b507
bb1d
bf2f
b5a2
b1a5
c808
c71d
c713
c46b
cbe1
c282
c5a8
c7e1
c8bb
d41a
df11
d3ba
d46a
e461
e717
e630
ed5f
e238
e4d0
e704
e7e7
ef5f
e00e
f218
f818
fb11
f618
f3a4
ffc2
f28f
0175
0a4c
0264
054b
05f8
1842
185d
18b2
18cf
1cf4
1b4f
1bf0
6e4e
6ed6
6ecd
6942
6994
0c5c
7971
51ff
51a0
a903
a9c3
19f6
1985
1990
7cb6
7c72
7c54
bcf8
bc1f
4e4f
9c42
aa53
aa8c
3c09
59b8
0903
097f
09d4
4940
492d
3979
3970
3918
2945
29b3
f9f2
f92e
f92d
f95d
fc2a
fce3
ac0e
ac3f
2ce7
4cdb
9956
99c8
cc24
d96e
8c1f
ce0b
ce74
cef7
9e1f
5c44
5cb5
b949
b9a4
c911
fe8e
7ada
7ab3
ec3d
763e
1e08
1e26
1ee4
4a7d
033e
ee57
eee0
3e78
3e77
de24
de67
2a3c
beec
5ed9
ae7a
ae36
ae67
caf3
ca3c
ea7c
ea0c
2e54
6a38
1af1
1a8f
5ad3
5a89
5a81
5a64
16b6
1643
1647
162d
c078
3a21
9a41
9a2b
9a44
da46
da8b
8a42
b1dc
b147
a145
a134
4124
1179
812a
8154
910c
bb0a
3168
256e
71ff
2bac
2b5a
3b2b
3bf7
fbd9
fba9
fb85
c60a
c6f4
4b59
d179
7839
ab19
ab8f
ab0f
cb23
eb42
4358
134c
6619
5648
7327
6340
2681
8340
e32b
461c
3373
b36c
934a
93f8
9356
88fe
8833
868f
d64c
d620
12aa
c3f5
c35e
f225
d2da
6571
65f8
65f2
a63c
f673
e6fc
366e
a288
a25e
28df
28d8
b856
987b
9844
f8d7
a8f0
45fe
4566
d840
58d8
446d
0744
150a
c87e
c831
d561
d570
750e
50d9
04b6
04d2
0443
6d7b
6d77
5748
7d78
774c
77f2
3d7e
b749
8d46
97da
f40b
9f7d
5473
6f44
bf73
3f21
ef4b
efd8
704b
6471
607e
e0d1
e0f4
f07b
d445
c4bc
847c
a4f5
659a
17ad
07ee
51bf
7ec5
1424
2de5
419e
4f2f
11c6
3781
253c
4ecc
7aa1
7d38
20e9
20e3
0395
729d
da92
ff8a
06d3
92c4
ea98
60c9
04ed
ef83
e6e9
c59d
90e4
173d
109d
b53d
97c4
a53d
803c
68ec
c09c
35cb
9521
e734
4096
c055
0da6
eece
12c5
1acf
1a97
1a9f
e0cb
9dab
f792
0f99
5acd
859a
9de8
a02e
81c5
fdc1
f09a
22e6
10ac
5b68
fe92
139a
d53d
b8e5
9ff6
df3c
b022
24a6
e429
16cd
b01d
08c3
08c6
3739
65c3
8393
839f
8ff7
8f91
6481
d6ce
35ee
36ed
36ec
d59a
5d97
4d91
b2bb
0486
5796
2ecb
46d0
43cc
a51d
e7c4
72ee
44eb
bbaf
f03c
d091
1ae8
91bf
d19d
7da5
f76a
96ea
6d27
daea
aba1
a2be
82bf
fba5
b06c
cfa9
3df7
22bb
2dfe
2df4
06a8
0868
0696
08b1
1367
1f20
1f0f
175b
175e
1f27
11a8
27bb
281d
26a1
2fcf
278f
24f0
35bb
3470
38af
3867
345f
3d8e
34f8
43e8
47b0
4562
475e
4618
4335
4d65
478f
40b7
5fba
5f19
5fc0
5fc3
6be7
6806
6507
62a4
655b
761a
73a7
7415
746a
7be4
8431
8fb1
82a8
8690
81a3
845c
8832
96b0
981d
963f
95a0
9db1
98a7
a224
a838
a836
a08e
a78a
a63d
a7a0
a7be
a78c
ad67
b765
b41d
b224
b69c
bdb5
b4b3
b7e7
b43f
c464
cbce
cfcf
c5a6
d58d
dbb0
d804
d71f
d664
d7af
d7a8
d4fa
e4b0
e811
ef24
e812
e3b2
e08a
e3e4
e495
e5b7
e0ba
e4bf
f7bb
ff1f
fb10
fd61
f4d4
fbc8
fd54
f565
f235
fd60
fdbe
01b8
02f8
0529
05d1
052d
059a
188b
1866
1836
18c1
6e22
6ebd
6959
692a
0ca7
79d5
510b
19d3
1969
21aa
218b
7c8b
7cc4
7cc8
bcd5
bc0f
bced
bce1
4e3e
423e
5957
0949
0969
0956
493c
4928
2924
f9e9
f9d0
f9b5
f9a4
f990
f9c6
f995
f9c8
fc7f
fcca
fcc0
ac8a
ac07
ac64
acef
ac93
2c7c
4c28
4c24
dc83
dc87
dcc6
99f8
9961
9994
99c3
7e55
7e77
ccf6
cc91
d90b
d930
d9ad
8925
89ea
8cde
8ca3
8c95
ce04
9e33
5cb6
5c64
b9f5
b975
b919
b965
b9a0
e9bc
e92a
e98c
c985
fe3f
0eec
0e36
0e60
0e18
7a64
ecba
76fd
4ae9
034c
ee88
ee1d
ee18
8e61
3e09
dee6
2aba
5e8f
5e18
aee5
ea4c
eaf3
ea21
ea34
0b7d
6ab2
dbdf
db49
db84
fa8e
fad7
617c
5a27
5a6f
1654
c075
3ab0
3ab8
9a78
9a57
da1b
535a
ba7a
ba21
ba6c
ba20
8a69
8a67
b141
a179
118f
91d2
9186
bb39
bbfd
bbf4
310a
3186
3124
e1d9
e18c
e123
2543
258e
71f3
f323
2b78
2b7a
2bda
2b8a
2b26
3b79
fb43
fb3c
fb2c
fb74
c67b
c643
8b5b
8b86
4b46
4bba
d175
78d3
ab71
abf6
cb3f
9b8f
eb2f
4325
4320
1346
13f0
0679
0631
23f1
7328
2673
082d
8309
838b
e383
e387
33ff
b36b
9325
3271
d3f4
8849
86b6
d6fe
d6f0
d68f
e82a
127b
12d6
c2b6
d26b
7221
7288
6586
65d0
65dd
f646
3689
363b
e2f4
a226
6247
28f9
2866
b246
98da
982a
f87e
9586
a8ff
a84a
45dc
4583
3828
d8f8
6859
c570
1576
1545
c866
b5f1
a54b
a588
1703
6daa
74bc
7443
9ddc
87d8
144b
777a
c77e
8d71
974a
bd47
cd55
9409
5d09
6f0e
2fdb
80f1
df72
b0f3
7079
60f6
d479
c4b6
b2ef
1b6d
0dc9
5037
bae1
5195
afec
b055
55cd
d794
3a9f
4ec4
7e9c
9dc3
ff3c
7ae8
ce93
ce97
ea9c
e011
2d1e
c59e
a091
55e2
21c1
9596
439c
d8c3
a1be
c39b
24eb
8037
e737
04c7
4092
76cd
4b95
eeca
be9f
9daf
daa6
ab94
ab91
6f69
f793
5a9e
9fa6
46cd
8f3e
04a7
96c1
c298
8e9e
38e6
042e
353d
5b66
85c1
1394
eff9
3dcd
601e
85e9
45c0
342a
902f
8dc6
7795
64c4
adc5
10c5
373f
b6ca
f48e
d42e
1762
8424
c011
c7cf
b0ab
98ee
98e7
35ea
a194
c734
a426
a42d
b89e
baa4
e092
54a8
7395
7fe4
88c7
41e9
448b
851e
bec7
2893
289c
cde0
81b9
caaf
9b96
e1c1
7ba0
42b0
b1e0
bd24
876e
bf8c
d76c
ef60
2f98
82e8
9ae0
8a96
adf4
b3cc
3aea
5df3
8f69
776a
ad13
2883
b064
0818
0814
1268
1613
15b2
2fc4
26a4
2467
2711
2507
2267
2704
27a7
3bc5
3411
33e3
3611
3438
34f4
30b9
34f1
4018
4088
449c
4587
4d88
4f1e
47af
47ed
44b2
4d67
48b1
5007
5754
566f
5bc3
58af
55b2
5560
5785
55bd
678b
6230
66a7
6264
6086
68a6
64bf
74b0
7610
766f
7bc3
72d7
7fc2
8fa1
8718
86a0
8714
845b
8456
845f
8436
9367
970d
9704
9282
9dbb
ab12
a3a3
a612
a721
abb7
abc9
a085
a4b2
bd87
b204
b616
b4f6
c8a1
c4af
cd87
c7ee
c75a
c335
c496
d461
d70f
dfc7
d00a
dbca
d7bd
dd58
d699
d3b8
d560
d5a4
d439
e3ef
e430
e719
e617
ef2d
efbf
f463
f257
ffc0
f6a5
0572
05f2
0523
1873
1827
1b0e
6e5c
6ec7
690b
69fa
69dd
696f
69e7
0c26
79f4
a97e
a946
a9d3
19eb
2107
7cae
bc57
4e2e
4e86
4ee6
9ca3
9c9e
aa0a
aa39
aa64
4266
3cb4
3ca7
3cee
3c93
097c
09db
0933
09ad
49be
49f4
49c1
3915
29fe
f9bb
fc2f
fc14
2ce4
4c4c
4c34
4caf
4cab
6cd9
6cf2
993b
998f
99b2
ccb9
cc97
d9b6
d91d
898c
8c0b
8cca
ceb8
ce13
9e1c
9e82
5c79
5c04
b989
b9cb
e9c9
c909
c983
fe2b
7a89
ec3c
ec2f
ecea
7604
1ed2
1e19
1e15
4ab2
0373
ee72
ee85
8e21
8ef6
8eac
8e0f
8e15
3e7c
3e3e
3e84
3ea5
de20
2a27
2a1f
ae2d
ae87
ca50
ea48
ea88
ea54
ea84
eab2
2e43
2ef8
2eb3
0b3b
0b25
0b26
6afd
6a87
6a68
1a5a
1ab9
7bd4
faff
fa28
fa3f
6148
6128
61f7
1644
c046
3a2b
3a82
3a8f
9af1
9af2
9a15
530c
ba0c
ba8e
8a76
8a61
8a20
8ab1
b187
413e
4158
116e
11d6
1133
1140
118d
815b
f11c
f139
f15e
f164
bbdb
bb3e
bb3a
316c
3165
e142
e173
e17a
e15a
e182
2541
256b
c1f6
520c
6b25
6b07
3b48
fb04
c621
8bac
8b8d
4bf5
4b0a
4b8f
4b38
d10e
d181
ab46
9b19
9b8d
ebec
438e
066d
065a
5673
5627
73f9
7381
6308
6378
6322
336e
33f4
a3d8
a38e
a386
b382
9320
d290
d65c
1206
c308
c221
c22e
f23c
f220
d266
657b
a61c
a62a
a607
e203
9669
960f
a239
222b
b828
b623
b2f9
b20b
98fa
95de
95f8
a84e
a8f8
a86a
457e
458e
4570
d842
d84b
d845
fd40
58a9
3543
350b
d58e
b5d8
17d8
0d40
74d6
5759
e71b
270e
8755
f752
f745
3d1c
8dde
97d9
0f49
a708
2daa
2d74
cd0b
adf5
ad76
dd6e
dd72
240e
5d7e
6f72
2f76
5f7e
b0d2
b045
8f48
cf21
607b
d0f8
c46e
840c
25b4
339d
6f3e
5552
7783
b0e0
4f39
4f37
51ef
4da7
0ba5
f1b8
50bd
3782
c1ee
1f3c
31ec
d792
5332
e2c7
9fe7
54ed
8735
9dc8
7b90
ce9b
fd31
a017
b732
ea93
7d2a
93c7
60c0
cb69
3098
ff95
c023
a7c9
553e
7d95
80c7
7536
1091
23c2
63c0
37ce
a8c1
5e9e
5e94
e05e
e057
c3cf
8b6c
80e2
1aca
d2e6
64ea
daa5
20cc
d3c5
d3c9
d3c7
d3c6
5d3f
1ecb
04a9
4012
48cf
6194
353c
5b60
bd9d
fda7
fdad
b4c5
3aa6
3aac
9026
11e2
e42a
1530
16c5
64c7
08c1
8898
e59a
d429
d421
34c9
4b6d
c7c5
2b9a
77c7
6489
76d2
b1b5
d6c7
3f91
5d23
f3c3
cff0
6f88
ad94
e7ca
58c8
58c1
a483
f035
3da0
bec9
bf95
8aad
d0a2
dd1a
caeb
dda4
16da
32b5
32b7
dae1
f06b
a2b3
288c
fbab
c2ba
22bd
2df3
d4ad
cdf9
0be8
08a7
03b8
06a3
1fb0
15b0
15a7
121e
2865
2fc7
2756
2416
2836
2494
27ef
2857
26ad
2498
361a
381d
3d07
340f
3d56
3854
3b18
30b1
3565
3db7
4667
4815
4565
47a7
4434
423f
5468
5265
5204
5470
58b2
67ee
63bf
6696
6d84
64bd
74d4
7757
7004
7334
75a6
870f
8725
8490
87b7
8262
8499
87a6
8438
8f2a
975a
9204
9bca
980f
956f
921f
9fcf
95ae
9d68
a824
a786
bfa1
b811
b7e4
b30f
b331
bbea
b438
b5b9
c4d5
c7ab
c664
c618
cbc4
c7a9
c009
d7b4
d237
d726
d72d
d698
d568
ddb4
db17
d084
d7e5
d43a
d7a4
dd6f
e72e
ef19
ebc3
e2d7
e26f
e834
e0b3
f2a2
f8ba
f438
f222
02f2
0539
0592
059c
18b3
1894
1897
189e
1c09
1c7d
1c74
1c16
1bd9
1b74
1bb8
1b98
0c5e
79aa
79e1
516c
51d7
a925
21f1
21a1
7cd8
bc3d
bca4
4ed8
4ed6
4e82
4ea6
aa81
aa24
4242
42f6
3c42
3c22
594f
5974
5958
59a2
09fe
0909
090e
09a9
490b
49c8
3960
29d9
2975
2944
292f
29e0
29e6
f9d3
f969
fc0b
ac34
ac9b
4cd7
4cce
6cd1
6c3e
6c8a
6c15
6cc0
dc4a
dc88
99d3
9983
995f
99b5
9910
7e2b
7eb8
cc1a
cca4
cce3
d9dc
d977
d9be
d9d7
896f
5c58
b9f9
b927
b9b2
b9e0
e9bd
fe7b
fe79
fe72
feb3
fead
0e75
0e2b
ec0a
ec89
ecbb
ecc8
7603
1ebc
1e2d
4a59
4ad1
4af7
0360
8edc
3ead
de8a
2ab3
be43
be69
5e11
aeb9
ca2c
cadd
ca04
2efc
2e69
2e47
6ab8
1a74
1a28
1a1d
1a3d
dbf9
dbf6
db28
7b75
fa70
fa5f
fa14
6172
610b
5a7a
5ad8
163c
16fd
1623
16f0
55bc
dadb
5371
bab2
b175
b124
a123
41d8
1176
110c
1119
f18d
918d
bbf5
bbec
bb2f
7106
713b
c10b
c1f7
5bfa
5b7f
3b03
3b0c
fbdb
fbb9
c653
4b82
d16c
d1dd
78f6
cb53
cb2d
cb04
437f
435d
13de
13dc
6629
665f
5633
6371
268a
2626
087b
08d8
8353
832f
e347
e37f
3369
334d
a31e
b325
d38d
882e
8655
8621
e8d4
1288
c245
c239
f20a
f2db
72f4
f657
3619
e2b6
e253
e288
e2d5
621b
8246
8223
284a
2275
b83c
b81e
f588
f575
4870
457f
3879
385b
58dc
c546
35fe
e5f2
8574
c8d6
d543
d5ac
b576
b5d3
b54c
046e
a569
a570
0d59
6dd1
7441
57d3
e708
2759
7d0b
d77a
c749
3ddc
3d74
4dde
4d09
970e
f4f5
bdb6
bd75
bd5e
9f1c
2db6
94d6
afd8
5d74
6f0b
bf4a
b0d1
b0d7
34ff
a0d5
cf4a
70f4
6446
e46d
40f9
7fda
7f40
d44e
b47b
b4d6
473c
a4aa
a47b
25b1
5294
fac9
2de6
50ce
8ac8
51ec
2f6c
259d
67bd
5034
afe5
378b
7aa2
20e7
42c3
805c
7f89
04ec
ff90
d7c8
a0e7
e6eb
08eb
90e6
439e
b7cb
90ca
38c2
bfe3
a8c7
36ce
9539
1e94
86e3
a79a
5b9a
5b9f
ab96
decb
d3ca
d3cb
f5c6
5a9b
a6c0
cec4
ffeb
7090
2f3c
f090
ade7
0e91
25e6
2dcb
a398
a392
1064
b8e9
073c
cd90
ad31
b1c7
40a0
e794
44c4
24a4
4031
e4e1
9898
af94
adc4
b6c9
2192
2734
f2ec
2a97
0fea
e1e8
80a2
61e1
b1b4
30cd
d598
a296
fd18
5d92
b2b2
b89d
5f97
e095
43ce
54ab
76e0
e7c5
e7c7
8f82
f021
d89f
452e
0769
a48d
376b
c42b
8514
bf33
e0a5
ad23
bac0
81b4
caa2
9b90
4e99
8d23
91b4
96e8
688f
ddae
9ba0
c519
70e0
8d9f
a06a
84a4
82b0
7017
8fac
cba5
0808
08b9
0556
17dd
1704
1415
1f22
15a2
280e
26b3
2bee
28ad
243a
2497
2d8a
323d
3f12
32a6
3f2e
36a6
3bc2
3fb9
38b7
300b
46a4
46b5
4bc8
4584
4785
44f2
5765
5663
5fc4
5634
55ba
6407
6615
63bb
6d5f
66a6
6863
6691
611f
780a
7218
77b1
7beb
7636
7699
7d86
8316
87bd
88ab
8236
97bb
9bcf
9f26
9f2e
9d63
9691
af16
a4d5
a698
a3b2
a6a1
a31a
af17
a364
a3ea
a7a5
a498
a4b1
b754
bfbd
bbeb
b7ad
b5af
b00d
b557
b2a5
b0b4
cf07
c5b0
c3e8
cb12
c493
c3e0
cfc1
cfc2
c00d
c1a7
df1a
d444
dd57
d0bf
d1ad
e41d
e7e4
ebcf
e458
e727
e081
e2a2
e204
e5b4
e7e5
edb9
e438
e85f
e4fe
f413
f721
ffcf
f087
018c
0a3f
02d6
057d
1b47
1b58
1b16
1bed
6ef1
6e9d
0c79
0c81
0cbb
79dd
a9bf
a9e0
a9a4
195e
19dd
2173
7c55
7ceb
bcfc
bc39
bce2
9cab
aaf9
4271
3c72
3c11
3c9f
3cce
592e
5962
59ce
09a2
09e0
09c2
49d0
39d0
391f
39a3
39c5
294b
29db
f942
f9f1
f98f
f90d
fcd5
fc65
ac91
2c92
2c98
4c97
6c08
dc29
dc0d
9931
99b7
7e59
cc4c
cc69
ccdd
cc8f
cc93
d95e
d96a
d93d
d9ea
895e
8c5f
8ce4
cee1
9ea0
5cf5
5c55
b9bc
b929
b9ac
b966
b9a5
b991
e967
e935
c981
c944
c97f
c995
fe7d
fe8f
fee5
0eff
0e76
0e20
0e38
0ea8
ecd3
766d
7658
7657
1e4b
ee09
ee31
eea5
8e0e
8edb
8e3e
3e75
3e6c
de78
de2f
2af1
2a12
be3b
5e03
5eac
5ef7
5e04
5ee3
ae45
ca4c
2e08
2ed9
2ef2
2e2b
2e77
0be9
0b85
1a73
1a6c
1a7f
dbfa
db3b
7bfe
fa10
5a41
5a57
1673
5576
5573
554a
557a
5581
3a08
3a0b
9a45
daf6
53fe
8a84
b1f0
b15d
4165
11db
113e
8181
81d7
f17c
bb8b
bb8d
31d1
3167
e15f
2575
25f7
c1d8
c1d4
5b54
5206
2b2d
fb59
c648
c63b
8b78
8bfa
4b86
4b58
785a
abd8
ab40
cb37
9b75
9b22
eb09
43fc
1308
6686
5688
5682
232a
2323
2641
2688
2669
262b
0879
08f8
83f3
8361
8325
835f
e30e
e374
a35b
b321
3248
3206
d295
d3ff
d35d
8684
e829
e87b
e8f2
e828
124f
c37e
c31e
c38a
c243
c28c
f273
7231
65d5
a66e
a65e
a6f7
e64a
9603
a21c
a22b
a274
28de
b679
987e
98f6
9877
4589
4563
3848
38f3
38d9
3823
4455
ff78
157c
356d
e5d3
e5dc
85da
8506
8570
c870
c8f0
c874
b5db
b540
04d9
a5d2
a5aa
67bc
e7fa
2748
8753
87db
f77b
1445
7d0c
7ddb
4f7d
77de
770e
3d03
8d1b
4706
97b6
bd08
0f4e
0fda
cd5a
ad5e
544d
2452
5d5c
6f4c
bf7d
df78
df7b
5f0a
5f77
a071
1fdb
e447
d0dc
d0d0
7f70
f0f6
f0dd
b452
b40b
b489
706a
e290
51ee
4da0
a6de
8d39
6d31
4f2c
eacc
54c2
1f34
4aad
f59d
22cd
9fe6
f530
4ff9
ea95
ea94
ea91
4a9e
ff91
bdc3
a0e3
2d13
5539
2290
eb61
4394
e5c0
6aa5
506c
68e4
66c6
4b92
0da7
8b6d
1ac3
bb9c
551d
e4ad
f797
0f9c
329f
ffe0
38e4
3f38
bffa
15cf
3d3f
9f65
6fed
8dac
eaad
eaa0
3aae
342d
eda3
379d
9893
779c
af9e
ca91
e2e4
e2e7
c6c0
b031
d6d5
65c2
8397
f528
9735
8b93
5d19
81e2
f2e7
f2e2
6ffc
a2ce
61ed
b1bd
8ecc
26ce
a420
b89a
cff4
95e9
eae1
a8e3
72eb
d1cc
96d4
c42e
d2bb
0fa2
bac5
4e95
a739
cd23
44ab
b1e6
b88e
bf8d
7da4
853f
1fa8
5fa2
f76b
afa8
2f9a
f1ed
f2ba
352a
eba5
4ae7
9aeb
b3c3
bf68
388e
faee
cf67
74ac
0860
06b3
045d
069f
0477
08bd
04f1
1fc9
1477
1fc1
1f5f
1fc8
111a
23ed
2808
2f12
2434
2495
2d65
33af
3469
3432
3493
37b3
3494
3d64
31ab
4694
4568
48a4
4827
4d8a
5fcb
5bcc
5fb2
57ad
5fc1
5236
500b
6474
600c
60bf
73a6
7726
7724
7560
7db7
7bb3
7d67
75a5
7555
8bc0
8724
877f
87e0
8222
81a5
9bef
9410
9314
9f1a
9007
93a8
9690
9637
a3ee
a444
a23d
afca
af0f
a7e3
a7e5
af59
a557
b665
b698
bbcc
b7a1
bfc5
bf2d
b470
b210
b49f
bfb9
bf59
b0b2
b00e
c11d
cf16
c8af
cd6f
c4f3
cf58
d335
d782
d5bf
d114
e007
e813
e568
e711
ebed
e5b8
e115
e4f9
e5b5
ffbe
fbe2
f1a2
01dc
0a08
0a48
05ff
0515
1c8b
1bfa
1b2c
1b2f
6e18
6e9b
6989
69ae
69f4
69b5
0c14
7947
5163
a911
a92f
1935
2148
2159
216b
7caf
bcd0
bc54
bc9b
bcc8
4e3f
4e17
4ee2
9c11
aa11
425b
3c4e
3c7a
3c7d
3c40
3c30
3ced
3cc6
59f8
59d0
59a8
09c7
49ac
49ce
39b9
29a9
f939
f919
f9a5
fc76
4c89
4c77
4c56
4c27
dc1d
99b1
99a4
7e6e
7ef2
7ea2
cc2e
898b
89bf
89c8
8cb9
ce40
9ed9
9e35
5c3a
5c2f
5cca
b908
b935
b91f
e96c
feba
fed4
fea5
fee6
7a5d
ecfe
ecf6
ec67
ec17
7675
0359
ee5b
eeb1
8ef1
8e58
3ea9
3e37
3eb0
3ee6
de21
de3f
2a6e
2a38
be7a
be0b
be11
5e0a
5e2e
ae4a
ae39
ae19
aea7
ea5b
eab9
2eb9
6af9
6a09
1a4c
1ab7
db33
db81
7bfc
fa0c
faf1
6142
5add
5a14
162f
c0f2
5577
55f7
3a05
9a2a
9af7
9a1f
dafc
536d
537a
53a9
ba22
8a4e
8a86
b11b
b1de
b121
b1d6
b153
b1d7
a169
41f5
4141
4126
1156
1136
bb41
bb77
3137
251c
2544
c145
c18c
5b3a
5bf4
52dc
524d
6b58
6b5f
6b3d
f37d
df52
fbf6
fbac
fb36
fbd4
c6f0
c627
4bfd
4bbe
d1db
783c
ab44
9b70
eb52
4356
1359
130b
0686
060d
668a
6677
5655
23f3
2341
230b
7325
7370
63f5
63fe
0844
4676
4658
a347
a387
321b
3246
886e
88f9
881e
887d
86ac
e8dc
e85e
30d7
12fc
123b
1220
92d9
928e
724c
72f1
656a
a67a
a649
f6b6
f60c
362c
2847
284d
b84d
b656
b247
f8db
f83a
a87b
d8d3
44aa
440e
c54a
07fa
c8bc
d549
b5aa
5047
50fd
670a
e7bc
f7bc
d770
c70a
4d4f
4d7a
4d7f
b7aa
8daa
8d5a
47d8
9755
97f0
9042
90d0
edff
a775
2d45
94b6
ad75
1077
244a
6f47
bfda
8faa
a06d
a07a
e44a
60fa
d078
40da
4070
7f7c
d44a
b47e
a473
66e2
6f31
778e
2f67
14f8
b5ef
252e
5023
0ba4
f1b2
efeb
5394
b095
7881
c1e1
2539
9fef
e89a
0392
7de4
9e9c
9f9f
7b6e
7b65
773e
773c
d7c7
e6e4
9d39
b6e9
b6e1
c2ce
7539
9f8e
5de0
e5ca
e5c1
b538
90c6
bfe6
d4c5
4b9f
e6d6
e6d1
80e5
b0ca
ee9f
f73b
2090
fb6d
5b99
4dca
5d3e
9fa2
a6c5
87c3
ffe6
7096
1f88
0e90
a391
85c5
073a
9d2d
829c
62c9
75ee
0d24
e4e3
3791
2acd
b019
20a2
adc7
b6c4
d6dd
7022
65ce
a4ce
cdc5
cdcf
fd9b
2b98
71e5
b1b8
35e2
eae3
54ae
7032
8510
2ae3
289b
ed9c
91ba
2f88
f76e
f767
66d0
d518
3526
32b1
879d
edfa
5da9
8f65
84a5
9483
2881
3ba3
c2b5
6d1f
cbaf
cf60
0d81
0724
07b5
083f
0787
0499
07a8
0555
16b2
1612
1721
1bc3
1560
155d
2218
280b
2fbb
27bf
2474
2be2
3d21
350d
3812
3be3
3723
380f
32ae
37e6
3d68
38b3
411d
469f
4bcb
47e7
5812
53b2
5715
53eb
5008
5d62
66db
6717
6310
6468
6317
62af
66a1
6081
62d7
6f27
6f1e
67a2
65b2
6dbb
6dbf
655e
65bf
772b
7086
785f
8232
87e2
87be
8be5
8009
9be7
9462
9257
96a1
94dd
9693
946f
9db8
9f25
9f5d
a3ed
a6a0
a47f
a553
a30f
a6ab
a7e0
a582
abe6
a2a3
b46c
b3a5
b72e
b81a
b721
b365
b08e
b864
c360
c781
c254
c41f
c3b1
c474
cd83
c3b8
cd8c
c49f
c55e
d219
d61d
d75b
d867
e72c
e63f
e75e
e33a
e6ba
e788
ebb3
e83d
ffa1
f224
f7ab
f69b
f7b9
0a40
024b
1874
1cda
1cbe
1b27
6e16
6ee4
693a
6985
6915
0c7d
0ca3
51f5
5133
518a
a993
1920
19e0
21d1
216a
7cb1
bc1e
bcb1
bc56
4e6a
9c6c
aa5c
aa8e
aae8
3c2e
3c8c
0985
0914
09e1
4970
4938
39a5
f91d
f99a
fc4d
ac08
acf0
2cd0
4c0e
4c3e
4c0f
6cd6
6cf8
6c58
dcb9
dc9b
996e
9979
996c
9924
999e
7e23
cc1c
ccec
ccb4
cc98
d90a
d99d
8c56
9e6e
9ed3
5ce9
5c1f
b996
e95e
e92d
fe28
fe84
0eb7
ecbc
76fe
76f4
1e0c
1e2c
1eba
4a1e
03d3
03a9
ee06
ee5c
8eff
8e1a
de0e
de2c
de84
2ab7
be18
5e4b
ca2f
ca12
ea1f
eab7
2e1d
2e68
0b39
0bb9
6a76
6a78
1a0b
1ad0
7b2c
7b87
fa29
fa18
6103
6157
5a74
55d0
3a4c
3a58
dab6
da2d
8af9
8ad5
b103
b1fa
a163
a10d
a132
4139
417d
11ff
118b
11f0
81db
8104
bbd5
316d
3131
e1f5
e1d1
e144
711b
7181
710d
c1fa
5bac
5b30
2bf5
2bde
2b5b
3bda
c624
d15e
d140
d124
78f9
7877
7856
abf9
ab28
ab38
9bfe
9b5e
ebf8
ebdd
4355
135d
0619
0687
660a
5622
63a9
0875
835c
8369
8347
838f
e38a
337a
b348
9383
9322
88fc
883a
864a
d64a
d63b
e8a9
e8dd
1239
c3f6
f2dc
f2da
f25e
d276
724d
6583
f66a
e2ff
a23c
62da
62a9
822c
2855
282b
b8f6
b874
b6fd
b2fe
b2d8
b2f7
9843
f875
9572
a8d9
a8d0
456c
fd6e
fd7b
686d
6839
6831
ff77
c5f0
157b
354f
3503
b570
5071
0445
04da
a5ff
a5df
0d4f
0d43
0d03
271b
87f8
f778
77b6
7771
c748
b7d6
3746
bd0a
bdda
a71b
2d6d
2d5c
cd44
cd74
5403
af4a
1071
2f75
807e
80d5
3f72
8fd9
cf75
70aa
70d4
6445
e47e
e475
d048
40de
c47a
c4d3
b447
df9a
51b0
339f
b522
4554
4f8d
4ace
52c7
3ac6
4dad
2518
53cd
5036
ef9e
f196
9f33
9f30
3a9d
3590
20e8
20ec
48e4
56ce
56e6
9d9d
302c
c038
cb6c
f2c6
3093
0ec9
7ff3
6ac6
c2cb
34ea
753c
c0e2
a05c
8096
6533
d8cd
63c7
b532
ef38
a2e0
1f9c
7193
2427
9ac7
4b93
4b9d
5aa2
21ec
1e9e
4894
c4ea
daac
21b2
ab90
f8e7
9fab
942b
8594
c296
d2c0
ffe4
ffe2
7097
5487
22ec
3f37
303e
25e7
fe94
fe9b
d53b
c5e3
40a1
e798
44c7
eaa3
eaa6
aac7
6065
0dec
9025
11ec
9aa8
16c4
16eb
9897
af98
b016
20ae
8028
802d
b395
b6cb
c6c7
2b6e
c01d
c7cd
71ef
0fe5
ede6
61ef
32cf
a29d
5d99
048f
cac5
689c
0f32
47c3
452f
f037
bf90
71c7
6b62
ed96
8dec
8768
1520
8067
a528
3f88
a6eb
3527
34a7
34ac
9aee
a068
a060
b3c0
a4a1
4d14
3d2e
d1b3
e76b
82c8
ad1f
a2bd
a2b0
d06f
0461
0430
07b1
0d63
0d86
1468
13e6
1634
17ef
1364
12ae
11a1
2811
2314
278b
2dbe
249a
24fc
33a5
3bc6
361f
3d57
34fe
34b9
4467
447d
4783
4bea
45ae
4009
5f04
5837
582f
5d87
5260
5f27
53ec
580f
5bbd
58ab
5d64
55bf
61af
6bc6
6256
64f6
76a8
76b4
7612
745e
72a6
77a3
7fc1
7438
71a8
7307
8f24
83e7
8756
821d
8337
83ea
8bc9
88a7
86a3
85a4
8116
9219
9666
9719
92ad
950f
943e
943c
933d
9499
923f
a3a1
ab1d
ad5d
ab15
a7e7
abbb
a49a
b310
b707
bdb2
bf5d
b009
c3b0
c2ab
c287
c40f
c8a5
cf18
cbe3
c75d
c75f
c7ba
c304
dfd0
d717
dfc6
d21d
d3e4
d8b8
edb0
e083
e234
e75f
e783
fbef
f728
f666
f7a7
f20f
f7a9
ff58
0a49
0a38
02a7
05ec
183c
1861
186f
1892
1cf5
1c5e
1c58
1cc3
6e47
6e77
6e2f
6e27
6ea2
6ece
69e9
0c5f
0c9d
0c9c
7970
7954
79ea
5136
a90e
a96a
19fe
1934
1992
199e
21de
bcfe
bca9
bc84
bce8
bca8
4ef6
4e19
4e12
aad3
aad5
aa04
aa27
aaeb
3c6e
3c70
3c3d
5943
5935
599b
09b6
09de
090c
095c
09b8
09e2
09e7
4924
3908
396f
2966
297f
292d
29c5
2991
f9ac
f93e
f9e0
fc04
fc96
ac29
acdc
ac4d
ac26
acd5
2c57
2c15
4c33
4ce9
6c7e
6c89
6cd0
994a
999f
7eb6
7e1b
7e3a
7e64
cc1d
d9a1
8952
89dc
898e
89ba
8914
89e3
8cfc
8cdd
ce61
9eb3
5cd6
5cf7
5ccc
b952
c9f9
c93f
fe4a
0ea6
7ab6
ecaa
ec7e
ec74
eca1
1edf
1e47
1eec
1e60
1ee6
4a46
4a67
037b
034d
0383
8ebe
8e6f
8eed
8ee1
3e3c
3eb7
de36
2a7a
befd
bee3
caf8
ca11
cab7
2e42
2e8a
2e7d
2e24
2ea1
0b8c
0b4d
6a4a
6a46
6a1e
1afd
fa53
fa23
61fd
5a48
c079
c0f3
3a7d
3a26
9a70
dad7
da14
ba6e
ba5a
8abc
8a41
b139
b188
b120
a10a
a18c
a185
4172
4145
1146
112c
8138
910d
bbf1
bbf2
bb20
bbf7
bb57
313e
3132
e16c
e12c
e13b
c166
5b28
52d6
522c
6bff
6baa
6bf0
f30c
f328
3b8e
fbba
c625
8b0c
8bb1
8b24
d103
7844
ab43
ab21
cb4a
cb4c
9bdd
eb8b
4366
66fa
6683
568c
234e
238f
6373
6319
6354
2689
260d
08b6
08f9
08f7
838c
e32f
33db
3356
a3d3
a3f8
a3f6
b383
93d0
3226
d348
d3db
d35a
886b
865f
30f8
c38e
c36a
c383
c356
9255
92fa
f22b
725c
728a
650c
6540
e607
367a
9608
a20c
622a
82d0
b876
b60e
f5db
4508
454b
458b
d8d2
68b6
6822
07fd
1573
35b6
85d2
85dc
856c
d506
b57c
b54d
50d3
0478
04d1
a586
0d73
6dff
74f5
9d78
574b
e755
8746
4f7b
777c
ad71
af40
5dff
5d41
5d70
5d7f
6f0a
2fda
df70
347a
340a
cf4c
cfd6
60dc
d0d9
d075
e074
f0da
d40a
473a
a46e
a47a
f6d6
94a6
78bb
4f59
efc5
efc4
efcc
4da1
70b0
f1be
50b3
519d
7dce
3591
e893
42c5
7de5
fa9a
40cb
7b66
cb61
5528
5523
e6e7
91c9
34ef
b7c4
bfe9
242a
0d38
409c
4891
9da8
9da6
159a
4de3
0f9f
15ec
d5c9
d5c6
c29e
7094
fdcb
13c2
f093
10a2
a390
85ca
3d31
139e
98c7
6feb
8da2
9d24
c5e4
603b
f7ca
f7cf
f0cf
f8c6
fda9
85e8
b4cb
1291
6066
0deb
9023
11e5
4034
b293
379f
92b2
8029
adc2
d0c3
9a9e
2b6d
61c1
34cb
74e2
bb62
973a
a0af
c014
c013
2738
72c1
639e
b0a9
e481
a1ca
5f8a
32ce
e6c5
d4e6
4d99
cacf
8883
7fe5
7fe9
d899
d89c
076b
45ea
62be
81b2
71c3
8aa0
e038
7510
b1e8
d0a6
c8ec
d88b
1526
bf81
84ea
26d0
2f92
6daf
2da2
82ef
e1b4
7481
32be
32b3
9883
8d11
588a
a764
5daf
5aee
fdf0
dfa5
dfa6
d52a
e519
7d1f
b4a3
701b
701d
8fa7
6aee
dba2
fae1
bfab
d4a6
f4a5
06bd
061f
0fc6
045f
049f
06ad
055d
128f
261a
23b2
2bca
249d
3728
34b8
3bb7
383d
3f58
3222
4716
4418
4bcf
431a
4260
47e0
5fb5
5f54
546b
53ea
5fd4
5496
64d7
64d5
6d85
67d0
685d
6774
6637
6496
64fe
7fa1
771f
7257
756f
7f58
74f2
8416
841a
87af
8113
9830
96a4
9803
945f
abc6
a75b
a6b1
abcc
a719
ad69
bd5f
bbe8
b5bf
b55f
b0b3
c313
c314
cfc0
c2d7
c3ea
cf2d
c222
d250
dd61
d414
d636
d08f
dd8c
e71e
e818
e715
e337
ed8f
e6be
e7bd
e55b
e11f
f72e
f21d
fb18
f8ae
f49f
f439
f8b7
f009
f0b3
0173
0195
05b0
1848
1c35
1b5c
1b17
695c
a90b
19bf
2142
218a
216f
7c78
7c44
7c1a
7ca5
bc77
bcf4
4e29
9c8c
9cf4
aa6d
aad0
aa15
3c7b
3c0e
5911
5999
090d
0993
49b6
39da
2987
29b2
2913
fc6e
ac41
acf8
2c0f
4c0c
dcab
dca4
dc92
9919
9923
7e67
cc68
cc17
cca1
d972
d9f8
d9a2
d9c9
8972
8985
899c
8c44
8cbe
9edd
5c39
5c14
5c99
b9ab
b99e
e942
c922
fe61
0eaa
0e7c
7a26
ec64
7608
7686
4a43
4ad8
4a0f
03f2
036b
3e04
de52
de71
deda
2ae9
2a8d
bef5
bede
bef9
5e78
5e88
cad3
ca5b
ca8d
ca6f
ca15
0b8d
6a49
6af2
6a20
6a34
6a60
1a4e
1a26
db79
db19
7b59
7b20
faf9
fa21
613e
6169
5af1
5a77
3a0d
9a5a
9a7f
9a1d
da33
537e
ba45
a16f
81f3
f16a
917c
9103
9181
bb2a
315b
310f
7170
5b45
5b35
52fd
6b5a
f309
2b70
df59
fb8c
fb2d
c64a
c6fc
8b08
8b26
4b06
d139
ab88
ab24
cb58
9b0b
ebd7
43db
0661
664a
6631
237b
2325
63ff
2608
8321
83f1
461e
466a
46fd
3372
33dd
a38f
b36a
932a
93dd
32dd
d292
d3fd
8841
88fa
d678
d68e
e86a
c3dd
c249
9221
92d5
f203
f272
a66c
e6ac
e620
365c
e275
e23e
964b
960e
96f1
a26d
a26e
a2f9
22fe
b68f
b2f8
981c
982e
f81e
f8f0
9543
a82d
d8d8
fd1b
5872
6847
68d0
4442
c57a
0746
156b
35d6
3575
8588
c87a
b54a
b5d1
b56a
75f8
5046
67f1
170b
0d5e
6dd3
6d7d
741b
576d
571c
7db6
4f4b
771b
3d4b
4dda
47f3
47da
ed03
bd4d
bd74
0f0e
a7f9
2d06
cd7e
ad6e
5ddb
5d7d
2f7b
2fd8
bf45
80f0
df6d
5f44
347c
1f44
cf09
6440
7f47
e0f1
f079
d4bc
8479
bd3d
6b9b
8acf
26e2
0ba3
efec
bae0
62ea
5197
4aa4
f59a
9f3e
e2ca
bd11
7d3b
873f
e4ca
48e3
42c4
7ae5
7de6
56c3
4fa9
4faf
0eca
a597
7d99
453e
a096
2792
23c0
2aa4
63c4
b7c1
b530
a039
38c0
17c1
5aa5
36c7
9538
b0cf
1a9e
e4a1
4de5
a6cb
0f8f
9425
d2cd
548c
3032
e5e4
5b63
1398
d534
d53a
e887
2d9a
9039
3dc1
e79e
9196
85e1
1292
129d
0d26
e8ce
64cf
ca93
92bd
10c6
c6cb
b6d8
95c1
fd2b
742b
742f
a4c6
a4cc
81ef
6ffa
e1e4
3b9b
3b91
06ce
f3c4
e6c4
7dfd
a29e
a297
fd17
5d96
048e
95e8
2ec5
6899
47cb
6519
a8ea
0f68
54a5
42ef
c197
8f88
70a8
4d20
3769
3760
41e1
ddc6
d2b8
8199
ad27
ad2f
90a1
2894
2d22
8d2f
6730
e1c2
d029
b88b
46e6
8de4
bd20
1523
d769
d764
2f9c
66d8
88e1
b4ee
3520
748a
ada0
0d1f
4d16
5df0
588f
e76e
a767
82ca
4067
72bf
7d10
8fa5
3dfa
0df8
4518
2df0
d064
0bef
0fb0
03b1
0f27
0466
0b16
0fb9
0dba
049a
078d
16b0
131f
108e
17e7
163d
1089
2722
2d0f
270d
2718
2d87
2b13
2fc6
2260
2235
36db
3690
37e9
38ba
3d6f
330d
4784
4757
46ba
4692
44ba
4dbe
40b5
5db2
569e
5637
5567
6367
63b3
608b
682f
6fc7
6860
6783
68ad
68ab
6dbe
6559
7d21
72a0
7630
7fc5
77a8
87b4
8458
84d0
833f
83eb
8087
94b0
93af
9be2
9336
946a
9008
9f58
9114
a80b
a660
abc2
a6bf
a437
af22
a4f6
a5ab
b7bb
b2ab
b61f
b256
bbe1
b222
c507
c404
c331
c7ea
c56f
c5b4
c5b3
d716
d8a1
d7f4
d230
d4ba
d8a0
ddbf
ebe7
e268
ebc5
e6b4
eb12
e78b
ed81
e31a
e693
e336
ed60
f781
f227
f3e3
f6b9
f43c
f63d
f697
f112
02bc
0275
18a9
6e3a
0c08
0cf3
0c65
0c17
0cb3
7932
a984
a9b0
a9b8
1949
19a4
21d9
21fa
212c
bc23
bcc0
4e54
4ea4
9c3e
9c15
aa21
aa6b
aa33
aa40
aa12
3c88
3c69
3c3f
59b5
0961
494e
495a
495d
49ef
29a4
f9f5
f92a
f944
fc8e
2c2d
4cf9
4ceb
4ce6
99fd
99ae
99ce
7efa
7edd
cc76
cc2b
cc7f
ccab
d9da
d989
d9ed
8953
892e
89cd
8cda
8c2e
8c63
8ce7
8c90
ce45
ce0e
ce1d
cea7
5c22
5cd7
5c8f
b9ff
b921
b98a
b90f
b910
b990
e9c1
c936
c93d
c968
c9a7
fef2
fe2c
7a16
ec44
ec38
4a55
032c
0326
ee6a
ee40
eef7
eed7
8e45
8e4d
8e22
8e14
8e60
3e35
de37
2aff
befe
be8d
5ebe
5e85
5ea7
ca1d
ca3d
ea33
ea28
2e49
2e0f
2ea0
2ea3
0b29
6a4d
6a3f
1a71
1a2d
7b78
7b57
fafd
fa3d
fa12
614d
162a
162b
55d7
3a16
9a77
9a62
da8d
530d
ba71
ba09
ba5c
b142
b1d4
a1f7
417e
1148
118c
1170
8155
f1ac
916a
bb85
31d6
e12a
e16a
e17d
7176
7141
7145
7165
5bd9
6bd8
6b5c
6b2f
6b24
f341
2bf4
3b5e
3b47
8bda
8b19
4b4e
4b04
d11c
d133
ab8d
cb29
cb03
cb5b
cb31
9b8e
4375
13f5
132c
730c
260c
268f
265d
834d
e3d4
4607
a348
a326
b32a
b38c
3277
88dd
866d
8622
d645
d681
d657
30dd
c209
9273
92fe
f2f1
d27e
72d8
7226
e23a
96f2
961e
965f
a2f0
225c
22d0
b64c
b659
f577
487a
48a9
4819
f876
a8fe
456d
4548
d86c
d847
5848
68f9
68d7
4449
444c
4409
ff21
070b
1547
35fc
35da
3586
102d
57aa
5747
e74b
e7d8
c77b
c7dc
37d9
90f3
907d
f46e
f472
bd5c
cd42
cd0a
9472
54b6
5df5
6f70
bfd6
3fb6
3f4c
5f0b
b04b
8f03
cf70
7074
e4aa
e452
e4d6
6075
d0d2
d06e
c441
840a
f4f8
17a7
e29d
bd3e
fac5
4f95
b2ec
c52c
9518
3ac0
4197
06eb
4dab
e2b0
ddf2
b097
5ff5
31e3
7e9d
7d30
8bab
873b
f5e1
9dc2
f6e5
ff30
7298
f53d
642f
aaa4
4fff
f01a
93c9
7ff4
a592
65e0
21ce
08e5
9092
b7c2
239c
a037
506b
7199
242b
76c3
d736
1ace
21e7
41c0
a794
4dc4
83c2
6f65
0891
04ad
d5c4
a023
401d
13c3
3f30
15c4
5b64
1391
eff4
459b
9f6a
cd99
6fea
9032
8dad
829d
6029
6026
b02d
9193
f8c2
6063
0d25
8ae2
b294
f425
6de3
6deb
08c4
b6c5
f48a
2fe6
b039
d42a
8399
34cc
973f
a4cd
389e
3893
81ec
f2eb
2b99
0fef
f1c7
36e6
b2b9
a42b
2ec1
cac8
cac7
5f90
43c3
0b66
e0e5
54ad
c89a
8f8d
f4cb
70a7
d09d
6fa2
ad2b
0fad
67c8
e03c
44a2
8de5
a882
d8ef
afa5
ae9a
9bad
c512
9aea
bf6c
dae7
3ae2
3d2d
d522
d52d
3887
6d18
07b4
0d0d
0d6b
04dd
041f
0415
078c
17e2
2781
2430
28a5
27a1
2fb4
2867
2438
37b0
3fd5
3fbe
3dbd
3be6
34f2
46db
4713
461f
42af
4256
47a5
43b7
44f7
47e5
40ba
48a6
5614
5815
5862
53be
5712
5835
55a7
569d
578a
585f
6bb5
681d
6758
6494
6f28
7f14
75b8
7618
7bb4
708f
871d
8411
8553
8868
878f
8498
855f
8555
96a8
9fa1
9218
9614
969a
9494
9757
91a2
9116
afd0
a613
af54
afbb
a4f7
a435
a78d
b237
bd0f
b467
bbc7
bf12
b8a4
b80f
c2a1
c6a1
c723
c7e0
c7e7
c832
c0b3
d465
d467
d838
d41f
d7ad
dfcc
dd68
e217
e71d
e80e
e613
e3eb
e22d
ef5b
e699
edba
e8b8
ffc4
f7d7
f3ea
ff2e
f8a7
f477
f834
f5b3
058c
1c29
1c25
1cb5
1c17
1cbd
694e
0c70
0c11
0ce8
a95f
1909
2137
7c7e
7cde
7c5a
bc09
bc0b
bcb9
bceb
bce5
9c46
9cd3
9c2f
aa10
42d6
42f7
3c19
3c1a
3c8d
59ac
5989
591e
5930
0920
0983
4986
394e
395c
39f0
3996
2947
2994
f925
fcfe
fcd8
ac92
4cd0
4c38
6c35
dc7c
dc71
dc0a
dccf
999b
cc74
d96c
89e6
89c9
8cd8
8c7f
8c34
8ce2
ce3a
ce4d
cee9
ce6f
ce1f
9e7e
9e5b
5c4a
5c6a
5c62
b934
e959
e954
e91f
c95d
fe31
fe04
0e4e
0e4b
0e59
0e19
0e0d
1ede
1ebe
ee63
8e26
8eb2
3e69
de73
dede
2a39
2a3f
bed8
5efa
5ed4
5eef
eab5
2e3e
2e36
0bd9
6a3a
db38
fa03
fa19
faf0
fabf
6140
610f
6168
5af7
1625
c0db
557d
3a66
3a77
3a0f
9a5d
ba7c
ba8a
8a48
a108
a1d4
114d
11d4
9144
9158
bb04
313c
e12b
e185
25f2
714d
7132
c177
5b20
f3d6
3b46
c65f
8bd0
4b72
78fd
782d
ab06
cb0a
cbf1
9bb6
eb44
436a
43d0
0676
060e
062b
6682
5603
562b
23bc
2376
6379
63f1
261b
264a
08f5
83a9
e329
e354
466e
a379
9345
9353
328e
32f4
d359
d683
1209
12fd
c3d5
f278
f2fc
f26a
d2dc
d2ac
d231
a648
a65f
f60d
f684
360b
361e
3625
e2f5
e26d
e2fd
9670
a27b
6220
2823
2822
226e
22de
b82e
b8fd
b64b
b25a
f869
45d9
45da
387a
584b
5828
68f4
44d6
c5d8
c5db
1546
1540
358a
e5aa
8508
85a9
d5f6
b54b
b5f0
756e
7543
7586
db63
9d45
f557
e7da
87fc
f7b6
f7d6
7dbc
7d53
4f76
4f0e
77d1
d729
d778
d7f3
c7bc
3d0e
3d0b
4d5b
4741
4744
ed0b
f4db
bddb
a772
2d0c
cdd3
cd03
ad59
5448
5406
24aa
2443
3f41
3fdc
3fd1
df29
dfd6
dfda
b044
3472
ef45
1f74
60aa
607d
8441
ff6a
4f3f
52c8
501c
dfed
efcb
50e2
559a
5391
bde6
31eb
e2c8
4ec0
af63
af62
7aad
28b7
f531
da94
fa9d
1798
86d6
ef86
a0ef
a0ec
b6ee
de91
94e4
a055
eb6a
e5c4
d8cb
e6dd
e6dc
80e8
80e6
fb92
68c8
6f64
6dcf
0899
0f8e
d2cf
75cf
6297
c0ac
13c6
676b
affa
bff5
eb98
fe9f
6fe0
40ab
b02b
b4cf
24ad
9aae
9aa1
16c3
3de8
92b4
df87
08ce
d0c8
d6dc
2e9b
4029
8ffa
6ff7
71ea
3b9e
8ec6
8ec1
5f8c
4d9e
ed3a
0f39
e7c9
b514
b51f
88cf
88cc
376a
f039
f032
4884
673c
aec4
d02d
b1e4
d5e9
3ff6
7526
8539
d8ea
26de
2f9d
b3ce
a4a9
a768
a762
c2be
2ba1
d06a
d061
0d07
033f
033d
0bea
1615
16bd
133a
245e
2bc9
33a6
[...]
